FFFFA25E
00003740
FFFAF001
FFFC96DA
FFFC5B80
FFFE7FD0
FFF9FBE9
00054D86
FFFFC4F8
00070858
FFFA2162
000289FA
FFF94AE3
000120E1
FFFC5813
FFFB7734
0000BA0B
FFFAC1E3
00064F32
FFFFA7D3
00051FF4
FFFD512A
FFFDBFD5
FFF75A40
00028E14
00031E4E
000600AC
00013634
FFFF2023
FFFEC585
0003BA90
0008BEB8
00009672
FFF84965
FFF7D6B2
0001194B
0003728D
FFF5862C
FFFC961A
0003CD56
FFF27D1C
FFFBB255
000E7740
001D53EF
00000F06
FFEED6BE
FFF240A8
FFF8C57C
FFFBF4ED
FFFFAB77
0000831B
FFF989AD
000545EA
00050DEF
00084049
FFFA9EA0
000792AD
FFFECE1D
0003A70B
FFF82F5A
FFF42EE2
FFF609AB
FFDB8075
FFF4EA90
FFF46584
FFFDC10A
FFF209F2
FFDE94E2
FFF2952D
0008088D
FFFFF1F1
00178280
001AE94A
00183442
0016C7D8
000D9425
0007738A
FFF8EC38
0001E608
0008899C
FFFD843E
000D7FDE
FFFA18EA
FFFFAFD6
00016D83
00002F10
001E458F
0024230F
0004E6F7
0001AE67
0006EC20
000D1C3C
0018D859
0008F4AC
0000FD08
0006337E
001B8146
FFFE1657
FFFD878D
001548B6
0009A010
FFFDFDC6
0005D8DD
FFF094AD
00054153
FFFA19A0
FFFF47C3
FFFFCC8E
FFFC5916
00028D1E
FFF67579
000767BC
FFFF3D11
FFFD0E5B
00245676
00164EF6
000E5470
00164C96
001AA728
00263441
0027A783
0028DE68
0034136C
002EC88C
002BF4A6
0027A0F0
002B62A9
00351725
002A7358
0027FF2E
001F1342
001D7860
0009CADE
0007844E
FFFD4984
00017005
001A2584
00115CA3
000ABBA0
FFF4D18F
FFF78D01
0006BDCB
0014B797
000F58CE
00033AEA
0012293D
0024C9F1
001C4A1B
000122D9
000F4E64
0023DB81
00296E4C
0025D4AE
001AE011
000CEDAC
001472BC
001906CB
00101C23
00037FFC
00144558
001A3384
000981B6
00021FC4
000395E9
FFFD8691
00197235
000D7E38
FFF7E2D8
FFF90777
0019CA22
FFFA1A67
FFFBA511
FFF43864
000847F1
001AF289
00187971
001A6AC1
001528F0
00153948
000BBA1A
00119894
FFFC14A7
FFF7D6DE
00010225
FFFB027A
FFFBA669
FFF506A2
00006A33
00003948
00036092
FFFD7C75
FFFE6A18
0004C760
001FAD16
001D761A
FFF92834
FFF5E204
000EA291
FFD7A412
FFE2BB92
000AD4FE
00122252
0000E594
000A57B0
0015FF09
00079B40
0006D275
FFFAD968
00032864
FFFD5AA9
FFF7B5E8
FFFBC761
FFEEB0D2
FFF28CA8
FFEB6A1A
FFF9145D
FFF45147
FFF5C533
FFF774CF
0001F38E
FFF9EF55
0026BB54
000F896D
00033347
FFF25A8D
FFEA27E9
FFE7D1C6
FFEF5CE2
0003981F
0006ECC5
FFFBB480
0009E364
00057523
00003BC8
0003D462
FFF4B4AB
00025B0D
00069DC5
FFFC727D
FFEC6817
FFF53C7A
FFE8E582
FFF55710
0009DC10
0005787A
FFF6BF57
FFF5C035
FFED5A97
00112859
001F066D
00310017
0010294F
FFEF33B2
FFEB102C
FFF5E550
FFEBBC54
FFFA32C5
FFFFC866
FFFCFF8A
000611F0
00089593
FFF109F4
FFFBE9F8
FFFCC440
FFF99E5B
FFF69D47
0003349E
FFF74562
FFF82409
FFFED106
FFFBACBF
0005D997
FFF454C1
FFFEA97F
FFF77AAA
FFF9303E
000840A2
002A2FCF
002CF618
FFFB47B8
FFEB1E00
FFF6255F
FFE5579C
FFF26E6A
00024CAA
FFF66E5A
FFF14682
00024B0B
FFFC1F5A
FFFF4CE5
000B096A
0012D616
0014E5B4
0006E393
0014863C
00074880
0002071C
FFFF0E76
0008AA8E
0009E8F2
00017551
FFE94B0B
FFE25A7E
FFF8A0AF
FFF7B5F0
001B4941
0019EED5
FFFE139F
FFF4463E
FFDE7706
FFD8FBD6
FFEB322D
FFFDDC10
FFE6FAC6
FFDF4F3D
FFEF9766
FFEFCB15
FFEDFDE3
000560EA
000C6076
00224553
00189CC5
0023FAC7
001E1ED1
000B82EE
0012D36C
0007B5E3
00013D09
FFF5218F
FFDE55A2
FFDBD200
FFDBEA27
FFF5B394
000A3F37
0014733D
000593C5
FFEEAA0B
FFED43E0
FFD2E9CB
FFF3AD87
FFFA57AB
FFF44847
FFDB1F90
FFF3D1AA
FFEA93B8
0000E741
000D80EC
001B16D5
001F1556
001F764F
0019BCEB
001C6813
00140E20
00105254
FFFA7979
FFFD90B4
FFFC6A9D
FFE56EC1
FFCEE7DE
FFD97458
FFD23032
FFDBC590
000C033E
FFF763C8
000B12CC
FFFE7D96
FFD07BAC
FFF213BA
FFE4E754
FFDF6781
FFDBE829
FFECADF9
FFF995BA
FFFEC691
FFF0FD73
FFFE70C9
0015ED33
0013F8D6
00130BEC
00147738
0008C854
000C55DF
00066D17
FFF01FCB
FFF8E735
FFDF4473
FFE82F8C
FFE4E612
FFD38C96
FFDA10AF
FFF7AE75
FFF09E8C
000FB1EC
000AFA55
FFE2C9F4
FFF30621
FFC62834
FFADAF3C
FFBD8940
FFCD1CA1
FFF0D5E2
FFE3B631
FFD7DFF0
FFED3068
FFF955FD
00165F4C
002126F3
000B6ED1
000C63BB
FFF8FFC0
FFF609AD
FFE131BA
FFE6CB79
FFEB738C
FFE1668E
FFF290D1
FFE757EF
FFEB6219
FFF282D8
FFEF8EAD
FFFEDB5C
0008ABB2
0025EF38
FFEFE857
FFCBC355
FFAC441A
FFC6AE2A
FFC0F538
FFCB824B
FFD2966B
FFCA19DD
FFD30C98
FFF08F21
0014FCBE
0021807E
000A4EEF
FFFAEE30
FFE64F74
FFE2F48B
FFF79F2B
FFDFE26F
FFF12FAC
FFF2DA24
0001055D
00023534
FFFD6033
FFEE6980
FFFBB5BE
FFEDC37E
0011678C
002101C2
0008D5FF
FFF77F07
FFD4CA18
FFCF560E
FFC0A12A
FFCA5BC7
FFC91C42
FFB97D7E
FFB4FFCE
FFDE8B56
0003D6F0
000E04B5
FFF5786B
FFF77396
FFE41C06
FFF9F05B
FFF8BEC7
FFFB0766
FFF7BA7C
000CB4CF
000DF50F
0011F303
FFFB2FD3
FFF41D9F
FFF892F9
FFF9770B
000EA4B0
0008715F
00164F3D
00087EB0
FFF18126
FFF8D537
FFE05F41
FFDE9B8B
FFD17607
FFC05B9E
FFB4A2BA
FFCBF8AC
FFEE201C
FFF29E6F
FFFCD8AE
FFF5D3FE
0005103D
FFFC92C8
0006F7A3
FFFE1E07
0008DFC4
00072427
0010B900
00039202
FFD82E6D
FFE109F4
000ACA82
FFE1E439
00005804
0010E4BE
002DDEC6
001AE532
000CDEF5
0011BA78
FFF0E193
FFF40E72
FFEBE672
FFDE055E
FFD92572
FFDDA50A
FFE7B382
FFF467D6
000AB36E
0006C0CA
00117403
0005259A
0011012A
000C091C
00014562
00087553
00020935
0013FA09
FFE7E55D
FFDDFAD6
000AE3F8
000806F6
FFDF3F91
0006D464
001C37A0
001D44AC
001C6397
001853A7
0000F928
00132CAD
000A0C1D
0004AE87
FFE93B5E
FFE4374D
FFF11AC5
0002F97B
0011928B
0017A443
001F3D60
00130EEE
000A7800
0005B676
00057F82
00083077
000EBD5A
FFFFD657
FFEF1B6E
00008A4A
FFFF915A
000475E5
FFF2E4EC
FFFAD699
00189CC6
001E82DA
0022887D
002196E2
001BD644
001CE8DB
0013095F
000C6154
FFFF8781
FFFBF88B
00016155
000001B5
00162202
00190C8A
0029E3F2
0022B783
0010C5E4
0014F430
0010753F
000F9AEE
000BD869
FFF6E06C
FFEDB83C
0007EF31
00029DA5
00078535
FFFC0972
FFFDC99B
000A3443
001D2957
00210CD6
00277474
0019941D
00104124
0015CD8A
00155FBE
00151EB0
000545CE
00077F25
000ACC53
0012CD29
000E8DE9
001D0198
000EBAF7
00198CF8
00121E9C
00041501
FFF8717A
FFEAEC61
FFE15635
FFF7BBC9
FFF6BF72
00016894
00129C34
0007E410
FFFE987A
0011D4DE
001AADDB
00073E8A
000E50D3
0013B5B3
000561CF
FFFFB9E5
000C43CF
000FF467
00051E5C
000B1ED5
0003782B
000359C7
00053906
000E25CA
0015C99A
000C3005
0019B5D9
FFFB2C4E
FFEACD59
FFF2AB61
FFE3751D
FFF4FD68
FFFC7BDB
FFF6EA23
00044E14
000865B7
001D9934
001A9BDC
00094FC1
FFFE4331
FFFE78FE
FFF7A1D0
0008BA78
0003A353
000D17AF
0008462C
0011E20E
000406EC
FFFA6CF3
0004E9A7
0005C294
00051FEE
000D9871
00010F21
0002B53C
FFED61DC
FFE6D8FC
FFF027C6
FFEA9F8B
FFEF433C
00107318
00072831
FFFEA72E
000687DA
FFFF42BB
0012CB4E
FFED1569
FFD9ADA8
FFF36557
FFEF00BB
000765C5
0017352B
0001C9FB
000ED494
000E504E
0002111C
000A3A54
FFF8748E
00091D88
FFF6037F
00065526
00027189
FFF79A60
FFE8A36C
FFF497B8
FFE7CBA2
FFDEAF38
FFF2C79E
0002530F
FFFDA696
FFFE8BC2
000741A5
000E2156
FFF0A44C
FFF0A2B8
FFDB2D58
FFF74DC4
00058CEA
00091E2C
00081386
00075904
FFF36F9F
0008F1AB
0009380F
000AC37F
FFFE2CDE
FFFEE718
FFF7C5A7
FFF5A2B0
FFFC0E29
FFEA774F
FFE595E6
FFEB755D
FFEAD506
0004B684
FFFDBCFF
000204BC
0004C5F2
FFFB2C10
00025321
0002E9A9
FFF36923
0005DF61
FFDCE79F
FFDB82B5
FFEA46D4
FFE49369
FFF87E23
FFF617B9
FFFA5B52
FFE2E687
FFDC2BFD
FFD6F570
FFF24653
000C2DF8
FFFDD3AE
FFF1BB83
FFE238F3
FFD195FC
FFDDCF9A
FFF9A041
0003AFD1
00006948
FFFEC5BB
00067EFE
FFFC4872
000750B5
000565DB
00013A2E
FFFB2FBC
0005DD05
FFFB4612
FFF86392
FFF7C107
FFF0ABF8
FFE323E1
FFE47E04
FFF4A69B
FFF64081
FFDA8448
FFE0A572
FFFFFD23
FFE9B6A8
FFE0F27F
FFD85A02
FFD4AA5A
FFE87899
FFFEF509
FFF690A9
0002B06B
0003ABAB
0003EFC7
0000C1E6
FFF7FDD7
