FFF7113F
FFFA99C8
00056DFE
FFFE98E6
0003EC40
FFF965D4
0006ADD3
00081485
FFFA57E3
0008E3A2
00073B87
FFFCFC8C
0002C5B8
FFF58DE0
0001039E
00031C42
00086B0F
0007BA3B
FFF951DF
FFFF7ABB
FFF9E7D0
00010572
FFF7DB79
00021ABB
0003E347
00032486
00041E26
00087023
0001DD2F
0004DE1A
00037788
FFF8C475
FFF49382
FFF6F3BC
FFE4C72A
FFE84011
FFE5E636
FFF1E9D5
FFE2ACA0
FFE9ADF8
FFDD6766
FFE671A6
00007EBA
FFE386DB
FFE85DFA
FFDE1AB0
FFE1A24C
FFE1FC42
FFE206A0
FFFF16CE
FFF893C1
FFE8A6E3
FFFE50F4
000709F9
FFFC44FE
00038328
FFF885AE
0008339A
FFFDFEB3
FFE99EAF
FFDA098F
FFF6BC7B
FFE4E333
FFD3E05D
FFD0DFB4
FFD524E0
FFD246FD
FFC41BE7
FFC714F2
FFCA73F7
FFCE81A6
FFDCB8A9
FFE901BC
00034828
00079BBA
0000F17F
FFF2CAAF
FFE828EE
FFE88C2C
FFE83ACD
FFFCD2AF
00033EFC
00036816
00008F4F
FFFF3ABA
000657DF
00029705
FFE24D12
FFE9C688
FFE511DD
FFF2E02F
FFE869C3
FFDCB388
FFC61AC6
FFB9E6B2
FFC37272
FFB83938
FFABD98E
FFBC6F3C
FFCF8937
FFEE79DF
FFF63932
0005CFA9
FFFF295C
000FB252
001867CD
001B64BB
FFF5ADBB
FFF8BFA2
FFF69DBD
FFEAEA9D
FFF98579
FFF82E86
FFF56646
FFF00883
FFFD9E93
FFE7708E
FFEAE120
00078214
FFF58A79
FFD7E7D6
FFC38BA2
FFC503B6
FFBACE3F
FFBB6B28
FFBE99D7
FFD9DE69
FFEC1007
FFF40BD4
00084082
0009E1C7
FFFB182B
000CFB1B
001A089A
000D4C25
00126CF0
002817AD
0023D650
000F9812
FFE3E77E
00048124
000267A6
FFDD64E0
FFEEA3A7
FFE2D622
FFF9B4F5
00093660
0003FA9F
0000601E
FFEB89C5
FFE793BE
FFF8344D
FFFC5C7D
FFD86669
FFD9C020
FFCDFA26
FFE92E1C
FFE41C32
FFDCD7E1
FFE0D822
FFF04A3B
FFFCCE0F
FFFF8B6B
0008E96C
000A9D2A
002F8FE6
000F6028
FFF931AC
0003726A
0002ECFB
00154A41
0007F4EB
000A8F3D
0025F207
001A9ADB
0012E227
001B8A9B
001B6B55
0016D058
000479E2
000B01B0
FFFB8F2F
FFF46114
FFF400FF
FFE68E46
FFF81DC6
FFF0FC92
0009B79B
0000AE85
0007D19E
FFFE9260
001261F7
00284430
0033BFEB
00257F55
FFF714F7
0001BDA7
0016A043
002A2D09
002FEDEC
000B164A
000E56F0
001F609A
001FA78D
00265F63
00196C24
00149F50
00070538
00052A14
000AE606
FFF2EFF0
FFFA95C7
FFFEF465
00053E46
000AC9C4
000F89C8
00182477
000FE4EB
0017FD66
00134FE0
0027BA98
002FE0DB
0028594D
FFF5109C
FFE76A75
001CED9C
0014B87D
001015EA
0008AD3A
00179127
0016CF2E
00234198
0014A14C
001FFCB9
001CCAB2
001D0193
000B8D3C
000186E7
FFFBA5E6
FFFDACB9
0000C1B1
00026ACC
00073742
000F6153
00171310
001AF7DC
0026D346
002BE0E5
003FC428
00538E9E
0044C918
00148E10
000B8D8F
00166532
000EF081
FFF53BD6
FFFFC66D
001DB2DE
0027AA8E
00186DEE
001C11AA
00166DA5
000B5A4E
001F4E00
00231440
000EBA64
000BC04D
000D3294
000061D6
0006C3DC
0005F4CC
00051BFF
000FCA66
00237302
002E381A
0023E276
003366C6
00529624
0051DB52
0023E220
000C6BED
0002B75F
000B8AD6
FFF2BB64
00062D22
0024DDEE
0020A390
002326F0
001405D2
002ABF58
003007E3
0022669B
0022F7BE
0019A4BA
FFFDC8D1
000B8247
000A98C8
FFF68A87
FFF70899
000ABE4C
0011CD08
002DA7EE
001F1C02
FFF9C5B2
002229EC
00446C52
00368E47
00206A24
0009D233
000EB85B
0017C768
000EBC8A
002F596A
002A1FFA
0024E14C
001BFCFC
00296BB4
0035606D
002981B8
00316C58
00276742
00090913
0001056C
FFFE301D
FFF197BA
FFEE232D
FFF51254
FFF00C12
FFF52B23
FFFF8243
FFFDDDA2
FFF510A7
FFE5113C
0021E37F
003B5AFA
000B18FE
FFFAD742
00171E9A
00154A5C
000C357B
00186DC6
0013B7D0
000512ED
00131016
0028E711
0026561C
00214CE2
002718AA
0008D0A3
FFF5E529
FFE810F9
FFEE1C2C
FFF83A3B
FFE01011
FFE8DE98
0001008C
00022267
FFFE9C44
FFF084CC
FFDD38E8
FFE1CAD0
00202280
003C8AE2
001B7B53
FFECD8B9
00042A53
001C20B4
0002AE3B
FFF6E3D7
00082311
0004B128
FFFC462A
0009A5A0
0017840F
001D876C
001EC549
000A50FA
FFEB5453
FFEFAAA9
FFF43515
FFF25A82
FFF047C7
FFF64391
FFFDA5AE
00136063
000F39FF
FFEBB2AA
FFDFB108
FFE54C2B
00058DB6
003E1074
000D2645
00037492
00086D4A
0026B5C4
0009F76F
FFEF32B6
FFEC22BA
FFEF40B6
FFDFEC8A
FFE981FC
FFF8E340
000A1465
00099EB1
000787B5
0004291B
00064206
FFFF21D1
0001810F
00015E19
0004DCE7
001208D9
FFFEC5DC
FFFBE20B
FFFD108E
FFF3E21B
FFF36198
FFFF3C75
002CE538
001C2186
000F5C71
FFEEE162
00070798
00191AB8
FFED3CEF
FFD8F238
FFE2870D
FFCC3BAE
FFE21CF8
FFF37C67
FFF9B635
0000FAEF
000D32FF
0009CFBE
00094A34
00115B67
000D39E3
000C267C
001170E8
00009B56
000AA87E
000A0A9E
000CB10A
FFF97227
FFEA8DB0
FFF79572
002ACB31
00287B02
0000BEF3
FFFBBB2F
FFF62074
001849FC
FFE7787C
FFD91DA4
FFD69A27
FFCB037A
FFD63393
FFDAD721
FFEAB760
FFF4E89F
000D23CD
001034D0
000F5F1C
001A6C26
000E0C23
001A66A6
00129836
0003B890
00164482
0026BF21
001B5657
000B8725
FFEED04F
00017B86
004E7764
0012A888
00008F8F
FFEB34C3
0003E18A
000A4C71
FFF04FD0
FFDC1E31
FFDA8921
FFE6DD6F
FFDE25DF
FFDFE964
FFD4B26C
FFEE739C
0005452B
00156620
000B852C
0005787B
001271BA
000520A8
000515D4
0002D611
0010C804
001D62A8
000DD1B9
000158CA
000BFACE
001ED882
003B99AA
000C1010
00078C00
FFEE7333
0009C939
0007783F
0004AF54
FFF1D3B1
FFE34C09
FFEBB5FE
FFE9AC36
FFE1468C
FFE93ED3
FFEB2FB6
FFFD13E2
00062874
000DEB53
FFFC8106
FFF93BC8
FFF693E1
FFFC300C
FFF6383A
FFF9C5CD
FFFF91B1
FFF9BD01
000562C8
000F904E
FFF885BA
0013CD69
FFF83008
FFFB825E
0013E3CB
001A066C
000E353A
0002EAE6
FFEF2F88
FFE30694
FFEA597A
FFFF87BB
FFF96510
FFECD8A2
FFEC25A2
FFF46915
FFF54CA0
00070F4B
FFF3E51F
FFEBC935
0002471E
FFF102E9
FFF3C241
FFF14087
FFEF7D53
FFED3039
0008A536
0014B970
FFFC75C9
001E42A5
FFED8DF0
FFFA6FDB
FFF9643B
00213052
FFF69E82
FFDEDFF9
FFE6365B
FFDC04CB
FFE71475
FFF826F0
FFFDD563
FFFDFEA8
FFFB3EDA
FFF5DBCE
0003BB70
0006C231
FFFF34B5
FFF4DA56
FFEC6745
FFE2A54B
FFE785B2
FFE8D45E
FFF30EAD
FFFC8924
0017937D
00061156
00004F47
000FFF56
0005F05A
FFF389E2
FFF0CA7D
0015E4AE
FFEF6ECC
FFE3A20D
FFE624A1
FFDB9F1D
FFEF7F32
FFF74646
000872BE
FFFE0AC2
0001038C
000A482E
00048094
0005444D
0002A5AA
FFF97BDE
FFEDBC9C
FFDAA73A
FFE77541
FFDEF092
FFE4E930
FFF2E6F4
001088B7
0014A3CE
FFF5E68C
FFE843DB
FFFE4D73
FFFC62B7
FFED7A30
00035763
FFE92938
FFF7C0A7
FFE3A2AE
FFE5B941
FFF1CB70
FFF7E8D4
FFFE87B7
00035D8E
00148003
001165D0
00130086
FFFEF883
FFFEBAE0
FFF35F4E
FFDD3169
FFDC087C
FFE88D52
FFDA27A0
FFF27DC3
00001E3F
00170D5A
002118B9
FFFD7750
FFE8A702
0002BA52
FFF6DDFF
FFFF75D2
FFD61E11
FFF8DA22
0015D332
FFFB2746
FFF875A7
FFF85F2F
FFFB3CE9
000E85FF
000DCEA8
001181F7
00108B2D
FFFCB32C
00042F9F
FFF78E00
FFFE9F02
FFE7A837
FFF84C9C
FFFB8DFA
FFED8A7F
FFFA06B2
0001DF9E
0009E800
000E7D5B
00156EBD
00051BD3
FFFFB6A3
FFFB2C9B
0008DF15
FFFDACDF
FFFD381A
FFFD5A39
0008641E
00169CB5
0010CEE0
000A77CE
00108626
000B2D2F
001DFB0A
0005555E
00151C46
000F6FD0
000D8ECB
0001A3A1
00031187
FFFFCF93
0014580E
FFFF4746
FFFBBD48
00079528
FFF2B614
0010D2D5
FFF26534
FFF9E3F3
0001D9C0
0003E300
FFFB9930
FFEE2EC4
0024E3C4
00154305
00000755
000B6DAA
000B22FC
FFFA6680
000B1DD5
00282A00
0032F290
001D7011
001EE995
0028E723
002FC440
003558D9
00229AE4
0021881B
000DC371
00083328
FFFF5FA6
00116331
0009D4E5
00106B0B
FFFC6FAA
0010F4CC
FFFBDF28
0006B20B
00016BBA
0000F0BD
FFF212AF
FFDB8C27
FFE07134
FFF1F306
FFFBDF7A
000513B6
000993C8
0007B2CB
0008623F
00057053
0007A7AA
FFFF2A9E
000A940E
0003784F
FFF7EE72
00002A3B
00155F98
FFF8B756
0001A18B
0006BDB7
FFF9F8B0
FFFE656B
0009B572
0006C4B8
000562D5
FFFCAB24
FFF8FCCA
00063FDA
FFF99F93
00022C2B
0001B9F3
FFFDF404
FFF7C316
FFFE2D0F
00066787
00090CDB
00006911
FFF55AF8
001A6538
FFF5102E
FFFAD1E4
00014CE2
00242CEE
0005F20E
0001885A
FFFF3977
000CF23A
000402AB
000D1F21
000007EA
00064EA7
00044227
0005FADB
