FFF6FA91
FFFB9DF6
000189CD
FFF97767
FFFB09F9
FFFC48AA
00049169
0004018C
FFFC8217
FFFB5B24
0001D753
0002AE81
000672C7
0005CD11
0000C6A5
00026632
0004F36B
00020A07
0004705E
00086DC4
00032737
FFFF60CB
FFF7119D
FFFBC77B
000447FF
00085066
00031573
FFF99FAA
FFF89E37
0008CA76
FFFD3B19
FFFDAC00
FFF4165D
FFF892B4
00045799
FFFDAC5B
000081AA
000291F5
FFEE4D8E
FFED3A74
FFDFC561
FFF53A91
001E0578
000D49FA
0007B000
FFE8ED8C
FFEEA93D
FFE51F8F
FFD7971E
FFFBC16F
FFF5A85C
0001070C
FFFD6823
00007F41
00018E77
0007B932
FFFE31E7
FFFF5DF3
00068261
FFF5FE39
FFE0F139
000D6881
FFFDF2C6
FFEC4E24
FFEBB623
FFFB2639
FFEF2B0C
FFF72EC2
0014ABC0
001E2AF9
0021801C
001CB610
001AB6A9
FFEFC1F7
FFEDE0DF
FFBDD0C8
FFD233C4
FFC5635E
FFD742E0
FFE587F1
FFFDDC22
000C965C
FFFE3FD0
FFFD6F49
000686CA
000842DC
00244073
FFE6E560
FFE4D6CD
FFDDDEB4
FFE97A98
FFE351DE
FFD925B4
FFED6E91
FFE4587E
0000D6C6
001C5FA5
00168542
FFF0BFB3
FFF15264
FFEE0BA8
FFE3C5A8
FFD10639
FFE097B8
FFD2BB14
FFD7F970
FFF01783
FFC4A5C4
FFDF9888
0017AC25
FFFE788E
FFF71434
FFFE9351
FFF52BCD
00127446
FFF177AA
FFDA86AC
FFDCB124
FFFE7127
FFE96562
FFE1CB59
FFDBF6B4
FFE35D98
000689D5
001877D2
00190B84
00126B58
0008E2E9
FFEB676A
FFE7890F
FFD7C15A
FFD912D2
FFDFCA61
FFCC052A
FFCCB4C7
FFE27C96
FFF0CD92
00025D6A
FFEDD9AF
FFE3AE10
FFFC8C3E
00009430
000AE716
00130898
FFD722EB
FFE61CDD
FFF5AF63
FFDB59EA
FFD83B77
FFD6201F
FFDD16D0
FFF5D124
00119582
000DE7E7
001840F4
00203EE6
0014174E
FFF0E73A
FFE5C8DB
FFDF00C3
FFF66508
FFEA38CB
0006F1EC
FFFCCE23
FFF6708A
FFF98AAD
FFFA643D
FFF0CA37
FFFBE0AB
FFFE3756
FFF8E2C9
FFF89738
FFE0B019
FFEB9D41
FFE10CA3
FFDB2A75
FFD4A020
FFCF4AF4
FFCFD5B4
FFE91A15
FFEF89C3
FFF88C51
0005F09C
FFFE60AD
FFFEC853
FFEFD71C
FFE77A82
FFE56FC9
FFF4EA8D
FFFBC176
FFF880ED
FFFA48CD
0006EF8C
000D53CF
00225A61
FFF8B3E5
00068C81
FFF272E1
00035A30
FFE31C6F
FFD8AF7C
FFE2D22A
FFDB89F6
FFDFDEE4
FFE57F51
FFD02C46
FFD7E584
FFD92D60
FFD7E1A9
FFFA04F8
FFF8DA7A
FFF2A631
00018C07
FFF8FD18
FFE66332
FFE43D18
FFF4CB46
000A1C7C
000AC52F
FFFE448F
0003B770
001A83E2
001917EA
FFFF19E9
FFE288F3
000A2A57
0002E9D6
FFEFD3D1
FFE073FC
FFE72F0A
FFE51D2D
FFDC3199
FFDF1AA6
FFDF1F92
FFD70D33
FFD2233A
FFEAA08A
000593F0
000BFC79
001170EA
00052351
000FE340
00006D65
000CA8D5
0006C241
000A33C8
00081944
00106C55
001D6822
0027D34C
0017B825
0010F962
0004D9EC
FFEE2EFC
00021E0F
0004FAC4
FFE27DEB
FFE43FEF
FFE9CBCC
FFFA47B7
FFE2EF3C
FFE5784E
FFDC8460
FFE33D8F
FFFFA58D
0018C636
003347B8
0046040E
00295198
00250237
0021FB16
001171DA
001BADC0
001ADDC4
0003C0A0
000CAFFB
0029E158
002995EA
00233796
000D428D
000B9D8F
000271B7
00166B6E
FFF281B6
FFF2A323
FFF0563E
00076BEB
000BDEB3
000A52BF
FFFE8253
FFF73AA0
FFF1757C
000E1519
001368D8
00331602
004ACEC8
002EFAAC
00197490
0010D9A8
000CB908
0018B0D1
0020B822
000BE8AA
0022F4B0
003551FD
0039087A
0041612A
FFF6EC5C
000AED19
FFED5762
FFFEB1AC
FFE1DA6A
00027031
001D7FE4
0014F891
0014DC76
00078166
0001D64F
FFF58674
FFECCD5B
FFED1BA6
0001D26A
0014B16F
001BA720
001455CC
FFF530A2
FFE83B6F
FFEC5A79
FFF3BAAC
00047701
000ECC42
00257612
0025CC82
00453162
0032544E
000B929E
FFFA11D5
00000769
00034F46
FFF89BA7
FFF31806
0013D6C6
00064075
00185988
001A75F7
00015A7C
000263DB
FFEED8E8
FFEF7E68
FFF05BFD
FFFC06FF
000AC5F9
FFFCCFBD
FFEEC8C5
FFD0F36A
FFD93376
FFD16AF2
FFDB7D32
FFEA3D96
FFE772E2
FFE7E739
0028A4E1
004BE6D4
000F4129
000D5892
FFFC392A
FFFA4DCC
FFE6FE24
FFEAB467
000DCD3D
FFF6A98B
0016E4B4
00165214
00107C64
0001E3AA
FFFEE74C
FFF3AB39
FFFB0891
000C6067
000EF6A3
00107AA2
FFF62DD6
FFD6B8B4
FFC20D84
FFBFCB8E
FFC6125A
FFCD100F
FFD8DFFF
FFED6914
FFFE178C
004AC3D0
0021C9F1
000148B6
00022C02
00184516
FFFB2937
00080969
000B7AE4
FFFD9126
0006ECC5
001AFA90
002188AE
000AB382
FFF92910
0005BA3E
000591D7
00149203
000CE038
000D7C42
FFF3156E
FFDACE12
FFBF337A
FFC57C6A
FFD487CD
FFF2197A
FFF94D02
FFF3C201
FFF1BE45
0030BC3C
0024283D
FFFAB01A
FFF84568
00226B6E
00093E6A
FFFC2336
FFF99F9B
0001A4CB
FFFE6170
0012A8FA
0023ADDA
00177F08
00066736
001D3D55
00146888
000FCBEB
0007DF78
001102CA
FFF088FF
FFD67FD4
FFC5E3DB
FFCEFF22
FFEAD2B4
FFF736A1
FFF374EE
FFF8F0C5
00020ACF
0038C3D9
001C93D3
FFF99A61
000219C3
FFF68E5F
0007E8E9
FFF3BC33
0008AD28
00077614
000B65D8
0002CE5D
00097282
0014E57C
00154F0B
001A1FFE
0021FF92
001F56CA
001235E0
FFFDDE0A
FFE24087
FFCB3D50
FFCC715A
FFEC179C
00109FFA
001B189C
00023018
FFF3FBF0
0015AE6D
004C375E
002936B6
FFF9EDE6
00006583
FFEB60F0
FFFFEAD1
000D1207
0012858E
0023DECC
0004F3C0
00094651
001BB0A0
002B7795
001E054A
001CD53F
001730BC
00209C14
000272BB
FFF1BEEC
FFCD2E80
FFD55894
FFD5B77F
0005C2DA
000D1C5C
0007357E
FFF9CB94
FFFFAA3E
00161B93
003078BD
00360A22
FFE53F48
0008AA72
FFE2C3A2
00157693
0026EE0D
00150E2F
0011860B
000F4E41
0017E1AC
0025A9B6
00272D70
002B2D1B
0027C122
0020E394
001042AE
FFED10D2
FFE09E30
FFDE060E
FFD8C922
FFEB90BC
00057A1D
000CB957
001230AF
00156371
001222D1
00194405
001DCD14
002A4A02
000A6040
FFF42801
FFD7BFDA
00078331
001B3661
0004DD46
000CA1EB
0007935D
00118FDF
00192126
00198926
000A6FF0
00098D47
000F5833
FFF31EE8
0000D779
00005CC5
FFF5A293
0000834B
FFFB7A5F
00021FF0
0003311C
0011639C
0014BF98
0014A3A6
0038D6FA
0039FA96
0025C395
FFFD9725
FFED36EB
FFE09D92
FFFE4C03
00052208
0005D87E
0009DA23
000DF395
0012D72D
000015A2
00015086
0012F101
00085F49
FFF17FB6
FFEC4848
FFFB3BAD
00005DB9
FFFFCF82
FFFEA879
FFFD37CF
0002D4FC
001145B8
00006618
00161A2E
002A415C
002EEDF7
00267621
0000DACB
00091953
000606E6
FFE8DD6D
FFF9DC1C
00170480
001855F4
000D79F6
0012F9BE
FFF602A8
0001C205
FFF291E9
FFF29991
FFE51296
FFE496BC
00021A2A
00029B26
FFF830F2
0013C420
000C9A4C
FFFF8EFE
000797EF
00121A5F
000692D6
001608BC
003DAF27
0036C6A0
FFFA4B4D
FFFB2957
00060C01
00108BD4
FFF4F009
0005A51A
000F3DC2
0018DF45
00108948
FFFB75BB
FFF46255
FFFD48D7
FFE47824
FFF1C390
FFEEB1E8
FFFB8B90
0002901F
0006F4D0
000EDA3D
000DC9E6
000D6A67
0008BF53
00173F9A
0005EEE0
000002F9
000D4EA0
00332CCC
002D4D96
0028F9D2
FFF7C90A
FFF82D1E
FFF6E472
000C1706
FFE99B66
0000B13F
FFFE4626
FFFC35DC
FFE2328C
FFE1B80A
FFF218C6
FFF916F2
FFF0793D
000B74EA
FFF8BE65
000011DE
000E1663
000BA8DB
0017AC01
000DEDC9
001B7CA5
0011C11D
0000C626
FFF75D78
FFFAC460
0029ED5E
0027ED5C
00224E31
FFF8EDF5
FFF6FC01
0008FF5E
FFFD7C3F
FFDCAB26
FFD5B806
FFDB130E
FFD53358
FFC23968
FFC3B93D
FFE0169B
FFE1C4B8
FFE8D0F0
FFEC040B
FFFBBDD5
FFFF551F
FFF03E37
FFE5D838
FFFAB20F
000E6BA2
00178687
0006B41A
000B1182
00038760
FFFC0305
002B82AF
001C1D7A
000B2A51
0004017F
FFFC64D6
0008B929
FFFAE1AE
FFEC66F5
FFE4170B
FFCF06C2
FFB0F028
FFAF5F3E
FFAAFDEE
FFAA9654
FFB5E16A
FFB63967
FFC9958E
FFC19CD0
FFCABBEB
FFC618C4
FFB15D98
FFE157C4
FFED617F
FFCE8E6C
FFD60519
FFF0A78D
FFFD2509
000AB424
002C0B16
0005B7DE
0007C376
000405A6
FFF75AB6
000595EE
FFFFD5D0
FFF0AF52
FFE5908B
FFD59A9E
FFC8B101
FFBB99D6
FFCFA918
FFC37EB7
FFBE4D1D
FFCAE35D
FFC6EFE0
FFBD3CB0
FFA150EA
FFBC9057
FFC40D7A
FFE0BC96
FFDD0CB8
FFD99D1C
FFE4810E
FFCFED92
FFCF8100
FFEFA22A
FFF1E293
FFFDABF6
000903E8
FFFCE774
00020CB3
00060EDB
FFF98DD6
0001B6C6
0001FCFB
FFFF35B4
FFE75430
FFF0EA49
FFE55342
FFE810CF
FFEF7E26
FFF92472
FFF9885C
FFF0BE2C
FFD34213
FFD9DAB5
FFDD730F
FFD4E8CD
FFD35620
FFDF9FAE
FFE4607F
FFEF8899
FFF9A6C3
0004D550
FFFED4E7
0005E621
FFFB1BFA
00090620
