00045CB4
FFFBDC0B
00045A4F
0002B6A9
0008FFF7
0004AD41
0001695D
FFF6F341
000770E1
0007D99B
FFFD7739
FFFF48F7
00079ACA
00065326
00073EF1
00037A86
FFF80C69
0002F10E
FFFA624B
00029C44
0003FAD0
FFFBA25F
0006318F
00003BC6
FFFB66CB
0007D5A1
0005D79D
0006AF8D
FFF9B470
FFF90832
FFF7F618
0005E943
00080BBC
000359E1
0018EF5A
0016A698
000A972F
000B4747
0007D446
0009F465
0016B0BE
000B52C8
FFF89BC5
0021333E
00184C8F
00092ED0
FFFD6775
00139E94
0015BFAA
0003A75B
0011DCC6
001378C8
FFFBDC56
00016ADA
00049B1C
FFFC7833
FFFCBD43
00019D4C
000B2D3E
00100131
0013A0D1
00084C59
001E255F
001E1CAB
002BE02C
003D581E
002D92F9
002BD707
00286AF9
0026759A
0019B923
003B4761
002A4185
0020E012
0023470F
000B8464
000F2E54
000EBFE0
00117FB0
0017E9C2
002119FD
0016827A
FFFE2596
FFFE63E5
FFF7F42A
FFFE113D
001C51E2
001806D9
0011056A
000CAC47
001CDE54
001FD8B5
00141C14
00221F91
0015E354
0011F0A7
001C5BDE
001A9888
0009903C
000BEC1A
000D735D
FFFD03C0
00027E5C
000184C8
FFF9A45F
FFF62882
FFEE1D32
00017249
00079C56
0001A7B9
FFF7622E
FFFDADEF
0003AA89
FFF6CFD2
0012C5B0
000A6F89
0016368E
002C60CC
00299909
00040A9C
0017AF5C
00079E35
0019437C
000574CF
0005255B
0001FA61
000D5B8C
000102C3
FFF656FA
FFF0A5CB
FFF72C15
FFF7855B
FFF652E9
FFE9A354
FFEBC6F3
FFFCDD05
FFEDAEE6
FFEA70DC
FFF22CED
FFFF8F42
FFFABBE5
FFF8AC95
001C36E5
0009A8C1
00177FB8
0022B346
001C12BC
00102E5E
0014F3E0
FFFE9891
FFFA1AC0
FFF5FD25
0000284F
FFF60132
FFFF2B2E
FFFB431C
0011DC28
FFF86A20
FFF49E6F
FFF32202
FFEED723
00058607
000838C8
000F79A0
000463B0
FFE1BE1E
FFFC43D3
FFF002EC
FFF9DFEF
001C6F98
FFFD2310
000AF209
0011D4D1
0006FCA9
0013ECA3
0012D82D
000AE8EA
000666F2
0004F549
000828AB
FFFC1DFF
FFF44487
FFF269D1
0010A984
0004C644
FFF5B354
FFF6635F
FFF0A44A
FFF35646
FFEDFE37
000136F0
FFFC0AC4
0012B334
FFFC0F16
000A2063
0002D895
FFF6DCBC
001F87A3
FFFC55A9
00189344
00218CB9
FFFE438C
00094A6D
0005E280
0000DC4E
00017DC6
0016335F
0010C7DD
000D5838
000A1757
0005D822
0003805A
0002C73D
00063563
FFFD053D
FFFCB45C
00012ED6
000304B2
FFFF10B1
FFF511D9
FFE5A621
FFE4A7AC
00052FFD
00073865
FFFEBFDE
001B5040
FFE80312
FFF78A04
000C3604
00002881
FFF74C25
00066384
FFFEA2D0
FFFBE43C
001089DE
000D51AA
000E773E
00072812
0012E41C
000102C3
FFFDFE52
000064DD
FFF9EA26
FFFA0A74
00032448
00031994
0002AC7D
FFFF3D8F
FFC9DC9C
FFD54621
FFFBCC16
FFFDD381
FFFEAC17
0008F9DC
00036B9C
0016AC83
FFFF4533
FFF70A63
FFF10288
FFF900E9
FFFEC858
FFF8A090
FFF2E50A
FFF3A48B
FFE8CE57
FFE33215
FFF0E5C6
FFF54676
FFF61718
00006328
FFF06EF1
FFF07AEC
0004CEAE
0003F4FB
000CBFBA
0003C67C
FFC9F3E2
FFE3C8E0
00143BBD
000EFCE4
000789C0
0011A233
000CB3D9
FFF83E45
FFEC50E1
FFE4FADE
FFE70F77
FFECB85E
FFEEDC1F
FFEA5708
FFE483DE
FFE853E7
FFB9BFB3
FFD111D7
FFF22D77
000630B7
FFF9B5DB
FFF7D772
FFEFB2B1
FFFCC070
FFFD6753
FFFFB18E
00037003
FFFF0BB6
00001423
FFFE8179
000F6C6A
00098A6E
FFF774CB
0012C740
FFED307F
FFEA0528
FFDE246B
FFE015CE
FFD52F9E
FFE000B0
FFDB0E3E
FFD02C83
FFC9C0F6
FFC02764
FFA5F744
FFED62CC
0012F2D2
000300AE
FFF9430F
FFE6BD89
FFF18354
0004CBC9
FFF815C9
00014025
00075DD2
000BB74C
00171342
0012EA4C
FFE818F7
0002FB4C
00083D28
FFF2A122
FFF6F5BE
FFEA9CE1
FFC8DE09
FFB764DE
FFB45B91
FFCE77CC
FFD3E2C8
FFC378C2
FFC600C6
FFC369FC
FFD77928
0015486B
002A54B2
0015B3D5
FFFA8876
FFEAB3D0
FFF4362A
FFF3F901
FFFBA717
0008C629
00032353
FFFF7D4B
001A045A
002DF7B1
000F05DC
00214644
0006B8F3
FFEA2CE6
00068C0D
FFF43BC8
FFBEFE50
FFC77D9F
FFC39D5D
FFCE846F
FFD1250C
FFDBB5F1
FFD932BA
FFE6FF71
0005AA5D
00392FF8
0025CFE8
000F8AB3
000E273D
FFF6D106
FFF78B82
FFF8D900
000F7C0A
00056EF4
FFF98BB2
00101044
002C678B
0028B733
001B9744
0016770F
0007CC5C
FFF2071A
FFEB9016
000024C0
FFD8771F
FFDE8B0E
FFF57314
FFF217D2
FFEF638D
FFF81643
FFF90845
00048DB7
00360329
0042493B
003D3BD3
00181910
0012DE82
FFFDA386
FFFBF40C
000C74A4
000DDF2B
0008CC76
FFFF8C7C
00059EE0
0019B7BD
0017FCAC
001FBD57
000FC2CB
00026A64
FFFF8330
FFF45BC0
00097DEA
FFFCF71A
00049EB0
001DE33E
000812FB
00113C9C
000DDB27
00188CF0
0029E774
003B5286
0040E8EC
0032FA6E
000E2193
0001E9AD
FFF965E2
00069D6E
0010C9A8
FFFF0AA6
000862D3
FFF8E8B1
00058CC7
0021B230
0009D65D
00093F9C
0017E577
FFFB5C21
00049C19
000BF9BE
00226952
00217FB4
00211D72
00291B9E
0019CAEF
001483D3
002DAAD6
00213EC6
002E35C4
0037ADD3
003213B2
001DC1A0
000A0D6B
0002C8D4
00085957
0016095C
0008E16F
00057282
00060ED6
000B0C4E
00062D2F
00277A49
00198A64
001596E6
001E65DF
00032910
0010D670
001741DC
001A13B8
0014EC7B
0021A0F3
00278947
0017D773
001A87CD
001C3992
00218133
0018BBE4
00207E33
00146C86
000C34E2
FFFAFC96
0000D13B
000A5C9C
000BA331
0011CBE4
FFF6DCCE
FFFB3F1E
000032E8
00044900
001FC62C
00268B28
001955AD
0004355C
FFF8EE37
00058B59
FFFD8F1E
00269462
0015485B
001836C6
00159601
00251092
00145926
001C6A7D
000E1DCE
FFFCD44B
000ECD7F
000578D0
0001EEB5
0002E1D4
000FEC40
0014AF0C
000FE11C
00149D3A
FFFA0A4B
0005582E
0004A446
00128C5A
0029C41A
0041DA09
002875B8
0023D83E
FFFB1F5C
FFF00947
FFFD790E
000E49BB
00087B24
000BDBFA
00192A59
001D022E
001691EB
0014CB38
000E7492
00051124
FFF8345C
000709A6
FFF90C1A
0011DB3F
0011B85F
001C2BE5
00070378
FFFCA872
00075198
0009845A
00171275
001746E7
000CB7D2
0031309B
0019D839
00174F48
0008C0AB
FFEADAF5
FFFA1231
0016FEA0
00129646
00062590
00108581
00261EFF
001DA9E8
000CB0BF
FFFB6139
FFFC2A64
00004E8A
FFF82A2B
000083BC
00042044
0008C89A
000CA1D7
0007E248
000104F0
000ED4B8
0004D857
FFF57D22
FFFF80AF
000015BF
0024507C
00154E37
000A19A8
000F6244
000E6C34
0021A554
00124E45
FFFFD3C1
0004D7B5
000181AF
00049FD3
FFFFF853
0007F0D1
FFFEAE20
00005674
FFFBC245
00085E22
0003505E
000AFE2C
00076C63
FFFDA806
FFFF50C3
0009B03E
000245F5
FFF5C2C5
FFF8E393
FFFFE544
00023E85
00119AF9
000DDF9F
00012979
00092988
00093E85
001FB59A
000B0B8A
001EC739
00222165
00033FA1
000875A4
00070227
FFF683FA
00045C05
FFF9F0E1
FFF209F4
FFF6C018
FFF75781
FFEF4330
FFFD87CE
FFF1C8A8
FFEB6F68
FFFF9C9E
0000E5D8
FFF3C076
FFF83D9D
FFE8631B
FFEA2DFD
00061E15
FFFBB364
FFFEBD97
00080572
FFFC9004
00199E78
FFF18B08
0014D1D2
000D1EA9
000F5ED1
00022EFA
FFF199A0
FFFC9BF9
FFFC44DC
FFFD1338
FFFCEDDD
FFF6DE28
FFED9A2E
FFF9A7C1
FFF9468C
FFE95314
FFDEC30F
FFE7180C
FFFA825A
FFF70A64
FFFC4C76
FFF28D4D
FFDD9E62
FFE8F803
00066FB8
00001185
0007E959
FFFC7229
0010126F
FFF57EEE
000B6843
FFF42D60
FFFE4A92
FFF6C4BC
FFF57773
FFEF4975
FFF2CEC2
00018962
FFFEEFD3
FFFB5113
FFEA8FC7
FFF525E1
FFF9138B
FFEFE87B
FFD1AAF9
FFDEB9CA
FFE469A8
FFFFC12B
FFEB77AA
FFD8E075
0005CEFF
000D719B
0004EEB1
0000AB26
FFF88782
FFFE00C9
FFF9602D
000A9EA3
FFFE30F9
FFE2C660
FFE80D58
FFFB885B
FFF3BDA0
00022C02
FFFBC579
FFFDDD32
0005E807
FFF2D59B
FFE0BE4D
FFF179B2
FFF6D525
FFEF5E0A
FFDD15F6
FFDFD65A
FFF0095A
FFEB45A5
FFE593F0
FFE5967A
FFE5EA0C
00053919
00132918
0007B9C5
FFF9FCB0
00047CC2
00089A1E
FFEC3B9F
FFEB4639
FFDF9988
FFE756F2
FFEA75B1
FFFC609A
FFFEED1B
FFF9075A
FFF8A6F0
FFD2ACF8
FFE3F63C
FFE8ABEF
FFF5F683
FFF13D57
FFEBEFDD
FFF7E724
FFF50588
FFEEBE37
FFE8D704
FFF0C245
FFE1C9A9
FFFDE1FB
FFFB6866
FFF82639
FFFF984A
FFFDF3CE
0001EB57
00010809
00054AF1
0006533B
FFF96A72
FFF3E458
FFF603F5
FFFEF53E
0006D42A
001517DF
001E5CFC
FFF22CA4
FFF0667F
00027E21
0004A995
0014A542
FFEFAC61
0002CB94
00016276
FFFA8D66
FFFF86BD
00017EA4
0006214A
00010152
000317E2
0002D668
FFFC189C
