FFFBED74
00058A61
FFF85798
FFF97220
0008B5ED
FFFC8E02
FFF8BAF0
FFF950FE
0008DDA6
FFFEB8A8
FFF84E76
FFFEAE9B
FFF53BEB
FFF3C45A
FFFD9D48
0008F33F
0003B020
00055792
0000C12E
FFFC2D77
FFFC44BD
FFF9DD1E
FFF964FE
FFF81DF4
00019FD3
0004CC2A
000775FE
FFFFC48F
FFFEAAF3
FFFF3D73
00039A2F
FFFE8D44
FFF4C45F
FFF1712D
FFE19FBB
FFE3C74B
FFE4E8DF
FFEF7620
FFE5F052
FFEBD2B0
FFD73C26
FFEDB5E7
FFF91E54
FFD5A01C
FFE838FC
FFDF2ADC
FFD8BF20
FFD9AA49
FFD25A63
FFF0D3C4
FFF71C18
FFF09E8E
0005B98C
00020C12
FFFC77AC
FFFC7075
FFFD48B8
FFF7753C
FFFC61CE
FFE7C55D
FFDB0A99
FFF7FFCB
FFE811C7
FFE2C3F7
FFDD922E
FFF8DEB4
FFDBE52A
FFE056EE
FFEB8D54
FFE1289C
FFE8C09C
FFCD36DC
FFE6817E
FFD6AA03
FFD2411A
FFD5B00B
FFE0604C
00007BE3
FFEFA1CA
FFEEE6EE
0002D3BA
0000C804
00052198
FFF813F6
0001F9F5
FFFBDCB4
FFED735E
FFE62C6A
FFDB2A24
001384BF
FFF331AC
FFF371B6
FFE3B130
FFE1AE7C
FFFE8256
00140ACB
FFF9AFDD
FFE93F68
FFF6DDBF
FFF46CD5
FFF277F3
FFF9730D
FFF03C53
FFE89814
FFE96FB3
FFEB4ED4
FFF82B3F
00090B37
00048B8E
000CEC6E
0001A1E6
0006AE4E
0003CAED
FFFC90F7
FFF80554
0005D4DA
FFFF52AB
0013141B
0010E6AA
001082BD
001AFEF4
001530AD
00151200
FFFFD1A0
000BAC54
000C4044
0006E853
FFF64726
0001AE1D
FFFF608C
FFF3932C
FFEFD94F
FFF754A2
FFEAF95E
FFF3797C
FFE3D97E
FFFF5559
0007E3F4
00050872
001579AA
FFFD60E4
FFFF3E6F
FFFEE2FB
0008B269
00129CEF
001308DE
0017C602
00178EC5
0014D900
FFFEF513
000AB0C1
001096C7
000E74CE
00046B14
000AFA44
000A8C1D
00056597
000941E9
0007FCAB
00036E23
FFFE08D8
FFF3F974
FFE91E76
FFF20D5F
FFF84709
0010CACE
000219A3
001FF656
FFFA758B
FFFCEE91
FFFC0632
000A1F75
0009C767
FFF9B418
00034FB2
000D7E46
0004CD00
000F0FCF
FFFC580C
FFF843D8
FFFF36AD
000D12F2
000473C7
001604D8
00119DC9
0010A40F
000D60B7
00050F8F
FFFA83E0
FFFDDFE2
FFF12AA7
FFFC74BB
FFF503DF
FFF591BD
FFE908A3
00067A32
000317CE
FFFADD3A
00054716
00161DC2
001601F8
0006FE10
000CD5B8
FFF50E21
0004D05A
FFF16863
FFEED33D
FFFDD18F
FFFD0A0E
0017D32C
00042CB7
00175608
0009DB3B
000DE743
00074FA0
000DA441
0003C187
FFFC2D65
FFEEE80E
FFF53185
0001FECE
FFF2B246
FFFCE365
00008D93
FFF01CA9
FFF08BA9
000E1F40
000C4071
00161744
FFFFA7EB
FFFC2E16
FFEFE08C
FFFF154B
FFFEC7DC
FFFE62BD
FFFE7079
FFFDB8F5
000E2626
0009CC7E
0003BF23
000DDE26
FFFD9402
0017613C
0013D0A6
000BEC7D
0008BF04
0000C529
FFED01F7
FFE8229B
FFFB2E2C
0007E878
FFF3E799
FFF96D0E
FFF710BB
0000A7E6
000A0993
FFFA4615
0015867A
000F8BF3
FFF61B1D
FFEDA626
FFFE983A
FFF81F6F
FFEA3F7D
00004130
0000BE0C
00085171
000E1008
0007CFFC
000D7DFD
000E269F
001FA8D5
00215D1C
001457F4
FFFC9F7E
FFEB674C
FFD1D6F0
FFDEF827
FFF22B2B
FFE685BB
FFF77D65
FFEF5B7F
FFE44DF4
0013CCC5
FFFA770D
000D597C
00006FAF
FFFE6D7F
FFF1766A
FFEF1FD6
FFFE0A2A
FFF47E7C
FFFAD8A1
FFFD0F8F
FFF96308
FFF26169
0007249D
000F26FD
001BFE88
001DE583
001B3712
00113C97
FFFE36FF
FFE7E358
FFCA052C
FFDC7FA5
FFDE0815
0010124D
00019EAD
FFE99A81
FFDA13CE
0000D216
FFEC249F
FFFE1E34
000338BC
FFF813E5
00065C8E
FFFE8C0C
000D045F
000B0B96
00000DE4
FFF991F3
FFF47AFB
FFF72289
00036173
0010B6EF
0005D24B
000F4FFE
00204D42
0008B482
FFFEC926
FFCF61DD
FFC66559
FFDF4884
FFF60434
FFF2B316
FFFAAABE
FFF50EEA
FFECEC9A
FFEC3D4F
FFFFD557
00013AB8
FFF66B3C
FFFAEBE3
00080F0B
0001E968
00015B11
00018B90
FFFD1CDB
FFF31BC4
FFFFDD39
0008BFFC
000C288A
000EA469
00039870
00177F8B
000D0997
001A56C2
FFF82C69
FFEE2857
FFCBDBB0
FFDA29A5
FFDC0E56
FFE9B550
FFFBF4BF
FFF13F1E
FFDE60F2
FFECA55D
FFFFB3D7
FFFD74BE
FFF6E1B3
FFF6A088
000FF732
00010740
FFFBF103
0000C071
FFF37F1A
FFFFAF56
0008AE41
000E6FBE
000C9A55
001AA3A2
001B451C
00195141
0015411F
FFFE4035
FFF1AB78
FFD793AE
FFD6DCF4
FFF6426A
0006DCC2
FFFCA9FD
FFF6B08B
0004B99F
FFE9E898
0001AFD4
000C0D20
0001D6D8
FFFD1627
000334A5
FFF98304
FFF917C9
FFF06516
FFF4E662
00022714
0012CF08
000F98CC
001B3E7B
001C4438
001C4052
0022AA49
001D4259
000BB231
FFF87F18
FFE93855
FFCA32B8
FFC1883D
0009B47C
000A27A6
FFFD451D
FFF6C8A0
00100FCC
FFF2FBD4
00087A34
00183674
0001741E
FFF505E3
FFFF0CE0
00026FE0
FFF428F2
FFFB8532
0008E9C2
00098933
000F077B
001A53C6
00197B48
001FDC43
0016E14E
00110513
00230C90
000EF1E8
FFF10F0F
FFFB774A
FFE17C7A
FFB90864
FFF37515
0023F836
00102200
FFFC7DA9
000AC514
00054DEF
00040E65
000B4762
FFF89328
0002D0C1
FFFF5490
00017974
0006888E
0008273C
0008C92E
0016C4ED
001E799E
000AF405
001B61BF
001BB8ED
001DF99A
001858AB
000D3596
FFFB900B
FFEF59CD
FFF98A48
FFF755F0
FFDFC652
0002DF74
00191ADA
00148321
FFFAACBB
000567E3
00212D6C
FFF7AA3D
0003956F
0002A865
00049B6A
001AFC8A
001463A6
000C2C96
00071D7B
000C8678
001D8D80
001CDB61
00042908
00119130
000BD00E
000BCC5B
00001865
FFFA3F26
FFFB7A61
FFEF2E74
FFEFEA28
FFE41F16
FFD5B557
FFF3A65D
000BCA9D
FFFB9D61
FFECD5E3
000ECD5B
000CD2EB
001B4743
000AAFB0
00079E61
0014BD87
00072312
0007BA8B
FFFEA9EA
FFF79705
000A476A
0011379E
00074A34
00082261
00120B45
0011033E
0004F3BB
0000F27D
FFFB0D9E
FFF90D82
FFF47515
FFEE4C68
FFEAE574
FFD4B5EA
FFEEA4B4
FFF64EDC
0007BF40
FFFC3841
FFED0F1A
FFFD63C0
000ED2FE
000E7FEE
00146EE8
000695E0
000D2DA1
00011485
FFF0BE54
FFF7E130
FFFB9E08
FFFCA27E
0006E1BE
00085896
0006647E
000243C3
0008AF47
FFFB33AB
00015B97
FFF02BE2
00020666
FFEE13E1
FFEFAEB2
FFDDF8E2
FFDE1380
001151FC
FFFDB82F
000893D2
FFFFC29D
FFF6B741
001119E2
000B9E76
000DAF4E
000E5A04
0003BBF9
FFF33A3E
FFF5D526
FFEB97D4
FFE85C94
FFF3B2C4
FFF5CC20
0003560B
FFF50406
FFFDEAC9
FFFDBD9A
FFF3009E
FFF40594
000021A3
FFFB657B
FFF78E53
FFFC6AB9
FFEA2352
FFEA6C10
00054988
FFF0A7AC
FFFB2FA0
000F3BE7
00225FA2
00060D11
FFFDFB9F
FFEFB5F4
FFF54BEA
FFF4D662
0002CFDB
FFFD94AB
FFF007A9
000245CD
FFFBD9CB
0002009C
FFF1BCCA
FFF6429A
0003290A
FFF8A206
0005F5A2
FFFDEDBD
FFF808E9
FFF36EAA
FFFA66C6
00053908
FFE27518
FFE3E6BA
FFF0A6C9
0006FACF
FFECEDD8
FFFCCF22
00204006
0011F2F3
FFF13885
FFE62695
FFF5D1D2
00023D9A
0000E014
FFFCCAF5
0004E37A
00052486
0000E7DD
FFFBC5C9
FFFB8C55
FFFB06E0
0001CA60
FFF850C2
00036FDD
0001BAFE
000D8015
001196A3
0004D901
FFF51BB9
FFF1B425
FFF0F508
FFDC6504
00018DC6
FFFBF7C8
FFFB694C
001EA36D
00168BFD
00004B81
FFF03E56
FFEB61F9
000E96B0
000A450F
00004026
FFFF1630
0008A2DE
FFFBC256
0002F582
00018CF3
FFFCD020
0000BFAC
00008972
0018EFF2
000CA509
00058410
00215A74
0008E186
0002D7B9
FFF91C6A
00018882
FFD5A81C
FFF85C4A
FFF92A98
00020261
FFFA3CF8
00076379
001477FC
FFF9B1ED
000E0FE5
00185A38
000B18B3
FFFA1B3E
0002C313
000E8994
FFF9D5E0
FFFC171A
FFFB6B9F
0002B980
0011FBE6
000AFE99
000DD8C0
00028DE5
000FB67E
00090A40
000769FA
001C6854
FFFEB297
0012AEE7
FFF57113
0003B03E
000345D8
0003DE5B
00177151
FFDEB39F
FFF2AFEE
0027320C
0021BE63
000DF266
00167EB5
0002F6A8
0024FBE7
00171611
00042AD6
0007D856
0006D7B9
FFF94D65
FFFCC400
FFFC4168
0004BE16
FFF7A913
000B7545
FFF40C08
FFE2593C
FFF04082
FFE2579A
0006CCCD
FFEE78B4
FFF9E63C
0002DFD2
FFFF9E20
FFF8301B
00143D75
001F4BAA
002C6334
002A1A82
001AC2B9
00120BF1
000CED40
001A409B
00021960
000FB99D
00017234
0015F0A1
0000D9F9
FFF9EF1E
FFFDE3BA
FFFFD3E3
FFE57CF5
0003FED6
00070AA0
FFFB3634
0009F6B9
0010F099
FFF6231B
FFFA183B
000824C8
FFFE0AF4
FFFFD521
FFFE0F5F
FFFB54F1
FFFC2B11
FFF21C0C
FFFB5EDD
001039DD
0004B661
FFFE2B6D
FFEDE04E
FFF44B15
0004060D
FFE418F4
00014A52
000C2E2A
FFF04AAA
FFECAA3A
0005B0D3
0009C27D
0005F590
FFF1DF05
FFF70CB5
FFDF93E2
00011304
FFF9DDD7
FFF8BAA3
0001F5CB
