00029155
00070048
FFFDEF3C
0000A78F
0005E8B0
0003FA20
00012CBC
0002CF35
0000797E
FFF82847
00005A3B
FFFE0066
000D0BD4
000CE3FB
FFFFD31E
0006386A
FFFB4A90
0007F25D
0007DF33
FFFFA68A
FFF8A9AB
FFFD0CB5
FFFD8E11
000026A9
FFF7B5EB
0001B1C4
FFFC3293
FFFDA8B8
FFFB471D
FFFE11D3
FFF78241
FFFB271B
0008CDDB
001126A0
0019F7B0
000B800B
0019CA97
000A6B62
000CB945
0018E71A
001F3B2E
000E9E7D
FFE98D00
00160E88
00262A7B
002A2E56
0016F4B7
001659CB
0020E5F8
00095DC8
000C7CDB
00160118
0002FDF8
FFFC7A02
00064B53
FFFA51F6
FFF88D2A
0001FED4
00027304
0019A2E2
00236BCA
000320A1
000E4969
0020567E
001079C9
0014787B
001B312F
00297898
000DE834
FFF2A10D
FFF4CA1C
FFFF89D8
000413AF
0003EF9B
000B160C
000DBE8F
00204954
0024ABAA
001F7425
0016D09F
00068EC0
FFFF9017
FFFAA846
0007332B
000100DD
00023A21
FFF167DE
0016B358
FFFB74A3
00017982
000ADEF1
FFF7077B
000ADB26
0003BEC7
00090114
000CB692
FFFEC5DF
0014CB25
00102598
00103E51
000C6F2C
000B36E7
0007434E
FFFDAD69
FFFFF6CC
000C621A
0010171F
000F8C35
0015D614
FFF5F911
000C7894
0007F0E7
0001008D
FFFC320C
FFF18A94
FFF9A59D
000D133A
FFE607D4
FFF1DC57
FFE69958
FFEBE74B
FFF73A5E
FFEC131B
FFE9229D
FFFCE4EC
0001D89E
FFFEA335
FFFCD5A0
0004249B
0005A550
000244D6
FFF929D0
FFF89F3A
FFEE463D
FFF35175
FFF76C7A
FFF1EEBD
FFF591D6
000BF9D1
0024F3FD
0001CDFB
FFFC788C
FFEE4865
FFDB0B30
000D155B
FFEEB967
FFFCA2FD
FFF1DBC1
000170E8
FFEE97BB
FFF13302
FFF75C84
FFF1858A
0001436D
FFFFEC4A
000961E4
0002901A
0007AEBC
0001A34B
00119694
FFF989AF
FFF671DA
FFEB05BA
FFD938DC
FFEB94F0
0002A376
0014417A
000EA3DE
0006A008
FFE637B3
FFFEC1F8
0001C2C3
FFFFFD9E
0006C41D
0001623F
FFF7A31A
FFF66A8B
FFEF400E
FFF5707F
FFFA5EA8
FFFEE884
FFFEA5D0
0011C380
0017244F
001C279C
001D0557
00144533
0006B916
000C8006
0008D02D
FFF18175
FFEF54E2
FFE4FCFB
FFF5F7DF
FFE66B98
0007D1E0
FFFA3AC3
FFF1F940
00147087
00009C53
FFFBF1B5
FFEA99ED
FFFB130E
FFE781B9
FFE39225
FFF7E00E
0003E39F
FFFDF66A
FFFEC530
0007DFBA
000596C3
0015EA6E
001312EA
001D0CD2
001A9E4E
0013FF1E
0008557B
000A4BB3
FFFF1C6D
FFFF5ED1
FFFA3242
FFFE0B41
FFEB1ECE
00030DE3
00161035
00001711
0005175F
00039534
FFF66D14
FFF0ECDF
00003B9A
FFECC04E
FFF92593
FFFEAEA0
00001FCB
FFFDCD12
0008B6F9
FFF8EA57
FFFC850B
0009ABED
001C4C75
00107DA6
00149302
000C3325
000EB6ED
000D5222
0005C8DD
FFFE87AB
FFF506A5
FFE195A8
FFF2408F
00050984
000AE9C5
0014CB9C
0000E2AA
0004543A
00014A47
FFFD81A7
00022A51
FFF884B2
0004C3D1
FFF8DEE0
FFF6A831
FFF96263
0002E940
00075266
0008603E
FFF4D88E
FFF86CC3
FFF35A3F
FFF8311D
0010610A
000EC687
00138BC3
FFFC6305
000D2178
000C0034
FFE111D0
FFF18C24
FFFD2A54
00145FFD
000A9643
000D84CE
FFF1D5E6
000FFCD8
000A725F
FFFEF724
000AE813
FFFD45F3
FFFF28EC
FFFEF761
00019EFC
FFF6B6EB
000E376C
000AB584
FFED2347
FFF1C203
FFF3C8A3
0004384E
0006DEB7
0013BF85
0009EE18
000BBE63
0012BF1D
00009DC7
FFCA2834
FFE16D69
0004B1DB
0002F081
00134F58
00102021
FFF9C717
FFFC0EE5
FFF8EC0C
FFFD8F1F
001DB7C5
0010B603
0000F751
FFFE7A74
0008AA20
FFF95925
000A4DD7
0001A820
FFE66007
FFE72A16
FFEE6078
000418FE
FFF8C15F
001B50DF
000F231E
00158F99
001BFB08
000E9E57
FFDFAE68
FFE26E22
0002603D
FFFC22B5
000A1001
0020B905
00151B18
000F4367
000926FD
0019F0B9
000ABB83
0008943E
FFFDEB87
FFF7BF9D
FFF5027D
FFF78426
FFF610E7
FFE7B317
FFED9C4C
FFF1B90C
0005EC58
00031BEB
FFFCE67C
000A950B
000D43C8
00215E90
00280593
002E6F98
FFF47C1E
FFE51AEB
0010F513
000191FA
00105C7A
00144286
000D6049
0012CB96
000E6EA0
0012E41D
FFF68FE2
FFFAD4A1
FFF8A0F7
000A5120
FFF0F903
FFF1A4A2
FFED662C
FFF51495
0002279B
FFFFA3AD
0000B1AF
0002DC5C
0001CF20
000EF438
0016B280
00263853
002AD970
002ACA25
FFFE7C34
FFE369BA
00076013
FFFCFAD7
0003A6A7
000156C8
FFF9C839
FFF1BD16
000DF10D
000A1EC3
FFFF0BAB
FFFE159C
00037797
00131FC3
0003EB8A
0001D0CF
FFFF81AB
0003034C
0004948A
0000802F
0002B784
000195BD
0015B9E3
0007704F
000F966B
000F5970
0016EA54
00096B3A
0007DC38
FFEED4D4
0013F3B9
FFF01C2F
FFF5B077
FFE8DC16
FFDC5DAF
FFEA7BD9
0005F828
FFF3EE6A
FFFD106F
FFFFDFB7
0002BABB
001AB200
0002DAA6
FFFC7330
FFFED88B
FFF6A097
0009B15D
FFEFA496
FFF856FB
0001AE01
0005AA9C
000D8359
0009E136
00183F3E
000B23EF
0014B921
00137C45
FFDDE9BC
FFF79AA5
000A22DB
00021140
FFF89C24
FFC51C1F
FFF0792C
FFF77155
00041CC4
000DB497
001F5BB5
0021E6AB
001E934F
00084287
FFF0ED7F
FFE63B12
FFEEBBC3
FFF600FF
0000887F
FFF460B1
FFF1D18A
FFFC7F9C
FFFF1D07
FFFB7FDE
000D70DF
0001EFAB
FFEF05F4
FFFD22D7
FFE6D516
FFF9BBD7
0008C424
FFEDC1ED
FFEC3E6D
FFC60B9D
FFE0FCE4
FFF9E0BC
FFF9545F
001055AA
00223EBC
001CE9BB
00181893
001129A2
FFFD68D5
FFE3E887
FFFF06B1
000323A7
FFFF5B2E
FFF20BB8
FFF49CEC
FFF36360
FFFB6F03
0002D624
0001490B
00065E62
0002F93F
FFFFABCD
FFEAE7CB
00153BC8
001078C3
FFEFA838
FFE5A978
FFCAD79A
FFE2F307
FFE05C2D
0003B6EF
0011F7E0
000D3F71
001EEDB1
001EE085
0004684F
FFF6A32D
FFE46F32
FFF7B31D
0005E2D2
FFFF7F01
FFFE711C
FFEF504B
FFE8B033
FFF33BC4
FFF8C724
0003FAD2
000D12E1
FFF55952
FFF18E35
FFECFD6B
FFD612D6
FFF37273
00248CCE
FFF571D0
FFCB9DD4
FFDFA846
FFF0A3B2
FFF880D3
00095E6F
000C4699
0013A92F
001B82D5
000652EE
0001E918
FFF19562
FFFA23A5
FFF34BC9
FFEFFCE4
FFF15403
FFDEFA25
FFEBB756
FFEF81F7
FFF6D360
00043D74
00037537
FFEF6DDF
FFE7DF44
FFE20C12
FFED5094
0000583A
000A717E
FFF2DF56
FFE41FB7
FFDE2339
0002DCED
FFFB5832
000EB931
000F8461
0010F476
001C7591
0009ED94
FFF9535A
FFF3A08F
FFF295A2
FFF77A08
FFECD377
FFE6CA96
FFDD4E57
FFE7E9B1
FFE4702A
FFFAAD66
FFF313BD
FFE8296F
FFF03CD3
FFF26E37
FFDFE109
FFE8AB26
FFEE1123
0004471B
FFF76F80
FFF9A49D
FFF5D650
FFFD506F
000935A5
00161D89
0012B785
001D9580
001C3268
00090595
00104B00
00070AB3
FFF2B2F1
FFF59532
FFE91809
FFE44694
FFECFFC0
FFE37BCD
FFDD9276
FFD9E5EC
FFEB6050
FFE5D86B
FFDEFFEA
FFE53822
0008A3CB
FFFBC1D2
FFECF72C
FFF22195
00012355
FFE2AF05
FFF03508
FFFB947A
000D2CA7
001533FB
0016390B
0018F0AF
00219DB7
0017BF2E
002073AC
001311FC
0000C080
FFFD80B3
FFEBB55E
FFE9BF79
FFE92DFB
FFD8DA82
FFD77F27
FFD3BBCD
FFD1255D
FFDA668F
FFE5C694
FFEBCB99
FFE871B8
FFFD26AE
FFFAF96E
00064F74
FFE2BCC0
FFDB7A38
FFF3C44A
FFFBB066
0007C045
00099925
0010377A
0003E24E
0001CEA3
00107792
000CB07F
000B818A
FFFE2C82
000016BB
FFEE0BA8
FFEE8EF5
FFE1F7CA
FFD0B309
FFD4F603
FFDFD7BB
FFED28B4
FFE9ADA8
FFE7B850
FFE99E91
FFE58F22
FFF9E2F5
000215F6
FFFED41E
00072BAF
FFEAD825
FFF3CB18
0007A6AD
00037F5F
000007E3
00097F37
FFF5D410
000C7E95
0008F529
0013D579
0013DD26
FFFFF4AC
FFFD4B84
FFF42D30
FFE94367
FFDEDF7C
FFE3D35B
FFDDA46B
FFE9F162
FFE93E5E
FFEEE533
FFEE6CB2
FFE54CE4
FFF6BA06
00077DD1
0007D104
0000D0B6
FFFCAD02
001A591E
0004BD6B
FFFB4F6C
FFF1B61B
00032DAE
00009688
0003FC73
0001DA67
0011CB07
0005BA6F
0002C3A8
0013D170
FFF9D6A0
000584AD
FFFBD903
FFF3C953
000D9553
000A9587
000622FF
FFEF285E
FFE6506A
FFF38709
FFFE6CFB
FFF45F75
FFFB7F79
00004A2A
0001AB20
FFFD72F2
000A82B6
FFF655E0
FFFCCEE7
000F23C8
002B16C5
002E6022
0034EE3C
00281587
00132085
0018ABC2
002D8C76
003CF010
0018EEEA
000D793D
001449CC
0016E97B
0029EC06
001888A4
001B7DF4
001476E4
000D79B0
0008F766
00086125
FFFD61EB
00082734
FFFDF5AE
FFFA7C4B
FFFC0A6E
000091A6
FFFE830D
000541C5
000BB084
00130F56
0010A832
0021A29F
001E3ADA
000A26BC
0011CFDC
00161446
002C077D
001C4F6A
001FCE02
001D4EFA
00207679
0016A308
0018DB5E
00201601
001EE165
0019DACF
00072EA1
FFFB3D62
FFFF36E6
FFFBAF1D
