0003CD9E
FFFCC921
0002C9FE
00008BD6
FFF9FF7F
FFF9DA73
FFF711E8
FFFAE2BA
00028DD9
00008E9A
0006E059
FFF7F5E7
FFFA41EC
FFF22631
FFFDE888
00016F9E
FFF7CC68
00081315
FFFD290A
000819D5
FFFE7722
00052FD7
00084FC2
FFFCABDC
FFFDC70A
0004CBB3
FFF82C2A
00056973
FFFA41DB
00087DD6
FFFA0212
FFFC3CD4
0006D280
FFF9B982
000153BF
FFFF35C9
FFFA343B
FFF1E63B
FFF88C10
00012F7A
0000543D
FFF8742B
FFF6704B
FFE7B2EE
FFE64AFB
FFEE3F81
FFFC0B43
FFEFB6E8
FFF6802A
FFF3DEE0
FFF90F24
FFFE9D05
FFFEBBC6
FFFCE4E3
FFF8154C
0005BF82
FFFA3E0C
0005542C
FFF8BC1B
0009A4C6
0009FAC3
FFF4DF7C
FFF7D035
FFEDDB23
FFE70C0B
FFF698F5
FFFEE7B4
0007C420
FFF66090
FFEECFD6
FFE9A156
FFD7B15E
FFD92A75
FFD4673B
FFF3011A
0000E61D
FFF6B5B3
FFF3067D
FFFBA483
FFFF8BDC
FFF6FC8D
000F1046
FFFB4D2F
FFFE6C37
FFFC58EC
0004C07C
FFE58F7E
FFF34ED3
FFF6F54D
0008EDA7
FFFE6314
001182E1
000E9CE5
0009A7B5
000E3326
0017251A
00182257
001F08F3
0021BE86
001AF71D
000D17E4
0018EA95
0006E143
00041160
0010B248
FFFCC746
FFEB9E87
FFEE8425
FFFCE441
00029903
FFFF4FCE
FFFA4420
0006E761
0003298E
FFF88213
000ABDF0
00050867
0006A4A0
000286FE
001505E0
0018405B
0010F432
0017BFF6
001FBC85
001A8CDA
000DF1BC
001E90A2
001556F2
00140EF0
0012BB81
00151CC5
00023466
FFF4882A
FFFF824F
FFF824D9
FFE5305F
FFF28CB5
FFFF4755
00134C48
00042864
FFF83E25
0003FD21
FFF776F3
0013D1FE
000A8FF3
FFFFB7BD
000A0A3F
0015A699
00025DA4
0007B960
00075E4F
000B6EA6
000B4BBD
000BA417
000B0604
000A01C5
0017D745
00182C98
0011C4BF
00139D64
00006F46
FFFAD79A
FFF62D67
FFDABD7A
FFDB756D
00066741
0020BB26
FFF01790
FFFD61BF
0012767E
FFE7096F
FFFFD4F4
00034C64
0007C80E
000B89CD
FFF5CCCF
FFFEEFA3
FFF626F7
FFEBB572
FFE95AFC
FFFBA52B
00095D94
0006A740
0005A99F
000B12B3
0005B3F3
FFFF70AF
0005D84D
00003861
FFFBB8D7
FFFCF48E
FFFBB2FD
000F3645
0006AB64
0013ADA3
FFF2347B
FFF94507
0014F5AA
FFDDC87C
000155AA
0015EFDD
0011A96C
0000A4F2
000164FB
FFFAB66A
FFF90F98
FFF5DD57
FFEF3436
FFF29D03
00016096
FFFABEEB
FFFC4EB7
FFF926B3
FFFF7685
00132E1F
000A4D49
0001F64C
FFF65DFE
FFFBFAD8
001D0FC0
00182743
001E1A06
0014A0E8
FFFA64B0
FFFAC6AD
FFF09DF4
000483C1
000E822E
00155C94
0019216C
00041FDD
FFFD3DFA
0001B265
00024822
0000B73D
FFF51D36
FFFBFF3E
FFF78A26
FFFF344C
FFFD8A5C
0000814E
000FBCD3
0019D913
000C1A5B
0015C126
00071FD7
001861AF
0024269A
002125ED
002B2271
0020E18F
001A02FD
FFE97839
FFF69F7E
000B2D67
000DA166
00175C14
0003DF4A
FFFD8447
FFF5A94D
FFF3324D
FFFAAF72
FFFE1D4E
FFFDB287
FFF83BBF
FFF75C87
FFFB5C44
FFE98933
00039087
000E3019
000E04E7
000E8ABD
001A9EA1
000C1418
001103FA
00282A18
0023621E
0032F284
001D2616
0001823A
FFF2292E
FFF5B05A
00042D2A
001048B7
000E6B94
FFFB075F
FFF5641A
FFEBC1E1
FFF6A4A6
FFF71E84
000234B8
FFF833D7
000D86F8
FFFBB5A3
FFFCAD8D
FFE82D5A
0000A1F0
0007D767
00126206
0003742E
001763FA
00060C71
00109A05
00172264
001D90B2
001F0DAB
001532F9
FFF5DEC2
FFF36227
0000028D
FFF35909
0008FBA3
FFFA02EB
FFDBA12C
FFF1C147
FFDBB5A2
FFEC2104
FFF50299
FFFCEBC2
000EA1ED
000D8276
000C1BA7
0003CB14
FFFB68B5
FFF682D1
000401D4
000709AA
000AA04D
0005DD9D
FFEDC2DA
FFED9E09
FFF3BF7F
00099A77
0026BDB7
001D10B0
FFF06238
FFEE46CE
FFF6FB90
FFF26DD0
0001AB88
FFEC9AF9
FFE864F5
FFE9400F
FFE9D659
FFF288F8
FFF6C717
00150250
0003B1D7
001C7A9B
001BE3E2
001ACF39
0009AA9C
FFFB8017
FFFBD411
FFFC9278
FFF7940C
FFFC8728
FFE5110D
FFDBBF39
FFDB2949
0002A1ED
001087A3
000ABBB0
FFF23A91
FFF793D5
FFF94C51
FFE21CD7
00103500
FFEF27CB
FFEE8AC7
FFF61ACD
FFF00273
FFFB8E15
0000FBE3
FFFB18B7
00052EAE
00108AFA
001E4A50
00190A82
00001E66
FFF619C8
FFF3E8B8
0006B25F
FFF95D29
FFED6B5D
FFEF381E
FFDB49C6
FFECF70F
FFF4F52D
00022388
0012CCA2
FFF2117D
0009E1D9
00032497
FFE1B7BD
FFF7BB72
FFFA9086
FFFAA163
FFF4BE8E
FFF77B74
FFEFD4B1
FFEF0340
FFFFE796
FFF546C2
000C4D91
00086512
0015EEA5
000941F5
FFF1E346
FFF8A4C3
0009E49F
FFF5FFF1
FFF7053A
00018884
FFF55BE8
FFFFBA26
FFF8F8BD
FFE89E67
FFE691EB
FFEFEA69
000316D7
000C0D08
000D822C
FFED7D7F
000F2865
FFFDED99
FFF7FB4C
FFF6E50E
FFE3C129
FFE5BE18
FFE3059E
FFF55D08
FFFE71BC
FFFD9EA2
FFFA9636
FFF9A669
FFF986F3
FFF2D42F
00004874
000B5AD8
00055528
0004C6F9
0013DCF3
00239E50
001930B9
FFE60C62
00042213
FFFFC964
FFF07EDE
0007C836
000BCCEA
00098E7D
00160B97
0006AF26
FFF7F172
FFE558AD
FFE55D5F
FFE66DAD
FFDA223C
FFDDFD98
FFEB82A1
FFFAE4EA
FFE8D6F0
FFEB51F4
FFF88AD8
00008A3E
0011BE24
000B6EC2
001111B5
000B03E7
001A272C
0027928F
0018EAF0
FFE0D863
FFDB71C6
FFF82034
FFFC8AAE
000DF491
000805ED
0021AC95
001DDE0D
000B239F
FFFDC8A6
FFFEA666
FFDFC358
FFDFA28A
FFD58030
FFE083FA
FFE70D19
FFE30047
FFD6A35E
FFE20B3A
FFF8CAB8
0013C186
0007F4AC
00070534
000B2116
000E0B48
0014B46C
00117449
FFF7B08B
FFCB9134
FFE21055
001259C9
FFF0CCB2
000D2A9F
00014B8B
001F5569
0011BE10
001C3158
00176ACC
0009BB2E
0004FE8B
FFF28165
FFEF4213
FFE8FC12
FFE23B74
FFDBDBEF
FFE9E71F
FFF90DD0
000A4177
00029FC4
00069CDF
0001E028
0008311A
00036DCB
0006E000
0004D961
FFE01068
FFD38C4C
FFDF283C
FFE62A3B
0001D439
FFF9BD30
FFF5694A
0012761D
001D2DAB
00244C57
001C07C2
0007594B
000C4284
0001869F
0005BE0C
FFF4919A
FFEBAE1F
FFEB0E89
FFF6ED02
0006B212
000B1443
000D812E
000BEADC
000256AF
00018AA9
0002C037
00037374
00074A4C
FFE6C542
FFCF1D70
FFE5AD23
FFF1A138
FFF7D27A
0004C736
FFF43EC1
00075E9F
000DCDF4
00237996
001CBD23
00055F06
00096283
00086AC2
00100102
FFFD6983
FFF34238
FFFA66A4
0000EAF6
0011EF8C
00059432
000B948A
00052456
FFF68D17
000B9850
0009321C
FFFB65BB
FFF58D7C
FFE473D7
FFD51EE6
FFF95A07
00032F48
FFF29BBE
000DB646
FFFDBCE8
00072488
FFF554AA
FFFEDC09
000C2B44
FFFC7F6D
FFF34D27
FFF5ABFE
FFF7FC8C
000B61BF
0008A07B
000BAACB
0010097B
000B7B05
000454AB
FFFB2FD3
FFF2EA06
FFF077E0
FFFE7639
FFF8ADB4
FFEFA70A
FFE838BE
FFCE1E6B
FFF0919F
FFFCD7BA
FFFBCA42
FFED4C81
FFFB179A
0001516D
000F91EC
FFEE581B
FFE1715C
FFFB6A1F
0005FFF5
FFF81312
FFF32A26
0001C08F
00121BAC
001163E7
00147123
0015D278
00080874
00112547
FFFB6FEE
FFEDD70C
0005C943
FFF5984B
FFF44A72
FFEED527
FFF382BB
FFE5083C
FFEFE428
FFF99524
FFFD8076
FFFDFB2C
0002C86C
00181F4F
001B289D
00100947
FFF963A1
FFFF22B1
000F404D
000A199B
0009B0B1
001B9BFE
001B2566
000F3979
0011E330
000C9F05
0008949E
000EB0DF
FFF78650
00021531
FFFEAA36
FFF7D19A
FFDCEAD8
FFDB0060
FFE8B742
FFFF0A7A
FFEF306D
FFE5441B
FFF9E56E
00077533
0005ED21
0002B0EB
002357D3
0013E7E3
FFFFC682
000B324B
0016FAE0
001DB623
00206229
00146F14
0018134E
00168631
001D62AC
0021AB16
00158C98
000A3EA8
000405B2
FFF8ABB8
FFF24D36
FFE93D68
FFE9D8B7
FFF8025F
FFF84E42
FFFD1806
FFED227C
FFF47964
FFFC069D
FFFB12CC
00045DA3
000C999F
FFF6447C
FFF8E070
0004778F
0011ED75
000E9298
001267F3
001A33A8
0017014B
000C72B7
FFFDA705
FFF85A58
FFF69EAB
FFFDFEFF
FFFA1859
FFF7C700
FFEDDD10
FFF97DC3
FFECD725
FFE6218F
FFFB90D8
FFFFCE25
0004DCB5
0000D046
00081D2E
00084AFF
000087AE
00005364
FFFFDE80
FFF679C4
FFF160F9
FFE6C22A
FFD7F91A
FFDCDD54
FFD26BA8
FFE04E4A
FFE694C6
FFF12C11
FFE6AA75
FFED3F9C
FFD72F41
FFCCC7D8
FFE358A8
FFD38AC4
FFEC8FBA
FFFB481F
FFFC13C3
FFF18557
FFF27CA8
FFF7097C
0005C18D
FFFB203E
FFFE8DA0
FFFA7094
00037DD6
0001F231
00048835
FFFCDCF4
FFF72C9F
FFF7C9BA
FFECEB86
FFF39C7A
FFF58F19
FFE21B73
FFDA8A6D
FFEB8E14
FFEE3EC8
FFDEB684
FFDD9ACB
FFE2349B
FFE3AB3F
FFEA48C4
FFF7B1A2
FFF5C0A6
FFF68D19
FFF6CEB0
000229BA
FFF8134D
00069BC9
FFF73278
FFF92D11
00026CDF
