FFF7FF34
FFFB065C
FFFA15DD
0004767A
000861F9
000332EC
FFFAE210
0006EB98
00087C82
FFFD85D6
0006BF1A
00024FB7
0002B621
000699F1
FFFB2F8F
000525B3
00050E4F
FFF701E0
FFFC4364
000032B9
00075231
FFFB04A8
FFFF768A
FFFFBDCF
FFFB66FA
FFFBE6E8
FFFD8DC1
FFFD44A0
FFFD0EA0
0000DFC6
FFFF3C55
FFFB8CE7
000E6A9F
0011500A
00144D04
0013BD78
000BDE05
000707DA
0010E5BF
000E3C5F
001C6A22
001198B2
FFF2FE0D
00197B9D
00356B4E
002A7254
0009EC89
0016A89E
001D1065
000AFB00
001524DD
0010F23A
FFFE0D16
FFF6F16D
FFFCC08A
FFF7086F
00033C96
FFF8F651
FFFF82BA
001141B6
001A3C3E
0005DB34
002396E0
0020B64C
0033C9E4
0031A4AB
002E5F0F
0046B090
0026E643
0005C3A2
00109D69
0017422A
0017EFD4
00282125
002E6292
00214B70
00233692
0016AC47
0015208D
0023236F
00244669
0018E09E
FFFE4CEE
0003AD52
0006E5FE
000713F7
FFF0729B
0023585C
0027C424
001B503C
00222C78
00139A84
002E0236
002A84FD
001E0C49
0018C323
001D0F19
001BD5F6
0010AF51
00184C3A
FFFD6813
FFEB2FCF
000628E7
0014F064
001F0436
00247F2C
001C581C
001AF454
001CA452
0007F9FC
000C7505
000804C9
0002EB09
0000693D
FFF454E5
000CD974
00070BB5
000F2ECE
000FEC7B
000688FC
0013D444
001C1F3C
0016C375
0000040D
FFFDB825
FFFF6C9F
0012356A
0000D218
0012AA3C
0009CE61
000B0509
00142697
0011E1DF
00151E3C
000DF3E7
FFFB84A5
000E4955
0013F168
0012E686
001C11B0
00008767
0004578F
0012980C
000B7594
000CCD04
000F2DCE
001335AA
0013737D
0019C05A
000B91DA
FFFD0CC0
FFF69040
FFF8E10F
FFFF8A3D
000A68E0
FFFB79CE
0002EF81
00020E9A
FFEDEE70
FFF29787
FFFF8E29
000A6F4E
FFF12A52
FFE2C27E
0007DD66
000F7401
002D6393
0011C802
FFFCBA32
FFFC0CED
001515AA
001683E2
0018E0FA
000C7456
00135670
001B7994
00096688
0011E051
00096C47
00063481
FFF72056
FFE9C0FE
FFE7831C
FFF2B40F
FFEC69D7
FFE9A254
FFDE80C3
FFE8DC51
FFE5DF6A
FFE2C5EF
FFD41A4C
FFDA92CD
000452A6
0014FD6C
0017DF76
000C0717
FFFEE3C1
00184DF0
001128CA
001B028C
0022EC15
0012F805
00077BCE
00068CCB
00011BEB
FFF4D7D1
FFFEBF4C
FFEED11E
FFF66B94
FFE04B3A
FFE1328E
FFD75D86
FFDFEBF0
FFDEC396
FFE91355
FFE59179
FFDC67E1
FFEAC099
FFE65169
FFD23908
FFF19AE2
0016E4CC
FFF703A8
00219C57
FFEE68C8
001B7D05
0011B6D7
00180559
002D7E40
0017CA8D
0003D590
000DE025
00091B48
FFF397C8
FFFD7D5D
00002964
FFF973C3
FFEB4550
FFF1BF3F
FFE1F42D
FFEB0EF0
FFEB51D1
FFE67701
FFFACDB9
000350D3
FFF1902A
00033C58
00037062
00073800
FFF6F84C
00032197
001A23D3
0006C4B6
001CF62C
002291D0
00134E81
0030F8BA
001D5210
00195423
001B807D
00144EB7
00086E88
0000F1E6
0008EAA6
000EDD5A
00042B83
00090E74
0003D7C5
FFFDB382
00080802
FFF533CE
0000AE4E
0008FA5D
FFFD6966
FFFF7305
00098712
FFFD4F0B
001983F3
00266671
00146188
00094820
000A6DA9
000F2649
000F6347
002CDCA2
0023050C
0019BC72
001D1A3D
001A00E5
000D1705
001E2168
0017BBE7
000C0C73
001527B6
001F8318
0006AD61
0005575E
FFFA62D3
FFF9B232
FFFE0AAE
00082B42
000546CA
0002902A
000EDCB3
00217CDC
001FC98A
0034F4AF
FFFFBAD8
000CA8F1
000FB590
00131C5B
001BCBB1
002E2A7B
00288A26
0012420E
00193C1A
00116C7B
00065D6D
00051FBA
0000CDF2
FFEEEDD5
FFF2ACC7
00043873
FFF33C28
FFFA1654
FFF3953D
000B02F3
000694A7
00052758
FFFEE265
00054E3D
00149A1A
0029C89C
0039CE5D
003E8D8A
0010FC46
0007AC5F
000EE91C
001878D3
0011707E
0010CB92
00115364
FFF2AFE7
000902EB
FFF77A99
FFF5FCC4
FFE9C9FC
FFDA3DAC
FFC7F8B9
FFDDC517
FFF07318
FFEB06C4
FFF34B38
FFF7513C
FFFF710B
FFF49D78
000DA1B9
FFFBB39F
FFE7438F
FFF772E2
000A6D8C
002175A0
001D573F
0016B3CB
FFFC9F56
FFFC8937
001C566C
000B2F15
FFF489AF
FFED2E84
FFD159FB
FFCAD9FC
FFDB3840
FFE0162C
FFDD2C6E
FFCAA341
FFCE019D
FFE4ED96
0003C146
FFF3C7DA
000A2865
00017CEC
000259D1
000755BE
000D1366
00007FF3
FFF2A1B0
FFFCEB88
000DC2A9
0017CE9A
000F9D56
000C7A68
FFFEE8C5
0006C3E4
00122C18
FFF41F85
FFC74380
FFCBD67C
FFBEDC16
FFB61D6E
FFC39030
FFC55E01
FFD08743
FFD36FD3
FFDFF705
FFFC3C86
0023289B
000C230A
000ABE37
0002EE5F
000D0A28
0014FE0C
FFFE0293
000037E0
000B8DAD
00086591
000BC31B
00052F70
0020D734
00183AF0
000021E1
FFFA49A9
000A385E
FFF3988A
FFC12AD8
FFC7463C
FFDCD792
FFBAE8E0
FFCC1598
FFD440A8
FFD1F5C6
FFE1599C
00070BA4
0034A752
002EC63E
000BFC73
FFFEDD63
0005B566
0015EF10
000AAC5E
000CAFAA
001B8016
0007DEDB
FFFEBC01
000C946F
0007FDEB
0003BF42
0001B8DD
000245C0
0008214C
000AB41B
0007036F
FFD2C98F
FFD7FAE4
FFF69786
FFDB6EEE
FFD28305
FFD792F3
FFDF494A
FFFB2E60
001A438F
00419D1B
002DE975
0018EC34
000BE06F
0003372D
00148D69
00190823
000723F9
00075C7A
00000524
00047E3A
FFFF3844
00178DE1
001B7F43
00170CFC
FFFEE244
00039626
001C8FC6
000ADDC1
FFF0B5F2
FFF01084
FFFA352C
FFF22E90
FFF78EE9
FFDF7C75
FFEDFDC6
0002E272
001CB483
0023539A
0021B350
0006B91E
000CA54C
000F6153
000C31F0
000FCC47
000CD329
FFFBB37B
FFFFEF4E
00040D34
0005835E
00229913
00243BE9
001D7F4A
FFFAE6B3
FFFEA5B3
002211E3
0025229E
0013A137
0011CDB5
000F0CDE
000DD97D
00017449
FFF847FC
0000D02B
000F13AE
002773F4
002F4D40
00174C06
001A6B80
00136C5E
000EC81B
000528B2
FFFCFBBB
FFF2F7CC
FFF385BC
FFF7B5B3
FFF8187A
FFF972D4
000BE4D6
0003AF8A
000CA1DC
FFF58441
000461F5
00255E76
00203FB7
0030148F
001048B7
0018AE64
000BD7E8
001A1212
0012DBF4
001E411B
00135A65
0026F748
0018BEE7
001819F7
0015CE86
000E0CEF
000C3D0B
000701A0
FFF6ABE3
FFED70BB
FFE4670C
FFEBBCBA
FFF91591
FFFECD97
000C287D
000CB76E
0003D304
00017BEB
000668D2
00267107
002C199A
00218602
001F2627
0013F40E
0025F6B2
0026E486
001CD4F2
00171C8A
00105071
0012A0ED
001553DC
000D0EB5
000E9F4D
0010EFF7
000243BB
000A903F
FFF09482
FFE97E6A
FFE1F3B0
FFF208BA
FFF74C83
FFF8154A
000B0D2C
FFF5E7C8
FFFDC13A
FFFBB063
000B69C1
00223198
0011C713
0012DE8C
FFFF02C7
00101762
000D119C
00138837
0021CE5C
0016FACD
00114221
0011A987
00162B0C
0011A628
0005EF43
000FCBAA
000EE761
00106A51
00065601
FFF191F0
FFEBB7AB
FFF35966
FFF1035D
FFF0843B
000DF075
00177BE6
FFFE12D6
FFF0D3BA
0000943E
001DBFF8
00040028
00160022
000DC133
FFFC546B
FFFA7AF8
FFF44142
0005909D
000DFE5C
00025133
FFFB4780
000099C5
FFF9A9AE
0009D02B
0003635E
000CAF44
FFF6A43D
FFF73201
FFFE1918
FFE33E99
FFEDAD6B
FFEB9E97
FFED9A9C
0000742A
00144FBB
FFF82D06
0003AD2E
0005DF9A
0014CE1D
FFFE3CBD
0011D86D
000CE0AA
FFF271B8
FFEB073D
FFF07678
FFFB7F3B
FFEC9323
FFF71104
FFFC1650
FFFEACA7
000085E1
000431C8
00051128
FFF44C4C
FFFD9317
000083D8
0000C0BF
FFF499E8
FFF67D0F
FFFF5BB9
FFEC667D
0003A4C7
0001043D
0008E76C
FFFBF6E4
0008ED9E
0004855F
002413EF
0002BCA7
FFF92C92
FFF70E09
FFE45DDB
FFEC260A
FFF6E27F
FFEAA666
FFF97D91
00059989
000DA1CB
0011B6AA
001DA93E
000F54E5
FFFC9A09
00035B60
FFFC9FF3
FFF8A928
FFF5BC48
FFED70A4
FFF251AD
000A596D
FFFCF65D
000973D6
000547BD
FFF7A27A
FFFD2153
FFFD1CDC
FFF7B0AE
FFEEFA89
FFF2A7B9
FFFFAE21
000D644A
000AEC1F
FFFE95DB
FFF7109D
FFFF8964
00154DE8
0012A4D3
0007D1FF
0010FE09
000E1488
0019C70E
00131E4F
00165420
000AEBE2
FFF7BB46
FFF977A9
FFFB6A38
000AD212
FFF4A5E0
0001D054
FFF89F47
00062137
0004D9CE
0006AB24
FFF55938
FFE186C3
FFE0DCF5
FFE04F10
0007F1B7
00052F58
00085C67
00022F05
0002AB23
FFF66D60
FFFB1BAF
FFEB2EFE
FFEB612E
FFE83919
FFEC0081
FFF7E580
0017772F
00073BAA
FFE9F345
FFE5832A
FFFA79B3
FFF92DA6
00058B62
0001D76C
FFFA655C
00004A36
FFF89B4F
000495C4
0005C24E
00089A98
0002E3B3
000DC8CC
00175740
001036C0
0010E4C0
00242846
FFFBF9A1
000330DE
0025FCFC
0008D4E1
0013AF4C
00089482
001EA13F
00020F81
000D1BB3
FFF2F5C4
FFE8D41E
FFEFA7F4
0000EAC1
00029515
0004363B
0000F9E8
0002EB91
