FFFF6B2D
0001D011
000873B9
FFF7EF53
00063028
000772D8
000793A7
0003308A
FFFD28A8
FFF9C839
0006B654
000229EB
000CA8A5
00096C8A
FFFD0AD0
0008062C
0000C371
FFF79EC2
0000CC5D
FFFB71EE
FFFCA751
FFFCD374
FFF778DE
FFF9E6C5
00078112
FFFB21FB
FFFE4AEF
FFFEB9D3
00074881
00048A82
FFFC24BD
000071BB
FFF8BBDD
0000437E
00038BDD
000197FA
00015426
FFFCAF7F
00044A81
000E91F7
000AF869
FFFAF11A
FFEF9744
FFF41D5C
001D6E10
000D0FC8
0003DBB4
000FF8FE
FFFF7DAE
00033E2F
00115245
001CEAED
0003892F
FFFD04DD
000909ED
FFFEEAA2
FFFFD01C
0002D1D4
FFF91F77
000C12CF
FFF83415
0009CA60
0008A51D
FFFF3150
0017985C
0010A256
000E1C8A
00043141
FFF9F047
FFEF056B
00005E4B
FFFCEEEB
0006B1A3
000A3C52
FFF5DF4E
FFD634EA
FFDD7CA8
FFEFB416
0004AD9A
0017CE30
000DB136
00101920
FFF7CFB4
FFF72F6E
00024AFB
0002368B
001DB7D5
00070F09
FFFED77B
FFF9F853
FFF92591
FFFA6418
FFF21847
00071B39
FFF252EE
FFE9EA74
FFEC3A65
FFECFDA8
FFD900A7
FFE56A2D
FFE1A731
FFE66F1F
FFF78296
FFF75F80
FFEF313C
0003BE4F
00220C02
00179A01
000AE795
00139333
00050B02
0006B137
0005D51C
FFFC01ED
0003FEF5
FFEF496A
FFF6D7AA
FFFE844B
FFF95D08
FFEE5D6B
FFF7CC9E
FFF86984
FFEDEE60
FFEF6E89
FFE8FC16
FFE4E09C
FFF043B0
FFFAC927
FFFE39C6
0003B85A
00140E96
00078E9F
00071827
0009B2F9
001967AB
00131F0C
0023C168
0017A591
000D57C9
FFF54B6F
00060EAF
000191AD
FFFDF901
FFEE346C
FFFE0DF4
FFFFC44D
FFEB1656
FFEC7379
FFEF7A92
FFF5C59D
FFFBE7A9
FFFD623A
000AE0DC
000972FA
0003B913
FFF7DCBF
FFFB61CC
000E5F27
000B7F1A
000D3564
0018AFC5
0020087E
001FD394
00186AAD
002717F8
0038FA25
0008179E
FFEDA245
FFFE0903
0003D261
FFFB6919
FFFB2F78
FFFFDEDB
0001E3FC
FFFD167C
FFF5B56E
FFFE05E1
0000AE03
0011F88F
000F24DC
001AE8E7
00166AB8
0017F500
0013F5AA
00157930
000D897A
000D2B1D
001197B0
000F11BB
0013FF16
000D3784
001044CE
000DB9B8
0029A3F8
000A2269
000A4321
FFFC5654
0001692D
0017F7D4
0007E06A
FFFD272B
FFF6E9B3
00032BBA
0007010A
00193FCC
0010D3A6
00117A35
0018BC92
001C4362
001C6085
001BB9CA
0010F49D
00198CF6
FFF2CCC5
0006CD5D
FFFA141C
FFFBE66F
00195156
001C9AD6
00075045
FFFC58FB
FFFFB344
FFF48B66
0002770E
FFE7F9DB
0013525E
0007A983
000284AB
000EBA72
00097B94
00184082
00124DAE
0012E9F4
0010BB36
000EA6CA
001C4103
00155687
00171C52
000E4CFC
000398C8
000376D3
FFF862B6
FFF55FF9
FFF5265E
000193F5
FFF7BC73
FFF50B18
00117FA7
FFFD411A
FFFDA49B
000AF145
0022FBBB
0015D1E0
00121742
FFF9FC7E
FFFC9C2C
000CC018
001DF96E
000D77BA
000F03DE
00106180
0011DCE4
0022C802
00190F98
0019AC87
00084C6F
0000C4F5
FFFBF718
FFED2F1E
FFFA0304
FFF37ACE
FFEE879E
FFE9C6FB
FFEF24FC
FFE3557B
000F5F74
00064300
00199B62
001B08CA
FFF23880
0019B146
000B181B
0011742C
FFEF3CEC
001DB5DA
00354958
0021E4CA
00137D54
001F5122
00179980
00242D60
0020DE67
0012221D
00117FFE
00085246
FFF6E010
FFEF9550
FFF4A7AF
FFF2ADC3
FFFA6A88
FFED22B0
FFE66235
FFEFA3A9
FFFF374F
0017D2E2
000EBC73
002FFEAC
0011A7BC
00075BF3
000C7F7F
000473BB
FFE90608
00165C22
002884A8
00298A5C
0017A339
00137279
00136470
000B9751
000D278E
FFFC58D6
0004321E
FFFE56BE
FFF0B2A6
FFFB7081
FFF37122
FFF793C0
FFF2D93B
FFEADCCE
FFE2D819
FFEF98BE
00051A83
0012D884
0019EDFB
00357234
0003F520
FFF958FC
000FC5DB
000DC662
FFF6E17F
00171A89
001864C1
000D2E26
001482E0
000B7251
00054F2B
FFE43814
FFDDDF18
FFD96B16
FFE4567A
FFE71F34
FFF2FCF5
FFF2C34C
FFF3C359
FFF498F0
FFF64EDB
FFE58A83
FFDE85ED
FFF13D23
FFE85A33
00028748
00128343
000786BB
0014F456
FFF80496
000016B5
00165875
FFF339A9
FFF77C3B
FFFFC95D
FFF9DF44
FFFE8592
FFF4D7FA
FFEFF578
FFE88263
FFD308F6
FFCCDDE4
FFE36F60
FFF37DA9
FFFAA339
FFF626E7
FFF1A5FD
FFEDE787
FFF7360B
FFE6B7D8
FFF29842
FFFD8B75
FFEA3422
0002A4F7
0007BAC0
0015EADE
00183453
000FAD78
FFF3122B
000AF2E6
FFEEDFDB
FFCC76FA
FFCFD7F2
FFF31E1A
FFDBC562
FFE59409
FFD8C47C
FFDBC082
FFE2DC6E
FFDB506D
FFF4D63A
00067A1C
FFFF3FA5
FFFAC4E7
FFFFC81F
FFF9BF7A
FFEF02B0
FFED45C3
FFFA5845
FFFF1EB3
FFF30C7D
FFF542BC
000B65C0
0026E47C
00141E96
FFFF4D51
FFEEB441
FFF4F812
FFEDF7B1
FFE324B7
FFD0ECE0
FFE10E9C
FFE6C003
FFD52AE4
FFE193A0
FFD46496
FFE3EA4C
FFF68A9C
000F0311
00134915
00028B2E
FFF77C22
000541F0
FFFB9BB7
FFF4CDB1
FFF1B73A
FFEE6949
FFE8C772
FFDBB5BF
FFE8C7FB
FFFC109D
00054B70
000C28C0
FFFEAC26
FFFC2FFB
FFF29BD2
FFF60CA4
FFD49A09
FFCB9B58
FFD4A665
FFCDC3D4
FFDB5611
FFDBC967
FFEDA516
FFFADD78
000595DE
001BD9D2
0015B5E7
FFFC72BB
00057203
FFF989E0
FFEBD00D
FFED9571
FFE936DC
FFE8C4F6
FFE609E4
FFE4E8E0
FFF854A4
000C3CF8
0022C5C3
001B1B8E
000893C5
FFEBA113
FFF79A9C
0002B2B4
FFDF3C84
FFD002A4
FFDF990A
FFD9A188
FFDB1874
FFEC00F4
FFFD6ECB
00152581
0018EE88
0013498A
000B81F4
000D05CE
00014ADE
0002F1AA
FFF55B3F
FFF1F220
FFEB3E7B
FFEF1564
FFEE5935
FFF545C6
000C3256
001D3AFB
00204319
00205AD5
FFFD4D2E
FFFDB678
FFE731C5
FFF929EF
FFEC45C4
FFDBF70B
FFEC469A
FFEE0A7E
FFF7A781
000511CD
000AF7F2
000B9764
00140716
0018EC8E
000B6660
000CF8AA
0007D41C
FFFF9573
FFF73AE8
FFEE46CB
FFF3BFBF
FFE6D750
FFEC2609
FFF921D0
FFFD5EA8
000CE63E
0014DE89
0026966D
FFFEA182
0006CFA4
FFF642B7
FFE003DB
FFE36A9A
FFE66598
FFF191E4
000045D0
0003DDE4
00024A17
0012758B
000CBB79
00141CEE
00135F20
0004C8AA
0007392B
00072F02
0007E018
FFFB75F7
00016262
FFEF1C15
FFE9EF48
FFF5384C
FFF29669
0000F6CB
001F9C03
0019C375
0016ABC1
FFFB2080
FFF92051
FFFA3FFC
FFEE5C0C
FFFD1EF8
FFFB8190
FFFF42D6
FFFD1789
0015EA8A
000878A1
000EE1CD
FFFE741E
00153100
0013669E
000D0F5B
001B57CA
00055D42
FFFBDE8E
00056FDD
0005D09C
FFFC2E64
FFF6996E
FFFEB1B8
0007184F
001C7818
0025EE57
000704B2
FFF693FF
FFF1068C
000F94CA
FFF95A3D
FFF15472
FFEFFAB0
FFF2FC7E
000A755C
FFF88EEC
FFFA3F40
000461AE
FFFE49EC
FFFE9750
FFF96AC1
000C95C8
000DEDEE
000C2D33
00059682
00085861
00109A3E
000C7DF3
000C793D
FFFD9B01
000E5F6A
0018BB2A
002512CC
001238EF
FFF721BD
FFF5A0CB
FFF23D9B
FFF810DC
00011576
FFF5E1E1
0006430E
00040A8F
0011E49C
00086D7D
0002DBA6
0004D00D
00008C98
0003AA83
00041F71
00085D3D
000FEE8B
000318AB
000595CC
FFFB8312
000C7182
FFFF3E5B
000388A3
0008A8EB
001326B0
0013FF7D
0026641F
000849E9
FFDE7B1E
0003AF25
00016484
FFFD254C
FFED496F
FFE4297E
0004B55E
0004A371
000A5874
00086570
00101229
0008550C
00040EF6
FFF9ECD3
000F866E
00001D64
0007BDD9
0001F753
000E60EF
FFFAA046
FFFACFA3
000E15EB
00191E98
001C20AE
00309E97
00268108
00191F46
0003E6DB
FFD7FDEA
FFFB5BE2
0008E61C
FFFA5162
0000F014
FFE3C5BB
FFD9818A
FFE820EB
FFE4809A
FFF826ED
FFF119C1
FFF6C33C
FFEC0707
FFF84AD6
0002E126
00008663
0007FB1F
001685BE
0009C59A
000D10FF
003186A8
0029E66E
00208087
0013877B
00075D62
002114AA
0031DC03
001092B0
FFFFD598
0004DA9B
0003B22B
00025239
FFF6A227
0003D51E
FFFDFE48
FFE5DBE8
FFE68FA2
FFEB2623
FFDD65EA
FFDBFF58
FFDE4368
FFF4A3F0
0000594A
00066A3F
0015A55A
00251735
0021F35E
0031539C
002F2C84
0024BEB9
0012298F
0019AC7F
000F9FED
000D9D43
00245BA7
000638CB
0009B2C3
FFFC0769
00009E56
000795EB
0002E4B4
FFF6F6B8
FFDB2C62
FFE0AAA1
FFEC1487
FFFD41A9
0011EFA2
FFFEE3B8
FFFEC36A
FFFAB1F7
000D495D
0012747B
001EE902
0013F980
000D2338
001AE091
001E5456
003250FC
00259EEA
00184E9A
00091427
0011D2A4
FFFEF7CD
0006FD11
FFF9A118
0000C394
FFFEC22B
FFFFD526
0008464D
00001323
00058A78
FFFC8D15
00027186
0000E719
0010EE4E
00112062
001D7510
00132F50
000C428C
0017F544
000F1E4F
FFFEB010
000691CC
002F992B
0013DEBE
0011A03A
00048FBA
FFF57D01
FFFC9331
00060211
000717C0
000433BC
FFFD9065
FFFEA2D7
