FFFA1B17
00069292
00077089
00063B99
FFFFD5A3
00023F5C
0000770D
FFFC86FF
FFF6F26C
FFFEE1EA
0003F44E
00055549
0008A204
0009CD40
0008295C
00009BEA
0005F863
FFFFCED6
FFFCC314
FFFC7319
FFFAABE8
FFF8F54C
0002182E
000872CF
00014CBB
00013C56
FFFC91F4
FFFC655C
FFFD2269
00032A29
00019388
FFFCA409
0001DA3F
000186FA
00018E1D
0009F938
FFF8EEB6
00099AD6
0004EDF8
001D61FD
001FCA55
0008A3C3
FFF7C78C
00203C24
0024F458
001A5650
FFFD10E7
0013EBDD
001AC3A0
000551D3
0011A4AF
000EC17E
FFF818C9
FFF8AD7D
00032CA4
FFFD549C
FFFDD34D
FFFA7CD1
000A4466
0012B10D
00139F4E
0001524B
0004D763
00115277
000B4DBC
001189D2
0025FE68
00286A10
00250835
001BFC95
0013B30C
001ED636
0018A648
FFF8D4FC
FFECE22B
FFEB41BA
FFFF18FA
00209F1B
001FC3BC
001AABFD
00138C75
0009E4EF
0003E420
FFFF5B20
FFFE779A
00017AF1
0018C821
0014349C
FFEE427A
FFF77D67
FFF92D33
0003E349
0011F50D
001C2F50
0017871C
000F7A7D
001090E3
001E5C0E
00041292
00087D4E
000DC337
FFF39184
FFF3F090
FFE4F2E0
FFCEC770
FFE5E541
FFECA5D1
0010E962
0011CD82
FFF29259
FFF202C7
FFFA4704
0007B119
FFFBA95F
001B9745
00002173
000106B7
FFFC5F53
00020198
FFFA38D0
0011F1FE
0008F64C
000517AA
000801F2
000D3536
000F71FC
001922D5
001AFA66
001AE920
0004AA29
0003F6A9
FFFD0EFB
FFFC0ADA
FFE7D7E1
FFF03DFA
FFE52CF3
FFDFE3BC
FFEA5D9B
0009A709
00037758
000648B4
FFFB1921
0022D764
FFEA9692
FFF3DF8F
FFE1B9BD
FFE66ADB
FFF08AD6
FFE1C9DB
FFE5596B
FFEAB037
FFF00ADB
0005ADF9
001002F9
000F9A1E
0011C482
00162040
000C8C62
0008CA45
001B5460
0006323F
0008B168
FFF6892A
FFF842D8
FFFFA7E1
FFF5F126
FFFA5FE2
FFEF32E4
0005E7B8
001F2857
FFE21CA2
0005F10B
FFEA2962
FFD54CAE
FFE82CC4
FFDA32F6
FFDD4863
FFE69E69
FFF12FF7
0003278C
00089117
FFF9F9AF
00025C31
00085BFF
00180279
000A48C6
0019F2C6
000A6EEA
00129DD0
00068F56
00046766
FFFA49BA
FFEEE78C
0005C08A
FFF2F63E
00021F1D
FFF7F199
001DBCDC
FFFA5775
00060D2F
0004257A
FFEC3820
FFED4D3E
FFECCB68
FFF38E6E
FFFA78DD
0001F76B
FFF23A80
FFFB06C0
000172B7
FFFC78D5
FFFE339B
000AA6B7
001163D4
00115850
000D8644
00109FF6
0017B4B6
00145A55
FFF9B658
FFEC1951
FFF8AED9
FFE94BD0
000A7194
001A2315
0019D466
FFF0DA87
00009FC8
001056E9
FFFB669C
0001BA3E
000276B7
FFF74788
000650DE
FFF99A14
FFF7AF0B
FFEECDBA
FFF81825
0002CE31
00103654
000EF648
00103379
00159B6E
0010A0C4
00076558
000A0870
000AD282
00077B4F
FFE7C917
FFEB7641
00060B28
000A8756
0009827B
0002569C
FFFC15EB
001248EE
001CE9D0
000969F1
000A7A90
0004FA05
00041513
00018B72
FFFC4B9E
FFEDB2CB
FFEE8C30
FFFCD684
0004DFB7
0014FF04
000F9917
000C371C
0005B2BA
000E2991
000E854D
000D335E
000C75B7
001177EE
FFE8766A
FFE6D05E
FFF75556
FFF15815
00145852
0004E18E
FFEE8EAD
FFFB75A2
000E7ED9
0002E100
00102D12
FFFC9B66
FFFE7C1E
FFFCD58E
FFFF614D
FFEB9BA8
FFF437DA
FFFFF0D7
00221B61
001183A1
FFFAF81F
FFFC2FA0
0009D8E5
001B11BA
00111CF4
0018D341
001F9053
0020CB76
FFF2B78E
FFDEFF4C
FFE35B10
00038091
FFFF5530
001C7893
FFEF3473
FFF3EA42
000B8FE6
00090C76
000855B4
0003B7B3
000644C1
FFF5154F
FFE9A37C
FFF5DFCC
FFF9FE09
00063C59
002486A8
FFFDC608
FFE6423E
FFEF4A02
0005E444
0007321E
001D4567
0010FF0C
001A3090
0015CDCD
0004A6B4
FFF772DE
FFF8E41F
000BA323
FFFEBDB7
0006ACAA
FFF1C9FB
FFF4F5B6
00006AC4
0007FE99
00014A0D
00068203
FFFD8EB0
00080613
FFF4F99E
FFEC32DC
FFE3996F
000590B7
0009FAAE
00037679
FFFBAEB9
000EC398
FFFAB213
000064FD
000C4AD9
001C377D
001BC10A
002B46DF
003F2FF8
0008606A
FFF4263D
001BDA4F
001083E8
FFFB307A
0000CACA
FFFA8EB8
FFE8BDA4
FFEFE1B6
FFF05617
FFF5347E
FFFA0761
FFF6C9EE
FFF0E4B6
FFEE0DA0
FFECDBB2
000BA872
0010F9FF
001400E8
000E7811
00078CB8
00052CE6
FFF9720B
000779AE
000920E6
00135FDB
00146598
003831E6
0024BE89
000FD6B6
001A5D6B
FFFA758A
FFF47436
000A3CA7
FFFD19FC
FFE53E7A
FFE8004C
00054D01
FFF453F3
FFF61032
FFF0C543
FFF574CD
000ACC36
000885C4
0022479D
001AA047
000D1C8D
00071FD4
FFFB810F
FFFB9FEB
FFFEFCAA
FFF8A581
FFF8D32E
FFEF07B4
FFF74E24
0005DF49
001B7AC1
00282A22
0016C005
FFF8219F
00033491
000467B5
FFEC68C3
FFE460AF
FFF7EE32
FFFE40DE
FFF7A601
FFF0E3B7
FFFDEE48
00019B3F
00066319
000C331B
001FD9DD
00245A0E
0011D47C
FFF90587
FFFA16E8
FFF839A0
FFF7FBC1
FFE6EBFA
FFE80D45
FFFBEADC
FFE0CE02
FFF05329
00015443
0007AC7A
00130856
00062D59
FFFCA6E8
FFFB2193
FFEF2A80
FFF5EB22
FFF9EC9C
FFFF7676
FFFA3B01
0000B28F
000EBDA7
00197FA4
00152382
000C12F2
001230F8
001BE5F1
FFFD0337
0004F82B
FFF35B9D
FFF07976
FFE3F3A7
FFE5CC3B
FFE9C8F4
FFED01F7
FFF24694
FFFACE7E
0002FF04
00113E66
001DCE44
00024721
FFFAA9D8
FFE12A80
FFEBDFBE
0003B475
FFFBEB18
FFF00989
FFFE8F4D
000EECDF
000CCD66
001D69CA
00119401
000EF7E6
0012F651
000CE30E
FFF3B797
FFFBBD7A
FFF28912
FFE6954E
FFECD0E0
FFE63978
FFE3EEEF
FFEFE6C7
FFFA1B0F
000850E0
00119FC4
0017447B
0026320B
001D97E8
0005239B
FFE34445
FFEF2C5A
FFF84235
FFFC1C30
FFF9ED7A
FFFE8354
0002035B
001002E5
0007B64D
00012B39
00046901
000A47DA
FFF15154
FFEF9EA4
FFE6AFBA
FFF0D2AC
FFF2DCC4
FFEF5F41
FFEF2800
FFE30655
000A6626
0020520C
000F9D95
00264199
001055EE
0022936E
00098CBB
000688A2
FFE2E88A
FFE3861D
FFF46554
FFF105FE
FFF77AE1
000848D7
0007B2E6
000EC412
000ED0AB
FFF8DACC
00081DB8
0003E174
FFF41CD9
FFF538B6
FFF0AC5F
FFFA2444
FFF4A765
FFF0171A
FFFBF5A4
FFF988AD
0016BC9C
00220852
000E4F45
001CA541
0026913C
0014148C
FFF82892
FFF0047C
FFEB05CA
FFF72390
FFF911F1
FFF5BBC0
000BFE86
0018AE06
000B8546
00055103
000E6549
0004B526
FFFFD340
FFFB1C92
0004C120
FFFF0577
FFE8F89B
FFF7000E
FFFDFBED
0003691F
00060BF6
0003CFB1
0016BE54
00105A62
0000EB1F
0003327D
000FA6BB
0009A0CF
000C4AFC
0019A031
0015800F
00110FD5
000A4213
000B05D3
0019DD98
00175199
00056B7D
000B5CC7
000C27F7
FFFB39C3
FFFF702F
00082917
0006FA85
FFF293F4
FFF4EB04
FFF0CB8B
000C9B06
0007B9C8
000698A9
FFFB69AC
FFFE1549
FFF8D7B2
FFEBD48E
FFF567F7
00155DD0
FFFD8DAD
00020ED8
0007D9DE
00052C89
00007CC1
00155900
001F081F
0026DA2C
0028322F
00238ED6
000EF5B8
001257DA
0011711F
00049E2A
FFFFC332
0004ECC7
FFFF36BE
FFF5B4A7
FFEDAF5C
00005D3B
FFFC900A
FFF23098
000398B1
FFFF7318
FFF52D0E
FFE7D360
FFFFE444
FFF70679
000635C2
FFFF646E
FFFE4E86
0005BE4E
FFE90E07
FFEFD88F
FFF0891A
00153AE6
00174676
001D8548
00136B63
000543FE
0010DC8D
00188FFC
000B4A29
FFFE0111
0007209C
00006FF2
FFFCB389
000BD408
00076BF5
FFF02821
00020CCD
0001E4C2
FFFEEF7A
FFF49776
FFF539C8
FFEB604A
FFFE0367
FFF85DD2
0007144D
FFEBA0CF
FFD346D0
FFD76EE0
FFD80EF6
FFEC8A41
FFED3B18
000288EF
FFF13ED2
FFF34CF2
000059F9
00018328
FFF9B33E
00032FC9
00063840
FFFBCE8D
FFF9F9B3
FFFC5BBE
FFFC4AFF
FFF7DC8D
FFEFECC8
FFF0C96F
FFECFF76
FFFE2029
0017DBE3
00125952
FFFC47AC
0006988C
FFF86A3A
FFEB0F46
FFF0F799
FFC437CF
FFC1B6CF
FFF603F5
FFEE8C67
FFFF3942
FFED9280
FFE2E9B7
FFEB80FA
FFF6E958
FFE70B64
FFF25278
FFFDF6A6
FFF84FDE
FFFD0CCD
FFED3584
FFF950C5
FFFE9E14
FFE4250A
FFD66E49
FFE02DBA
FFE361A4
FFFE0561
000E25E3
0005D458
FFFD3D2B
FFFF2580
FFFF8F49
FFEC03A6
FFDF3B7E
FFDE89A6
FFEE33C9
00049211
0012A0CF
000F7F8D
00027DC3
FFF6F26F
FFE4E577
FFE76377
FFE96868
FFEB805C
FFDA08AC
FFE589AE
0007F4CC
001103D8
00048ED0
FFF943CF
FFFCF5CB
00062AAA
0001B441
FFFC392E
FFF983B1
FFFD2113
FFFB77BB
FFFCCB15
FFF908F4
FFFD3DF9
00084936
00005361
0017A25A
0010E47A
0015BC24
0011E976
001273CB
FFF40B55
FFFE5892
0010F38E
0023D9F6
0019D8DB
00127514
001E0476
0024F7F6
00197A69
0002D2CF
FFF4CFA2
00034781
0016AB24
FFF8D365
FFFB3483
FFFDC909
0000076D
