0005D464
00001D95
00030D02
000904C9
FFFD0574
FFFC478E
0006A30B
00037F08
FFF75EB7
00034074
FFF7087A
FFFB0940
0001B696
0002DF97
FFFBFE25
0005E20E
00091606
0007211E
FFF79A49
FFFCACA5
00008E67
00076E5A
FFFE7760
0001E8F2
0004CFF1
FFFB376A
FFFA7690
00090AAC
FFFFCBC6
00067829
FFF715BA
FFFC829B
00066A59
FFFF1D66
00007A6C
FFF4B387
00056CA2
FFF8A488
FFF8DEDB
FFF5AF19
FFF20D9A
FFEFFE9A
FFEFF45B
FFDFDC69
FFD44815
FFE56D06
FFF9E6AF
FFFFA8AC
FFF0A0C0
FFFD791D
0002C9CB
FFF595EA
FFFC0A0D
0007D0F5
FFFDE762
FFFD89A7
0000BBD7
FFFB177C
0000A854
FFFC3331
0001932D
FFFCB84D
FFF8B869
FFF69567
FFFBB089
FFF18D1A
FFDB3000
FFDC5211
FFE12859
FFE36F5E
FFE8FA0A
FFDFC816
FFDFF369
FFDF0C2A
FFCFC618
FFEEEE99
FFF876B2
FFFC98FA
FFF91F90
FFF5D446
FFF6E081
FFF882AA
00001332
FFFF541E
0006ABDF
FFF7BCCE
001ADA15
0013F33B
FFFF4F4C
FFEF99BB
FFFAA280
FFF66E60
FFF0E694
FFDE7DEF
FFCA5CC5
FFC620CD
FFC74E8C
FFCB0B23
FFA9FB4E
FFAEDA14
FFB457EF
FFC06CFB
FFC26258
FFD19167
FFCEDCB2
FFC9B007
FFC5C3C6
FFDFC21C
FFE40209
FFED43AA
FFF8533A
0000ABD6
0007FEA1
FFFBFB47
00134924
001C0F74
FFFC1401
FFE90811
00046E23
FFF9DB2E
FFE2B166
FFD4FDC4
FFD5F829
FFE6346E
FFF81EE7
0001E755
FFEA649A
FFD6E6ED
FFE0544F
FFE55D72
FFF6415E
FFF6DB58
FFF09F89
FFE85F42
FFCDBE18
FFC023DA
FFCD486D
FFCC8976
FFEE9C7E
FFE802CC
0001A884
0002B409
001AF7EC
001A8299
000238B7
FFE46736
FFDCC5B0
FFDF3D65
FFCF4D3A
FFC839EE
FFD60D76
FFEB93F7
FFE0D64D
FFD7652A
FFDD22C5
FFE987FF
FFD5C04C
FFE6EA6B
FFF6EAA5
FFF0F0EB
FFF35CFB
FFEBF808
FFE51E81
FFD8AD04
FFD34984
FFDE129D
FFF21C73
FFFB7190
00037E51
FFEC359C
FFD64920
00068C17
FFF89B82
FFE5C276
FFC89ECD
FFCAFEFB
FFD24EFD
FFAA72F6
FFBFF03A
FFD4A9AB
FFDCFF94
FFE9FF52
0002C9F6
00033BDE
000FDA08
000FD3A8
0013D146
FFF69FBD
FFEE5872
0004AAEA
00042164
FFE28F96
FFF5271F
FFED9F6E
000C71A9
FFFF69DD
FFFA35FE
FFDC7B67
FFDB077C
FFF5B744
FFE238F1
FFE0FDDF
FFD4B52C
FFCD65F4
FFD54E17
FFBB9917
FFCA9C91
FFEB8319
000003DE
000B9A6D
00102919
0006287C
0013FF1D
000E5FA9
00133DB6
00007931
FFFE18D2
00035876
FFFC177C
FFF9715C
FFE90891
FFE8A17A
000FF2E5
00028048
FFF58B7D
FFD1D691
FFE1D0A2
FFE88AE1
FFDE6E49
FFE3D3A6
FFC99E41
FFC5EBE4
FFD84F48
FFE035D0
FFE4B4CA
FFEE3E91
FFF6BCE9
00122528
001509D5
000EC1FA
00094A1E
000318C9
0003B5FD
FFF3519F
FFDFFEBC
FFEC8222
FFF7BAE6
FFF29960
FFED4377
FFFA9002
FFEA6D04
FFEBD22D
FFFAAE1C
FFEF4920
FFE0DF22
FFE72C92
FFEBC83A
FFD5D444
FFC24D90
FFC11FF6
FFDC69C0
FFECFA63
000311F0
0002E8DD
FFF5DE6C
00056060
00067B68
001C0C92
0005A4E8
FFEB21ED
FFE4B4D1
FFECF588
FFDB6C6C
FFDCADA2
FFE05222
FFEFE40D
FFE5971C
FFDC23C4
FFEA731F
0006D767
FFE820B5
0009FE76
FFE13327
FFE32866
FFEE4816
FFD60A1D
FFB18612
FFC12866
FFF7F344
0006E975
0009B366
00071868
FFF01843
FFFFE1D2
00122042
001C89DB
00106BBD
FFEFD2BA
FFEF42D2
FFE20365
FFD5D8F8
FFD6C2C4
FFE18FA8
FFEC71D4
FFEBDD34
FFE4D7E7
FFF1FE29
FFFD36E5
FFFC4F2B
FFF0ADCC
FFFBBF76
FFECF2BE
FFEC85D9
FFDAC3C1
FFC3E773
FFDEF351
0010B476
000C9331
00097414
0001E80A
FFF86F55
000A8276
0023CD3C
00218285
001452F6
000B5559
FFFD6C82
FFF8ADA4
FFEF1135
FFE3EF4C
FFD50E9D
FFDA0024
FFD6B284
FFD1E05A
FFCC0832
FFF1ED7C
FFFA100B
00026031
FFFBDB82
FFF2D571
FFE92995
FFDAB5E4
FFDD23AF
FFFACFA4
001188A9
001197B6
000DE0F6
0005D298
000B180A
0021281B
0029F1C8
00260F61
0020FBC2
001BC258
000D415D
FFF03A39
FFEE65ED
FFF61AB2
FFD7EECC
FFE7339B
FFDEE90C
FFDB985F
FFDC6D5F
FFFC1F3A
0014BF5F
FFFDBF14
FFEFD40A
FFEAEFF5
FFF1E586
FFD3AA8E
FFE1580C
00046123
0016E9B4
001BF1D9
0014A6FC
FFFE3C1C
0015F90D
002F7E9C
00352E63
002D5875
0028134A
00196D06
00043CDB
FFF9401F
FFEC4319
FFE6C615
FFDD8BBD
FFCBD4EC
FFD92AB4
FFE3415D
FFDDF199
00075E51
FFF95237
FFFB025F
FFFFC1F5
FFFF1CED
FFF864C1
FFD374C8
FFD53724
FFFBEE1E
00118C44
0018F237
000E942F
000DFB76
0020126A
002E8323
002B25C5
0029B1A4
002ECE88
0018FA50
0008A2D8
FFE11116
FFD5C534
FFD43024
FFC326DE
FFD7415C
FFD51B4A
FFDB55D4
FFD74B78
FFFCC04C
0005006E
FFFC953A
00054DA6
FFFC80E0
FFFE5333
FFDDE194
FFCA8DFE
FFD8DEFE
0004E0ED
000A8473
0022BDD6
001DF400
00253E4A
002D304A
0023E204
002011AC
002AF781
000D47D6
FFF6BA82
FFC81501
FFB9BBD8
FFDDED34
FFEBDCF1
FFE445AB
FFD8DFCF
FFDAC698
00002B3B
FFE81238
00022DD6
00025D61
0004B634
FFF62379
000690F8
FFE8D3DA
FFCAFE0A
FFDE38F2
00027C05
0006F47B
001E5A75
0024A439
0025FC36
002A74F6
00140ECB
0004AD1F
001AE37A
FFF69672
FFD7B3DC
FFB8BD2C
FFC1E7E8
FFE732D8
FFEDFA92
FFF0730A
FFDC4665
FFD06D4C
FFF007B4
FFF271B2
00014291
000AA078
FFFBEF02
FFE513B4
FFE8F4F6
FFEB8E9A
FFBE7406
FFD129E1
FFF0D1C5
FFFFC2EF
00092F69
00096565
001EE933
002DA119
001675CB
0002AFD5
FFF30532
FFD9933A
FFB31CCD
FFB0845C
FFC3E80E
FFF8E680
000170FB
FFECF690
FFD5C406
FFD0BC82
FFFBCE91
FFF6E58E
FFE6EF31
0007399C
FFECE12D
FFE1CB22
FFE85CBB
FFE22B07
FFBCCFD4
FFC4B67C
FFDABC95
FFDE7213
FFDB41C8
FFF5D5DF
001B3038
00277539
0024DBFA
FFE9B682
FFC99578
FFC43602
FFB266CD
FFA78C23
FFD44367
FFF17717
FFF52700
FFF0FB24
FFCCDDB5
FFF46823
000F4649
001B87FD
000D8F56
FFF15453
FFDE5DE7
FFE3998E
FFF22621
FFDCB45B
FFB3B776
FFB794E0
FFB6B40B
FFC46524
FFDCFB67
FFFA5E15
0012F9C8
0020964C
0012E451
FFEF59A0
FFD77B58
FFC12C57
FFBB321C
FFC3A5B7
FFCA64F8
FFF7577D
FFFA41CC
FFE8CED9
FFFBC264
00075E57
000C36FD
00117CD8
FFF8FF1C
00042547
FFF72F7F
FFDFFB43
FFF79724
FFCC2B87
FFB257D2
FFB758CA
FFB93820
FFC59277
FFE3EF23
FFF1AFA4
0005862D
FFFD6854
000568AA
FFE984DB
FFD93604
FFCAE97C
FFCCA1C5
FFC656A8
FFD149FB
FFF6FEC7
0013E863
0008F4AA
FFFC538A
0009F5DF
000B3D91
000698DA
00168475
00081C28
FFF38EB5
FFE567CC
FFFB37E0
FFD14DD1
FFA78455
FFBBD819
FFD0B75E
FFE1E8E1
FFF38B9C
FFEDF088
FFFC3C7D
FFF0D8CF
FFED853C
FFEF9E20
FFDEDC1B
FFD0086A
FFDCBB34
FFCAD32E
FFE73245
FFF8F43B
FFFD4996
000A73F9
000B88B5
0012575D
FFF41439
0002EA0C
0015CF5B
00034A71
FFFB151A
FFEA143D
FFDD3D91
FFD21F60
FFD5D728
FFD450C2
FFF5EBFE
FFEFC0F5
FFF56565
FFE07F7F
FFF0A633
FFE5A24C
FFF32BD6
FFE1F7EC
FFE06348
FFF04D04
FFF694E8
FFE576F4
FFE86C86
FFF067D2
FFDF1D74
000494BF
000D7353
000A1BD4
0018F84D
FFFBC605
0007393E
00065A26
FFE3BA88
FFDC86A8
FFCE5EB6
FFEA2EEF
FFEF5351
FFF8B159
000776DD
FFF80FBA
FFEF77A2
FFEDEAE8
FFFB1A55
FFF4D779
FFF3D592
FFE7F446
FFFF295F
001407DC
FFF66D34
FFF68273
FFED36D8
FFF4E5DA
000202CD
FFFF8EED
000B0629
000B3F5D
001E7058
FFF7A955
FFFA06D4
FFFF66F7
FFEF9C70
FFE5C030
00077843
00090689
FFF99AF7
FFFFA5C5
000418C8
FFF82169
FFF94EE9
FFE9C145
FFE6754E
FFE4F8B5
FFEC1299
FFF66465
FFF25956
0005E66E
00157A63
FFFEC95A
FFEB231F
FFFED678
000C55DC
0013B1F1
FFFF350F
00065B25
0002B19A
FFFEA1B3
FFF96ECB
FFFC2D92
FFFD0C7B
FFFAC968
FFFC00CD
00187A12
000093BC
0000662D
0014A6AD
000567CC
FFFDA065
FFF2A42F
FFF54096
FFF1797C
00039616
FFFFBA49
001435B7
0010709C
000E4356
FFF35BE6
FFE91F43
FFEDC7FC
FFF0C2E4
000AB6F6
00039D17
FFF79F34
FFF9DF6F
0004341B
FFFFE147
FFFDE96A
FFFE0EC0
000B46B3
0024247F
00296FB9
0015133B
001AB06E
000DAF28
001A16E7
0017DEAC
00056998
0004E4D5
FFFC5C60
001C395C
00136EF8
002C8F07
0031FAF9
00124F87
00082EF6
000AAB43
FFFA8EF0
FFF5EB0B
00088F76
FFFABB8D
FFFCE166
0007BF8B
FFFA57C5
FFFD2E06
FFFC1CE4
FFFC41D8
00080DB1
FFF8E29A
FFEB7FA6
FFFB67E7
0007AB75
000064C7
FFFF1AC8
FFF5284A
0019D487
001864FE
FFFE3BFA
001FC214
0016AEE2
00103079
00090F21
000897D8
000C9A1A
0002A4D1
FFF7CE79
FFFAC9D8
0004C3BD
FFF94B48
0002C7C5
FFF7B0AC
FFFE158D
