0004A57E
FFF83836
FFFFDD00
00084524
FFF870CC
00091086
00073D03
FFFD9A7F
0002FC0D
FFFD8F48
FFFB3B98
00057FC2
FFFDA417
FFFF8D9F
00084C2D
FFFEDC84
FFFEFC68
FFF822CC
FFF7E8E2
FFFAE42C
FFFA573F
0007074D
FFFC3D88
FFFE749A
0006ADD7
FFFBB9ED
00007D7A
FFF800BC
0006C09C
FFF701AA
0005865A
FFFF3CEC
FFFC11FD
FFFE0A5B
FFF3F301
FFF796D5
FFFF71D3
000205DE
FFFDDA44
FFF722D3
FFF40F6E
FFF499B1
FFEE2CAB
FFE887FA
FFE0896A
FFF819C0
FFFCDDF4
FFEB5129
FFEF9A30
FFF2065C
000009D1
FFFF3F13
00040C0B
00016A70
FFFD6A76
0002A198
0005AB4B
FFFECDBE
FFFD9621
FFF20FA8
FFF23DCE
FFF540C5
FFF9D89E
FFF0A0A9
FFF004F3
FFDDDB15
FFDD3D3F
FFDC4A18
FFEECC24
FFE3CB86
FFE3F976
FFE53219
FFE6FE36
FFE8CA79
FFF39606
FFFDFB11
FFF1D727
FFF41A20
FFEE5A06
FFF66204
FFE37254
FFF86B01
FFFC0652
0002AAEC
00038365
0008DE69
FFEA0DB0
FFF163D1
00079F82
000F6C36
00003F8A
FFFEB7CB
0002BD2F
FFEA1E4D
FFEFB74A
00029680
000A4CB0
FFEE91AD
00057FF7
FFFFDD8E
FFF511D2
FFECC555
FFF7C94C
FFF6DAFF
FFFE52E5
000862F8
00036F9B
FFFA97BB
00006CEC
FFF28FD2
FFF7E9E5
FFFE380B
000828DC
00079C9B
FFFA4911
0012D81F
0018E312
00000B46
00025BE1
FFFCF994
FFFDF51C
FFF7661C
00024E95
0008C331
000ABF82
0006E7DC
FFFE6155
0008DEC0
000ADF13
000B1A8B
FFFF3AC7
FFF20934
FFF4290A
000054A9
000A562F
FFFD7149
001EBD62
002B8F26
001ACBF1
FFFE5637
FFFC0F22
0002A728
0002DA8F
000480B2
000A667E
FFFEF7E8
000D9B10
000929B1
FFFC424D
00052937
0007F690
00092ABF
0001BCE3
FFFBDC29
0005D491
FFFC8648
000BDEAF
000F9AA7
00009C36
0000BD18
0006A4EC
FFF20837
0004CA00
FFF1C44C
00050E03
002E1D55
0018511E
FFFD9583
00034151
00115850
0003DDBC
FFF4AA0E
FFFA595C
000DA7AB
FFFEABB6
000AC214
000B06D4
FFFC2A17
0009902C
FFFE60F5
0002B80D
000262EA
FFF46C9D
FFFE8BBD
FFFDE1C2
FFFF8E79
FFFB6FCB
0003AEAC
FFFF593F
FFFD1DE9
FFF9C815
000FAA3E
0011E527
002263B8
001D397F
FFF62AC2
00005EE6
000EF847
FFF7C4AA
FFEAACFB
0002D033
0017D089
FFF8BD22
0005C4F2
000B57DD
FFFD37CD
0000DEB4
FFF481E5
FFF5B34B
FFED3F58
FFF7DFC0
FFF58AFB
FFF70F10
FFF9247B
FFFD6EAC
FFF9EA1A
FFF5FC16
FFEEF365
FFF2DF70
0009CA46
001B2041
001A38DE
002167AC
00031BCE
FFF46F47
FFEC82E1
000A6642
000F3975
0004ED6E
0004577B
FFEB2AAE
FFF486DD
FFFB0DC3
0003EBA2
00008A79
0004800D
000709BB
FFF7A083
FFEFE2FC
FFFE6497
FFF9210E
FFFCFB51
000B6D3E
000811EC
000AC26C
000C9980
00077FB2
FFFCF02D
00173319
0037B012
002E5569
000CEF78
FFF157E9
FFEC0CD0
00113287
000046F0
FFFE3596
FFED78FF
FFF803D9
00037896
00082351
00054E39
FFFDF882
FFF9F5E2
FFF69114
FFFCE984
FFECADC1
FFEC58E4
FFF48C91
0007B05C
FFFEA95D
000E670A
0015095E
00204BCF
0017616E
0011E871
0018EEE4
002FDA8A
00184AE9
FFF0A114
FFF327D4
FFF53310
FFFC281B
000F9529
0007D090
FFE2EF9B
FFE4D298
FFFC0E81
FFFC745F
000EBA43
000D6E6C
00041112
0010A026
FFFFA5E7
FFF7E57C
FFE9AAB7
FFEE5ABF
FFF75968
0000F157
000C8B7F
000A68AF
000A7029
00120111
001A3308
001A4810
002127C2
000AEF0F
FFFD2E51
FFFA83C6
FFE70391
FFE1C12F
FFFE3F61
FFFA30BE
FFF59694
FFF9EA88
FFE9196A
FFF890B7
00132BF6
00043C6F
00068863
000D208E
000EC47C
FFFAB130
FFF8EAAE
FFF685D4
FFF65031
FFF744D3
FFFE972A
FFF80C70
FFE96681
FFF9DFF5
00138F19
001FD59E
00230014
001451CF
0008F2B6
FFF86EF7
FFF1C5F4
FFE20752
FFF6E59F
FFE4A272
FFEF4B73
FFFD0040
FFF36615
FFF75AFD
0006D7DA
00099A05
000E10F7
001C3E70
00201B5B
00158BB7
0006F7DB
0009C992
00039D65
FFF336F1
0002EC73
FFF97F5A
FFECFB7B
FFE38E15
FFEC2BB6
000575FC
000CCC47
000493C2
FFE667F0
FFFCD14F
FFF7D001
FFE3B536
FFE29554
FFE8C282
FFFE7407
0004764F
FFFA7ECF
FFFE5EEA
000C5480
0010741F
00170EEA
00239F30
0024141F
000EBAA0
0014835E
00051E8A
FFFEDC2B
00086C91
FFFC7D3F
FFF2DB65
FFE74541
FFD73E10
FFDF4121
FFDD0D34
FFE78A43
FFEAD109
FFEF6ACB
000806A8
0008A7C0
FFEAFE72
FFEF8111
FFEB388E
FFED21EE
FFE9B54C
FFEC96FE
FFFE7EDF
000375D8
000AE1C5
0022E262
001D2E7A
002652DE
00231DE8
0018F0DD
00102630
000C240E
00044FC5
FFF23B2A
FFEC7AA8
FFE04B5F
FFDD6B56
FFD59566
FFE34FA7
FFD36BB7
FFDDA34B
FFF5F3FE
000DD478
000733BA
00132630
FFF0ED4F
FFDD0998
FFCD5154
FFCE5C0C
FFDB33B4
FFEC1DC9
FFEE9B0C
FFF63086
001336B2
001C230A
001B146F
001E1135
0016A3EC
0005EC18
FFF550CC
FFF2AF91
FFF77481
FFFF42D2
FFF5E8B6
FFFD0C5F
FFF05376
FFD937FB
FFDA7CC9
FFEDA50E
FFFA070E
FFFA4656
00124A3F
00089837
FFF35110
FFE3BD6A
FFD61F39
FFCCF464
FFCA5940
FFD4A9AF
FFD39D01
FFE21F3E
FFF904D8
00165E57
001C7040
001120F5
00078522
0002B424
0007F676
00013EAF
0004E08E
00019A5A
FFF3DC70
FFFA0E95
FFF9C9A0
FFE62FCA
FFD1ADCD
FFDFF471
FFF7B8D8
FFF8C2C7
0011D0ED
FFFDDC53
00038EDB
FFF6E990
FFEE38AA
FFECA1A9
FFDE579C
FFCDF1F9
FFD0E677
FFCCADD4
FFDD7ECC
FFECCA60
FFF75329
FFF08A34
00025E80
000AA3C1
0010308E
FFFBFA96
0007F329
FFFE3259
0007521A
FFFC1C96
FFF79BC2
FFDC41FF
FFD47ED0
FFD6E19A
FFE8D7D9
FFE482EC
001034FB
00033654
000F73FD
000D8FD3
FFFF53A2
0004EFA0
FFF2F057
FFEAE111
FFD693C9
FFD1C300
FFDB0E90
FFE609B2
FFF1CEAB
FFF53E84
000141CF
000D980B
00042EB5
FFFC0448
000E39DF
000AD1BE
000150D5
FFFB4B32
FFF5B1A8
FFDF16AE
FFCE02E9
FFE8E7CE
FFEE2EDC
FFF8F155
FFE16E7C
FFFB5CBB
001D0378
000E2D04
00117647
0010CD26
FFF6A30D
FFFB0D24
FFF25DA4
FFED448E
FFE09BF4
FFE1E0E6
FFE28A72
FFEECFA9
FFF8D3D2
00075515
001059C7
000B2CD0
000CAC0C
000F2278
00044F5F
FFF2794F
FFF9605E
FFE2B298
FFE0A9F7
FFEB5FFE
FFE51E86
FFFCAA32
00096126
0004DE30
000F74A8
0019706B
000AE7BD
000DCC81
0003259E
0007F8D5
000C7C6C
000442C0
FFF6A46E
FFEC1FA5
FFE7C5D5
FFFE6B5C
FFF99AEC
0000018C
000A247B
00148997
00095D60
0018BF39
FFFEB3BC
FFFDEE38
FFEB946E
FFE54A08
FFD917BD
FFF3E041
FFFFA132
FFFA13B1
00147C48
000662F2
0003CAB3
0017E59F
000B5AA2
000C7E46
0007A6DF
FFFD22E8
00005AAA
FFF7C519
0003FABA
FFEEB20F
FFF9B846
FFF727B0
000BABC4
0001D323
000B5D58
00048337
0002D832
0004CE24
FFF714AE
FFED6616
FFEA7C54
FFDE340A
FFED4FBF
0000A708
FFF78393
FFF9EDDC
FFFF730E
0006B726
000B9244
000BDBE0
FFF449F1
FFFA15D8
0006F5B5
FFFA7E87
FFF038B4
FFFC0BEE
FFFD3622
0002562A
00002A7D
FFF870AA
0008C5FB
0007EE6E
000799D0
FFFD0156
0015DBBD
FFFB843D
FFF6ED42
FFEC0EC6
FFEFAA25
FFE23B24
FFEC1149
FFF327FC
00018200
00022A0C
00002859
001505A6
002AD2D5
001B7807
00052890
FFFD29CE
00054A79
0002E625
0001DFF4
000DF837
000ED0D3
0005261A
00084F2C
000F526C
00172F8A
00147918
0018B4BC
000E0CB7
FFFD5B81
FFF9846C
FFE10C49
FFDFDA50
FFE1D89A
FFE7CE63
FFE8A862
FFF376EB
000586BD
FFFDD16D
FFF89694
000D9D49
00252FB1
001A46C0
0004151E
0002AF22
00104B8F
001FE9AB
0027381E
00256A2C
001D4D23
001EB802
001FC5FA
001DEA81
001AD829
001F892C
000C0D6B
FFF646D5
FFFC6528
FFEA1760
FFEE14CB
0001E7E6
00047067
FFF2F93B
FFE6AB07
FFF821FF
FFF6E06C
00079B5B
00046476
000B25D5
FFF5485E
FFF63AF8
FFE9C96E
00097F6E
00112B9A
001D5862
001EC2B1
002877C2
001B102A
001A2AE3
000B2BFA
0005C25D
0004907F
0002C8BF
FFF10D9A
FFFB6C52
0001B3BE
00058B48
00190D34
001E2B58
0012EEB2
000C4019
FFF97FFA
FFF92F98
0005CFDB
00061E4B
0004E443
000411F0
FFEF7C25
FFF5014D
FFF09F74
FFE49013
FFE6970E
FFDCE224
FFDDD3C8
FFE7CE2F
FFF74D14
FFE317B8
FFD17497
FFB21065
FFCFDF4C
FFE40A86
FFDA1420
FFEA2063
FFDF4785
FFF31F41
FFFA71E3
FFF605BE
FFEA9695
000271FF
FFFDA114
FFF8FD13
FFFE1794
FFFC02B2
000799D9
FFFEABC1
00040EA4
00023B65
FFF3AD46
FFF9BACB
FFF6E3B6
FFF745AB
FFEAF674
FFDBF7A8
FFEE524A
0002AC45
FFD5BBDD
FFDD8186
FFEBEB27
FFE73872
FFDD18F1
FFE0AC08
FFD385CA
FFEC7D5D
FFFDA851
FFF9534D
00056576
000762D7
000071F7
00052841
0000A0DF
