0001367B
0007686E
FFF8DCD0
FFFB72F4
00084251
00072347
00037666
FFF84277
0005064D
FFFF6B41
FFF8F904
00072990
FFFA55FC
00035F6C
FFFD0FBE
0009BFE3
000048DE
FFFDC959
00052496
000851EC
FFFF49C5
000633ED
FFFCB755
FFFB0FBB
FFFB0E13
FFF7392C
00081680
000243A0
FFF98BC4
FFF8128D
0005BC94
00006F8B
FFF5B44D
FFF6B9F5
FFF55AA1
FFF849D7
FFF261E5
FFF5C82C
FFEE29B4
FFFB2518
00015701
00076CB0
000B8870
FFFCFFD4
FFFBB3C2
FFFA2EE3
FFF0BD6C
FFE61C82
FFDCC754
FFF523CD
FFF5A391
FFE59B7A
0006D714
0004B181
00048D0E
0004DB68
0004E931
0007E813
FFFDF6B0
000F328F
00120670
FFFCE9FD
FFF82228
FFFC21B6
FFFAF2EF
FFFF2286
FFE37117
FFE1B88E
FFDF1F6C
0018553D
00037D26
001718E1
0014FB6C
0013EBB8
00084461
00126998
0004AAB5
00032CB0
FFF59797
FFFBD11B
FFFC25AD
FFFDFD62
FFFF403E
FFF7C18B
FFFD3904
00035A96
000084E1
00103C76
FFFFA6FC
FFF30601
FFE8200D
FFEF960A
FFF106BF
0009A5A5
FFFC7DBE
FFEE4BC1
FFF572F9
00150DDA
001FAC98
0018D32A
001F3BC2
0013857A
00072973
0007CB65
000EABB4
000E6A64
000A612A
FFF26CB4
0002EE00
00063C89
000E81FF
000400B0
FFFB81E7
FFFA8B35
FFF18F1C
FFEBEDF0
FFE7076D
FFE3C315
FFF2F2D2
FFFDD108
FFF452F0
0003FDB4
FFFDF582
000B7986
0011FBFF
001B41C5
000C64D1
001630E8
00093C93
00156136
000B2BC8
000BE1D6
0012FF87
0015511E
0012128A
0024C214
0009205D
00160120
000981E8
FFEDC348
FFF9ADFC
00025808
FFF63280
FFF041D8
FFE7B45C
FFE7E7D8
FFEC32F3
FFF87ED4
FFFED6B1
000DA556
0013C7D8
00103110
001CFCD5
002110E7
0011A953
FFFD670C
FFF01790
FFFE7055
00046732
00009E8A
00117DEC
000CFF69
00100DD6
001062CD
0010DFB1
000BC94C
000CA514
FFF43D49
00011808
FFF21FDD
000A769A
FFE212C8
FFD4BCAC
FFF86066
FFEBFEE3
FFF6003B
000004E9
000137E4
0013B0F5
001A150B
00169B5B
001FF594
000C8BDC
FFF1AF85
FFE8B688
FFE1F111
FFF7F825
000708AA
FFFC0C7F
FFFC2891
000456AE
00036D49
000CF654
001AF10D
0009A2B9
FFFF86E5
FFFEAE60
FFF31E4D
FFFCE7A0
FFDB1030
FFC7015A
FFEA28DA
FFF24E3C
0005ED45
FFF6A3F2
00089A29
001AC70E
001FAC1F
0027B0EC
00261280
00155340
FFF46445
FFEB0546
FFEF0912
FFFB5022
000F987C
0007F2A6
0009068E
000457A5
0008E768
000F3AFC
0025D735
0017DEE8
FFFF471F
000B6CA3
FFFDA662
FFF4E5F3
FFF6ADCE
FFD47120
FFEA4A0B
FFEC53C2
FFF7A4B4
FFF6FA56
000B0092
00169194
0026045C
00317656
00186173
000E4857
FFFC6F74
FFE7DAF6
FFF927B0
00016A40
FFFB36CB
0006D242
FFFFA052
FFFE374E
001B07B9
00209C66
001E036C
00055C33
FFFC43D0
FFF2F9D3
FFF45099
00061EB6
FFE72C66
FFD395A3
FFD75830
FFE9E1C0
FFF87C12
00014D91
FFFFDF61
0013B32D
002444F8
002F77CD
002556B6
FFFEC3E9
FFE217DA
FFDA5244
FFF25E57
FFFAC789
FFFA3C47
FFFA681D
0002CCDA
00093D70
000831ED
00227592
001F826E
FFFAC9E8
000C1F32
FFFD793D
0003BCEB
00142540
FFEC2CE0
FFE33375
FFF0F3AC
FFFD9834
FFFA5D69
0003C5C0
000DD21B
000DB663
002B291A
0030F00C
0013E69D
FFEF76DC
FFCD6771
FFDD8B29
FFECA32A
FFF2F868
FFFC7A27
FFF440A2
0003E6D6
FFEAA404
FFF21EA2
0015181E
001E4D50
00155BBA
FFF8817D
FFF0C7D1
FFFB3B2F
0001C97C
FFE7E9B7
FFDF48CA
FFEE4C4F
FFFF44B8
FFF51498
FFEF9820
FFFDC605
FFF9AA60
0011F722
000A0108
FFF69E95
FFD9ACB4
FFC401C8
FFD23119
FFE877F4
FFFE711A
FFFAD138
FFEC4D2F
FFE9528A
FFDFF490
FFF406CA
FFF81B80
00073C75
0008EC3B
FFFC0E1F
FFFBA652
00002BA5
FFFAE22E
FFFDEEC9
FFED1AC6
FFED5352
FFFDA59D
0002319A
FFF2555F
FFFC4A93
0000A03A
001602A3
000DF54C
FFF8333A
FFD05694
FFD74F0A
FFD0F110
FFF08560
FFFA0C3E
FFF804ED
FFF3F49C
FFF4A058
FFE8ED9F
FFDB31E2
FFE25BE2
FFF2FFCB
000C1E7E
0007E90A
0003CE3C
000070E2
FFF46C6C
000BFA7F
FFFA5E4D
00031CE1
00022F6A
0002AC67
FFF40137
FFF2C056
000BB3A2
00042938
0011C4B2
FFF31DD6
FFE04B6E
FFD9AD59
FFD4665B
FFE88AC7
FFF5FC25
FFF37B3D
FFFEB1FD
FFEED757
FFF2AC39
FFFD1C4F
000153B0
FFE604A5
FFFBA93F
0015157F
000985FB
FFF9E234
FFEBE752
00066FF3
0008429A
001717D9
0002201C
0005B93F
FFF6F8EE
000055D7
FFFF75AC
FFFE142D
000A31A5
FFEF3BEE
FFE9CFBC
FFE73B79
FFEAE8A4
FFE5E5A5
FFE92B0F
FFE63913
FFF2C771
FFF22A4A
FFF97B6C
0011CA32
001F1055
FFFC680D
001A1E31
00143EDC
0002084C
FFED24DB
0003D371
000E1641
000CA094
00128CB0
FFFB831E
00057B34
00089452
000A2468
0011B8DC
0017B870
000BCF4C
FFF04EE8
FFE46615
FFE90E04
FFEA5A98
FFE43982
FFF1CC5B
FFE5EDD7
FFF2CE7B
FFEA439E
FFF62D62
00121E4B
001D1F4A
00100F80
001BA70B
FFFC4426
FFFBE6FB
FFF67043
FFE10964
000D84A9
000CB354
000A01BA
FFEBF20D
FFF0F500
FFF9CF1D
0010E55F
0015CC88
0018E751
FFFC2811
FFEE5765
FFF9455D
0005048B
FFF409F1
FFFB6092
FFF65193
FFEF49BA
00031B54
00087C47
FFF768E9
00059D8E
000DFB55
0020CDC5
001F55D7
000C4EA2
FFFCDD43
FFF2AC85
0002252A
0015BC79
000444DC
000433B7
FFF1D64C
FFE3DB14
FFEF5F05
FFFEB8A2
000CF0E2
FFFCFD35
FFE1A83B
FFEA9F21
000B24FC
0009834E
000C1FCD
0009483F
FFFF0416
00039186
0005077E
000C61EA
0003F2AE
0003E677
001A9442
002431EC
001EED86
00039C2B
FFFDCFCE
FFEF3F52
FFE8F81A
FFF24C53
000DD5D5
00056E8E
FFF7AF96
FFE8FE5A
FFF6D62C
FFF53AC8
FFF0C8FD
FFE0D2F8
FFD421FF
FFE67A37
000A212D
00209994
000A1A66
00012CB7
0009DCB9
FFFED1D1
FFFF01EF
FFFDA077
00007574
000CDBBA
001A5D56
002F5B80
000334E1
FFF01B62
0003C911
FFF7BB9A
0007EDB1
FFF4F07B
000FD5C0
FFFE1AAB
00033743
00013AE3
FFF858A9
FFFB5AC9
FFF92F3B
FFF2EB0F
FFEE4482
00036E71
001FB267
00239310
000E03DD
000E62DB
000F2A77
000D9700
001724AA
00151658
00147267
000F822D
0026DF67
0032F24B
0018B5C0
FFED3AC9
FFFA36B7
0001C35E
0005DF1A
FFFCBA32
00126874
000E0EE9
00040773
00028137
0010C47A
000C248E
000C8A71
000C4A0E
001A729E
000EE032
001130EA
001E764E
001C8C77
0026D9F3
001D2787
00220391
0014D61A
00153376
001DA62D
0011BB2F
000CFB9C
00257911
00157407
000D01C7
00059752
0003C3CB
0004A809
000A94F6
0013E1BA
0007F683
00097FAD
000CC03E
0011BA44
00122FDD
0013C041
000E7C2A
000DD3DF
000D035B
00184814
00171B0B
00052C66
0009ADE6
001B2F7A
001B8EAE
00233655
002B858E
00211CAA
001EF668
00248488
00242C0F
001633DA
000117BA
00034059
FFEA0908
FFF9C5B8
00082542
000897D0
0019CBD3
000980B3
000E351E
00195328
001CB6F6
00098565
00091029
00038F7C
0009F44C
FFFDD827
0000B8F2
000F1AE2
0012F22A
00137801
000FEF11
001E77F3
001611CC
000F105C
001D64E8
000CCFB3
0015A14D
002894C3
FFFCE4E7
000040D2
0008F697
FFE87B31
FFF47966
00026C1A
000EBE07
00073EB4
FFF8B194
0013CFFD
001E916F
000DA53C
0006FBA8
001818D2
00002616
0008008D
000AA323
000F3DD5
00096D30
FFF118CA
FFF71EFE
00082BBD
0001FC23
00098DE8
FFFA7D8F
FFFE6FC0
000FFF0A
00194946
FFFF802C
FFFD8240
FFFFBEBB
FFF018D2
FFEAD9BF
FFDB1D0C
FFFD97A0
000226D2
FFFE53AF
0014E8EA
002211F2
0012689B
00123034
0011D6DA
00015466
0003B74A
FFFD54F2
FFF5BD38
00001729
00077B6F
00027BB0
FFEFF800
FFF3F960
FFFD1857
FFFA6952
001572C5
0014EED7
000BB649
FFFFBDD6
FFF73C3F
FFF8E972
FFE7A0A2
000D999C
0002A8A0
FFE90E42
FFEFC65F
FFECFCA0
FFEBC125
FFF0DC5B
FFE7E0E5
FFFE164A
FFF7ABDB
FFF76CF5
FFEDA25E
FFFBE44C
FFFCDAFB
FFEE79B9
FFEB6C53
FFF20A88
FFDBE750
FFED402E
001010E1
00027A99
000E2099
00066F0C
0005D3AA
0000D717
FFF7924D
00027808
00088E0B
00008F53
000C8D2D
FFF04C70
FFE7D6AD
FFDCA57C
FFDE27E0
FFC9A3AB
FFD8E172
FFE7DDC7
FFFE0CD7
FFECAFCD
FFDCE2A8
FFF7E637
FFF82355
FFF43E6A
FFEDBD0E
FFF3A606
FFFE81E4
FFF4CF9E
00065AD3
FFEC8CCF
FFFAFD39
FFF7D68B
FFF8CF99
FFFB5412
00050BC6
FFFC853E
FFF83DC9
0002ADE4
FFFBFEAF
FFF7D295
00031B8A
FFF0FF32
FFF09A6A
FFFFE43D
00030F61
0001C2B6
000AF23E
FFF59FA1
FFEFCC0A
FFECB367
FFF01146
FFF6EFA0
FFDB8396
FFF00AE5
FFF92A40
FFE406D5
FFE9E87D
FFFECF22
FFFF4E09
FFF7E488
00077AD4
000731AC
