FFFF658F
FFF83610
00007065
000807FC
FFFBA7AC
00058AC5
FFFD063C
FFFC0981
00045886
FFF70D83
0005CB40
000607DF
00051962
0001A3D3
FFFDA39A
FFFC1A8F
00084350
000450E1
0004D84F
FFFA48F7
0005787B
FFFA607F
0006E829
00070C84
FFF7A78E
FFF775D6
FFF7F264
FFFBBAFA
0002917B
FFF7DAC8
0007B1B6
FFFA221C
FFFD1534
00047C09
00015E92
00058464
FFF8BA6F
FFF7874B
00047E74
00039443
000F864B
00033501
FFF66A53
FFF95EC6
00137C5E
0010C406
0001DF1A
FFF41C5B
FFFE2A8E
FFF5CEB5
FFFFBDB5
FFFAE4F4
00075AF4
FFF81860
FFFE599E
0003B99B
FFF9A2D3
0000BC8F
0008CDE2
000571CF
00025BD6
FFFC85DA
000714F4
00042684
000D70C6
00084A62
000A856D
0018D66E
00204F6C
FFFD00F6
000CE257
FFF969EF
FFEFAE05
FFF327F3
FFFBCC74
FFD7B46C
FFE9FA16
000643B4
FFF53183
00030459
0012C8DF
0008A409
FFFF6918
FFFF80FE
000173E6
00031E65
0018A7B3
0003987B
FFF82DE2
0008F1D4
0010DAA8
000D5605
000AC9B2
001632C8
00119860
0010175A
FFFCA214
0006F511
FFFE8FD9
FFF14995
FFE2AE82
FFDEBBEE
FFDD39E2
FFED1852
FFE2B956
000306D2
0018850C
000CA7D2
000AC909
000F8128
000892D3
FFFE6725
FFFFDC28
FFFF1384
0009E9DB
FFF75BE7
00090399
FFFC45E9
00121E61
000223BE
001385FC
00033D8B
FFFEF1CD
FFFBA576
FFF1BD20
FFF4D940
FFE6E71F
FFD6D5C8
FFE03146
FFE11CF7
FFD82C8B
FFDB546B
FFEF6A0C
FFEFBDCF
FFFCE1B4
FFFB4315
0010BDA1
001DA032
00153DFA
0008DA5A
000555F3
00081F7F
FFF6FC07
FFF8EBF4
0003E1B2
FFFB5435
0001B456
000A1972
0006F08E
00041783
FFF0E4F3
FFF24D95
00075973
000E2780
FFFB64BA
FFF6AF38
FFF04AE0
FFF357D1
FFF6F509
FFE7E1BC
FFEB024D
FFEFDBB1
FFFAE263
FFFF2BF0
000B0E99
001CC3F0
000FE412
FFF83450
0003CB37
000CE52F
00086790
0004797C
0021405B
000B18C8
FFFDC4D8
00006584
000C0699
000D3822
000B3BC4
000A00B4
000EEBE7
001BCE85
00185572
00184944
001D2E77
00133EF3
001954F2
000FC6B1
00092E2B
000FCDF3
FFF719FF
FFEDBE10
FFE9E238
000D6CF9
00075B2A
000D2282
FFFD0368
0020D550
001BC6DF
002CCA15
00183A90
000D039C
000A4D48
000C44DE
000B45B0
00070E25
000AA8D7
000DF6EC
000F3346
00182B6C
0020364A
00212720
002378A0
00213D77
002A37E3
000E7F24
0013E9F1
0012CA47
00123FA8
FFF2FCCF
FFDDA76E
FFEB18DA
FFFDB5B3
000AFC78
FFE10BE0
0015E08C
0013C184
001111DF
001686F9
000691F8
00047063
0017103E
001AB298
0001D23D
0014E14E
0017924E
001B9EA2
0019C3C1
002AFF1E
002FF4EC
002E5806
0024FB76
0016B915
00172A31
001B046F
00132BF6
0013B6D5
000B55E9
FFE8E5A2
FFE8F3CB
00099FDC
001AF66F
000C07CE
001A5269
0007A711
000943D3
00074D3D
000AEE66
0011029C
000C12F4
0010B537
000AFA79
000D9B40
001B91F2
00194734
0032A8E2
0031F156
00234503
0011745E
0013C5A5
00025F74
000E00F6
000762BD
0003FCB2
0014A29E
00138ED6
FFFF749D
002257BB
002C014D
0010A7BD
000A2C1C
FFFF5589
001507E1
00099DC2
FFFF5A46
000E1922
0016A4E2
0000005F
0007EA94
0009B425
00163D19
000E4E2C
000BD0C6
002A0652
00214F79
0011317A
FFFF6FF3
00009ED3
FFFA666F
0005EE77
000A235E
00001016
0007BDCF
0010F223
001D608A
0014025C
0025D78B
0015CAEF
000A4C35
0003C790
FFFED934
FFF4FCE4
00030130
00111739
0013BCB6
000D4F10
00017FF5
0005D492
FFF99A99
FFFA1E79
FFE9030D
FFD4B4D7
FFE166FB
FFDF418E
FFF0D194
FFF762BA
0001CC28
00020AA5
FFF451E0
FFEE9352
FFFACABE
FFFFC25B
FFFF2DC3
000A8727
0006009C
FFEA0545
FFFD9A71
000ADEA7
0000173A
FFE52C2C
FFECBFA0
FFF929D2
FFFF1C91
000B52CC
00039F7B
FFF4A157
FFE483D9
FFD5C601
FFAA3CFF
FF950BE8
FFB514FC
FFD1692E
FFF57EAF
FFF3C8BC
FFF8CC94
FFFBA7DF
FFEA94D2
FFF0A3CA
FFE1F4C3
FFE68CBD
FFF59F27
00119D92
FFFC1F3D
FFFBCE20
FFF188AE
FFFF2A59
0013EA09
FFF06EB1
FFD747CC
FFDCEA9F
FFEAFE0B
FFE784F8
FFF423FD
FFF04722
FFD983CF
FFCF89E2
FF9D2D0F
FFB3E3C9
FFDA084C
FFE73B88
FFE94D1F
000515F9
00084266
FFEDF932
FFDF2644
FFE6D4FB
FFE3B28C
FFDFD57D
FFEA4C9C
0000C407
00046917
00085AD5
FFFB5BC9
FFF95FA8
0014A1FA
FFE76569
FFC8D27F
FFC2A144
FFE89F14
FFE76733
FFE44D04
FFDCDB86
FFD3709C
FFC9E0E4
FFC636E2
FFD4D0AE
FFF2AF0D
FFFC2165
FFFB3C53
0000438D
FFFBEC98
FFEDB78D
FFDE17BD
FFDFB438
FFE25165
FFE2C9C6
FFED54D7
FFF2A142
0010B53E
000793D6
00031E77
FFEE31E7
00006B77
FFDA4A2A
FFC87FC7
FFD19FF6
FFE854C7
FFEA2CA4
FFD58FBA
FFD39C13
FFC9DCF1
FFDDFEB8
FFE729EC
00005057
00045FD6
FFFD5D40
FFF4D9FB
FFF004A6
FFFD11A6
FFEBE6DC
FFE74981
FFE17FB4
FFE0EBD1
FFDC3E95
FFE666C0
FFFE2F7A
000655A0
000C7A08
0005FF38
FFF56380
0001B9A4
FFDF56B6
FFC96EF6
FFCD033C
FFDB03AF
FFE02863
FFDB9B40
FFD573EF
FFF1AB74
FFF4BA62
000E847D
000BE7A7
000F212F
0001A4FD
0006D63F
00095A8F
FFECE6D2
FFE9EC90
FFE4A9ED
FFF75242
FFEDF819
FFEAF72F
FFFC97C0
00105670
000B3CAC
00127658
FFF847BE
FFF01A8D
FFFD5FD0
FFEE4755
FFDC979D
FFDBE40C
FFDF1292
FFD5F4AE
FFEC93ED
FFF5CEB2
FFF3C65D
00177034
0010B72B
001979E8
000DE1B2
FFFC91F0
000927A5
000D362E
FFF18AE9
FFE5B48C
FFE1393F
FFDCAAEE
FFE9C9AA
FFF83460
00070924
001AF20A
0015A733
001CD67E
FFFB7151
FFEFA153
FFF23C07
0000DBFB
FFF3C8D0
FFE82CB4
FFF33EFC
FFF41929
FFFCA8F6
FFFC0CF0
000F0F5E
0015E76A
001EB70C
00187A84
00085C04
000D7C02
0000BC90
00102614
0004242F
FFF1840B
FFD8096C
FFD4386B
FFE57A15
FFF20E76
FFF30D5D
0006D9DB
0018A926
00180FBC
FFEE70AA
000140DD
FFF671DD
00076A5F
00063C90
0004683D
FFF7A4F8
000A069E
00166A90
00112AB0
001B9C25
001ADB0A
0010FA4B
000C8504
000F84E1
00067D29
FFFF326A
FFF73203
FFFD35B2
FFFB2CD4
FFEA53E6
FFE4C095
FFE891A3
FFF2ED60
FFF34003
00085DCF
0011AD44
00000AC3
0006C9DB
000535D7
000AC566
00170B8A
001296DD
0015333C
000CF2D1
001487B1
0009DA56
00067189
000D42EC
0003F9BD
000ECFA6
000A330A
00110AF5
000D02E8
FFFB7B07
FFF92A13
FFEEEF6F
FFF81290
FFF8E9A7
FFEA0708
FFE96BD2
FFF573CC
0001D7E0
001C2312
FFFAA2D8
FFFCC3EB
FFFC7044
000CDA6D
0016E810
000BB7ED
000F33F9
000FF962
FFFE118C
FFF36EE2
FFF12415
FFFA4864
FFF824C2
00002FB5
000670A6
0002A9ED
00093974
0006C5A8
FFF76739
00061FFD
000C694E
0009D623
FFFC4374
FFFD1316
000180DF
0004D7D0
00084C55
000963D1
FFF9288A
00041AD7
FFECD7A9
FFF47597
00158796
FFFD6635
0009FFF1
0017428D
001066DD
0009AF4F
00083ECD
0003DB66
FFFCD0F0
0003128E
00079314
0007AA4A
0007B9FD
FFFFC00B
0002AB04
0001C3CD
0008D190
FFFE67D1
0002D36E
FFFE02EB
000C0301
FFFEE5B8
001B5644
000F0A41
FFF4C0B8
0005EA34
0006FBDE
0003032B
FFFAEE95
FFEBE864
001AC4E5
00173D41
001F47BC
001D9F6A
00022CA9
000D7073
00057213
00072C70
0004EC69
001326E5
000A51B6
0008F3EC
0007FCFA
00076D41
000C2967
00161C26
0006F860
FFFC28E5
0015D391
001B3AE1
001BF07C
000BF5A2
FFED4FF9
0003D408
FFFED788
000329C6
FFFEDC25
FFE0E20B
0015C8D2
0015B7AD
000DF836
FFFD165D
00094273
00034D1B
00020344
000A0744
00147558
00144E8D
00129D3A
001CBE62
000BE1E8
00067B31
001103A5
002D665F
0010E325
0006293B
FFFBEF6E
0007C33E
002D848E
0015E6A8
00074EE5
000385F8
0004570A
000502BE
FFDF5A17
0008C15C
FFFE9145
00033C43
001446FA
00114D83
001123A4
000D95DF
0003E8BB
002045C0
00233090
000E9759
000AD279
00244AEE
00158863
00174287
0022C447
001A235F
0018BFFE
000D47BA
00040811
0000DD09
001442D5
FFFE98F1
0001D121
00089738
FFFCB0DF
FFFD2E78
00057952
FFEB6AF5
FFDBF458
FFDD8967
FFEBA57A
FFFBD813
000E24A3
FFFCF0CF
000F316C
000B7D22
00153084
0018E965
001213DF
00097418
000C10BF
000EA3B5
000E7994
0029DECA
000BA310
FFF8D49B
FFFD0ED5
FFFC12DA
FFF43466
FFFE3E8D
0003F21A
FFFA7A68
FFF8CA05
FFF927D8
0003DC26
FFFDD53C
00029CA1
000D3B7B
000FB8A3
0012AD6A
001387FB
000ACFCD
000E8968
FFFE98EF
000730BC
002507C5
000722B2
FFFE9865
0003EEBF
000A129E
FFF0E8FF
FFF35F76
0002070D
FFF88664
FFECF2B6
000BBD5E
0005622E
0006B7EB
FFFEEE01
FFFF5187
