000866FF
000759BA
FFF97680
0005BD53
FFFB3A9E
00085950
FFF831E9
FFFFB11B
0005C860
FFFDEB88
0001095E
FFF99BAF
0004E5E4
00019167
00048FEF
000475C9
000041F7
FFF6E865
FFFF32B8
0006C056
FFFCBF23
FFF7F22E
00024C02
0007DD29
00044F06
00088F32
FFFB8C07
0004CBD9
FFFEACF0
FFFF04D4
0008C559
00028B8A
0002F7F9
001271AD
000CBE5B
00140AB2
000CA5C9
000A7CF3
001AA18F
0020836A
002D622D
0028807D
FFEB9592
FFF77CE2
FFFAD867
001B8E3C
002059C1
001B650D
002AC6B2
001E1596
000D37D0
001C72DF
0005C7C1
FFF9571C
FFFC5A9C
FFF936E3
FFFB3E83
0001FEE2
0007915D
00212E50
002D320A
001FAFC1
00194CCF
001A29AA
0017FA53
000D1AFF
0008CDDA
00219B5E
000F401F
FFF0E493
FFF99D3A
FFEF6D92
FFF40D1F
FFFB6899
0008E43C
0001A39B
0015767C
001DA259
0029E959
001A52F5
0005E080
FFFE4726
0000993B
00009627
FFFC744F
FFFA9FC6
FFE393A9
00142AC1
00128DA8
FFFF31BD
FFFD1940
FFFF7AA9
FFF6A8E5
0001E282
000CF433
00054C36
FFF34E4E
00016DBE
00102312
FFFDF95B
FFF364F2
00003136
00026EA2
FFF7576E
00037E71
00194943
00175744
002A3830
0015A105
FFF674F5
0007E7F1
00054380
00018091
FFF51394
FFEFFA40
FFF31685
0000BCED
FFF59C44
FFE3BCE8
FFF734CD
FFEF4A02
FFF9A683
FFF7F947
FFF46B58
FFFDE4AE
FFFBED5F
FFF86D4E
FFFE2652
FFFC3405
0005B998
FFF72B10
FFF6423F
001098A0
000B839B
00178F70
001C2AE2
0013A7F4
00040A4F
000ED596
002183AE
000728E2
000561A0
FFF188FA
FFDFF65C
FFF96E02
FFD368B2
FFEAE1C3
FFF4AA8C
FFF9EBA3
0000F765
000861CB
000E0921
0016353A
000A99A4
000E1290
0002BACE
0003A381
0003040E
0009991A
000AE562
000C68DC
FFFEE7D4
FFF3B40E
0000ECA0
000E8F2C
00227602
000EA495
00154334
FFFD74DF
FFEB50D2
001436E0
FFEB5E1C
FFFF8185
FFEEBFC0
FFF37580
000612A3
000A9B3A
00073583
FFFC78B7
001350D8
001B9C8E
00107CEA
00127639
000EC120
0010A3AA
000789A3
FFFF9443
0010CD3F
0009FC56
0007C9F5
000E93E7
FFFEA996
000171B3
000A487B
FFF14C20
0013A7FD
00094652
FFDF1C1B
000E4216
FFEA9159
FFF1CD5C
FFFA1126
FFF22BBB
00007796
000037BB
0015B261
001119F0
00151837
000C8FA7
000EF2C4
000577CA
00159FB5
00080FCA
00102C08
000274F8
FFFBD3F5
FFF6A801
00036ADE
000BE2E4
0015A61E
0014A8E6
0017A85B
FFFF001A
00094936
000D8952
FFDA207A
00066218
FFF91D94
FFF6035C
FFFE25FA
000D00A2
0008A8EE
0019E2BB
00194BFA
000E377F
000C10F0
000AC1F0
00118498
00057F4D
FFF8300F
00068C56
FFF80754
0003330C
FFF6859A
FFFAEC26
0006177C
FFF08D5B
FFF9EB9C
00231412
000C89E1
FFFEECFC
FFFA2CFE
FFF6C990
FFEAAB3D
FFF6C026
FFF06F21
FFE4A091
00065564
0000292A
000E33A8
001B4B2D
0010CC04
001287DE
0004FE3E
000B6ADF
FFFA56EC
FFEF1CCF
FFE67C46
FFF310AF
FFEE0795
FFF2C90A
FFFBB13F
0005C8E4
FFFBAEF1
FFE80773
FFFD9A7E
001D574D
FFF2A3AF
FFED4560
FFE8188C
FFF08C6B
FFE4E231
FFE971BB
FFDA0563
FFF968DC
00043D9A
000C9102
000F57B1
0019A861
001EDA2C
000AEDA5
FFFFFC08
FFF8FA4B
FFF73993
FFF64849
FFF53E0F
FFE89103
FFEC305B
FFFE91AB
FFFBC5CA
FFFDA6D1
0006619E
FFF4FD15
000BB5CE
0015524B
FFD8F28C
FFC88664
FFF174C9
00007C44
FFE892DF
FFD67AA8
FFE58FC1
FFEA1691
000861AF
001D9DED
001AEC58
002B3692
0024D190
0010B3D4
00058855
FFFD9592
FFF9CACB
FFFC6271
FFF9E67A
00073E85
00053530
FFFB070E
FFFDB7AD
000C0B26
00110D8F
0007191F
00130CE0
001B770C
FFD727F6
FFDF259E
FFE7B2CC
FFF9A526
FFF09EEA
FFED5156
FFF229EE
FFFC6F3E
0010ADCA
001C0B24
0022FBA9
001D982D
000F4867
00068554
000D94BD
00006F85
FFF8F742
FFEA2302
FFFC3FB3
000A3C5B
00072B5F
000C282F
0005D920
000F81F0
001F1D5D
001DA9C5
003F98AC
00351E1D
FFE806C1
FFD258C6
FFE40B47
FFEE8945
FFFE7E21
FFDE3532
FFF9E8A4
000F73AE
0012E9AE
0016C335
001F81BC
000C86E6
0015D602
000DA4F1
000DEB75
00009976
FFEFD19C
FFF2DC2B
0004DD41
0009DEF4
00034941
000B0195
001636F6
001604B1
001D727E
00286BFF
0037317C
0017530D
FFEE3499
FFD5DFE4
FFEE1356
FFFBCB8D
FFF437C8
FFDEEBD7
FFEE5804
0008BDDA
001AC7DE
000B1488
0011AF9D
0011EA80
00177EA8
0015ED19
002343AC
00084FB5
FFF8C02D
FFFE62F2
FFFA8F0F
FFFF6F4D
00139258
000E3321
000DF64F
000A3A84
000F06C8
002316BD
001AFD1A
0006F0A2
FFFE1E2D
FFE13190
FFE8B6CB
0000BB02
FFECEE43
FFDD5DDA
FFEAE39A
FFF3C2C2
FFF7529E
00044621
001D8C60
0014FF17
001EA4E9
002550CE
00255F6E
000C8F70
FFF62408
FFF7515F
0005482F
FFF758A8
000C88E1
000CE984
000A95C6
0006A44E
0005AC1C
00131CCB
000A3C3E
FFF5AE58
000D4328
FFE5BD74
FFEF1882
FFF9C491
FFFC5963
FFE3EBB5
FFE4A8EE
FFEB6A8C
FFF9CAFB
0013EDB4
00143F87
00272CA6
00230E68
002638B4
00220E5E
00179559
FFE954C4
FFFF3E94
0009C866
000D5F71
002026C0
000A0836
FFF99A9A
0001CD98
0003F86A
00045866
000AD365
FFF28AC5
000CA28C
FFD08FA6
FFF25592
00081AA2
FFF24B27
FFE93772
FFDE7504
FFDDD9C5
FFF3B391
0005E94E
00177DCB
00266312
00258AB8
00237F4E
001BC730
000316A2
FFF72784
FFFF0CAD
0011F855
000F8588
001354BE
0005FBA7
0000DD7E
0006E22E
000B277C
00025961
0003C6FE
00000E18
FFF7293E
FFE0DFCB
FFF89380
FFF648D0
FFF3B149
FFEA2722
FFDC3737
FFED8611
FFF0B648
000B2EFC
001132C2
001A542E
000E5E66
001E8451
001765D6
0012238B
FFFB75D4
FFF801CE
001132E4
000669CB
00023E11
000535CA
FFF68A4C
00078C71
0005936E
FFF8F8AF
FFFBE8F4
FFF17046
FFE8FD3D
FFE509C8
FFE257A5
FFF0CEC9
FFEE3F9F
FFFE8583
FFF7255A
FFEFF068
FFFE5057
FFFF03BB
FFFC5536
0004C9B0
000B0AE1
000636DA
000B135F
00036262
FFF1D6C5
000601C3
00000643
FFFA573F
000AB44B
FFF96B2A
00005456
000F35CA
FFFD5458
000203B4
FFF74C47
FFE74192
FFCE91A4
FFE04A61
FFEC1852
FFFEC91D
001574DB
000CA16B
FFE4BBF9
FFFCDB19
FFFE313D
FFF3121D
FFFA9403
FFFF762B
FFF72889
00071C87
FFF982EF
000306D3
FFFDD77A
000CD6C5
00031226
FFFD95DD
FFF638AC
FFF8F019
FFF84ED2
FFF81740
FFFBBC6A
FFFC6995
FFED8BD5
FFDD80F3
FFDA0308
FFE9D9AA
000131F4
FFF5634A
FFEF923E
FFEE9303
FFE7CE74
FFF5EB3A
FFFE0652
FFF555D5
0000C7BA
00002567
000C3108
000B9303
0017F0FE
00173FBB
001DA0E7
0012A99F
0013FCB9
00077BC8
0009241C
FFF5CFC1
FFE996CD
FFEDFB78
FFE7AA0D
FFEE3F21
FFE017D9
FFD0CF64
FFE72393
000E8C03
0008E878
FFF8E3F6
FFEFC203
FFF3E775
FFF4A75D
FFF1C9D2
FFDD42E4
FFF21366
0007B7FB
000008F7
FFFD0834
0014D597
0019E44D
001D6D84
00229C29
000FFF20
0012AA38
0009D7C8
FFFA7440
FFEE4B2B
FFF22F53
FFDF1A33
FFE480C8
FFE9EE28
FFEAF7A2
FFE69493
FFEC57BA
FFF2B026
0004E24B
00046C6F
FFFEF7F6
FFDCF639
FFEB84EC
FFF1EE4E
FFDEA814
FFEEA23E
FFFD5A5A
000C15B2
FFFAF6E1
00032B0A
000A17FD
00145C31
00123032
0019F4A3
000D09A6
00049E8B
FFFB1A58
FFF7C366
FFF9F82F
FFED64CD
FFFAC3D8
00001926
000397AF
FFE093A4
FFF14D45
FFDCAA7D
FFF8FBDD
FFF784E8
FFF9F99D
FFFEABCC
FFF3865E
FFE8F908
FFE498B6
FFF243A8
FFF03348
0000B516
0005E603
0004582B
000DEFD7
000E8696
000E97D2
FFFEC2A4
000E2EF2
00117E07
FFF47021
FFFF0028
000597F4
00085C40
FFF66EFD
FFF56663
000D7916
FFE60B72
FFDF59F1
FFF88E25
00063E3D
000479FF
FFF873B1
000AE5B2
001BD35E
FFF8004F
FFF46308
FFEEA95E
FFDFC064
FFE74FA4
FFECE5F5
00086742
000A6624
FFECC76E
FFF5CDA8
000A1579
FFFDDA6F
FFFE091C
FFFDCC71
FFF5B4F5
FFF0FCB1
0004B863
0005C18A
FFF2AD18
FFF67B7E
FFED8F0C
FFFE513A
FFF18E2C
FFFECBB3
FFF82231
0004321D
FFFB6B75
0017A30B
0027C3FD
001A0C42
001908F2
000B6CDC
00066D6B
000913C7
00058492
0014AE6D
00123E2C
0010CA60
001057F6
FFFCACAC
00056C04
00080ABF
FFFA408B
FFF10EF4
00053935
00092513
FFF8D4FE
001536AF
000F1E2E
FFFE4016
0001E190
000795E1
0004AB7E
FFFCA347
FFFF5609
FFF92DBB
FFF2A286
FFF3B65D
0008F62D
000EA5B8
FFF8389C
00070431
FFEE6340
000FB906
00129C15
FFF3309E
001059A4
0007768F
FFFE9229
FFE95C15
00092C63
0007CA97
FFFDA3FA
FFF2203D
FFF899F6
FFEA6CD9
FFFE9B25
FFFF86DD
00006EC9
FFFAED88
