0007B6BB
00014FE8
00004BF0
00033B7F
00047F4C
FFF932F1
FFFC5AFB
FFFCF4D0
FFFFD1BE
00043B0F
FFFBAC3A
00030DD9
000320A8
FFFAD022
0003ABAF
FFFF06D1
FFFA0F52
0002033A
FFFBBE8F
00003E9B
FFF8A498
00074BC6
FFFEF029
0008903A
0006C931
FFF7D07B
FFF6E930
0005AE73
FFFD3048
000588E8
0001F2F1
0003C9D2
00093AA8
000B8CD7
00115CDD
00099B70
00150D07
FFFEBF13
00030764
FFF8261A
0006D0D2
FFF60EA9
FFF47721
FFEE2886
FFEF6F41
FFF06DD0
FFFEE0D2
00007370
000BBF3B
00033301
000AE7D9
00057FBA
FFF9CAC4
FFF814B1
00033DA0
FFFC3DD3
00074CEB
FFFF595D
0004B7C2
FFEB6E2B
FFF0E07F
0008E2EA
0018AC60
000AED5B
001FD392
002411D0
0020623F
00201AFA
000DEF78
FFF3E0F8
00020BA5
0006BB13
00146EFB
001FB578
0009D2B7
0019DC44
000F06AA
001778BC
001B602B
0017F45A
00157939
0002083C
FFFC89BD
FFF7CA3B
FFFC3E6C
FFFB6EEC
FFE4A661
FFF2CFE5
001374A2
001077F2
002A09A9
00120534
0000C11F
0008D4E6
0012512E
0009DB93
FFE5BBB6
FFD81CD2
FFEDBD58
FFE60BF1
FFEAF6EC
FFFCF976
00035D65
001A26E6
000A9D32
000E0F47
000B1729
0000286D
FFFF07B3
FFFA1852
000562A4
0001047C
0005BB26
FFFC0FED
FFEBF8E2
FFFF465D
0002B106
FFFAFCAB
0000F595
FFE65A1E
FFF5B094
FFEB6B82
FFF1E870
FFEA507C
FFEAB06F
FFDA5686
FFF58195
FFF15038
FFE48B08
FFF52274
000C4B02
000144A0
FFF78F5F
000304F0
FFFF0419
000F8040
000850FF
0009DCE6
FFF1E8DD
FFEB191A
FFFA9F13
FFFD25C7
0004F9BE
FFFC72A5
001494B8
0011078A
FFFA23BF
FFEFEFB9
0003FB69
0007B6E9
FFED50BD
FFDA4832
FFDFFC6A
FFE7F4AD
FFF7331D
0008375E
0012000A
00090DCF
0012FA0B
FFEE6F09
FFE5660B
FFE80C80
FFF77B69
FFFA9FAF
FFFF82D2
FFFCD203
FFF7E884
0003DEAD
FFFCFAE4
000F15BF
0012E9A3
0019BA16
001B103E
0027077E
0013B1DC
000C85D5
00133B89
FFFFEAE3
FFEE944A
FFF4CA99
FFE9AAFE
FFEA8C42
FFEDD5BA
FFFF144D
FFF7CF84
00060BCF
00016E28
FFF6289E
FFEF1E23
FFEC09F7
FFE1104C
FFEE0510
000183F9
000C4919
0009C36C
000983E5
FFFBBBAD
0011652A
00176FA9
00279B5B
00163668
0022D111
001CF1CF
0017D184
00113695
000ABBDB
FFFC343F
FFF06002
FFE95A11
FFE3F10C
FFF70C6D
FFEA2C32
FFF0E8FA
0001C58A
000669ED
FFFF32C5
0007C302
FFF6C44D
FFFD853E
FFF80692
FFFFD587
00104338
0008CC01
00048935
FFE2C7EB
0012F9BC
000F0102
0018C5F3
000BDDEA
0014FE4B
001A3CE7
000B5D80
00067931
00054DC5
0001746B
FFF2D268
FFF74890
FFF8C1E6
000024C7
FFF1E6AE
FFF58200
FFFCB883
FFEDD2EB
000664D2
001593DF
001335C6
FFF7287F
FFFC3F5D
00012539
001BFCFF
0002A49C
FFFBADA1
0017FC62
000EFA5E
000E39F8
0000EF9E
0012736D
0005E0C4
00001524
FFF744AF
0008EAE3
FFFB2347
FFF5D2B9
FFFEC3B1
00062CC8
0009A13F
00104349
000567E7
FFF66609
FFF1E01C
000092BB
0009CAAE
000D7C3F
000CD311
FFFA8B9A
FFF34CB6
FFFAE7C8
00217F28
FFF71648
000ABA1D
000D5DDD
0014AA2F
000633BB
00021EA4
FFECA577
0001970A
0000BF9B
000D4CEC
FFFFDA63
0000BB9B
FFF7DF31
FFFE22CA
001767F8
0028E3FD
0017DC3B
00019EED
FFF28E4C
FFF1FD56
FFFB8A58
00018560
FFFE2B68
000517FC
FFF1A4B4
FFDF87BB
FFEAA43D
001CF9DB
00105A17
FFF49375
000FBE0B
001737E4
00188C10
FFF8929A
FFF1A295
0001C594
FFFCF54E
0004F494
FFF40B96
FFFFA401
FFFC05F9
0019050C
0022A3C5
00214950
FFFE6E80
FFF5B5A9
FFEE8D16
FFED4291
FFFE07BA
FFF7130C
FFF007E6
FFE0AE64
FFD8F82A
FFD1CD3E
FFC57383
0003A621
FFF2468C
00029F09
0000B0F3
001315BE
0020C610
FFFC47D3
FFF8E658
FFF9664B
FFE84952
000C6ADF
000AD8CB
FFF774D2
000B513E
00214975
0026AFC4
00180C40
FFF9F8D0
FFE84307
0000150A
FFF602A1
00055A74
0002266D
FFE65336
FFE316FD
FFDA16FC
FFC85EF9
FFC83E72
FFF9B0DC
FFF7DFC6
000A0F2E
FFFB259C
00035500
001FFCC2
FFFB95F7
FFECA6C8
0000FA7C
0006FECA
000BD2E1
000C3F98
FFFB5972
000E37C0
0012BEE0
000BD3EB
FFF7C7B6
FFF0DC5A
FFFE6D30
0006EB7B
00008101
000C1270
0001229F
FFFC7281
FFF2073E
FFE02D4F
FFE86A15
FFF9A6F9
000645BD
FFF0CC4A
0007F894
0013473C
00021895
0022148C
00023E36
0014B424
000A68E5
000632AD
000A1AEC
FFFCF08C
00049B3F
00010E74
000C8863
FFFA25CF
FFFD2B69
00031F5C
00089587
001C511B
000E4FB1
000B9E82
00194256
001637B6
FFF70551
00017C7A
000BA1F2
000563A9
00092DF8
0005BE06
0001F270
000DB66E
FFEB2EA7
001B4657
001ECFA9
0017448E
000FE2E2
001F1093
00005D30
FFF7AC2E
FFF94B0E
00078891
FFFCBCA6
000A9B98
FFFCCB35
FFFC8196
001437CA
001C1B64
00279EB8
001F0E67
001FB87C
001E344B
0015498B
000D178E
00111316
000CED84
0006202A
000C4C80
0018E98A
FFFFBF93
FFE94466
00029074
0019B5FB
0013EFFB
000CAECC
000B3AAA
0001105B
FFF243B7
FFF562F1
FFEAB323
000115AE
FFF6CD32
FFF4C886
0008395A
001DD8B7
001FB4DC
00375966
002DB6BE
001CE4C5
002648F4
002C18D8
001707B1
000ED5AC
FFFB3331
0010B5F6
0018A42C
0002C17B
0000874F
FFF72EAB
00165504
000C2D98
0019EF90
0008DE01
000F73A5
000206C9
000B022E
FFFA83CA
FFFA93A6
FFF36D17
FFE0D990
FFE10E82
000885CF
001C1AEC
00292090
00299FB0
003A938E
001F7C25
001532EA
00253B48
0013B80F
000DDF52
0001A702
001C4F9A
001E7425
FFF078EE
0018DDDF
FFFDE708
000E0759
000CF418
000BAF86
00090904
000BF270
FFFBB425
0004BA4B
FFFC8314
FFDD6F48
FFD8657C
FFD7A618
FFEFD2BB
00166CB7
00229347
0031AAF0
00284400
0030104D
00177077
0000F75C
000E6A8E
00128EA4
00116110
00157F38
0019FD38
0029074F
001D63AF
FFFF284F
000F8C5B
001E2EA0
0012EC92
000A3716
00004AFD
FFF556E9
FFFAEBA2
0001D9C1
FFF8E559
FFF20794
FFEF381B
FFE5E940
FFFDD315
001B7D2D
00210573
0018C736
0012A68D
000EEFDE
000410CB
FFF2C8FC
0000C831
FFFBE5CA
FFFF7CB3
FFF60297
FFFA44BC
000DBF10
FFFFAC43
000441E4
FFF423EA
0029354C
001D7030
000B05B0
FFE37D0A
FFE8979D
FFFE4109
FFF9113C
FFEE80FC
FFF20D22
FFEEB38C
FFF5152B
000053EB
000E786A
0009F547
FFF802DB
FFFE5F55
FFF2DC8B
FFE0206D
FFDD7111
FFE44989
FFE50D45
FFF90E55
FFF89588
FFF77444
001A7458
FFFBA3A3
00086EB1
000BAB76
0018AFC1
001C56CB
FFFAFFFD
FFE03DD2
FFDBED7E
FFF05C96
FFF093D4
FFF63BA5
FFF54DFA
00026D68
0005CAB1
FFFAE7DA
FFFE929C
FFF5D056
0000FE80
FFF2770A
FFE818F6
FFD3733E
FFCE0C33
FFD37FBD
FFE0DDFD
FFEB2739
FFF828E4
00012516
FFE8C613
0002BF94
FFFFA23C
FFF36630
000A2EED
000B92C3
FFF778C1
FFD8D4EC
FFD1E255
FFF41FBF
FFF5DB22
000C4BEA
000BC38F
FFF91402
FFF5B720
FFF41E45
FFF29A6F
FFF168C8
0001A027
FFE28D57
FFDF0DA0
FFD84DB1
FFC0D492
FFD7F2D7
FFE12B98
FFD7B908
FFF5EC93
FFF5E121
FFF00BB2
FFFC1992
FFFF88C2
FFFC6E1F
FFEBD06E
0001B2E0
00156F3E
000235F3
000797D0
0000CC81
0012E2D7
00130E5B
0015060E
001101BB
0002CB9D
FFEF6131
0008731F
FFF539EA
FFF21BD6
FFF6942A
FFD646CA
FFD8E002
FFCF68AC
FFE501B6
FFED01CE
FFE107B8
FFE9231A
FFE44F3E
00053899
00077A7F
0007FC6F
FFF8E481
000A4560
FFF37ADC
FFF4B3FE
FFF49D2F
000BFE58
001289A3
001120C5
00166D82
00070F3B
FFFFED78
00022DA1
FFF2F56A
000038F2
0001EDCA
00025BEA
000AA156
FFF801F4
00009295
0004179A
0013FF70
000553D1
FFEE5017
0005376E
0003705C
000999F8
FFF932D0
00030DE7
FFFF60E8
FFE3079C
0003B376
FFF6C2EC
FFE6564D
FFFAAE84
FFF66249
FFF9B5B9
FFEFEEDA
FFF8C69C
00003AC1
000EA0AC
000FE225
000C48D7
000A4802
0010E7A0
00026391
FFF95585
FFF696CA
00036DDF
000D7C6B
00204CA3
00139691
001DAF0A
FFF9C3D9
000C7CEE
00051B06
000663E3
FFF7D39E
FFFF5492
FFEBD034
FFD989F4
FFD693FE
FFDF7FF8
FFF75F0D
FFEF96EF
FFFE5052
FFFB237D
FFF780A0
FFFD6A4E
FFF7E988
FFF19566
000AF0F1
0006B2E8
FFE8EED4
FFEA1A0A
0006DDFD
0000E68E
000087E6
FFFDF3F7
FFF213DC
FFE516B9
00050AB3
FFFFFFCE
FFFC6A25
FFFD40FB
FFFD2F5C
FFF9346B
000821F7
FFFBBF8B
0008DFA0
FFF6102E
FFF83A61
FFF6CCF6
FFF90F97
0015CD65
FFF2CFBE
FFF69BF6
001916F7
FFFF652C
FFEBB133
000226E5
001402D2
000C73AB
FFFAD0E2
FFF9D71A
000FE221
00040731
0014C32D
FFFD0B40
FFFEACCC
FFFC524B
FFF78D78
