00020C14
FFFE1459
0004DD7A
0008307E
FFFCBA58
000027CB
00077EDE
FFFE6F2D
00016210
FFFC7415
00024A74
FFFC3A13
FFF63DC1
FFF724EA
000689B8
00011983
00019884
000621D7
0001EA20
000819A4
0002CC4D
FFF7AC6D
0005CA0A
FFF7CEC3
000465B1
FFFF49EF
FFF74786
FFFE463F
0007FB69
FFFBD440
FFFC0B2F
0004F1BA
0001DC9C
00013C58
FFF65F57
FFF7EC08
FFF1B5DF
FFFE42ED
FFFBB01F
FFFFE781
FFF89BFB
000E0698
0007F794
FFFC991E
00123417
FFF7055F
FFED2DAE
FFE9585A
FFE2EB7D
FFE9F7D0
FFF812B3
FFF6AB4B
00084428
00075719
FFFBE1EA
0001A3DF
00068D9C
0006FDD9
FFFBC1BC
000FE64B
00065BFF
FFF51145
FFF19AAB
FFF58AA6
FFFBF035
000461DF
FFF89712
FFFEA4FC
000A6998
0012FC89
0000210E
FFEAA096
FFEC0584
FFF2631D
FFEAA3D0
FFE3C35A
FFED5C58
FFE97E06
FFE0509A
FFE721D3
FFE9291C
FFF2C47C
0003EB69
0007E7CE
00090DAF
00062E7B
FFFF1464
00059F7B
FFDFDA0F
FFFF5BA1
FFFE7E0D
FFFB750C
000152B0
0006CE73
000816B1
00157B19
00141525
0028D359
002E8F78
0019B8A6
0003F25B
00112487
FFF3A3C7
FFEA21E4
FFFAA139
FFE5BE4B
FFDCB49D
FFE0AE6F
FFE783E9
00007995
FFFFD782
00066FF0
0000D4FE
0005F30B
FFFFDDE3
FFF89253
FFF4E7DB
FFFDE835
000E6362
000D8C91
001045B3
002661A2
00216AEA
003110EE
002628A2
0027BAF5
002F44BF
0024B742
001BDFAB
0010D5AE
00145D37
FFEB591A
FFE0E4BE
FFCE53E9
FFD867ED
FFC9745C
FFD534BB
FFEB7397
FFF8116C
FFFD3F92
FFFF5FEC
00036561
FFFD8D54
FFEB4284
FFF5F30B
FFF4CC3E
FFFFE890
000232E0
FFFF1812
000459A2
000ECABC
0018CA19
0024EB34
001F7A06
0029B418
001B5AB6
0029A800
001A44FD
00180B48
000F4B02
000369B6
FFEB401B
FFE6F365
FFD7C652
FFCDCEA0
FFEB5744
FFF71CFA
0002F6D3
FFFFDFA8
000AC9D4
FFE3E6BE
FFFA871B
FFE4A636
FFF16959
FFF8AFE3
FFEA805A
FFF8E21E
FFEDA6BC
0000F328
FFFD7A7E
000153EB
0011BDF4
0016F7AC
001F5FD1
001BEDBC
002F2079
00304133
00196A18
00013596
000F2190
FFFB8D8B
FFED8E96
FFE1DF78
FFDF3DA5
FFF045CF
FFF3B7EA
FFFE32D1
000A65E2
FFF5A465
FFF99E11
FFFFB3EC
FFFEB85A
FFF65017
FFF9D89F
FFEC93DE
FFF5E4C4
FFF455C6
FFE53745
FFF11F4A
FFF03F29
FFF2CDB5
00127873
00157B05
0020DB82
00218742
00296A3A
000F8573
00127029
0000382E
000596D1
FFF6819B
00061DED
FFE94F4A
FFF6A08E
000F9F3B
00013C6C
FFFC4D68
0009BD92
FFFE19CF
FFF33D18
FFF1AE2E
FFFA3D24
FFEC0B38
FFED5177
FFF20641
FFDDF5BE
FFE449B6
FFE26BF8
FFF051B0
0003305C
0017553C
00236888
002BFFB0
001FBE2C
002645EE
001783CB
00202BDE
000FE4D7
0002FC0B
FFF2D0B3
FFDD06AA
FFFBB2DC
FFF058E2
FFF966CC
FFFF91C9
000A4CC1
FFEED49A
FFEDF8C4
FFF4CA3E
FFEFB292
FFE749AF
FFE0FC8C
FFE51D53
FFDDA9EC
FFF157A9
FFE89527
FFF84CB8
FFF7AC94
0007DD4D
000FD1F3
002429AF
0029F654
0032B7B3
0013E084
002B06D6
0018CE89
FFF35BCC
FFE8417E
FFEAA4CB
00025507
FFF79E4E
FFF9737D
0004ABDC
000D8B3B
FFD061A8
FFE77626
FFE1D3DD
FFDA8057
FFE209C6
FFE4F906
FFD88F07
FFEBA97A
FFEF7146
FFF0788E
FFF3F720
FFE0A154
FFF7DB4E
000C1147
0008B4AC
001434B9
00207594
001AFB3E
00383666
002A155E
FFDB4B1C
FFD8F2A5
FFF23D9E
0005DB7B
FFFB9CD8
FFFD2B19
FFF30329
FFE82D3F
FFE58F40
FFD2E53A
FFDA2666
FFE594C0
FFE989FD
FFE7D4D3
FFF9F010
FFFD0B55
FFF2FCF6
FFF8DB12
FFECEC6F
FFD9A2F7
FFD8CE1C
FFF5D84C
00033E4B
0015A154
002DB1DC
0017AEE2
0024EEEC
0002CBC6
FFFFE2FC
FFF824C8
000848FE
FFF93718
FFF51B65
FFFB780B
FFF1258B
FFE49A0C
FFE9DF5D
FFD60D28
FFD8EA74
FFE90408
FFF54EB3
FFF6276A
0008ED2F
FFFDEDD4
FFFB5158
00063CDB
00019CE0
FFEAD6F3
FFD6499F
FFE52D7B
FFFF5AE0
00243E26
00294014
00114CAF
00143972
000C8296
00018984
000831CC
FFF2F12E
FFFF3836
FFF85F50
FFF685C5
FFE590CB
000D4B88
FFFCE778
FFF31279
FFEEB5DD
FFFC9FBC
000E5A84
000898C0
FFFAD0C8
FFF464C9
00054FBC
0011E162
00087410
FFF5F92C
FFDDD888
FFED820E
0001C6E6
00222592
000F10A2
0008159E
FFFED27A
FFFD9DF1
FFED5B42
FFF87733
FFF8293C
0003E9B0
FFF252F8
FFFAE41D
FFDF27AC
00035883
000D8A68
FFFB5EE1
FFFFFF8A
0014DA80
000B8229
FFF91D75
FFF2F2B0
FFF3C7E5
000272A7
000A8250
000D77E0
FFFCF39D
FFE6DFFC
FFFEB4F9
00127DE0
0011394F
000BEE50
000DDCAE
FFFEBD6C
FFECB20D
FFEC2F99
FFF5748B
000B6350
000C3C69
FFF13485
0008C3F3
FFE05F07
FFF97BD1
00237A2A
0018FCAA
00028212
000DF0B3
FFFB794F
FFFB5200
FFE98D28
FFE5630A
FFF2F9C4
000673E4
FFFB95B1
FFF52E60
FFF6599D
0009E358
FFFF96EF
0009754C
0006689C
FFF777B2
00005159
FFF443FC
FFEF057A
FFFBB951
00158C35
000CAFC0
FFF30E38
0007A9A7
00037531
000BB51B
002231D8
000DD7AA
00130A0B
00044545
00092396
000AA157
0001999B
FFEF22BD
FFF8F588
FFF44AF6
FFFE3624
0003BF3E
0004538F
00081FD4
FFFF4D59
FFEFEF40
FFF29542
FFF06F6A
FFFAD9E7
FFEFA059
FFF7B3AE
0002EED6
0015C6EA
001402CF
FFFC26AA
0008A782
000B8D73
0018E6C5
001DED41
0004773E
000D77F6
000F60C3
000A0CB3
FFFCCFA6
FFF49256
FFE99A39
FFF4E34A
FFF826EB
FFF72BDD
FFFE8C2F
001C71E0
0008BEAC
FFF0F798
FFE63499
FFDE539C
FFF0837D
FFFE5B6B
FFF979F9
FFE10B02
FFFF9394
0015B719
0000C760
0005A5FC
000EEC74
FFF6D891
00123309
000A4952
00113353
001DF1B0
001515DC
00110D2F
00058B98
00047633
FFE8F311
FFE9DCA6
FFEEB7B7
FFF080CE
0017759C
0016F316
FFF8AF8D
FFF1C3A1
FFF58FB7
FFECADB8
FFF6A438
000B0EAF
0003211B
FFF8E44D
FFFCB154
FFFD3601
00099AB1
FFFBE668
0001073F
FFF066C3
FFF965CA
000AFC60
00281378
000C2527
000DC193
0006082F
000908D1
FFFCCC7D
FFFA7E9A
FFFC7774
FFFD4A6B
FFFCEECC
000A19F8
0007D71A
FFFBF768
FFFC8B4D
FFEFBDF6
FFED2867
FFF38297
FFFAA007
FFF72D2D
FFF70FBC
FFFEFF1C
0008DF59
FFF92747
FFF7417B
000E79AC
0006A428
00168A24
000AE510
002EACDA
000EF5D4
000CEA12
FFFDFB72
00018716
FFF5D514
FFF209E4
FFF4CBF0
000BC3D0
FFF9B1A7
00042ECE
0001F5E2
FFFA79EE
FFF83664
FFF42C05
FFED25C2
FFEDAE02
FFE5B2CC
FFFAAA6F
FFF361A6
FFF0B140
0006AB91
FFF72696
FFF1E20C
00109B96
001E951A
001EB220
000867D1
0009B12E
000D5E69
0009D770
00019FB1
0000A693
FFF9FE31
FFF039E0
FFF293FC
0000C8E7
FFF7DF99
00056F19
0006B26C
FFF68BA1
FFEF7412
FFFA6383
FFEA9B7B
FFEC61C7
00037BB7
00076B74
FFECBFF4
0005B30F
00170060
0002C840
FFEC0277
FFF3EFA2
0024472D
001878C3
FFF4D9C4
FFF4CC55
000E9D12
001891D8
000908F5
00094F39
00002C83
000A640D
000134D4
000C369D
00073402
000ABAF1
000643F5
FFF8780E
0003A44F
FFF1250E
FFEC0A9B
FFF505DB
0013C9B0
00040777
001452DF
001032C5
FFEABDB1
000884D5
00090FA9
FFFC9B8D
00125337
001FED0C
FFFE660B
FFEF8769
FFFAF245
001A338F
001A7EDC
0015C490
0015F94C
002071B0
0007A5D2
000A0F6D
000AC3CE
000B3496
00074E0D
000FF703
00152948
000DF6B1
FFFD7AC1
0011AC2D
001F84FE
0024D90E
0013C4F1
0009F6C7
FFDF6B8F
FFFEA01F
00068295
FFF9F6B7
FFF55810
000C8BD6
00160123
FFF5E9C7
FFFEB7DC
0000D7BF
000225A0
00079C30
0013727D
000B630B
00119C39
000DA1A5
000721BC
0010267E
001AB95A
00119F5A
001E3C21
0005EE95
0008FFFC
0008F0DE
000B47B0
001B1901
001E0CDE
001081EB
00008316
FFFC9D16
00056C63
0004D446
000F7C84
FFF4BAC6
FFF6F2F6
00140F6F
000D43CC
00067193
000DC3A0
000B2BB0
001D6F30
001071DF
FFF0A21B
FFEBF889
FFEF0AF0
FFF77858
FFF2BE82
FFF03354
00011F2E
00162123
0020D4B6
0004F739
FFF8031E
00039336
FFF15BD0
00090C44
0006E769
FFFF5488
FFFF6F60
FFFA398A
FFFF6135
0016CEB7
001CF3E6
001DF328
000ED30A
0012A181
00198E1F
00128AA7
00130B24
0002A6B5
FFFAC4D7
FFEC447C
00033A0E
FFF25F18
FFEBF762
FFDEAC5E
FFF9E181
0007E441
001734E2
0003EAA5
00048375
000317CC
0001EB84
00044F50
FFFCC2D0
0008A773
0003714C
FFF9C9CA
FFF6E5CD
000625A8
FFF81046
FFF6D817
00032405
00126A33
00095330
00014B29
0009CF26
000652A2
000AB6F8
FFE53446
FFFD8431
FFFB16C5
FFF3F57D
FFF0A6E6
FFFBB023
FFF676A5
0001A0DC
00102039
FFFF4220
00004132
FFF80F41
0001C81B
FFFFCE33
FFFB8107
