FFFDD1BD
FFFE8CED
FFFF3DAA
FFF9BEB2
FFFAD580
00081EA6
FFFB61A6
FFFFA78D
0001BA6E
0007FABB
00090CD6
0004EE0E
0004D8A3
000CB9C9
FFF69DEE
FFF62FE3
FFFFEE82
00035D7A
0008330C
0001613C
FFF92ED4
FFFD19E3
FFFDECC3
000842B4
FFFCC99D
00005646
00017C1C
0008F287
FFFF15C6
000578CC
0004AC45
FFFF0C69
00079A84
0003F2D4
0014387C
000EBCDE
001738DF
000A41C0
00135382
000B3F5A
001D0073
00191E3C
FFF44977
002116B2
00133CDA
00296757
00221241
0015C994
00279EDD
0010F5F8
000BBE02
0011AB2E
00065EB3
0008C52E
000155E3
FFF90ACE
0000B9B1
00016399
000DAAE3
001BDAEB
001E47A8
000633EE
00127184
001D2BBE
001D6643
000C0A81
001A0B1A
002F48D1
002ABDD1
00111699
000B0E1E
001AA13F
000A1414
0009F936
001D9DB7
001402AC
002472BE
00281764
0016F625
0020667A
0011DE13
0001874F
00088E6E
00080FA0
0004B0D9
0000F6B9
FFF4A1CA
001FBC40
000D6418
001F76C8
0029EEB4
000D13EE
0019D43F
0021264A
00243B66
00245AFB
001F027D
001D3FFC
0019B775
001A2F49
000B807F
000F4F1E
0016EEDA
001514EF
000C42E6
000F0FAE
00198494
001DA20D
0019DFC8
FFFA6F17
000BC375
FFFCC191
FFFBEA0A
FFFAB600
FFF2B910
00140192
0012F489
00195AE4
0005A751
FFFD62FE
0010CB42
0020652E
00167E1E
FFFE5D07
000178D5
00005302
0005F63F
00081D8F
0015DF8D
0001485C
FFFA063C
0013C550
000A42D8
000CF44D
00085F38
FFF87816
FFEA4C6A
0004B166
000E84CB
00142C56
0008DCE1
FFFC8696
00151369
FFEBDB9D
0008F0EE
0004D7BE
000B4371
001153FF
001D37C4
000AA2B3
FFF385C3
FFEA53C7
FFF9270C
FFF67214
0008452E
00083300
000AC233
00064E00
FFF5567A
00051397
FFF7BD8A
FFFDEBD4
FFFCA95E
FFFB7ACB
000CCE06
000FCB87
0028328E
001D99A9
00079AA8
00189413
001D6580
000AF726
00158C62
00177D2D
001CB440
001F421D
000F023D
00006A91
FFF3A781
FFEB9C12
FFF50FA7
FFEEC187
FFEB03CC
FFFC9289
FFF4268A
FFE2D13C
FFE49024
FFEE6AAC
FFF3255B
FFEEB202
FFFCE146
00000203
000CBD89
001E68C0
000A6521
0018C62C
FFFBE76F
0022C8D8
000B5E6A
00108040
00282069
00189354
00109E8A
001D137B
FFFA3F17
000110B0
00075306
FFFF59C5
FFF9F14A
FFF99DDD
FFF61EA6
FFF16CF2
FFE6D6B8
FFE5B5B8
FFED55EC
FFEA1E8B
FFEA2D88
FFE93089
FFF664DB
000296E3
0019963B
0016A583
FFF42073
00164D8F
000091B9
001A4131
FFFC8980
00215435
0026058F
000DC493
0004EBB2
0009588B
FFFD47D8
00057B55
FFFEE00F
0004376B
000D7C6A
0006A809
FFF449D9
FFE36512
FFE4990E
FFE98693
FFE413CE
FFE73C51
FFF53FE2
FFF01950
FFFF4030
0011EC84
0002CE86
FFF4CCD7
000531D7
000CD1BB
FFF9F45E
00172F5D
00143116
001E3230
002E0EE7
0003E9DB
00053509
00072CE3
000B6D4F
000338BD
FFF1D791
FFFD1B28
FFF57A20
FFF399C4
FFF93326
FFDF8ACC
FFDF84AA
FFE42A5B
FFE369CF
FFF1D451
FFF8BA5E
0004B5B3
000C245B
0013C073
000C1C64
001294A9
000CDCF1
0004E919
FFFC7442
001540E4
FFFA4115
00018638
001AA485
FFFB82E5
00056C24
0008E4E9
0001FC60
FFFB3FF6
0002435F
FFEB6D25
FFE09A25
FFF9FFD1
000D3A38
FFFFB5CA
FFEB92FD
FFF9D0B7
FFFEBF82
FFF13D32
0004E4AA
0000AFF3
0015462F
00118A28
0015D2BB
FFE99167
0002EFCB
00086D7E
0004DF2A
0015030C
000B8D7B
00003A3E
0010A049
0005077B
FFFDF755
000CC263
0002FFAD
0002A55E
FFF56141
FFE3DEA0
FFEB038F
00221B7A
003E57FA
00156521
00014B55
FFF036AF
FFFF0573
FFFBD8FD
FFFE5FD0
000BA768
000EB0A2
0020A95F
0022A0D5
000C4658
00097FF3
000BB053
000797A9
000A711B
000EFE0A
0013F497
000AA6C7
FFFD7949
FFEE5AA9
00014F03
FFEFE5CC
FFF585F4
FFE25FD1
FFECA1CE
FFFFAF59
0032B651
0037876B
0013B5C0
FFFF2F32
FFFC66A2
00004EEA
00024060
000D648D
001071C4
00064CBB
0011DB88
00271386
001A4DC6
FFF4E1BD
0011EB5A
FFF8EA70
FFF1D200
0019159B
001C450E
FFEA98A1
FFEFB414
FFF095F2
FFE1564F
FFDB6977
FFE22E21
FFDF1D52
FFFCFA36
000CAB2D
003361A5
0036CA45
001D1793
00067992
FFF83140
000D142E
000636A1
0001AE48
00072A89
FFF6DCFC
0016B8F4
001C5D34
000441D2
FFF9C3BA
00020C60
0013854B
0008E9FF
000F4CF5
00117735
FFE1695A
FFF443EF
FFF642BE
FFE6D315
FFEC914A
FFE80F60
FFFCF184
000EAB95
00267483
00360691
00393EFC
0017E752
00012342
FFF8B5DF
0005CF1A
0012CB9B
00072C62
0005AA2D
FFFBD41A
000F9695
0008596F
0006FD91
FFF0AA65
FFFCC13B
00132582
00043B44
000DABEE
FFFFFF64
FFF57DDE
FFEE809C
FFFDD6F3
FFF4F483
FFEF5E32
00030C2D
0001F8EB
002B3E98
0031D6B9
003481CC
002B1B18
000DCEA9
FFF15138
FFF43DF6
0008FD05
0015BB4F
0007796D
0009A624
000A7370
000C7EF0
000BEE6E
0014AC3E
FFCFCC00
FFEB43BE
000A7E39
00116CB3
001D1984
001CAF19
0007D1CD
001262FF
00057A4A
FFFE794F
00091A99
001DC621
002409B9
002E1F16
00300112
0027FA3E
00230AD0
0006A545
FFFE543B
00076EF7
000DA322
000E6515
FFF6A22A
0004A208
00013E05
00089A4B
0017C186
00057170
FFDE8A57
FFF11DBB
FFFA16F9
00102042
00197389
00237CE5
001054FA
00054F69
000FE248
000A0F42
000D684A
0011F2FA
0025BB54
002F45D6
001D2BBD
0022C2E3
000E4950
FFFA3DD5
FFFF7D10
FFFE66DE
0011C712
00132D1E
00049A3C
000834A6
000DB314
0014A879
001779DA
0007953C
FFEECB34
FFFD28D4
FFFC1F6D
00095821
001CBA49
001C7023
000B6D05
00036CCE
FFFE8FB1
0005F65C
0018B53F
0012A5D4
0018A0C9
0013FC0E
001B380F
000B8DC1
FFF2CB4C
FFF2A5EA
0006CD39
FFFE9D6E
FFFDE8FE
FFF2A497
00017B71
FFFF70CF
0003A83C
0004F7E2
FFF792FE
000926F3
0000B31F
FFEB65C6
FFFEEF64
FFF9979D
FFF34CAB
FFF8EB6F
FFFA711F
0004C8C5
000005E8
FFFEF1F5
0010AE03
001C9F40
00150475
001003F5
00112343
FFF9AEE8
FFF586A6
0006E321
0002BD5C
000B8733
0000A516
FFFE95A9
FFFDCF6E
FFFC29A4
00082012
FFFCA482
FFFB7519
FFFAC173
FFE3E701
FFEEC1CF
FFFF573D
FFF73716
FFE50DB4
FFE57813
FFF89657
FFF5DF9E
FFF31904
001027D6
001C0FD2
0020C6ED
0012DEFD
000D1BD0
000C68B1
0009CFCB
0009642F
000DC195
FFFDA4C1
FFF9F880
FFF95A00
FFFFDC8D
00093E12
000A7B3A
FFF2B11A
FFE924F6
FFDA19C5
FFF248BD
FFFA9476
FFF798BE
0005B31C
FFF78660
FFEFE54C
FFE4B157
FFF5B3AB
FFEF40D8
0009F19F
00176A12
00028DF0
000F55C4
000A821D
00084B5A
000C62CD
00108144
0013AE33
0013F8C8
FFFC61FC
000D5CD1
FFFF547C
FFFD9B2F
FFF85E73
FFED0BAF
FFD9D9A6
FFCDAE5E
FFCAF3C1
00088E35
0007D613
FFFCF3EE
FFF95F9A
000930E9
FFFCBC99
FFF14484
FFFDE978
FFF6A842
FFFD8D46
FFFD76C4
FFF17B06
0000EB4F
00011FE9
000BEF88
00075838
000D0030
000212D1
000C8511
000F8755
FFF8D1F1
FFF46F2A
FFF8999C
FFEAD32F
FFD79807
FFD223A2
FFCA2E48
FFD0D0BA
FFFBDDC4
000841EA
0000EC83
FFFBE7AF
00032AFB
00010FBA
FFEA591A
0006E5DF
FFEE2C9A
FFF33C4B
FFECC36F
FFE6D9E9
FFFF20A3
FFE91818
FFFC19D5
00099EE3
00051EC0
00082B0C
0005DD5F
000F68AC
FFF714A8
FFE5F706
FFE5139B
FFE62A77
FFCA3649
FFDBEC04
FFD57C6F
FFCD40AE
FFF51BF8
FFE82E09
0000FCC7
00019643
00034008
0004A222
001FEBB9
FFF584C1
FFE76877
FFEB9D7A
FFEBA76F
FFE3E624
FFF509F6
FFF618DC
00082E3A
000885F1
000225BF
0008F444
0004420F
0001F95A
FFED93F4
FFDF9E14
FFF6D950
FFE778B7
FFD3B1CE
FFD94F5F
FFDEBFC9
FFE7E299
FFEBCE2A
000C3EBE
FFFDE234
00022DF1
0002E325
FFFC201D
000E01E1
FFFB3FF3
FFE5D5C4
FFF46C76
FFF18E14
FFEF28FC
FFF6ADCD
000A5DDF
FFFBE66A
FFFEBC47
FFE1D256
FFDCD2AD
FFF6AFA3
FFFF1436
FFFD63DB
FFF002A6
00087D36
FFF83BE7
FFE05130
FFF1422D
FFFCBFD3
0008536F
FFFE4E2D
000E0546
000584B2
FFFA61CA
FFFC4BF0
FFFF152C
FFE34F36
FFEDF26A
FFE171B2
FFD85B46
FFE7C208
FFE60A6E
FFF32AB0
0004F60C
FFF9EDDD
FFE0E0AA
FFE6653F
FFD21BAD
FFE0D074
FFE457A0
FFF7D21D
FFE2C184
FFECF256
FFDBE90A
FFD4B08F
FFE79771
FFF12FD1
FFF368D8
0003E194
FFFC6B74
FFFD6A30
FFFCDA82
0007D773
FFFB4997
FFFC76A1
00066BB8
0002DFC1
FFEDF662
FFF0B127
FFF68DD9
FFF6AE40
001E6748
FFF8CD87
FFF1F313
FFFAF8DA
FFF2760E
FFFDAA1D
FFFAE324
FFF8B0F6
FFED88A0
00029DE7
FFFDABD6
FFF8A67F
FFF1637A
FFF7B92C
FFFA6160
FFFC3938
FFF88188
0006A578
