000697BB
FFF9C689
FFFFE144
000233D5
FFFFD143
0004328E
FFF784F7
000506FE
FFFD4BEB
0001A8E9
FFFE17DF
FFF7CD45
FFFAF067
FFF7648E
FFFD7A20
00057739
0007D201
FFFC0C35
FFFD8AD1
FFFD4004
FFF981CD
FFF7C170
FFFBEBE4
FFFACD6C
FFFE9F4F
FFFF33F7
00067B09
FFFF337C
0004C9EC
FFF73173
FFFF1FC7
FFFE96B4
FFFF631F
FFFCFDBD
FFF60B3B
FFF0DB52
FFEF8791
FFF99D93
FFF4308C
FFF22F68
FFDF8E7A
FFEAB5C5
FFF99F48
FFE6AF9D
FFE79C06
FFE432F7
FFF05FA2
FFEDE941
FFE290DA
FFFB0BAE
FFE5CE8C
FFF061B4
00075F50
FFFB4183
FFF7FFC1
0004CA66
00010A83
00077D6E
FFFE9734
FFF16A1A
FFE58824
FFF7D80B
FFE5B939
FFE8526A
FFE90F06
FFDEC624
FFDCA6EB
FFC9F05C
FFD63C98
FFCD01E8
FFCD4248
FFCBA4AF
FFDF3CE6
FFE1E7C4
FFEEA9E4
FFCD32AA
FFE08B18
FFDCA9A4
FFE2A10D
FFDCC717
FFF676A6
0000A139
FFF6E0C9
FFFEB7C9
FFF8E9C0
FFF83FBF
001212B6
FFE732AD
FFD974D6
FFF27F5E
FFE720D6
FFCFEC20
FFC7576D
FFC85D3E
FFD095A1
FFCC3046
FFA418AE
FFA83BFC
FFB306D0
FFBD26E3
FFD7E01D
FFE7D6F6
FFE84E0F
FFC48CB5
FFD50CB0
FFE29224
FFF65044
FFFC5AA4
FFF4EB5C
FFF3CAA8
FFF4076B
FFF84536
FFFA4092
000334AA
0017110C
FFF76D9F
FFEAD7B1
FFE7B370
FFE86FA6
FFE40BE0
FFD59EB6
FFD8CE97
FFD7EE2A
FFEC4DCB
FFFE076E
FFEEC7D7
FFE63439
FFEED497
FFF36EEA
FFF7BF4C
FFE10B13
FFD54D07
FFEDCA44
0003BB53
000AD80D
0001D618
0006F0D8
0003C3BA
FFFDD290
FFF0CD43
FFF7312C
00056BFC
FFE60F6B
FFF14472
FFE88F2C
000125B9
0005CD3E
FFF728EA
000CE9B3
00092DF6
0004C6C5
00220D0E
00156548
0007022F
0004C4D1
000435CD
FFFA49B5
FFF33E02
FFF30944
FFE7466A
FFE3F83D
FFF1936B
FFEA6ABE
FFF2D590
FFF2ED0A
FFFC3776
FFDE0F5D
FFEF9131
FFF7476E
FFF3F5E7
000ADE56
000AB920
FFF0908C
FFFF04B0
000C8393
00023FA0
000D96A0
001CC762
0016569E
0013E1B4
0009FED8
000AD4DA
000BA848
000B0F30
00151600
0019ED7F
FFFA7D40
FFE47640
FFE6C412
00047ED8
FFED9187
FFFA49EE
FFEBE95D
FFF426E4
FFE9D690
FFF85C4A
0009E060
FFE99B4C
0016C273
00250DA5
FFF9249A
FFF2100D
0003F057
FFF8CBFA
FFFBC460
000CD363
000993AD
FFF57585
0000F3F0
0006CD5C
000155E0
00166B59
000A4B9D
00165E91
000C7C3F
FFF94D52
FFF3693C
FFF92F8E
FFEC3C6C
0001CC33
FFF8BB03
FFFA7754
FFFFC6EC
FFED4593
FFE92DB5
FFF92ED0
0014DA9A
00156D13
00017E08
FFFFE28F
0005EB70
00047044
0012E520
0006DE02
FFFD55CD
0002CDD3
0002C5FF
0001B7A1
000F0152
001468DA
00079DF2
00050D70
00090E78
FFF319CC
FFEB7F6E
FFF7C33A
FFE80B08
FFF40E42
FFFDF5EF
00024B0D
000CC47E
FFF5934A
0007F2D6
000178FE
FFFE334E
0007BEFC
FFF73151
000778C1
000FA3AF
000B926B
FFFB9400
FFFF50E1
FFFF7AC6
00008B8B
000370FA
001878EE
001B1FA2
0027C522
0012AF21
0013101F
0017CEEC
000D35C0
FFF7C609
FFF1ED5D
FFE60CF5
FFEB5502
FFEC0FAF
FFF35ED8
FFFB13E4
0014607E
FFFF1866
FFFAFCE8
000866CA
FFF7E0E8
FFFFD205
00020E6B
0005DD48
FFFAA197
0008F17E
000CBF35
FFFF75BE
000039EF
001665AF
00112309
000FE0A9
0011C2D9
0014ECCE
001C4349
000CB849
000C46C8
00017FDB
FFED9C97
FFE7F626
FFD70D66
FFE824A4
FFEF57B2
FFF4CA05
00179A46
FFFEC715
FFF77CCF
FFFED656
0005EB39
FFF0D89C
FFF6D1F9
FFF57ED8
0004730B
0006B6C7
000EFAA3
000E9879
000F5DDA
0008D6F3
000D8654
0013A0DC
001EF279
002448FF
001FB154
00154352
00037A8F
0003F19D
FFF7321C
FFE7CD86
FFDAE5DC
FFD007F3
FFD8C6D7
FFFF6F95
0019A596
FFFE3C85
000E541C
00125F28
0013338A
FFFA23D2
FFF3B123
FFF5DAC7
FFFE7E8C
00076B93
00055882
0003E177
00009461
FFF5B0D4
FFFD1910
000412D2
00243A6C
00260BD1
002339F0
00252DD5
0014ED34
00101D60
0001709A
FFFE0D26
FFE833E5
FFDF6240
FFE7FC82
FFFE9915
000F5CC9
FFEE3A0D
00082548
00050E7C
000BEBFA
00100F1D
FFED0144
FFE6AE7A
FFFA2CA8
FFFE55AA
FFFC48D4
FFFE912A
00004503
FFFCE172
FFF32605
000B0E60
0027391B
0029D480
002CC023
0022F361
0015D3D7
FFFDB553
0004AB81
FFFF0DAF
FFD8B01B
FFD24C97
00008756
0005F92B
00001F1F
FFEC0867
000BFF6E
FFF019E6
000C3BE6
000A34F8
FFF4FD96
FFF14529
FFFB7663
FFF33351
FFF3E704
FFED634C
FFF32D8C
FFFF6D3E
FFFE1B67
0000CDA0
000E4B7F
0026DE51
0034786C
0018456A
000A7AF6
FFF8906A
FFE712AE
FFEA2BA7
FFE236A5
FFEA93DD
FFFD4B0B
FFF414C9
FFF8B432
FFF928F6
FFFFF430
FFEA9488
000A887F
0002C1B6
FFE14775
FFDA62EB
FFF5B8A0
FFF983EE
FFEDD159
FFFA71E2
00070220
FFFE8BE1
FFFBA737
000DE228
001892FF
002671A2
0024417A
0018E6B5
FFF560B3
FFF27064
FFE9F5E9
FFFF0105
FFF64B8D
FFD61C69
FFF4024C
0013BC27
FFF0D48C
000C5F99
FFFE3827
FFF8E339
FFE5F9DE
FFEF0C59
FFE70C50
FFE866A8
FFFC20AE
0011DC33
000BC500
FFF958D6
FFFEAE6E
0008A94E
000AB9F6
001012BE
0025FFCE
0024D366
001D2476
FFFA9F9B
FFE80CE0
FFE90C86
FFE5EF0E
FFEEAB1A
FFF12740
FFDE3782
FFEF4E87
FFF6E109
FFE6E936
FFF9C01B
FFFF3FAD
000437DB
FFD7D465
FFE576D4
FFE0C059
FFE217A0
00085CB0
000ED45C
000C4A9D
0007A900
001063D4
001F643A
001FAC2A
0018EE8C
0014D490
000E25D7
FFFFB6DF
FFF0C408
FFE47B83
FFE58BB6
FFEC3B7A
FFF653F3
FFE8E0DE
FFEAC481
00055963
0009E72B
FFF378AB
00076B9B
FFF87FC3
00007F4E
FFE24539
FFCC8168
FFD383F9
FFDC9DE0
FFF742E2
0004A4A4
000490B9
00014224
FFFE614F
FFF834FF
001198A3
00094407
FFF459D7
00015316
FFE8FC1F
FFDC6F62
FFDE5298
FFEA77FF
FFE829FE
FFE8FE48
FFC2B6C5
FFCB9494
FFF2722E
000CB122
FFE279D0
FFF5D4DE
FFF35C95
FFF5D1D1
FFE66BA1
FFD266AE
FFD61D32
FFF0CB1E
00000681
0005EAAE
FFEFE9AD
FFEDA0E8
FFED4452
FFF80DA3
FFFD7FBB
00050E19
FFF83621
FFF7BD68
FFE69AE9
FFE53752
FFE46509
FFEFAFDF
FFEA1A2D
FFCFC0AF
FFBFDF9E
FFC58D91
FFE80049
FFDF44B0
FFF0A8D4
FFFB6C31
00132696
FFF6A7B7
FFE54653
FFDFC88D
FFE42926
FFE7448E
FFF22F5B
FFF6D660
FFF0B470
FFF2431C
FFEAFDE8
FFF49391
FFFF93AC
FFF782F5
FFF53F01
FFF725CC
FFE98522
FFE83CAC
FFE30EB7
FFEA3C52
FFD989D2
FFD870BE
FFCDB77E
FFDB4CF4
FFF9D38B
FFDA12FD
FFFF5773
FFFDB512
FFFB7CF9
FFE7A907
FFCEB4E6
FFD91301
FFF7D184
FFED5D65
FFEA579A
00068381
0004CF57
FFFD2E05
FFF13117
FFF59C45
FFF2104A
FFF24F4E
FFF8B543
FFFF7E9D
FFF7D62C
FFE69B6B
FFE51259
FFE57141
FFF046B0
FFE4BCF5
FFE36E4B
FFF43C2E
FFF91694
FFE56B49
FFF8A75C
FFFB2BE5
FFFE0C7E
FFECA416
FFDE42AF
FFD294D8
FFF75040
00064319
FFFBB573
00069B41
FFFA1565
0000ECF8
00043019
FFFE958B
0000A251
000D083C
00010069
FFFF28F1
FFF630AE
FFF12630
FFF97F83
FFEC04DB
FFF91E4E
FFE9D563
FFE641CE
FFEA6A64
FFF7FF0C
FFF172FD
0003B43B
FFFD7968
0008606B
FFEA63AC
FFDB50E3
FFDC3BF1
FFE1B632
FFFE34B1
001A04DC
FFFDE2C8
FFEC2B8E
FFF352B0
FFFC2422
000033DF
00058A70
0004BA07
00002A2D
00026F67
0009F8F7
FFFF086D
FFFA0028
FFFA33CD
00095CB8
00030DF3
FFFC5471
000248EE
0003101B
FFE0A7C4
FFF9C470
FFF98EB3
FFFB2A3A
000DC0CF
FFE8EF82
0004D04E
001DA821
000D25F4
00183EE9
0000D27B
FFFD2FEA
00046F64
00039E98
FFF861C0
FFF76E8F
FFF18019
FFFB7C0A
FFF6BBCF
FFEC06E0
FFF8F298
FFF99A48
FFFB92A6
0003D3E7
FFFAFE8C
00032F7D
FFF1EC38
FFF746AF
000110D7
FFFB180A
FFF79616
0003041C
0001C88D
000C5DE3
0013552A
00198D4D
00026E81
000D3AA0
0002829E
000A0CA5
0002FFB5
000C8440
FFF74475
FFF4AB34
00000AAC
FFFBF0ED
FFF7B716
FFE84FB2
FFF26E90
FFED4376
00037BEE
FFF8286A
FFE3362D
FFF0FCA6
FFE90C68
FFF51A81
FFFB657D
000829DC
FFFC5C3B
000914E6
00029BCD
000FC408
001260B9
002E6A16
002D3837
001FB610
002F1D26
0028A8BF
0018596C
00017476
000614CE
0009CDBA
001D8077
000E02F3
0005FAF8
0003293F
0007646F
FFF9A47A
00025F6B
00140D9E
0007249D
0015982F
00110AFF
0001BB09
000763DC
FFFC3A05
FFF74A17
FFFCB33D
FFFEFE2D
00084BC8
FFFEB580
FFF9F2AB
000FED3E
001A63B1
000BF26A
000D8C2A
001B7302
000E6AB4
0009714A
000F4D62
002768A6
0024B158
0014B9C0
0018ECC3
001C894B
00257429
001D531A
001F6835
002786F3
0005FB88
FFFC10E0
00065F36
00050327
00059007
