00000FCD
FFF7EFAC
00090C86
0001906A
0004EF4F
00084CA8
000344EA
0006FF54
00009823
000748E3
0007F3D3
00084FE9
FFFD700F
FFFF01EA
FFFCC0A8
FFFB7433
FFFB185F
00055976
FFFD843D
0006355E
0000CE31
FFFDB26E
FFFBF2A0
FFFE6D75
FFFAB78E
FFFDD23C
FFFD4EEC
FFF9EBC3
000855A7
FFFCD6CA
0007D64A
0008357A
00009903
FFFEE107
FFEDE645
FFE3A7EC
FFE80767
FFF17D93
FFF000AA
FFECFC5C
FFDE2538
FFE8F2A8
0002AE76
FFDF5A76
FFCC48A5
FFD41640
FFFAAE17
FFE1A82E
FFDCF560
FFF90B10
FFF83EEF
FFE7E37A
FFFAA59E
00031DEF
00001A52
FFF90037
FFF8B58A
FFF84280
FFF83AD8
FFEA4424
FFDEAB6A
FFF3F316
FFE38B36
FFE57DEC
FFE35EF8
FFD7FA57
FFD15AE2
FFD8CC3F
FFBD0E5D
FFE0975D
FFE0EE3A
FFD30A56
FFDB1900
FFDA8FED
FFD4D64C
FFF8880C
FFFEA4C0
000D55ED
FFF84153
FFF617E7
000A29DE
FFFD85C3
0008C58C
0002C9AD
FFFC527D
00007344
00122936
FFD948F0
FFE29036
FFE7B3B1
FFE184B2
FFE0641B
FFC88AE0
FFCB7B49
FFC87350
FFCF5A86
FFC0EB28
FFC7F956
FFBA6D2A
FFBA4B94
FFC80557
FFD741EA
FFD90262
FFF3E329
FFE83CEA
FFF318E7
FFF89CC5
000EAFA3
000F6076
FFEF7603
FFE7790D
FFFFB836
FFF9E9B1
FFFD3741
000FF673
FFF4E8CB
00094A38
0010CC6D
00000CF9
FFF9318F
FFF9D284
00002A7F
FFF75FB1
FFF83E90
FFFA054E
FFF74BC8
FFE3BCC9
FFE40E2F
FFEED653
FFFA12D3
FFF55DC1
000B845E
0014D983
0016A888
000F9E42
FFFD54E8
FFFC0770
FFEF8772
FFF8ED5B
000D120B
00045AA7
0009221E
00055003
FFFE779D
0014584E
002806EC
0027C3F2
001789A1
0018FCDF
0019AD97
FFFC142A
FFFE1EEF
FFFC5DFF
FFF51C39
FFF453B5
00015117
FFFB219B
0003F531
000A8DF9
00003CEC
FFFCA578
00126CA9
0004CCA7
000D478C
00009019
FFF6D686
FFE555F7
FFFB1D7E
00004EFC
000CE9E6
FFFA2149
001AE400
001D969F
0025C727
00247008
0024091C
00195AAB
000BF692
0003B831
0002B481
FFF0E2ED
FFE0EFFD
FFDD5CCC
FFF34F94
FFFC1B38
0003F444
FFF432F4
FFF9551F
FFFD66A0
00166F04
001321EC
0019FEC9
FFF8B985
FFEF7DAE
FFE852BE
FFFE161D
00080BAE
000B75E3
000A8781
002657DF
001B0D3A
001C3E18
000D43A6
00142BDC
00036E53
0006D883
00049D7A
FFEF7278
FFEA121A
FFEA80D8
FFDB0A80
FFEF5EA8
FFEDA678
0007E093
000F346F
0005300E
000A017E
000D7343
0008A522
000F1ABE
000683B6
FFF90D62
0002A25F
00057417
000D019F
000ED7F9
001224F9
001DC996
0023DFD5
001730D7
000ECA11
001366D3
0004538A
000E805A
000173DA
FFF10E92
FFF3CA01
FFF0E1BA
FFF0DA5E
FFF78FFC
FFFF06D7
0007D8AC
000827BC
00068E16
0006B9DE
00032BA5
0004DF0C
0007F1C5
FFF82FB3
FFF51351
FFFDA4E0
FFF99D02
00118D27
00167C7D
0005E11A
000E2D1B
001731C3
0002FA9B
000B5250
000A85E2
000459C2
00070EC5
FFF51BA1
FFF19280
000089B7
FFF87E70
00000625
FFFF5EE6
0005EF59
00107C2A
000BC5CD
0003C83F
00047F71
0011EEC7
000D1A9C
FFFCE178
FFF02719
FFE84305
000B498D
000E702A
0009270F
00154B1F
00191603
00080C92
000D4E0D
FFF78420
FFF8838E
0001CEC6
FFF0F014
FFF9F5F7
FFF56E39
FFF5CA66
00050D7A
000F6AAD
0009820C
000FE263
00075913
000525D1
0009238E
00079E53
000EA5F9
000CB86E
001458D7
FFEC62AB
FFE47239
FFE342CF
FFDF41F4
001C3CC4
000D68E9
001C5BAC
002600D4
00119CF3
000A5F8E
FFF85DA0
FFF94226
FFF34172
FFFEB2DB
FFFD3E16
0008C5F1
000F6524
001EE27B
000DE18D
00059D91
001536DC
0000FA74
0000F9CA
0003999B
FFFE1B88
00086741
00025BA7
0002C254
FFDF4E4E
FFCFDEAC
FFCB3090
FFE8564B
000F3C7E
0002D2A5
00193BD1
0013AB10
001D24F0
FFF75D47
FFF07F47
FFEB9A2E
FFFDFFC6
0000CABC
FFFC53E0
FFF9556F
0014F560
00191C90
000CF2AA
FFFD7C3E
000E868A
00176A04
000BAEA2
FFF889B1
00019DD8
0000B2DC
000C901C
001959F8
00027653
FFFB3180
FFD7A1FD
FFEAD39B
000ED5C5
0007992C
00120C43
0016248E
0010B10D
FFE3AA8D
FFEF87BA
FFF00633
FFF9EC74
FFFD6A5E
FFFBC073
000C87CB
001A7745
0008AEAE
FFF4B954
FFFD97D8
00118E6A
00184258
000795A3
000365B7
FFF8AB3A
000AD92E
000D816A
0002EEA4
FFFB7E06
FFF120B2
FFF660BC
FFF201F7
FFF1A249
000072BD
0005301D
001B23AA
0001158D
FFF52E57
FFFAB516
FFEEAA82
FFF5C958
FFF9A008
0002ADF4
0006366B
0012DEAB
00027C35
FFF6EC50
0007C801
000AC694
00114B7C
000E6D64
0010D324
001D842F
000D604D
000E88FF
FFFA5C8C
FFFC8E27
FFFC87EB
00022A7F
FFE69881
FFF0ACE4
0003AD6A
FFF566B8
001C7659
00058767
FFE131B2
FFE30C60
FFF26070
0008B0C0
000A1E78
0016A5EC
000C36DD
0003D450
FFF74EC6
000E7B2D
0015F2C5
00106FE0
0002CCD5
001198B3
000F0523
00128A8A
001071A1
00052148
FFFEF484
FFF210DC
FFE8C4DA
FFE6CE2A
00006F88
FFECB6D3
000A9F10
FFFCF334
00035BD9
FFF64182
FFE077EC
FFDF8B47
FFF402F2
000BBBD1
00184CC3
001219CE
FFFEC9B4
FFF6C2B2
FFFEF9C5
00111546
001C2D99
0015198C
000B962E
000B37F8
00031E1F
001365D1
0013EDBD
0013AEE2
FFF21D6C
FFF39ED7
FFED99DB
FFDB4796
FFED2075
FFDD160A
FFF7D38F
00035E55
0016F5F4
FFF1129A
FFED309E
FFEC1416
FFF15EB6
0003BB6C
000F788D
0011DD7B
FFF72DCC
FFFF2EEC
00135B2E
000F5C6D
001C77EC
00001A5A
0007020E
000408DA
0008B114
0000ECA7
000505F7
00078CA0
FFFA76BF
FFF9FAC1
00087529
FFF2F223
FFF5C776
FFE27957
00055709
FFFFF91A
001281AE
FFF5DD87
FFF1B5FB
FFE69D71
FFDEC920
FFFDCC2E
000A5FC8
000E17B7
FFEA06D3
FFFB2A8D
0010EBAD
00152C78
0000BDEB
FFFA0878
FFF20768
FFEDD22D
FFFB7B84
FFF39CC8
FFF48E89
FFF2036B
FFE13412
FFE473F3
FFED5F74
FFE6CCD6
000CAE55
0005F7BC
000C7570
001B7246
000452DC
00174343
FFF92B56
FFEBCBE1
FFEC2011
FFFD51E6
FFFE1774
00083D76
FFF37B14
FFF959ED
FFFFE104
00055B77
00029DBA
FFFB117F
FFF70B83
FFF0F52D
FFEFB4C9
FFF4E8E9
FFF58A7B
FFE911AD
FFE1000C
FFD26E71
FFE4A2B4
FFD55368
FFEF7278
00099A2F
FFFF8B8E
000943ED
00067544
000C1FFA
FFFE70D0
FFEE2E44
FFF1FA6F
FFF777B6
FFF911EA
FFF56551
FFF17D50
FFFECBAA
FFFCA944
FFF625D8
FFF3416E
FFFDE2B7
FFE9AB30
FFEA4546
FFF1B857
FFF47A78
FFF6C644
FFF65833
FFE75841
FFD455AF
FFE1FBA5
FFCF1AAE
FFF30070
00008148
000273AA
0001360F
FFEECF4E
FFF5153F
FFF1A9D9
FFFA32EF
000334DB
FFFEB815
FFFA49A8
00068C0F
FFF9F23D
FFFAAAB7
FFF73089
FFF30495
FFFEC6A2
000566C4
FFF17458
FFEE72D9
FFF44E66
FFF7817B
FFFD5A18
FFF69B60
FFED2EA4
FFE89B69
FFEF742C
FFE0F4E3
000757B6
00072F56
00049D39
0002A810
FFE73143
FFDB2E50
000030C2
0023F343
0019F693
001614B4
0004A87F
0002E98F
0006E380
FFF99D69
FFF731AD
FFF98A56
0004EC8C
00054837
0000FDAB
FFF28878
FFFC2B2B
000B6197
FFEDC28C
FFFAD00A
FFF15F20
FFF61286
FFF43484
0001CECA
000B1497
00094BC7
FFF816DD
00076B96
FFEA913B
FFC77CDC
FFF2318D
0004C3C5
001B3FA9
0023B77D
00077C2E
0014755C
00060C5A
0003399E
000949A0
0005ADA9
000D310F
000CC967
000453C5
FFFFC5DA
FFF337EA
FFFAA60A
00001924
FFF7D8E1
FFEBFD52
FFD75112
FFF4278B
0007924F
00084512
0007757E
00027F68
0004766A
00047A2A
FFF22C99
FFF60CB4
0002EE27
0015D3FC
0005FDA2
FFFFBF79
00053E18
00005C79
00012BD6
000CA5D9
00013D83
00047FE1
FFFFCA3A
FFF4DF15
FFE1C6A7
FFEAD79E
FFF3FD5D
FFFCF098
FFF16992
FFEDFB9C
FFE5B553
FFE308D1
FFFD6D09
00134232
FFFCCB66
FFF6E901
00027F51
FFEA4873
00115C78
0012179E
FFF16ABE
FFF7B3F9
FFF3BFF4
FFFDB089
FFF984F9
FFF0AC1C
FFEFECD8
FFE7F7A1
FFF6511A
FFFAD50F
FFF6FEF0
FFEEA9E8
FFDF93BD
FFE9EBA8
FFD7F612
FFD663F0
FFDD6B13
FFE4DFDB
FFED3D33
FFED849B
000061E2
00036318
FFF82508
FFFCF217
0002D6BA
FFF9AAEC
FFE8E624
FFE9D001
FFE82EDE
FFF08E39
FFFC4BB1
FFF63CFF
FFEBEA93
FFF00428
FFE3CFF5
FFEB8F6A
FFE76658
FFD0BF63
FFE67109
FFDB8632
FFDE8061
FFE2D4B1
FFE55C0A
FFE404A4
FFDFCD0D
FFF4119C
FFF53509
FFFF8792
00090074
FFF9E1E0
FFF8DB09
FFFCB237
0007B021
FFFAB562
0003520F
000360C1
000A7236
000246ED
FFFA9F2B
FFF9F468
FFF8B8E5
0009F6F6
FFFCB510
FFEA422C
00114369
FFEB06CE
FFF6B45C
0004864B
000FEB4A
FFFD26DC
FFFC2A64
0007287C
0014AD3E
00041377
001A124F
FFFF5A54
FFF999F4
0003356A
FFF9E4F4
