0004213E
FFFBEC14
0005FD39
00022981
FFF75519
FFFEC8E9
FFF7B994
FFFCCD9C
0001A722
FFF7547E
FFFF12DD
000551ED
FFFA6BE8
0002AB18
0000F101
00022C27
FFF87608
FFFD72D2
00018032
0006ED6B
000865B3
FFFEC094
0007FCBB
00010C7A
00063265
00056BF9
FFFA00DA
0008D7D2
00022DDC
FFFAEBDD
FFF739F4
00005174
FFF4C14E
FFFC55AF
FFEFED65
FFE91A6D
FFECFFB2
FFE9F6ED
FFF33791
FFEAEEAC
FFE1D511
FFE1D137
00052738
FFED42A0
FFEFA52F
FFD9C65D
FFDD3A3E
FFDFEE33
FFE0AFF8
FFF09986
FFEB59D4
FFF23A3E
000271E9
FFFA64FB
0004075A
00025193
FFF87D6E
0001B597
FFF1B632
FFFDA4A8
FFDFE327
FFF348E1
FFE913D2
FFE25508
FFE77D77
FFE68F9A
FFE7EBA7
FFE85B7E
FFEEC636
0000E733
0010051A
000A8743
0003927A
00010E3A
FFE39958
FFE36823
FFF9BC75
00009834
FFF63800
FFF397BA
000DAC10
000296D5
FFFF8974
FFFEFDC5
FFFDDC8A
FFFA9026
001E143C
FFEE600A
FFE5E9CA
FFFC9869
FFEFD72D
FFEE4229
FFD2F3C3
FFEAB231
FFF3B029
FFED9A0B
FFE17DD3
FFF63322
FFF76F9E
FFEBBA9A
FFF78DED
FFF0EE2C
FFD5F2A9
FFDFB29B
FFD5481E
FFE943A7
FFF4D4AA
0009376C
00045F05
FFF07A03
FFEBECB1
FFFBF402
FFF701DB
0003052D
001B1367
FFDC8D0C
000802B1
0019129F
000CB574
0000FD9B
FFFE62E0
000933A0
0000A27B
FFFFBB22
000AB667
000D44F0
00062EE1
0001376B
000FA606
000C0A6E
00018F3E
000EB5E2
000625DC
000018EE
0004ED1C
FFF80000
FFF9A4C6
FFF9AD04
FFF883FB
00096A90
00056AC1
000029AD
00113CAB
0007C784
002C306E
00097A36
000C596C
0006F8A8
00080E14
00001E5A
FFF3FB7D
FFFB0B17
FFFC9D57
FFFE2628
0000813B
001125F2
0013052A
00022888
000B8B9C
000764D0
FFFE6803
000C28AD
000554D5
00064587
000A893F
00042F9C
FFE72765
FFF8AD08
FFFB0A8E
0004BA11
FFEC9064
00046492
000F9DA5
FFFD666D
00028DBB
FFFC30A0
FFF9E585
FFF5564C
FFFCFC3C
FFF1AE4E
FFEA657A
FFEE56D6
FFED8FEC
FFF98882
0000502D
00057C89
FFFD36E1
00005373
FFF41B9F
000370D3
FFF8D195
00035AAA
FFEFC810
FFF37A5E
FFF5604C
000ED2B6
000038DD
FFEDF84D
FFF35260
FFFFF8F3
0020FAFF
000D2097
000067BA
FFFB2243
FFF6ED43
FFFCC1C9
FFEE170B
FFEDAD3E
FFEAB2E5
FFF97500
FFF1713C
FFEFC412
FFF2578F
00065862
FFFFEB2A
00046F49
00091E2F
FFFFCBF2
FFFD24C7
FFEE8491
FFF15908
FFF67FFB
0002F62E
FFFE83DC
FFEE9007
FFECAB47
FFF5C441
000C6859
001CFB4D
000E640B
0004E264
0007E36E
FFECE862
FFF2793C
FFF8DD9B
FFEB40B3
FFF38433
FFFF778A
FFFC5AD0
FFF58DF5
FFFE258B
000E2987
00113274
000D71F3
00063BE1
FFF8156B
FFE3B8D6
FFEA2345
FFDB31FA
FFF5DE84
FFFC59C3
00036ED1
FFF0D576
FFE4C6FD
FFF88C71
00142E8B
00052D4A
000FA755
FFF77C22
FFEB6854
FFEBCFD8
FFFE97B6
FFF93174
FFF463BF
FFF6A745
000396A5
FFFB2119
00030269
0017BAEF
0015995A
0016D914
0006142B
000545CD
FFFD4456
FFE454EA
FFE82FF4
FFDB0B45
FFD987C1
FFF540AF
FFF18853
FFF1F8F0
FFFD7540
FFFAC31E
FFF822E7
00024E8A
00045AD1
FFF3C84C
FFEBE1DC
FFEE8CC8
FFF274C9
FFF12FA9
FFF8B527
0002F74C
FFFA8EC8
00083627
0012FAD2
00124C40
00165E14
0016DF27
001224CB
0008CA50
FFEFDE7E
FFE62AF8
FFD271C0
FFC60B5A
FFD272CB
FFE0BB38
0010A9A0
FFF61BD9
FFEF8B68
FFDDB7D9
FFFD9ACF
FFFDA728
00071393
FFEA0562
FFEEE1D8
FFE7B993
FFFD96BB
000326CC
00072E06
0007CA92
00042974
0005D8B2
00077C6A
000BE62F
00109F12
0005B988
001BE3A5
0009E7F8
FFE66EFC
FFD60679
FFC652B5
FFC79877
FFCA4AD6
0002853E
000C6152
FFFAEA6D
FFFC8327
FFF5377C
FFF75EB8
FFE64248
FFF642EF
FFED7563
FFEB96D5
FFF815EE
FFFF5B14
FFFBD11D
0006D5C7
000F149A
0008AA55
000A3CDD
0005F50E
001410CC
001AF045
000D2499
000B2BB4
FFFD4570
FFF59BB0
FFE921A2
FFE8451A
000DD5EC
FFF6BC09
FFE596D0
FFFC9882
000E4BD9
0004B31D
FFE68ACE
FFEF8B17
FFE33734
FFF34A01
FFE89F22
FFEB1CAB
00023A6A
FFFB6136
000131E8
00080AE9
001560CF
000B271F
00023F30
001B812F
0017E395
001B01DA
00187B00
000EC238
FFFD4549
FFF509A2
FFF76559
FFFD7B31
00061765
000B65AF
0019F54B
0006C9F4
FFF9A5D2
FFFBACFF
FFE77564
FFFC0F94
0000C15C
FFF17B89
FFEAF3F2
FFF6B3F1
FFF40B4B
FFFFB10E
FFFBC59C
0005A9F6
000E037A
000959A8
0006E092
000E68C4
0027A632
00264E78
00039DDA
FFFB7C58
FFDE2734
FFE6EAA8
FFDC7BE2
FFE35CCD
FFF067AF
00255A67
0029386A
0005A8C0
FFF4A78A
FFF14546
000960C2
0013A98B
FFFF90FE
FFEE0A14
FFF005A4
FFFAD5B2
00061C1F
000C43FA
FFFC87F0
00025065
0009DBC4
00176D5D
001F32F8
001798FB
00225B7D
001893C2
FFEC25DF
FFF666EE
FFE0A55B
FFE49ED7
FFF1F390
FFEB10A9
FFE7AD6D
0014F4C8
0028D0CD
000F3A3D
0007A726
FFF7E6C3
000B29BA
0002809F
FFF1C4FA
FFE2E858
FFF910F0
000CBCC2
000CC201
0008E6E9
00035099
0009EC52
000D1E5B
000E8204
00156AE3
001BE004
001DF09D
0001E161
FFECB2FA
FFE2BC57
FFDD7AB9
FFF99554
FFEAC08E
FFF4E914
FFF96E55
0034512C
00411C90
0015E3AA
000697EF
FFF0260E
000C3DA1
FFF28F36
000186E0
FFF34F40
FFF304E6
000B96CF
0006B5A7
000DCF03
000A451A
FFF9D767
000877AE
00183B6D
001A1C95
00075D04
000F2A35
FFE6A2AA
FFE9859B
FFE8F093
FFF2FD99
000716C0
FFFE65A6
000414DD
00117D1C
00253379
00200B68
FFFE23DA
FFF1DA3B
FFFFF8EF
FFFC5923
0006818F
0002FFC9
FFFE55E5
FFF00543
0000A9C7
FFF93827
00013293
FFFB08C7
FFF052D5
000502A3
000E5467
0006EABD
00071A14
FFF34C75
FFEFBE15
FFECCD54
FFF28387
000006F2
0002F5F1
000F9899
00157A33
000C4328
000CE891
00049DBB
00136447
0007B8AA
FFE540E0
FFF8B749
0018A327
00038E39
FFFAD3FD
FFF5FE0C
00090073
00002FDB
000D9493
0004C594
FFFB82F7
FFFC10E6
0005D74D
FFFD51B7
0000C16C
FFFC8D44
FFF4BC3E
FFF4BCDA
FFEF9005
00057639
000831CE
0009A5C3
000EECF6
FFF19D4E
000ACA94
00213293
001AE636
00079303
FFF7F9BE
000306ED
001C459C
001461BA
FFEFD056
FFFBC2FC
00078A56
FFF7B8FE
000315E1
FFFD48A2
FFFF47F8
FFF6E2F3
FFF1EFC0
FFFAABCF
00079B73
FFFF0F4C
FFF42DB8
000CB948
00068AFD
00190218
00125DE8
FFFE3387
0007F123
FFF9242C
FFEA43BF
0015019A
00043739
000540FB
000A1286
00104E95
00204B8E
000CE5C2
00047B12
000800F5
0005E155
000ADC6F
000F505E
0004413B
FFFBDA1E
FFEB7021
FFFA1DBF
FFF59820
000309EB
FFF76637
00011AF2
0004C097
000BDA22
00086FDF
000C3BD3
0006609D
0012B6F4
FFFFFDB1
FFF7661D
FFF30D2E
FFFF4E20
0009785C
0005E689
0002B3EF
0012CF12
0003359E
001D91F5
00123E7E
001722F2
001BF5E6
000EE9F3
0010EDF4
FFFB8C95
FFFF9B7B
FFFA3151
FFFDA7B3
FFFEA859
FFF5E9C6
FFFC9412
00103E04
0018C542
00089366
00222188
000B02E5
FFF94EED
FFF9638C
FFF93662
FFF2FB61
FFFA5D2B
FFF81938
00068890
00091B76
FFE3ED85
FFEF23B6
FFE8BB33
0000AD46
00160F64
00102D89
00148609
0009209D
0006602A
00019A53
000ED71E
FFFA2ADA
FFFB1D2E
0000011A
00109806
0017A103
0020981E
0016711B
0016BF5F
0005F729
FFF9CCD7
FFF3B214
FFF8BE93
FFF9F406
00057D61
FFFCA592
FFFE3F3C
FFFD67EA
FFDC0134
FFCA61A2
FFD2907E
FFE7AB55
FFEECF10
FFF0C32A
FFFC58F3
FFF93BA0
0004C451
0002AE4E
FFF907FB
0000E2A1
FFFA0B0A
FFFAAC21
FFED782A
00089F2C
000FC180
000AE933
000F9011
FFFC1D67
FFEFD94E
FFFB15E3
0011954D
000E4341
0003379A
FFF70C34
00070D52
FFEAAB42
FFF34193
FFDA775A
FFD1E4C9
FFFE8812
FFE78310
FFD61093
FFD98E60
FFEF3FFB
FFE6E8F0
FFEA08CA
FFEC7336
FFF81A43
FFEF9D3C
FFECEA78
FFE31B32
FFD6EC98
FFD11D58
FFDA3B9F
FFDF2EA2
FFE10F8A
FFDBAB56
FFD450E0
00047DE2
00034D38
0008F02B
FFFC4184
FFFDE27C
0006B5FD
FFEE0467
000908DF
FFF46B46
FFFD11BA
FFF16EB0
FFD8B690
FFCB46E9
FFC9E7E8
FFD6E8C8
FFD555BE
FFB545C6
FFBB7A7C
FFC7021C
FFB3DC04
FFB3A87C
FFCCB4D7
FFBC7DD4
FFB823B2
FFC31444
FFC9A6B0
FFEBB359
00038956
FFFA893B
0002AC24
FFF9FE9C
FFF9B4CF
FFF7864D
00002145
00022F72
0002002D
0006CDCB
FFF3A83D
FFEBFAF2
FFED09D0
FFDFA90D
FFDF163C
FFD43060
FFDFDF92
FFD6543E
FFD91B54
FFE69FAA
FFDF86A5
FFDB4596
FFDB071F
FFF076A5
FFEA3596
FFF68050
FFF43B55
0004FEB8
FFFED1A9
FFFA5E42
000454F4
0006E6BB
