FFFFCC93
00006C5B
00012885
000367AC
FFFD39DE
FFFA8C53
00022833
FFFEEADD
FFFBDBA8
0003D6F4
0000153A
FFFEAB88
00013314
00045100
FFF629E8
000016A2
00002320
00058C58
00009722
0000BB22
00027D9A
0006F507
FFFBADF2
00057555
00023C6A
FFF9E691
00032EF5
FFFA8448
FFFD1F3C
FFFBA453
FFF9C7AD
0007335E
FFFB474A
000D96D6
0001C245
00091BE8
0013B16D
001295D9
000C8650
0015744C
001F5936
002421DE
00035F6F
00125407
0007AD90
0009FC4E
00152817
0008017B
0012FEA5
00033B6F
000F319B
00055E55
FFF90A1D
FFFDAEAB
0004B751
00039F8C
00079056
FFFE20D8
000E6308
FFFEA93F
0014423D
000B9685
00136BAE
000C61BB
0012041E
00116C8C
001A903C
0024DA38
0018CF40
00086B8B
00085EDB
FFFB3130
0008A81A
001DFB0A
001897CC
00158DC6
000F9456
000E1C48
001B0DDE
000E1025
FFFFBAF0
FFF23C4D
FFFFB098
FFFBEFF0
00030265
FFFADDAE
FFEF9217
0007C71D
001DECBF
FFF4C791
00009856
FFF8B0E0
000D0740
001145D5
00218352
0024C29C
001964CE
0024616B
0012B7FE
00136E66
000399F3
0007BE24
00176B8E
002A5C7A
001822A8
00124D96
0006CF5B
00045741
0011A784
00046D3E
000DF418
FFFD29E6
FFFD4C0B
FFFF4F1A
FFED2B52
000E73B4
FFFA4F4E
FFE513D8
FFE3E0A7
FFFDC141
FFF5F03A
000726A2
00006666
000DFA6A
00036FDE
00035F3D
FFF78B72
0000E965
FFFACC14
0004F919
00089581
0001BD3E
FFF97AA4
0006BF83
000F089C
FFFFE7B1
00036563
00050884
000F9F1F
000A8CC6
000049B9
0006B79E
FFFEA415
00069F43
FFDC1D4D
FFE11F4B
FFEF11E0
FFEE6BB0
FFFE780C
FFFA229B
00134A29
0002815F
000137DF
000F7F10
FFFC2503
FFFBB659
00020394
00118B17
00173D16
0002D8FE
000DBA9C
0001E470
000838B4
000FD5E9
00095F72
000A887C
0017A378
0010EBFD
00022442
FFF5CA6F
00098AB0
FFF3AC31
FFEC7361
FFFA8067
FFEB6EFA
FFF4F9CD
FFFF8171
FFFA3C50
00013794
000CDE97
000B8CDF
001DCF48
002998FE
0023EDDC
00118EC0
0017340F
0011EF71
00088865
0015B032
0005279E
000FF0EE
000A6B32
000FF9F6
00128826
FFFC8F92
FFFADE8A
FFF7B249
00038915
00120760
FFFAFA1D
FFDDFBA2
FFF5D535
FFF16879
FFE6CB95
FFEF4439
FFFC49DC
000E45F8
00101454
00106DBB
001148C4
001EB1FA
000FC9C0
001B6436
000F4457
0003FCA4
000C8ECC
0011271A
00053D6A
00046022
0003E583
00092A14
000C03FC
0000E066
FFF777CE
FFFF591E
00055CA9
001105BE
FFEF77D4
FFCFF871
FFE709CB
FFF5897C
FFE535EC
000163CC
00007A62
000E0B52
000C7306
000669C4
FFFF7DF5
0005C6C3
0009A200
0013CB11
0003AFD1
FFFF640F
FFF724AA
0000F1A1
000B97FC
FFFA161F
000A56FA
000D022D
0009CB09
FFF5D832
000493BF
FFF6073C
0000DB5E
000BF160
FFED35CE
FFE90F26
FFE95083
FFF7DB03
FFF4BEFA
000C830E
0010F11E
000E5152
00055753
FFFBD63B
FFF226F5
FFFAED13
FFF04179
FFFC5C53
FFFF3D00
FFFDAD1C
FFE4129F
FFE6C33D
FFF17AE4
FFF1825A
FFF9F22C
00094993
0016FD5B
FFFC8522
FFFD8851
00028987
FFF19E83
00134A2A
FFEAB336
FFE43752
FFFE3C7E
00026CD4
0012B5E1
0011C44A
0005A2D0
FFFB6B06
00002FCB
FFFA1030
FFEE9246
FFEFFA17
FFEE1DE9
FFEEBCC9
FFFE9AEF
FFF54928
FFE11852
FFEAD772
FFEEC3DB
FFED5A7D
00021F06
00152B04
00163259
000C484C
FFF8515B
FFF5C9DE
FFFAFDD2
FFFA5A84
FFDD6061
FFE07655
FFED90D2
00110479
0012047F
0014CA9E
00038750
FFFEC37B
FFF4E36D
FFF84924
FFF61168
FFECE1A6
FFEFD2D0
FFEFA600
00010D5C
FFF922C4
FFE3F66F
FFE5BAB8
FFEDD0E8
FFF340AF
FFF29346
00099AF8
FFFD2F00
000876FE
0000354E
0004B39F
FFFA0125
FFED9BB7
FFE83085
FFEEC48F
FFF66C96
000811CB
00068E12
000FA0F4
0002EA16
000069C3
00044704
FFFF6C18
FFFDF182
00001B36
FFED2B07
FFE892C2
FFF29593
FFFA5E11
FFEF521C
FFF76FAE
FFF0DBBE
FFF55537
FFFB8377
FFFA9D82
FFFA1738
FFFA8318
FFFC6CD3
FFF83E08
00037E0A
FFE70802
FFF8DCA0
000DB3BE
FFECA1EC
00098D5C
000F01CA
0007E9E8
0007A1B1
0017EA70
0005CA8E
000E1570
000B65F3
FFFAFC50
FFE5C982
FFED35E2
FFE9CAE8
FFEEB905
FFF6F851
FFF48AF1
FFFEACF2
FFFD8DF9
000C5605
FFFDAFAE
FFEC7E66
FFEFF3B8
FFFEECDB
0008D97A
0000290C
FFDBC0AE
FFEFF5F8
FFFB3F8A
FFED548B
FFF6E9DB
000EF1F9
FFFA758D
0007FEA1
0010D4BA
00078A23
0007C668
FFFC6873
FFF75DEE
FFEF0772
FFDB6A19
FFE71F24
FFF3C7D2
FFF89257
00070875
00088871
0016E32E
00160AED
00186CD6
FFF21F75
FFE630FB
FFF3D007
0005B780
FFFFCC73
FFE0F166
FFEC50A0
000612C4
FFFC9B68
FFECEC87
FFF2B19D
FFEDB4C2
FFFD4F0B
00005541
00099546
000C8D46
FFF99132
FFF1CDA4
FFDFB016
FFE2B2C5
FFE5B8DC
FFF354F2
FFF98D03
0008F5DF
0008ADC3
0006CC3A
00180C36
002034D1
FFF93968
FFE1EDC2
FFE4FDE1
FFFEE29D
FFFB5FF2
FFF81472
FFFC8259
00019645
0002957B
FFF220C7
FFE4B800
FFEA5710
FFEC3E62
FFF6CE8B
0008E89A
0007C2A4
FFFA1C5A
FFEDE286
FFE4F0F2
FFDE6380
FFE98F22
FFF65C00
FFF916F9
0005BCF3
00025051
0010FFB4
001AB5B4
0016CE33
FFF3B4CB
FFDE06DE
FFEE321C
0002A8C3
FFFDBA4B
FFEFF80C
0016083E
FFFE3B65
FFFAF6D2
FFF18819
FFEFB6A0
FFE84903
FFDF2FD7
FFF77907
000182CF
FFF741E2
FFE84E6A
FFD4D302
FFDB00AE
FFE950BC
FFFBE05F
00039197
00052DC1
000DA667
00035D72
000E86B7
FFFDFE74
FFFCB65C
FFEE8A8B
FFCC4AAC
0001325E
FFF6FB93
0003CCC3
FFECBB1D
0007EF66
000622D0
FFF725A2
00006CA0
FFFB7A6C
FFE7298C
FFF3DFC7
FFF82EC6
FFECF603
FFE1EC2C
FFD54554
FFD13FF1
FFE69A01
00021FC9
0000BA28
0005B9EB
00076B58
0007A4DE
000BF85F
000087F6
FFF4F95B
FFF8A28E
FFF95831
FFD474F0
FFD9F07C
0004553E
000126F7
000C84D8
0005ED95
00090D46
0004260E
000335B9
00020F64
FFF89551
FFF29141
FFFF41AA
00013600
FFF53171
FFE7D450
FFF5F056
00033860
000BC725
000EB682
000BA5AB
000C7456
000C7E5A
00054D8B
000858C5
FFFC0432
FFFF182A
FFFB22F3
FFEFDEF5
FFE9D5BE
0006B7D0
000C16BF
00116722
000B559C
000C1764
00174C27
FFFDB1CE
FFFBE10A
0008FB43
FFFCB37B
0007322E
00123F95
001E0286
000C6CDC
00189BE1
001AE887
0016FE2F
0019E066
000894E3
FFFCEFB1
0007F96F
FFFFF92A
00008155
FFEBC6C1
FFF4E039
FFFFD46F
FFF60C56
000D7892
FFFF9F9E
FFF99D43
FFF1C29A
FFFCED76
0001D8EA
FFF9B9C1
000119C8
0001B4F7
000C7235
00055082
000790CC
001B419F
002FF03F
0029EE32
0025C404
001BEEFC
0014E56D
000A623C
0007C9E6
FFF7697B
00073803
00015E3E
FFFE7303
0004EAFD
FFF8E246
FFFFC0A3
0001E4D0
FFFAF8AB
FFFA4D4E
FFFC439F
00003EBE
00170CB1
FFF14365
FFEDF8ED
FFF1612D
FFFA7843
0008D60D
000D728E
0017FD43
00157936
0025E3AC
0027B904
002327DB
00289978
002608E6
000E4C2D
FFFCA2A6
FFFCB767
FFFE78E0
FFF7FD56
0002926C
000AADD2
FFFB394E
FFFAC3A8
0000D0DF
00065A9F
FFFEDD91
000760B0
00088ED6
0028A3A7
000CEE75
00114232
001033A9
0009124A
001460CB
00162761
001CEB94
001C9749
00156390
001698A3
001805EF
0013910D
000C880A
FFFFC1B5
FFFBD788
FFF30A82
0003784E
FFF5F611
00073C0C
FFF918EE
000C4455
0004F2C3
FFF298CE
FFF76470
00005B53
FFFD72A0
FFFA6CB6
0015415D
001DFA2A
00120363
00180480
00150DBD
001B15EC
001BB081
000EB604
0005F916
000EC65C
000DBC27
000F28B9
00091EDB
0002E782
000D9EEF
0010E821
FFED7FAE
0008D321
00062ED8
001803F3
FFFF2B16
000EB01D
FFE90320
FFEFAD36
FFF74BE8
00079321
0008E714
0015BB21
00112585
000E97F6
001CF7FC
001B82C4
000AC9A2
0001EFF6
00083961
000DDE9E
00060323
00093D28
00125778
FFFB8F18
000813E6
0011E927
001690FF
001D8957
00153981
00109BA1
0025E710
0035FEB2
0018214F
000F6166
00049BB7
0004E203
00055C06
00048D3E
FFFBF672
FFF75B4D
0000D882
0000AC6F
0010E776
0008BDED
FFEF3C56
FFEE4BF1
FFF511C7
0001F130
000907A8
001A9B58
002058C0
001EAD34
0017BD5F
0029D9CA
002C90C6
000FD67A
00037E2A
000B038E
00049CA4
000E957A
FFFE132C
FFFF659C
FFFB56CF
0008F8F8
00076E79
00054F88
00008344
FFFD0A30
00025503
FFF788FA
FFF8B200
FFFB8B3A
FFFBBFBC
FFF4F173
FFFDE47D
000B6C35
00037A86
00082CC6
FFEEF3E2
FFF2B19A
00051433
000404F8
FFECFD1E
FFF190D4
FFFB9957
00026BBA
FFEEDD7A
FFF04EC4
FFFBFE60
FFFC7156
FFFCC144
FFFB2D62
00017F88
