000448F5
FFF7B1CB
000235ED
FFF7A663
0003E9A3
FFFD080C
000304DF
00038617
00005B63
0001239D
FFFCA706
00004C42
000CAA23
000E02BE
FFFB69B5
00001E63
0002311C
0003AB00
00032918
000309D1
FFF95F3C
FFFE703C
FFFB71E6
00079415
FFFC826C
0003FDDE
00026D3A
00033AB4
00023165
FFFF2C11
FFFD079C
0008F5A4
000ADD37
00139FC5
0012EE37
001A67FE
00172285
000796CD
0017DC22
00050224
00177ECB
000701DD
FFFC632B
0007B14A
FFE7133B
00032F6E
001377B4
0014C68D
002A40AA
000EB0BF
001A5B3F
0010CBBA
00048439
FFFBD566
FFFAA7FB
000737C3
FFF7A5CE
FFFFA0F0
0004B84A
FFF1E70B
000412F1
00093697
0019849A
001FCC5E
0021A891
000BC75C
001AD378
0017012D
00136B06
0008B017
000BA9D8
00162271
0013CEEA
00133DD1
000ECF06
0019A9D1
00209640
00161625
0019B199
0021D298
0002FA0A
FFF78EE4
FFF87AAB
FFF9158C
0001F422
0005A19F
FFE5C6D0
0000980F
0011CDBE
0002883E
00167D44
FFFFBD60
0014646B
00168CA4
0012E932
0006F3C2
00113AC9
00179246
0016266E
000F053A
FFFFCCC1
0005A9AC
0012A8C8
000FA5BF
000C7D3A
00141B3A
001A4050
003052A4
001B896E
FFEF0642
00142E53
00060C33
00064C1E
0002155A
FFEF0AD0
FFFCEAAA
FFFC184E
FFE9FC6D
FFED9E3A
FFFD4791
FFFEB66F
000B7484
0010C672
0001B4DA
000F9D76
000CA4E1
0007EE78
000292C6
000B2557
0004543E
000272BC
00097027
0016E31E
000BF8EC
0013BBA7
0020729C
001E23A1
001A010F
001536AA
001A01D6
FFFB364D
FFFF4DDE
FFF9CBBC
FFE2DDDB
FFE476C5
FFE3EF86
FFE43CF5
FFFD8979
000231FE
0009043A
00117B97
0005965C
00024F81
FFEF0BCB
FFF95F94
FFFF62BC
0002C628
0000B3BA
FFEB0E1A
FFF46E43
FFFAEC4C
000C0774
00196C11
001E6A42
00279266
002059BE
002A3BA4
002127BA
FFFE367A
00046A56
FFF2C3EB
FFD2DA1F
FFE66E03
FFF70429
FFE6ED1F
FFFCBEA0
0004DB07
00081DEE
FFFC51DE
FFFEDA65
00009B25
FFEAF25C
FFF02230
FFE30958
FFDB1BCD
FFDBCAAC
FFE35530
FFE03176
FFE270DD
FFE1FF6F
0005D5FC
00134D43
0029BDF6
00392F20
002556D6
0020DEA5
00059FBC
FFFA6015
FFE2E1E2
FFCA782A
FFD08512
FFF0B90B
FFE93C06
FFFD0A38
0009E1D5
000F126D
000B579C
0008D7CC
FFEE920C
FFE33BDE
FFE7AD4E
FFDE1AF6
FFE13174
FFD8CD3F
FFDFFAF9
FFDEC33B
FFEF8FF6
FFF1FF5D
FFF8701E
0005061A
001C8C11
001F79D9
0025C200
00149665
0005286A
FFFA19FA
FFE9F3F5
FFD53157
FFCBDC7E
FFED4935
FFFC2DAA
000974A7
000FB91F
001AE353
0008515D
00069D30
FFFD783D
FFF3BB1B
FFDAC2A4
FFDB261F
FFDD9F48
FFE04D54
FFE4EDFB
FFED85CF
FFF57B61
FFF85870
FFED5A59
0000762C
0019DA25
001E17E2
001B457E
000CF187
FFFA5EA0
FFEA50CE
FFDEC4AC
FFCE9F6D
FFD0157E
FFEEAC49
0004A81D
000FDD7A
00191E3C
0012E8D4
FFFFDB22
000BE522
FFFC2391
FFE6E993
FFDB953E
FFCE1345
FFD935F3
FFE7030D
FFEC5053
FFF76749
FFF32818
FFF2ED86
FFF00E8D
FFFFED43
000F27D2
00213D7C
000BAE14
FFE7A830
FFFE8DE3
FFFBB220
FFDEC71D
FFDA9BBF
FFE21D65
FFEEA133
000741BF
0017D9AD
001B0D5E
000C5586
000F01B0
000ACDA7
0001A346
FFE6C91D
FFDDCDA8
FFD9B2B0
FFD8945E
FFDE4600
FFEEE5A6
FFF0AB00
FFF85E72
FFF31469
FFEA39DE
0002F39F
001511C2
001673FC
000D7A90
FFE7DF97
FFF6CEBF
FFEBEE85
FFE28405
FFE116B8
FFE898AC
FFF699F7
000350D8
00095789
00134E97
0012B6DC
00116C4F
FFFC4436
000B668A
0005E6C6
FFF2DA1D
FFEA0CCD
FFEBC468
FFE08B03
FFF3833A
FFFA279A
FFFE6986
FFFE1BCC
FFF97D60
0001956C
000DDC97
00221D00
001C1F48
FFEE7AA1
FFFBAAD3
FFFC1A70
FFDBA7A0
FFEE2CB2
FFDA57B3
FFF3AB08
000DF72E
0017A8BA
001586A4
0015B732
0015AD86
00170D0C
001234D3
000C8874
FFFBF45E
FFF89A7A
FFFF97D5
FFF14414
FFF31E1B
FFF7D14B
0008C4CB
000F8062
000698F3
00048EA8
0008207D
FFFB0D5F
FFEEE8E2
FFE1BFBB
000B8FF4
0000277E
FFE4D15C
FFE3CC74
FFD58CD2
00040B25
000C9F70
000EBA9A
0014CA74
00120506
0012C22F
0016B698
00133557
0011C189
0006A305
0000FBD9
FFFB8CA5
FFED694C
FFF9BFFC
FFFC4ADC
000ACFF1
0002EB1B
000F852B
000CA112
0004CEF9
FFEA638F
FFE8D41C
FFF04A46
000DC10E
FFF9549C
FFF43C3C
FFEC4B20
FFE6C8BA
FFFB0CFF
0012E6D5
00106CDA
001A10DA
00127D50
0015785C
0006A37F
0007DC14
0011FA0A
000E9049
001C74B0
000B875C
FFF5DCB9
FFFAE58F
FFFAA916
FFFDFFD9
FFFC906C
001404A9
0008CB90
000E5322
FFF91BF2
FFE2F993
FFE6A0A9
0006C0D7
0000307C
000EB8AF
FFF583AC
FFDAEFE1
FFF27CF0
FFFDE4AB
0007E15B
0011115B
000E6A3A
00029AB1
000E5047
00128F80
001516CF
0028476D
0021B311
00176814
FFFBDDDC
FFECC9D9
FFF22D1B
FFECC481
00051DCB
000D2056
000B20CE
FFFD24F3
00141446
FFEB5295
FFEF7058
FFF5888A
FFFCFD2A
0007A6CD
FFF98062
FFDC542E
FFEB12E8
FFFBEFC0
FFEF085F
FFFAD7E8
0009911C
FFF9E794
0005B788
000BE5BB
0013DEAC
002D715A
001F78F0
00139A24
FFED506D
FFEE30F1
FFF6DA0B
FFE9E00E
0005D839
FFFE115F
0011289C
000CC0D9
001B97C5
FFDB8EC1
FFEAB7D3
FFFBF44B
FFEDBC5C
FFEBC337
FFEEE964
FFE10817
FFEC6BE5
FFF346FA
FFE13F7A
FFECA30B
FFEF3EE3
FFEC6F6F
0002C0B2
FFFD64D9
000FE1D8
0023C564
0016CCBA
000FEB6C
FFF76D9F
FFFB609D
FFF6D48B
FFFF7170
000370FA
000BEC21
00142A59
000D9415
FFFAF780
FFCAE555
FFE9704A
0001F66E
FFF92601
FFF028F8
FFF906E3
FFF0D73A
FFF30244
FFFCFD7A
FFF3B31E
FFF42E86
FFF48346
FFE84C99
FFF98989
0011523C
0016E352
001466AA
000D8D78
000B96B9
000124A0
FFFC7C75
FFF992F2
0001A097
FFFFF5C3
FFFE0938
0015B9E5
00105223
0008DC45
FFDF6026
FFF535A7
000A87B0
FFEA81B0
FFFD0C4E
FFF2A472
FFF00785
FFE9B722
FFF2D72B
FFF5267D
FFFC8F9C
FFF9AFC6
FFFEDC2A
0007E29F
000DF514
0009BB63
00104698
0018729C
000CE6F2
0001DE01
FFF4626A
FFFB3D19
000AD548
00037CCA
0015F82A
00164573
000F479E
000BC050
FFF20FA1
FFF335F1
0002285E
FFF71771
FFFF0A4D
FFEBDF55
FFE60919
FFED0BAC
FFE43D3A
FFF1173D
0007D296
000C0B75
000F90F6
0004A74E
000ABB3B
0008F16A
001640C7
001AD8DC
0012386F
0005517A
0011FE11
000188A3
00026BBE
000911BA
00145F68
001362A4
FFF2495D
FFFEEF4C
FFF6A014
FFFA762F
000D7439
FFF4AB81
FFEE9BFB
FFF596D8
0000C522
FFEE0ECF
FFF4F7C7
0001C5D3
0007AAF7
0011561C
00112BFE
000EE177
0017CFBC
001854CD
00121FF2
00131DE0
00035CE4
001075AF
00127281
0007D5A4
000C708C
000C506B
0015762E
000409DB
FFFA2642
000EB8DC
FFFC6CF3
0000CCD1
FFFE1D0A
FFFB0705
FFF0B409
0004FC97
000D0A9D
FFF42839
FFE37330
FFF36BF0
FFE91C00
FFFF319B
FFF8FA23
FFFB3E19
0007D93C
000E4A86
00027E99
00098934
000CC8AF
0012460D
0007F234
00125ABE
00006442
000F2039
FFFCB49E
FFF90968
FFF58D9E
FFF9D54F
000E7D58
0000B7BA
FFFB4176
00046340
FFF307F6
0001D234
FFFCB092
FFFF1F5F
FFF1AE7A
FFDF535C
FFEB217B
FFEF517C
FFEDD287
FFED0493
FFF7BEB3
FFFB02E2
00013EFA
000B1B15
00155D08
00014437
0001DEBD
0008F911
FFFF376F
FFF50045
00025441
00048227
FFF50474
0007599B
001AFE20
FFFDFE57
FFFD8ADD
FFF719D3
FFFBAE74
FFF84921
FFE90CBF
FFF3DA5A
FFE73D4D
FFDF540C
FFDAE0E6
FFEF573B
FFE74FD5
FFF3101D
FFFE6449
FFFEFBFF
FFF75CFC
FFFD2826
FFFEC4BF
FFFC4304
0009796D
FFFE23FB
FFF9E019
FFF27DE4
FFFA0E50
FFF38630
FFFC80C0
FFF6E03D
0004F793
FFFBAE90
FFFEB5A1
0008634D
FFECA849
000B6380
FFF636DF
FFD8BA7F
FFEDB129
FFDD043D
FFE101A8
FFE9555F
FFFC3B0C
FFF6A65F
FFEE9ED3
FFFD234C
FFF59026
000C136B
000BC499
FFFD7639
00011271
FFFE0601
FFF6760B
000C2785
0015EADA
001F39B2
0012929C
FFFFCCD3
00068658
0000FE75
0006703D
0001CF8F
FFFCCC07
FFFFBE2A
FFFE1082
FFE6CFA6
FFD7FE9A
FFD12066
FFD965F8
FFD84072
FFD3840A
FFEC4EC0
FFDF6257
FFD3DD2C
FFCC3C20
FFE33B84
FFDF0F13
FFDF0F75
FFD8C482
FFE33C4A
FFE24A4A
FFFC441F
FFEE9621
FFF9A027
FFF0957F
FFF8F579
00029241
00086AF1
FFFBA43B
00014890
FFFA0329
0005F51C
00069DEF
FFFBE2C4
0004A1DA
FFFFA331
FFF59057
FFE991EA
FFEA2F34
FFFA13AE
FFF601A6
FFE64CBC
FFD0A2DC
FFF23C2E
FFE627D0
FFD3AD72
FFDDE916
FFDD8102
FFE2A800
FFED3A04
FFEA60B9
00038705
00087EBF
FFFDB2C7
00053501
FFFD720A
