FFFCA633
FFEA0F28
002BF102
0025A478
00123B80
000F9481
FFF7F665
00191A42
FFFDD945
FFE5E78C
FF960111
FFB93BB2
FFF63D73
FFBC8AC9
FFEA334D
003823FA
FFE21613
FFB76BF7
FF905C67
002B3C91
FFD66119
FFE7E0FA
002AC454
00237B40
FFC1FB48
00370703
FFED0651
00363141
FFC1B940
FFE117E5
FFD702CE
0020494A
FFF6FE7D
000A6F4B
000B9AC8
FFE6144D
FFB7FDFC
001383CB
0017D65A
FFF606E2
0025F8B5
0018B1D6
FFC8949A
FFACD5A5
001DED76
FFEA0759
FFC0E543
FFB2D5C2
FFA74501
FFF24F83
FFCBACAB
000D0A58
FFD85B93
00125768
0022912F
FFFC1270
FFBE4E50
0023E11C
FFA46544
001AA970
FFFEF9F0
00290CA3
FFCB318B
000C22D8
FFFA3F86
FFE7B4C5
FFE8AB3E
FFC6D12D
FFF8A488
FFCFB010
FFC86020
001D8B6D
000D5CA5
FFEF33FE
0023E8D2
FFF5B42E
001CED72
0023A60F
00104491
002CF51D
FFEBA621
0008C2E4
FFCCE8F3
00054A3A
001BC4E5
FFFBFED6
FFF63632
00194418
FFDC7E6C
000C19A4
00180DBA
00061AD4
FFFCABF5
0011B781
002A430C
0029DBC4
FFFD551A
0024DB23
FFE33325
FFC28842
00259B71
0023BFB5
FFDA230E
FFCC3C9C
FFAD1FD0
FFC07F6D
FFD46AC2
FFFE72B5
FFF36BCF
FFE14ADF
FFD5F756
FFDAC9B0
0025466F
00101F18
000CC725
FFD9FA5A
FFFC7BB1
00271D9F
FF7DB2C4
FFFF0772
FFF0804E
FFB55D35
FFE6E3E7
00178846
001BF2CE
FFEEAE3E
FFFC4C40
FFEF5F9D
00247217
FFEC7891
FFDBE080
FFD212A2
FFB11F0A
000EA260
00376389
FFBDDBD4
0016F0DB
002FD3C7
003AE8D2
FFF69616
FFD36CB5
000CB0BC
000D43E0
002D0884
FFF290EE
002269A2
0026A5C2
FFB5C1BE
0037F4E0
FFCC9F09
FFD1866A
00538726
FFE245E7
0053F5A2
FFE5EF1C
001F0E8A
00269C32
000C418F
FFFFCF6D
000A5B03
001EA4BA
FFEBD169
00194AD0
FFDE7E50
0026A0D3
FFE41A96
FFEB1390
000D1C25
FFDD90D2
FFC7AD52
FFFC1CFA
FFCA0A82
FFDA52E1
FFA433F0
00130179
FFFB62ED
FFECAF48
FFFE1556
FFFFE9A3
FFA561DB
FFC8C387
FFB87170
FFD045E2
000FBB30
0052CADE
FFCE803D
0033A5FE
FFC154EC
002873CC
FFD21A31
00399B15
FFDD470F
FFC87AF8
FFE6F774
FFE4CDF5
FFD6B812
0021E30E
FFF66A62
0023481F
FFCEC1CA
0005802C
001EBA83
FFCA9B61
001EAD5C
FFA30945
004F4C78
FFEFC2DF
FFD11720
002EFC8D
FFCBD376
00121D15
FFDF00B9
FFD1382A
001E54A3
001D1381
0032A3E4
FFDFA42A
0011B649
000DF070
00516894
001A9D8E
FFE5E941
FFC6AEA6
00297698
00156749
FFD04350
005CC7DA
FFF7BB8A
FFDD1773
0008887C
FFD35E4A
00248657
003414BE
FFFA11E3
FFDB844F
FFD6E0ED
004D8608
0025C93E
0017A158
FFF1FD5E
FFCA6D03
00131DAC
0006A7B6
0019B8A5
001C4E3C
FFD0DCC3
001D5242
FFE86876
FFDE22B4
001C61AA
0026543C
0021DAC4
FFD73CAE
FFE08804
FFFEAF71
001906D7
001C8F34
FF9F116E
000268C1
FFF558F1
FFF65A38
FF75BE03
FFB114B4
FFF3557B
0013B90F
FFD0F892
FFF4E029
00312423
00043BCD
001E2795
FFF32AAF
002E1136
0010E611
002271A6
FFF2E469
00259E2E
FFFF6385
002A4B01
001435D6
0005FD83
FFE8A473
FFB7EFFE
FFC710B8
000F00B1
0041A442
0041EDFA
FFEFA2B5
000475B4
001D8B3F
FFF0AC1D
FFF27E15
0032C452
005392A2
FFEB635A
FFF31318
FFFD162C
FFFE46FF
FFEB9A89
003F13AF
002CC3C8
002083E1
0018D182
000DBE53
FFAC9C40
FFB02577
FF91FE44
00238C28
FFBC5892
FFDE1FC9
0005576A
0005D61F
0002B82B
FFEEB925
0013678A
001803C5
FFCF5FA4
00034B9B
002F30B6
002E9D93
001FC5FA
FFF7084D
0019710A
FFF19E26
00185B00
001B6CFA
0021BA28
0022D401
FFF2D1CA
FF8856BC
001A960D
001D4B48
002B378E
001C3E76
FFB691C0
FFED52F7
0054BA02
00103F12
FFF6B947
FFDE8CDA
FFD6E62F
0015F3DF
0039597C
FFC966A7
00119EF1
FFD58F75
0008149C
002BC583
FFF651DC
FFE2C55C
FFE69179
001285EF
00255018
0012029A
FFD79014
00252BA4
00252E2E
001E2123
006112A0
00157F24
FFF95EC3
0008E38B
FFD4FB5C
FFFB14C5
FFFC2B98
FFECF93C
002F7ECA
000B6C70
FFD2F9EB
0020491F
FF5B2C7C
00177BB2
0036DB0E
FFF7892E
FFF076B2
002306A0
000AB2A8
FFF07A4A
FFEDA406
FFF6F9AB
FFEDA4A3
00174DF7
FFEC822B
FFB4ECBB
002E00E7
0002E1E9
00175EA8
00028BC0
FFDCDB5C
00275580
FFB08D12
FFCAB3BB
0009DB1D
FFFE7F5B
FFB62E66
0036AE4E
FFDB277E
000DF7BB
00267488
0019143C
FFDBFB6E
001F27F2
0010584B
0019F2DB
001C5C84
001A46EC
0016AB76
FFDFBB69
FFCB2EDD
FFF84A65
FFCF3500
001F4CC6
00103120
FFBEFF42
FFEE3808
FFD5637E
0014A880
FFEDC959
FFEA4A14
FFEB5E98
FFE76BF7
FFF13D54
FFE005F6
00248F50
000C661A
FFD6098C
FFE10A66
00151E12
0004BB74
00164A7D
003AC4DE
0008CCEA
00298F30
0029D091
FFEE81D0
0033CD52
001096A1
FFE356FA
FFD47960
001757A0
0020407E
004F260E
FFF01210
FFB039E9
FFFB811C
0008BDAA
0014EB8E
002569D4
FFF69F43
001B6B65
FFF5BDD2
00493779
FFE28FB6
001E9610
001C3AAB
0002F7D1
00006A88
000ACD4E
FFA39722
FFE646ED
FFC80B38
FFDAC5DF
001F74C0
FFFC7C61
FFEEFDA0
0019DAF1
0000EFF9
00219143
0013CF48
000B6AD7
FF982F46
FFB071F2
FFD83F73
FFE6631E
FFFB7F83
00065EDB
FF9A312B
FFC13510
FF7AA0B0
001DFEE1
FFF04D34
FFAAD158
003A926E
004B2304
FFCD78B5
FFC9D74C
004EBC9D
000D7D93
00147631
005260ED
0001EED2
FFD17B21
FFE20ACC
0022D4F3
FF99B1F1
00018922
000B7CD5
001CAED2
001CA955
FFDEEB43
FFC905BA
000A0E71
FFE7A61A
00215CE8
FFF6D85A
FFE0E670
000B86AC
00138A07
00183F4E
001F24EE
0011D5D5
000D21DE
00166B09
FFA2F712
0022FEEA
FFBBA67D
FFD3A9DF
FFEED9ED
FFA6494E
001D1A86
FFC17A5C
FFCD7218
002CDBE3
003483DA
00187C75
001CA4F3
FFA90F14
FFE5768F
FFCCA914
0024D648
FFD29FB2
FFFB7C1F
FFD5D1C0
FFFD0CCA
FFBAA462
0025010A
0016D85D
002374EB
0031E7B7
001CAC3A
FFC1FC75
000BDE68
FF9E7968
FFFD1915
FF944505
00290909
0019FF11
00219BC3
000B1E4A
FFC9D5E5
001E60C2
FF9FDCC7
FFD820C2
0021668D
000F054E
FF89780E
00171598
FFAA6BBE
FFDA31DE
0015F91E
002A43C6
00296986
0010E9ED
0021C923
FFFCE267
00182FEA
000DB2D5
FFD3E518
FFCAA40D
FFE289DA
00286AB9
002EE561
000B384A
FFFB980A
FF8D7192
FFC2BA01
0009527C
FFE9DA36
FFED1825
0007E7CB
FFE9F809
FF8A99EA
00311833
001C9A16
FF94BBD4
00244938
002FA625
FFF4A52D
FFF2CCFF
000D2A9F
FF94B3DC
FFD02C82
001DA21C
FFCC23F6
00187B22
FFCE46C6
00152D9D
FF87FB24
0027F43C
FFE3BEDC
000E756F
0013C508
FFF31530
FFF61765
003456BE
0006C193
002A60C9
FFB095F6
FFF62742
0006AA19
FF9C57B0
00148187
FFDA550C
0020D7D6
FFE49452
001E7E63
000A17B4
0048C9C0
FFB1758C
001EB870
001BA6F8
FFD1E82D
001E94EA
FFDFD598
0005A860
0018FD21
FFF1679B
000B6918
FFDB3758
FFD778A3
001AEEA2
00043099
00212037
00054157
FFF3AC9B
FFE7AB3D
FFDAEC85
0008FEEE
FF7C331B
002F46EC
FFBE608C
FFEEBB72
00102654
002801BA
FFD675CE
0008A5B9
0080C316
FFAE4D66
FFDF3C88
FFC7AA5C
FFE36CDD
FFBC289F
001D12D1
FFD1B1C1
0028EE0E
00149467
FFF6A9D1
00062C4B
0001A391
001D9F30
FFDE7E07
0025A4C2
0031BE4A
FFD42A73
00206D0A
FFC0A374
FFC8BC44
0011F4A7
FFBA96E1
00531598
0008AAE1
0018FEA7
000E7094
FFBD1EF8
FFC2B82A
FFC9B170
000E1213
002B7631
FFDA1DDC
000E85A6
000477B6
FFFB3DF1
FFFE1D53
0006A7CE
0018A112
FFF35EB2
FFD3673B
FFED7127
0007B9D3
00349210
0026869E
FFB45249
FFF9D342
0001EAFE
00035E8D
0009B06D
FFA663A2
0027EA4F
001BC634
002FDF66
0018DD60
FFCD0686
00043607
0013312A
FFE8FB32
FFDB3D6A
0011DF52
FFFB7609
00455B58
FFD559E8
000770E1
FFD68AD4
0041AEAC
0036E338
FFC79ABE
FFD2BF16
FFDF9BDA
002A0DCE
003E996B
0014217C
FFFDE517
00253E8C
FFE5CA6C
FFFB391A
00139A2A
002F8E05
FFE13498
002E9ECE
00076C42
0024DD38
FFFDA7E0
FF8D7B26
000A7B5A
000AA23F
FFEA7D39
00197B7E
FFD66D38
FFD50C9E
FFF89311
FF8B4D2F
001CCB41
FFCD7CCE
FF9D552A
0016092F
FFDCDF51
FFB9FC80
004C7403
001D6209
00170034
FF6E3491
FFAD0620
001176DB
001115A4
000956A3
004FA35D
FFA8F04F
00315607
FFE6F27A
00055E04
003EFD36
FFE3F572
FFF1E546
FFB80B34
FFDC266E
0010C4E2
FFBACCF7
00380127
001A7341
0006573B
FFD38CD6
FFCCA3D9
0019E935
0014732E
FFE0C3F1
000B1B6F
FFD55C0E
FFD11824
FFFB7191
0025445E
FFB73036
001E108F
FFEC94D6
00235AE2
FFB0FA5A
000E322E
FFD91503
00106517
FFB5C6FE
FFC05B96
FFB24DDD
FF91E8CC
000BCB39
0000852E
000637B1
00403DFC
FFE88752
FFCDE9E8
FFC3935A
FFF65861
002C9154
001671CC
FFFB057F
FFC10708
FFFDDA3C
0012C7C2
FFD3F194
002B6D87
FFEC35AC
002D5562
00256206
00228168
FFE74867
FFB94761
FFF13734
00559B91
FFAFFB6C
FFAB7F18
FFBCF592
FFCABD69
001B9068
FFDBF43F
000E0AD6
FFCB9434
000C61B3
00493F94
FF806034
00236858
0015B4E6
FFECD1DC
FFE12BC6
FFB91FBC
FFD771AE
000A5ECE
FFC69184
0020B4B1
000BB32F
0023687D
FFB5FC98
FFC4B17A
000D6ED3
FFC63EFA
FFFF9831
002481C4
001F3BC4
002FBEDB
FFF125D1
00404A26
FFD441AA
000B19CA
FFB35357
00133892
FFB32B88
FFD9826C
FFF2FA42
001089AE
0049141A
000C4F33
002FB270
000D96D3
FFBA8981
FFCCE13C
FFDC0ECB
000351E5
FFE72FA7
000489C9
FFE2706E
0012507E
FFB85874
00275E3A
FFFA3658
FF72A5F0
FFFD5BB6
000CE690
FFBE8568
002DD026
001FC4D6
FFDB1378
0032AE1A
001B9F50
001F896F
FFC25496
0022BB3E
002DA48C
FFC2B7B2
000F68EE
0013D2A0
FFDD5DE4
FF947482
0023D0E0
FFE7E5D8
FFDBC722
0018DCA0
FFECB8BC
002A159E
00048072
001B27D7
000137D9
FFFF93B3
0028E2C1
FFDC0A42
000E133C
FFCDD037
FFE2BE0B
FFE1784A
00194AE9
FFFA2493
0002F9C5
FFFF550C
FFAD0119
FFF44CF8
0010BB41
00110AB7
0022CEF8
FFBBDFAB
003598F3
FFB5994A
FFFAA3EF
00254520
002A5534
FFF1FFBB
FFE04EF8
00258703
00841FCE
FFCB7921
001ED718
FFEB9B79
001127A6
FFCC80F8
FFA1EB8E
FFF44759
00140D97
0028671A
002E84D7
0021E14B
0001A893
000148A3
0025476A
FFD97310
FFF44BF7
0036E0EA
002B30E3
FFF9CBEE
001BB580
0025E91B
FFC85BD7
FFCF52CC
001F2638
00280A2B
FFECDE12
001F410B
0017F9CE
FFCAEF6A
001F484E
004A3B9C
FFD1FDB9
FFCDE10D
001B9326
FFF2A777
002E938C
00665E34
FFEAD06D
0010C1ED
FFEB8F94
003EE397
00021748
0028CDDD
FFF9C449
FFE5FA3C
003B4368
FFF2CF5F
0002956F
FFB7F6E9
FFDC2364
002A140B
FFDB55D5
FFE6CC59
FFBE4F5A
FFA6E633
FFF345FB
00160AD5
FFEBE700
0001A353
0009A976
FFE56320
FFB077BC
FFE659DA
FFF9CCB6
000FEAF4
002E7D9F
000F7963
0026FC58
FFEB7B1A
0040EED0
0039D591
00140509
002E04BC
00400370
FFC793F1
0012C109
FFD196DA
FFEBD7FB
FFD0828A
00301DA9
000BACDB
000A563F
00307042
FFF51850
FFBA1A72
001A71A4
FFDB4A24
FFFC2E07
0029D76C
FFC90352
FFFD2F64
FFF7A0DA
FFC368D1
FFE55C93
FFD86E5B
001D44DE
0004ADA7
FFE175E2
00102D8F
FFA2662C
FFEE0653
FFCED3BE
00069A29
FFC44536
FFE14CEE
00204A99
000BB327
FFE20384
FF969ADA
000FB933
001C7407
FFFD42C1
FFD8A785
FFE49730
00053813
00112CBC
001CFE23
FFA4803C
001E35A9
FFEFF375
002CDA75
000BD8AB
FFA7DE81
FFD7B96F
FFAA1491
FFE30B42
0022F5E2
FFAD3F8E
001B3603
0009C661
FFE50080
001CE85D
00192C0E
FFFD1747
00159DB0
FFFEB873
00133107
FFA0FC5D
FFF4B242
00064F3D
000F5213
00288D5B
00126777
001AACF5
001614A7
001635C5
FFEC0CB5
FF95BDBB
FFF2D2FA
0027392B
FFF7E647
0012FA82
FFB9909E
000DE2B4
001EA2FA
0006288C
00243E40
FFDD4A1F
FF591A87
FFF4AAEF
FFE8C8E2
FFEF33E6
00152730
FFEC4595
FFDA965C
FFFFC0AE
000932E8
0019AD4A
FFA03AF2
00020BBB
FFE72AD5
00265CD5
00068308
FFF11BDC
0027AF8B
0020E085
FFF80BB2
0006794E
FF72A89A
FFA73940
001D89C5
FF91E246
FFE11673
001B870D
0001BA2B
001AF817
000692CA
003A1F3C
002487BA
FFD536ED
001E045C
0007F418
00033750
FF794824
00295C69
FFB417C4
001C0BFD
FF8C42DC
FFD0B076
FFD043E8
FFC06E34
FFEDE35A
000F3797
FF850B3D
00245948
0022010D
FFD6CCCA
FFC1A9EC
002382FA
00106375
FFE59CE5
001F7405
001A0F56
000B2931
FFFE2A9A
FFE65FB0
FFEA6630
001760CD
00206EB1
002015B3
FFF5A3AF
001327F9
00294664
FFCD7CFF
FFE4CD58
001F30E4
FFF01971
0011CD42
FFFE7F6F
000B4023
000F2D70
0029D48E
000B5DE1
001A21ED
FFE4658B
0028D174
005E2789
FFF663A4
FFF064A6
FFE1276E
FFF678A5
0005653F
001E6736
FFA222A0
0022E528
FFF711F3
FFF9EEA5
FF86F0DA
0002A1C3
001FFD60
00230B8F
FFB15766
003163CE
FFC71650
FFFB34C2
FF6F64E9
FFEDFA82
002D26B7
FFDCC81C
FFFD5A5F
FFC5D18A
000BE73A
FFF18F91
0023056E
FFE251FA
FFE42918
FF6E2EDA
001E66A9
FFE8CDE6
FF9E1AAC
FFD5B600
0013C0C7
FFDCE6A8
FFFB4EB2
0021B5DC
0023B699
001F670A
002050EC
0028AC48
001EF403
FFD73ACE
002B146A
000EEE81
FFEBA0E9
FFF8C45C
002ADD49
000D7FDA
FFEE388E
FFD63232
001CFB5B
FFEE6404
FFE7321D
FF67B030
FFB82328
000C1698
00273842
FF9F5DCA
0013117A
0029B9C0
FFE1E36A
FFE57F9E
FFE4918A
0013F981
FFB68A0C
003A95D6
0045740C
0000B4F8
FFE67B72
001E2A8E
FFBB7DF4
000906EC
001BD9C6
001EAE51
0015CE4A
FFD5D73D
FF79B940
002D525D
FFBF8130
00144414
000D385C
0026B67F
FFF0E5AA
001964FC
00066D2D
FFCD8A19
FFE34DD3
FFF8ED1D
0001F843
FF8FC5E8
FF7F4A6A
00132696
001983F8
00164D9C
FFCE3A86
FFFA1884
FFBC4932
000D87BB
001F3482
FFEFFC35
000CE097
FFF2F4D0
001EAFB8
FFB07D82
FFF1F0F1
0021ED85
001A8401
FFBA9D84
0014F2D8
002C68CD
FFC3A31E
0026F326
001A7935
FFA1DBB0
FFDC4791
0011A27F
FFF0C3C8
FFF38002
FF963838
