FFFEB583
000709BC
00059D44
0006E9FF
FFF79D01
FFFFEE38
FFF7B6BD
FFFB1D77
FFF91215
FFFC2B83
FFFBC553
FFFE1E45
0008C278
000956E5
FFFDD7ED
0007F330
FFFB76CC
00066B70
0002014C
FFFC0FFB
FFF83115
00052919
FFFA55CD
0007A4CB
FFFB1A9A
0001A12B
00068972
0006A425
0006EB7E
00077C34
0008FEF5
0007738A
FFFEAAC9
FFF128EB
0002B8A8
FFF6C49F
0001A734
0003B8A9
FFF77A8F
FFE719DD
FFE79B2C
FFF789A7
001069AE
0028F2D2
00266B3F
0021F7BC
FFF7254F
FFF314D2
FFEC7988
FFF5AA99
FFFBCBEB
00028F91
0003DAA6
0005C935
00066ABE
FFF810FA
FFFFDE00
FFFC9EB8
FFFFAB55
FFFBDC2F
FFE9B201
FFF57DE1
00091B6D
FFFFCABC
FFFD4E9B
0020852C
00260B6A
0017C1C7
0020A8C8
003A5EA0
002A7E8C
0028249A
00289327
00090B76
FFF2E709
FFF3AA29
FFFBD5F1
FFF71FE4
FFE7508A
00081609
001FBCDE
0003EC31
0001609F
FFFFB7AC
FFF87320
FFF8506F
00159C6E
FFFE538B
FFED1A2E
000D49B6
0011192A
00168E91
00347447
003613E2
0030F052
0027EAF0
003B6835
0038FE7D
00142541
00119694
0016147F
00083BC2
000B312B
0009866A
FFFC98ED
FFDA48FE
FFD53C31
FFDE2CC4
FFE863B0
FFF68EAA
FFFCB8E1
0003F466
0000A606
000B61ED
0023A3E2
001583DC
001BE79B
000112C8
00133A9B
0023D9D5
0013FD50
000959CC
000FF7B9
00191B85
00279A26
0020523E
001F0536
001959FC
00156B5D
FFFB791B
0002CE12
FFFD1CF3
0008AE54
FFDD4511
FFDC5DBA
FFD770C8
FFC7C150
FFD1B52E
FFF34D02
FFE669DD
0008B834
FFFD7D8F
00269D68
0004C4EE
00045543
00136918
0019979B
000B1880
000BF0C6
000704CF
00079E92
000BB3EC
00140112
0025F782
0029F8C3
00280C1F
0019FEE5
0002E05A
0005C592
FFFC81CB
FFF8830E
FFF497FC
FFF62AA7
FFF5D3FD
FFDE0225
FFDDF4AB
FFE99210
FFE5C5B0
0005E17B
00133E9E
0001D3D2
000F3860
001099E7
000577BE
0007E1DA
000304E9
00057F7B
0004FB08
00149B51
0015A92D
00139BFD
00253ECC
0034DF9C
002F4C6F
0034B946
0017C783
002271C6
0009305F
FFF40F98
FFFF6886
FFF08BE4
FFDBB592
FFDE05EA
FFE3A5C0
FFD8C82F
FFE1A015
FFF8322E
00298D82
0007BA12
00034BDD
00047512
FFFA7756
FFF6DAC1
FFF45F51
FFFFE864
FFFDAD60
FFFA0A56
0001EBAA
000E37BC
001B8856
0029B9D4
0031137E
00357E33
001F496D
00200CFB
00124C0F
001006E7
FFFC2510
000036F4
FFF1B8F5
FFD656D2
FFC0419E
FFE40951
FFE1D903
FFE90291
00282CD7
FFF001D0
FFF76056
FFF9B9E1
FFD9536E
FFE54C38
FFDF8EC9
FFFABC4D
FFF3284D
FFFFD621
FFF70A7A
FFF19B82
0007439C
00133702
0022AEF8
001C44AD
0019D5BA
0016305F
0010D84A
0000A983
FFFAD046
00087BDD
FFF35A31
FFC69E5E
FFAE72FE
FFE5E44B
FFF4BB30
0006D1BE
0015D6D0
FFFAB1E6
0009D9FD
FFEA11BA
FFC92664
FFDC65BE
FFEADD81
00017299
FFF0098A
FFF1A01C
FFDBC468
FFD909B3
FFE5CC05
FFEDEBC8
00059308
00126B38
0008632F
000E218D
001740B6
00061A57
FFEF8BF6
000A2411
FFF29CFE
FFDCEE92
FFDBA5FB
FFF25C75
00091EAF
0010BEA3
000D84F9
00184020
0018E18A
FFE4306F
FFDC303B
FFEC341A
FFF15BE0
FFE91F06
FFE58AAA
FFD943F8
FFD6ACD2
FFC30366
FFC6C4D5
FFF2B58E
FFF3B1CC
00140FDB
00143FDB
001280BC
002AB719
001F64D3
000E14C8
FFFA2DE5
FFD98A7E
FFE48028
FFF7B774
FFF9A115
0017CC7F
000F4665
FFF39B78
0007061D
FFFC8E6A
FFE04BD2
FFD5959B
FFE54711
FFE233BF
FFE2F48E
FFDC0F22
FFE98941
FFE13557
FFBDBB7F
FFD189E7
FFEAA93F
000889C2
00057B89
001D8420
002D43D4
003A3A39
003EEA01
000701BB
FFEDF197
FFD37584
FFDFE85F
00000E7D
FFF27072
000D9BD3
0004E219
FFFC466D
00052FF3
FFF1B10D
FFDF955B
FFD307BE
FFDF1861
FFF10497
FFF5EB70
FFF1F77E
FFF2D560
FFF37FE7
FFCFB600
FFD35EDE
000874D4
0011574E
000DBD0C
001A7490
001EEB65
00201345
0018C24A
FFDDF6E8
FFC666A5
FFCCDDC6
FFCBB40F
FFF6BA09
FFF30715
000A79C4
0006D1D1
00018B79
0008B658
FFE6EDAE
FFD2BC6B
FFD74C24
FFF1E9A2
FFF3A0D4
000BB8F1
FFF56316
FFF70578
FFF2DC16
FFD5EC74
FFF16EBE
001E3043
00148192
00117C54
000D6614
0018659A
0012E36C
FFEEB1E8
FFCDE9DA
FFCE4813
FFC2AF5A
FFC2FBF7
FFF30B41
FFFAD15C
0002A707
FFFAE1B0
000724E3
FFFFC991
FFE69C84
FFE9E29B
FFEF2F1E
00083016
000448D5
FFFFCEAA
FFF2B2A3
FFF9E99A
FFEDB744
FFE5E84C
000A07FA
0011B0AC
001698B0
001BD2AC
000AB236
0012A249
FFF6E301
FFD8B671
FFD42B92
FFD70832
FFE3B1E4
FFE90F1F
FFF59F74
0014A937
000B7A76
FFF73EE4
000CC117
FFFE666F
FFF02974
FFFB1E63
0005F4FC
0008EAD8
00028B15
000185FE
FFED2572
FFF18AC7
FFF08AE7
FFEB8FD9
FFFA569E
00065306
00164892
00105A52
00096669
000EA890
FFE34086
FFD4FD52
FFD305BA
FFDB5CF6
FFE61AA5
FFF54C54
0001CF5D
000CB73C
000AA150
FFFDDE28
000ECCCA
000E4C29
000753ED
000222E8
0002DC0C
0002B802
FFF922B6
FFFA5B7C
00042D89
FFFCD740
00019581
FFF68E05
FFF93BA2
FFFB290E
000537A4
000AACBB
0005D142
0001EA5C
FFDEAC12
FFCC9767
FFD59A30
FFEBE24A
FFE805C8
FFFE921B
000456C8
0008D03D
000E9A07
FFF7C499
0007B477
00068A6D
000C43AF
0006ED64
00049870
FFF2F6BB
FFE8F596
FFFC1D38
FFF4FE12
FFFF8162
00018186
000434EA
0013A1A9
000CA46A
000B6056
FFF51A43
FFEFDA70
FFE9CD59
FFDD814D
FFD468C0
FFD951C4
FFE8E28F
FFEB8307
00009EE8
0017E9B5
00279B84
001F7942
001F2D53
00170728
000075C6
0014AD13
00014FDF
FFFE4665
FFEE8115
FFEBE6D4
00030476
FFFA0C78
00047091
0005F671
0002400C
0004FBE5
0003F970
00005F8C
FFF6900B
FFF7EEC0
FFF1098A
FFF9FE7A
FFDFD854
FFF41996
FFFFFDBA
FFF6A5E8
000EB14E
001AA625
003652F6
00255433
00046EC2
0009CF82
FFFFD79C
0002792A
FFF4AE7F
FFF5707C
FFF7732A
00081A6B
000BF9EF
000987B3
0011B9B3
0005670A
001260A8
000A8491
000BA857
00039432
00051BE2
FFEFC31A
FFFAC36D
FFFA9C2E
FFFDFE0A
FFED05A1
FFF72F92
0005BA50
001AFD41
0028F60C
00328226
001CB4D8
FFFCA126
000170AC
FFF31B40
000EA8DD
00055FCF
000182F7
00013A22
0017203B
00128FC5
0010FB2C
00180638
00136040
000B7D37
0009639B
000058E9
FFFA95F3
000073B6
FFF1288F
00049B76
000A94CB
000861F4
00038960
0003AC7B
0010612D
001B6F73
0019EDFC
0020ECBD
000222A3
0001B4B3
001C17C6
0028BCBA
00165054
00120714
000647A6
000DC9EE
00096CEC
000B156A
00103BD0
0013648B
FFFB9289
000352C0
000252F6
00068489
0003A1C3
00114BCD
FFFC3FD1
000F9BDC
0014AF8E
00065A14
00043A4B
0005F238
0005D6CF
001A6EB9
000A2AB6
FFF78D3F
FFFC4147
000634CD
0009589D
0029D1EA
00130DB5
0019B313
0020D736
0011EC96
000829EC
001A5C70
0007E8D5
FFFDF54D
0001519C
FFF1FF43
FFF797D0
0001AE72
FFFF41A2
0005C920
00082EEA
FFFCC8C2
00122D40
0004A2D4
00008323
0000B630
0007E427
001A70B2
000A6640
FFF6BF70
0007A292
0003B99E
0004093B
001756EA
FFFD847A
000710D6
0013F177
0010A8BF
000F87CC
FFFBBFCF
FFFDE815
0000834D
FFFA23C9
0001BEBF
FFF56BA6
FFF9D26D
FFF99356
FFF788E8
00018685
FFF48450
FFFC70F8
0003C54B
0000B1F3
000CF383
000C6AAC
000D2C1A
0004E138
00085A0F
FFFE76FC
00025467
00072C40
000A9CFC
0016EAFD
003D50EC
002C469C
00066967
0004ADD5
FFFC8FB9
FFFB1E0B
FFFFDF13
FFF1BA2D
FFEF1D5A
FFE9ACB3
FFEE0912
FFFE5573
FFED5825
FFF46BE4
FFF16E0F
FFF3F32D
FFFADDE8
00087E8D
00019D89
00068DE9
0019AC84
001DAD12
00135E04
00047561
0008BA30
FFF70DC9
001A680F
0004051D
00162DFF
001D3DDD
0023CB3B
002091CE
002F449E
0015854A
00049F51
FFFF42DC
00193474
00043348
000464B2
00020740
FFF29429
FFF847D9
FFFE7FA5
000E0DFA
00279F57
001A3AA8
FFEFC732
00053543
FFFD8BE7
00032947
000FC740
FFF7688B
0003ABC2
0000B9D5
FFFFFFE2
001BCF54
FFF2790E
000D5D67
00150EB7
0037E34A
0044FD16
0048E70C
004A2E46
0022A8A8
00110F07
002DF102
002697F2
00195E7F
002DC44D
0020BB2D
0023A492
002631E8
0040D15E
0028ABE1
0006B7F5
0008A6EB
00060AC1
FFF9DFED
FFFEBB8A
FFFA5304
FFFB5FD0
FFF7DD27
FFF9C453
00007042
FFFF090A
0005206B
0001BC77
000DE131
0014DA1C
0018F225
002CA874
001E42F6
0026470F
0026663A
00343EA6
000AA234
001AC58C
001D61E5
0015804F
00121533
000D315F
0003A2B0
FFE935E6
FFF8F434
FFFEB431
00071A9E
000588CE
0004093C
