00057DA5
00076862
0002BB7E
0007487C
FFFBA4C7
FFFA04A3
FFF8A80D
FFFE8DEA
FFFF1887
FFFACDA4
FFFCDF8D
FFFD0E3E
0003EFF0
FFFA9C4B
0009A452
00030616
00034207
000544C8
FFF795AF
FFFBE0FE
FFF90D30
0008E1C9
00035AEC
FFFC2AFF
FFF91AF0
00051024
00021F4C
FFFB8082
FFF95D57
FFFB3A81
000239F7
FFF84D5C
FFFB8559
FFFC41EF
FFF0B65A
FFED6271
FFEE49ED
FFF6E294
FFF5B636
FFFBC5D4
FFEC2A35
FFEFB9CE
00017E07
FFF004E6
0001180A
00008690
FFF79A66
FFEC2E29
FFE34234
FFED3A57
FFF3CFE0
0000057A
FFFFC254
FFF9D247
000484F1
0000A2A6
FFFEB10A
FFF7350C
FFF41014
FFFC3FE6
FFF1AFAE
FFFAA63E
FFE39984
FFE7124C
FFEA1449
FFEB8874
FFDA4D43
FFCF9414
FFD61818
FFE16FD0
FFE15745
FFFB9093
00040ADF
0005F076
FFF741DF
FFF3FE4F
FFF27681
FFE8E91B
FFE79AEF
FFEF35E3
FFF77AD9
FFFFC7B6
0008B68F
FFF71559
FFF7B201
0001D2CB
000DEBF4
FFF7B04A
FFF111BE
00094D8A
FFF7E447
FFEA1D4E
FFE66F3E
FFDA0936
FFE613FD
FFECB649
FFE87BA6
FFE2278A
FFF7A2B4
FFF9AD31
00018B51
000C0C27
0002B377
FFFDEEC1
0010D281
0004B08F
0001E8B1
FFEBF969
FFE7CDF9
FFF4EAD9
FFF64ED3
00047CD3
FFFF77B8
FFFB0B04
000E573D
000C8693
00095C68
0009AA58
0006333B
000B4450
00016FD1
FFFC3E36
00007793
000EFA17
00085779
0006A4B8
0011A207
00073796
000B61FF
00129AA3
001EC25C
0007D693
000C9D55
0002B4F6
0001F1BA
FFEDC28B
0012B6DE
0015230A
FFFC335F
FFEBA333
0002B867
000319AC
0003FEE8
0012B63B
001EA124
0003F80F
001215DE
00033836
FFEE41E4
FFEF5128
00062338
00069EA2
000AB0D5
0000E672
0004F329
000ADE1C
00208BFC
0026C849
00183671
0018367A
0016C0CC
00015A7B
000A51E6
FFFC2C3A
0001C1F3
0001FF44
FFFEF3D7
FFF7650F
FFFDD535
0012C2C7
FFEDC7F8
FFF45E68
00030218
00084977
000AB9C7
0005D6F1
0003BF73
FFFDADA7
FFF5BFB8
FFF6FF7B
FFEEF273
FFFAFE0C
FFF595B6
FFF5EA46
0000EE8C
0004917E
FFF5BF40
FFF8F0BF
FFFB9B83
0000B9FA
FFF85EFA
001871B9
0007D452
FFF38775
00087DE8
FFF97E77
0003BED9
0004BFB2
FFE32962
FFE71CD9
0007A7BB
0015C7D7
000C4A1F
FFFFD63C
000B85A4
FFFFBFEF
FFECBBA0
FFF127CA
FFEF4C79
FFF46422
FFF9AA5A
FFFCFB45
00005A4C
FFFE2F93
000091EC
FFF99677
FFFAC8B5
FFF40E47
0002BF4A
0004A65E
FFF7327C
FFFF1536
00069EC6
FFF578E5
000629B8
FFEB4E69
0003B715
FFF3C454
0010250A
00152A05
FFF94E4E
FFF9F402
0002DBF5
FFFF820B
FFF6D945
FFE4C920
FFEBB3AC
FFE97F5A
FFFC7626
FFF5D4AC
FFFCF20A
00003C99
000BA595
000D2976
0004382A
00061076
0000CB80
FFFEB4EA
FFFF9FBA
0018F13D
FFFF1468
00044850
FFFB584D
FFEE212C
000952C5
00056AFC
FFF454C0
0000D874
00044051
0006FAD2
FFFD3B28
FFFD402F
FFF4674C
FFEEC723
FFEA1973
FFE954FD
FFEAA55C
FFF92A57
0000DC47
000888BD
001043D5
00173B97
000DBDBC
0014B074
00139FED
FFFE3890
FFE5A6E9
FFF89462
0000C935
FFFBED67
FFF202DA
FFF8B7E4
FFF0A5AD
FFFE817A
0004C94E
FFF5B404
FFFB2DBD
00055990
0009864B
FFFBB780
FFEFEF61
FFE5330C
FFEB28DC
FFD53B1C
FFCD9AC8
FFE7A00E
FFF03DAA
000DE239
000DB9F0
0010EF76
0015ECDC
FFF8370C
FFF45752
FFF0DC68
FFE67A43
FFE852EB
FFF4D7B5
FFF65845
FFFC13D9
FFE6CD9C
FFDDD04A
FFFDA0BC
FFF9853C
FFEA02C7
FFF200C7
FFF56FCE
0003E4A6
FFFBB318
00000C31
FFF1236A
FFF9F798
FFE0A40A
FFE0EDCC
FFECAABC
FFFEA7CF
0004D162
00152FCF
0014F126
0001CFB6
FFEEC8B7
FFDC4707
FFDFE37B
FFE38117
FFFB8E5B
0002F6FA
FFE54EEA
0002FE92
FFF7BB45
FFE8F9F8
FFF1C9A2
FFDE1F65
FFEAC090
FFFBAA34
0008B45E
FFFB092B
000ADCD0
FFFEB5A5
000C9743
000AE9CC
000CA962
0008490D
FFFBD3C5
FFFBE0A5
0008F338
00050A64
00151547
FFFB7CBE
FFEFF511
FFD0B383
FFDC37CC
FFEB5F52
FFE8F44E
FFF8BC65
FFEC75B8
FFF9B504
FFFFDE8F
FFF200AC
FFF5409A
FFE8CE9D
FFFB5E64
000C8282
001B39B0
000E8327
00089078
000B7010
000FEDB4
0026783E
0029B722
00170272
0008489D
00121497
00101407
001125F5
000939BE
FFF61949
FFE8FB85
FFD514E2
FFE0C206
FFEE016F
FFE3A970
FFED7AA6
0000E79E
FFF390F1
FFFDAC8C
FFDEBF02
FFF570F8
FFEE463B
0001628E
001148CA
001B4EAA
0015AAD9
000F1AA9
FFF588B9
00029B2A
00222EAE
0022017D
002A5D9D
00267D6E
0013039D
000F27F5
00085365
FFEB1136
FFE0FF75
FFEEF4C3
FFDCF5A5
FFD643CC
FFEBC0AA
FFF24E28
00093C68
FFF14612
FFF74A3B
001339AF
0009DD2C
0001C98B
0008676A
0012628D
00111DD6
000E1738
000ABC1F
000343F5
FFFD7764
00036843
001A008F
002BC5D0
0031BB42
0028B909
001853AC
000C1422
FFEE9470
FFEF1DCE
FFDD5B36
FFEDE759
FFF67A10
FFEFEE35
FFEAAE0E
00047EFE
00208DD8
00006556
FFF46378
000335C4
001355AE
000BA618
00076215
FFFF983F
001349BE
0006CB76
0002194E
0006C154
0002551E
000E96A6
001E9903
0023EA84
001C67B0
000CA3CB
000D238D
000108F9
FFFDA05E
FFF38014
FFF695BF
FFF4F0F3
FFF162BB
FFFCA151
00048672
000E7162
001E539D
00044B43
FFFE1ED5
001237D0
00156EC8
001ACE72
0016B758
00150617
00110554
000CF677
FFFD14A8
FFFD2DA3
FFF0FBB8
FFF55303
FFFDA027
0001BE10
FFF4B64D
FFFF9117
0004F6BF
000495F0
0002A56F
FFFF0323
FFFC5A41
00095FC2
FFF4E199
0006DED2
FFF5F335
FFEA6914
FFFD9F44
FFFA0F9E
FFE39410
0008BA83
00120D06
0027088A
001892F0
001EE78A
0022FF8C
0008BE6C
FFFEFDCD
FFE7C650
FFE66481
FFEC475B
FFF01F2E
FFF78416
FFF5EBE0
FFFD707C
0006A8E7
0002F570
FFFA1632
0000AB34
0002D7B7
0015F552
00034986
000A2746
FFF71E8A
FFECD373
FFEA17DD
0002FDA7
0002672E
FFF9F2F9
FFF90D25
002B114A
001CCB67
002FB498
00108559
FFF5EED8
FFF642AC
FFE510C6
FFEE5CC3
FFEA010E
FFE14576
FFF261C2
FFE757A8
FFFC2F12
00088533
00043D8D
00106C49
00054FAE
00134B2F
00114615
0006D00E
00075514
FFFA0891
FFE7E725
00125245
00043CFC
0007D13D
FFF7C999
FFFF71FE
0019D9C7
002A58F2
001B33C6
000EC895
FFF559D4
FFF2C201
FFEE14C0
FFDB7EF5
FFDD6354
FFDC4F9B
FFE9D237
FFEC839E
00023F83
000C9516
0018B16F
0019BDB6
0006BCB2
000DF4D2
001283DA
00148DB1
0010C14C
FFF67D22
FFEA972C
00002FDF
FFFFA7CE
FFF9C8C7
000F21DB
000B72B4
00154CCD
0015C40C
FFF765AC
FFFE63A4
FFEF85A1
FFF06A09
FFEB73F1
FFE31273
FFED039D
FFE00184
FFEBB915
FFF1BCFF
FFFB4108
000E9BA4
000C0B03
00107164
00078548
000F3E64
00114EA0
00175C00
00111E79
FFEE5702
FFF3D099
FFFD5678
00027614
FFFEF90F
00038377
00067DB1
00140F5E
000595FC
FFF0C9E0
FFEB0426
FFEB4CC4
FFE36E56
FFE4D80A
FFEBCDB5
000D5DF4
FFF73080
FFF8A38B
00001849
00046392
000CF530
00122BB0
000EC4DB
000EC84D
00130AC7
001A1CA8
001AFED7
001C226D
0001B9AB
000211CC
000462A4
FFFEE660
00047507
0007BDFE
0017FF6E
00304E5A
000B6F34
FFFB8582
FFF72BB0
00052AE7
000BFF94
000FA68F
0017E833
000E1DA3
000B0E39
0018FBFA
0012A765
00137671
0010648B
000E89E2
001E8F05
000ECACC
0027DE70
0021B190
001A1FC0
0017086B
FFEFCF31
000B0F73
FFFCDE3B
FFFC4D3E
0004CA58
FFFA0D6A
000C0F84
0010C862
00107CA2
FFF96924
000359E6
000E96EF
0005D782
00113319
0010E584
0010D870
000AD8E0
001AA264
001F5DC4
00175FCD
00140F2C
00085F36
000CC5DE
000BE950
000E83B4
001D6C11
001D1CD1
0011D91E
000276E2
000EEBEC
FFFCDFBC
0006EA8E
FFFA1FC8
0000DF10
0010250A
FFEAE569
FFF39019
FFEF2DD6
000AE88A
0000B28A
00084A24
FFFCA41F
00081C52
FFFDBBDF
FFF8C5E2
0003BB88
00000342
0002B4F7
0003E663
FFFD8CCB
FFFBF541
FFF115E9
FFF0F40E
FFEAD848
FFF2CFB2
FFFFCEF6
FFE863E2
000B58B5
000A35F7
00064033
FFF9BE52
FFF853CB
FFFD8FF2
0015F90F
00163590
FFE3DB23
FFEDDC4B
FFFD94B9
FFFF6489
FFEB6622
FFF00CEC
FFF1CBF0
FFF6E286
FFECE969
FFE38CEB
FFE90D4E
FFF79E30
FFF78017
FFDF4302
FFC9C560
FFD1DC84
FFF1126B
FFF01E3C
FFF98E67
FFF0A1A3
FFFD1682
00074BDF
FFFCB9FF
000421BC
000373AF
FFFEE11D
FFF94CBD
FFF6AE71
000061BA
00001C57
0000813D
FFEED49C
FFFBF719
FFE6AE9A
FFF7F763
FFFB6E9B
FFE6F6F6
FFE6E63B
0007096A
FFF1CDDE
FFEA6607
FFF5C52F
FFF437E5
FFF4756A
FFFC7DEF
FFF029C7
00006476
0004C11C
FFFD20EB
FFF888E6
0004E229
