000360CB
FFF79108
0000F872
00088503
0009015A
00009E31
00067100
FFFB7FC4
FFF78CE1
FFF91143
FFFC40E0
FFF77CC1
0003D9DB
FFFF40F0
FFFE0EC7
FFFC903D
0001A7AF
FFFB5ECB
FFFC4EC4
FFFED404
FFF80241
FFFE5FE2
0008F98F
00070C78
0000D212
FFF92AB2
000242C5
FFFAD635
FFF7E8A9
FFFB6984
FFF93E59
00047ECE
FFF84AAD
FFF75CBA
FFF0B033
FFE94129
FFE61C91
FFF75898
FFE21E40
FFF73BB9
FFE8C4CA
FFED03EE
0005A841
FFF87B6E
001F6DFD
00038A27
FFE43537
FFE0AC5B
FFDF30B4
FFE144FA
FFF0E5B2
FFFFA339
FFFFD952
FFFF6FFD
0005321A
FFF7AA14
FFF98A5E
0008E613
000161AA
000FCDDF
FFFBD81A
FFF2D8E5
FFE81A86
FFE5807D
FFE7B691
FFF0F56A
FFF8F51A
FFF0AB8B
FFF86DBD
FFED72E0
FFEB84AA
FFCFA99A
FFE75441
FFE408EB
FFD1882C
FFBDF2D0
FFC11D10
FFC95DBF
FFCE8922
FFD81EF2
FFE83F23
FFEC87BA
FFF9B52E
FFFE993D
0002B29F
FFFF8667
FFE41582
0001A8B6
FFE57FB2
0005AAA1
00081F81
00057EB0
000C0FA2
FFF8B192
000BCC5E
001B78DB
0019749E
001208CC
001998AB
0010C746
00011A3A
0005F1F1
FFFC5FD5
FFEBFBB9
FFFD779A
FFEE66AF
FFE8EA91
FFF4EED4
00083D00
0011B554
FFF93250
0002FED8
00066213
00049A10
000332A9
0016233B
FFFD03FF
FFFE8D76
FFF9951A
0001FE78
000719D6
00094DC8
0010C4C4
000C1E17
001B86F8
0005F4F7
000867EA
000B1A44
FFFD8FBE
FFFD22D4
00004F63
FFE024AE
FFEFE41C
FFE0142A
FFDFD175
FFD4C3C0
FFFEC008
00293BC4
001D711E
000827C8
0003367C
FFFF6033
FFFF8A83
FFFCD4FD
FFFC2294
0002B040
0006B41C
0017C400
0018229B
0017FF64
00013F92
001B0BF3
000CFD9A
000E3554
0013658F
000AA522
000DFF1D
FFFE8DCF
000251CE
FFF93746
FFF837ED
FFECC944
FFE2A16A
FFDB46D2
FFDF7D20
001582C7
FFFC04CE
FFF45E55
FFFCB6DD
00147122
0015B102
001545AC
000A8DFA
00062332
0019F059
0005563C
000C8636
001C78F0
001548A4
00101161
0018A02A
000F87F6
000EC628
002212A0
0025EBE5
00218D94
000A7ED5
000C1210
000A7D19
0006BE80
FFF47673
FFF8F153
FFF5C4C2
FFFE0210
FFF15E9E
FFEB5029
FFF6E1DB
0021D970
0013CDCE
002875F2
00161E46
000CBEFD
00131B88
0011D1E1
001519CE
000360FD
0008FEED
FFF8FBFD
00083F1F
00175600
000C0128
0010C631
00122BAC
001DC000
000D8C66
000F1164
000472B3
0001BB79
00016FC5
FFFB44F7
FFFC542C
FFF96CC9
FFEC1422
FFF55299
FFEE2862
001BA132
0013C55D
00144E66
0011AF81
00061FA7
00093EE0
0014BD82
000D74F8
FFFE8569
0006D10F
00001064
001209E2
00155D9F
000D6895
0018C8AF
0024ED5B
000FD335
001BCE4D
001CFC96
001352C4
000849BD
001BA5E6
000B26DE
FFF9F21A
FFF28023
FFF72180
0002CD0A
000EC399
00195EEF
000D6862
001D7F3A
00185259
0006CE47
0010D784
000A1E58
FFFA1691
FFFD43B5
FFF999CA
FFED04DB
000371E1
000DCA2B
0012A6F1
00214341
001C5C4B
00215D99
0011DE5E
0023E0C1
001FC7A8
00210E9E
002CDDF3
0012CC0F
FFE14BE5
FFF0F9C6
00113E3C
00211106
0011B9DF
FFFF4AEC
00143FEA
00251C26
000A9F81
000D3073
000B413A
FFFF60BA
FFE4C0CA
FFEF253C
FFFDC12D
00006FED
FFFE8A86
0014EA6E
000B41C3
FFFB2E74
000FB167
000E5C1A
001A122C
00156A17
0031F429
001BF0CF
00367DDF
000B32C1
FFDD2602
FFEBC8B0
000563CA
001058BC
FFFE45BB
00045B21
001A6E91
00222B0C
0006CD47
FFF0E26F
FFE739B0
FFE339EF
FFEDD63E
FFF0B9D2
FFF88E72
FFFBA0DB
FFFCE2C5
00042C64
00018310
FFFEBB2D
FFF44ED2
0002C7A7
000F908A
001FDD76
002FCAD4
0014DE1F
0015BD02
FFF1CCC8
FFD9857B
FFF1A3E9
000AD768
FFFE1306
FFFE1663
000BDEA2
0018C4ED
00187105
00068B61
FFEB7CE0
FFD28040
FFDE7314
FFE7594D
FFF2CD37
FFF26EB0
FFF576C8
FFF905F5
0001A5FB
000321AD
00063EFA
000EEA45
0010B64D
0013D693
0017F1AD
00150AD0
00082F9B
FFF93BFF
FFDDA629
FFDF8586
FFF5FCBA
FFF67E6E
0000EEB6
FFF63A75
FFFA3860
001B7F59
000B3900
FFF3D034
FFD606B7
FFDFD9F6
FFEBB7FB
FFF02120
FFF4AE90
FFF85C2F
FFEFF3AE
FFF2761A
FFFEB269
00047285
000279F8
00148F4C
0007F73F
00116C94
000E5EB7
0006CCE4
FFF43240
FFD45AE7
FFC653F6
FFDD46E9
0002B83E
00025F68
000AEB51
FFF70CBA
00052D3A
000F0ADF
00080C0A
FFF0AD51
FFD87BD6
FFE414A2
FFF5784E
FFF1F73B
FFEED49E
FFEA9F65
FFF071AD
FFFC3BCF
00001353
000910D8
00079E93
0003EE95
00184DBB
0010426C
00196B3F
0004EA36
FFEC5B44
FFDB73B6
FFD0A943
FFDBEF58
000255C7
00126A7B
FFEBE462
FFF7719C
00147189
FFF1E583
0000D556
0007C3E2
FFF9DB72
FFFBB1F8
FFF0ED72
FFE2EC2C
FFD6A067
FFE19730
FFEDF35F
FFF41CF6
0001CFE9
0003FC55
000AE657
0005C860
0017E03A
001A1BEC
0018F26F
0007D050
FFF63966
FFF84F4E
FFEFB6D9
FFEB0796
0007B237
000C546C
001EE479
000AC151
0016C2B8
0010642B
0001B02D
001C0F45
FFFF95D5
FFFA6725
FFFCC8E3
FFF065C1
FFEA8455
FFEFEBE3
FFF1E1CD
FFFE51F8
FFF65F2B
FFF67B79
FFFE743D
000E36D5
001DD60A
000C29C2
000DC227
0006D09D
FFF3D138
FFFE7311
0003DED1
FFFF2585
FFFA3AF3
000F1FA1
0019C1BB
FFF88337
00094E50
0005CC8F
000D2D64
00180848
FFFEB8FA
FFF9CFE6
0008223E
0005724B
FFF9D335
FFF35B49
FFFA5EAC
FFFDABCF
FFFF95D8
FFF30A67
FFFE5912
000CD3E6
000E19EC
FFF88539
00084053
0000406E
FFF6E351
000686F9
00074372
FFFFEB4A
0004FB35
000D276C
00177789
000CF839
00158F7D
00135202
0011BB87
0001AAD7
000AEB48
00120228
000BD017
0003C4F7
FFFD5227
FFFEC6E4
00035C7C
FFFC7F52
FFFF28DC
FFFA3A8F
000D9B0F
000ACE17
FFFCDD87
FFF55012
0004463F
FFFF70DE
FFF41AD8
000AD1EF
FFF7F798
FFF229E1
FFEE3697
0009FBDA
000191E2
FFF2A4CE
000E13E8
FFFC29D3
00044F65
000D02F4
0014E7B6
00128695
FFFEF426
000FE03D
0004681B
00097F12
FFF8FCA9
FFFD5F88
FFFFF7FA
000060A4
FFFB1323
FFFAFD39
000820FB
FFF991AC
FFF8F628
FFEFC4E1
00014A33
FFF4C010
FFFD843D
FFE712DC
FFDACD46
FFFB7702
FFFDDF02
FFF7C450
00147568
FFE9D0DF
FFFE92E0
FFFE5A78
000CC22E
00040B80
0005E1C3
FFF91FEC
FFFB6237
FFF2E53B
FFEABE1F
FFF00776
00080A41
FFFB0B5B
FFFC5405
FFFA1AB1
FFEA5095
FFECF8AB
FFF3019D
0000BB60
FFF1EB64
FFF24F4B
FFF8659B
FFF37551
FFE081C2
FFEA5219
FFF5337A
FFF3A9D4
000C3D98
0002F977
FFF2ABE7
FFF572E5
FFEC9764
0006B729
000354CB
FFFF1CBF
FFEF02F3
FFF90455
FFFBB3FB
FFF7B846
FFF217F8
FFF19921
FFF48ECD
FFF7C1B1
FFF7E4A0
FFF42E60
FFF82B87
FFF2A0C4
FFE73264
FFF0D55E
FFF6F650
FFD493B9
FFE481C3
FFE0D72B
FFF8EF77
FFF08DD9
FFFD4EFC
00077B1C
0000A864
FFF2A4C6
FFECD92A
000941D5
00054EA4
000123A7
FFF9536F
FFFB4CA5
000A19A5
000DB21A
00039614
FFF8A36E
000510A6
FFFA2917
FFF453C9
FFFFE58A
FFF54468
FFEA0057
FFE3B77F
FFF93D6A
FFFA1299
FFE932AD
FFE8F118
FFDC947F
0001CEF6
0000969A
000016CC
0005B47C
0013BCFA
0004A3CF
FFF27767
FFF9BF4E
00154B6C
00064064
FFF81207
000ACE50
000EA935
00018EA2
00095C16
00016CED
0004E7AC
FFF83EF5
00055AB1
0012DB9F
FFF92B34
FFF61B7A
FFE69BE4
FFF4BC4C
0001D87A
00068502
FFF922F6
FFE748E5
FFFD2D2D
FFF8D41C
000116CD
FFFFDE79
001DDA7F
003516D6
00183BD7
0013A3A2
001C15B1
000B9B18
00017C78
00154B2A
0013FE72
0012DE36
0019E0B4
0012CEA8
00173C64
001E8CD7
0003AC02
FFF28584
FFFF28EB
FFF8619E
FFE92B14
FFEE7FFE
FFFEACB9
FFFB530A
FFF12741
FFE808A1
00082ED3
0004B4E7
00001425
00036DD1
FFF4F45E
0016657F
00315703
0026DE22
0028E2BC
0032D074
001B4710
003B7A2C
002DEF9B
002CDF9C
001D9841
00201D86
000773ED
001AE80D
0019A651
00070D0E
00220CD5
000E2A87
FFEF4A6B
FFE192DC
FFE6B409
FFF695D2
FFF3961B
FFF7EE1B
FFFD7EC3
0004CFBA
00067F68
FFF9454C
000A138F
FFFC6A99
FFFF1F64
000E623F
0032D6FB
00345422
00346962
00397EBB
002F3326
0022601C
0034975A
003DC677
0016D822
0024B987
00301E5E
0030036D
0031BAE6
002414A5
0011EB3E
00074119
00178A5A
00005351
FFFF7ED1
FFFEECB6
00013A6A
FFFBA7E9
00058A27
FFF90DBF
0000C27F
FFF99885
000691BE
00085E1C
001543E2
002249CD
00176647
001BA369
000ABE30
0009A07B
001DBFFC
002A403A
001E1482
00204036
002338A2
003787BC
00230CB3
0014A00A
0002C2A5
FFFC325F
000B9ABD
0002DAD1
FFFCA4F2
FFFDA574
00023AA4
