FFFF33FD
FFF7B714
FFFA95BA
FFF7B0B6
FFF82EC9
FFFB5A0A
00021339
FFFE78F5
000393A9
00074C25
FFFD33B4
FFFEF117
FFF19CE6
FFF397DF
FFF5B58E
FFF58A28
FFF71408
00040449
FFFA7950
00047A8E
FFF92450
00088609
0001711D
FFFCC1F4
00005FEF
FFFB45C5
FFFF9C12
FFFD79C4
FFFD13C2
00054BDE
FFF9F9FD
00070791
FFFF0F7B
FFF19F7D
FFF0AA73
FFEB85EE
FFE32C77
FFF60C06
FFF59072
FFF9B7C2
FFF13392
FFE571EF
FFF5A665
FFD856B7
FFD54D80
FFD60D2F
FFFBDF7C
FFF0319E
FFDBE4A0
FFF600EF
FFF99F5A
FFEDC443
FFFD1398
0004D42A
FFFB2BF1
00006C5F
0001B9F8
FFF76F20
FFEE5774
FFEFC16A
FFE445FB
FFEA0F9A
FFED99EC
FFDDE48F
FFDBFC8A
FFDAF108
FFDA9FFC
FFD79B7D
FFDFB159
FFE2560E
FFE219F1
FFCE5E5E
FFEBD884
FFFA0BC3
FFF28A3F
FFFB17D2
FFF4CAC7
FFE45711
FFEBA7FE
FFE0F18A
FFDD0199
FFFEC9B6
FFFEC393
FFF7A836
FFFAF878
0000B3B4
FFF82CE5
FFEDDDA0
0002E89B
0002058B
FFED4539
FFF8A162
FFEBBD6F
FFE0747C
FFFA346B
0002F57A
FFF93DE3
FFEC171B
00014F88
0004DD16
000338D2
0011D983
00006DD7
00050E4F
000F158D
000C31B7
FFF88044
FFF01CF2
FFFB9E3D
0014739E
00040FD1
FFF7FD81
FFF70984
000A7AF6
FFFC2277
0008EF74
FFFD010A
FFEADD38
FFF0BEF8
0003231D
FFFD34EC
FFF936DC
0000E525
000C58DD
0013A676
FFFCBB1C
00002A78
0013E60C
00033586
0011CE20
000A5440
00059E8E
000674EF
00074CA8
00020369
0007C542
001CFA50
0025F894
00190612
FFEBBF0D
00038D25
FFF95ED3
FFE6309E
0001A399
FFED7B87
0003ADE5
FFFD502A
00017C26
FFFAC0A7
00057772
000DB7B2
001E777A
0007F723
0008998F
0005AFA6
000B0410
000B6A40
000BAC7A
FFFEC8C0
00061133
FFFFE695
00001136
0006E70E
00050A33
00097024
001D2F0B
FFFB130F
FFEF1FF8
00077704
0007EA5D
0006DF48
FFF03896
FFEFF847
0008675E
00074B04
00058494
0006C3B4
00147180
0002C703
000A9F23
00027688
0017CD41
000EA181
0008BA66
0008C995
0009689F
0011627C
000F56F8
000D8523
FFFC35FA
0003C78D
000AB758
00092EC5
0012CEC9
0012055F
FFFA7239
00014843
FFF8340B
FFEC6D02
FFF1919B
FFF25EE4
0012227D
000793C3
FFFDCDCC
000C7142
00134566
000A4069
0004A209
000A5FE5
000594AF
0008A33F
001F2C44
0014E15E
001640EE
00155C44
001521AF
0002D1A0
00002E7D
000259A5
0013EBE3
00165134
0021C1E6
000750E8
FFFD1AAA
0008DFD3
FFDEEADF
0005263A
FFF6A614
FFF2E38C
FFFB39A7
000B0B8A
0006E380
0004CECB
0006A285
FFFC525D
00058DD5
001073F4
0014EB2A
000F366E
00115616
001B2E98
00165412
0025DC2B
000DF0FF
000EF559
000F1CB6
000B9BD9
0009D722
002C1740
0043FD9F
0021B4EF
00108B0C
FFF6AEF7
FFF33B9D
FFFC4BB7
0004173C
FFF54619
FFF770E0
0012DADD
000B3311
0006D3CB
001511D8
00130D34
0012C40B
0005CD58
00122C64
0001EFF2
000A3773
001A7096
001D6E44
00118294
0011EFA1
000CA2CF
000AA306
000AA1C4
0017A5FE
002B8EBE
0035D64E
002798ED
FFF8778D
FFF9C12B
FFF05F1D
FFEA4349
0000EAAB
00083D89
FFED591B
FFFB9EF6
000FCFFE
0012B1DD
001200A2
00126BD6
000A10DB
0009EC12
0007D1F5
0007541D
000204D9
0002215F
000F7B99
001452E9
000B3374
000441CC
FFFF26B0
000DA67B
00112CFA
001D8881
002B9C8A
001996E3
0008E2DC
0002DD40
FFF0A3EB
FFD8B705
00050D75
FFF67DB3
FFF3A650
001316FC
0007790E
00146768
000F30E6
000D5917
00077FC2
0003B788
000ADD0A
001072B9
000F16C9
000DE7B7
001C7C17
0011C48A
0002F595
FFFB69A4
FFF5FFB1
000372C5
0004944D
001D0E41
002BF35E
003B98C7
00098597
FFFFBCF2
FFF56612
FFDFEFB1
0000BEAD
0000B395
00150175
000FF634
00168415
0005AB6B
0009F766
00048C54
00064A94
00077D46
0013EA37
0013F6DF
000F99D7
FFFF1FE3
0016341E
0008F4D9
000D610A
00069E5B
FFFFA4AB
FFF05DD4
FFFB9D5F
FFEE8458
0004C16D
0010D890
FFE58317
FFF5291A
00060EDD
FFE20C29
FFFA84DF
0015E653
001A493F
000A2063
00126093
00067561
00032091
000329A0
0000011D
0005249B
001145CB
0005049D
00070800
0009B339
0006A551
000F9D37
0018663C
0014BB21
FFFBFCDB
FFF407A4
FFE8353F
FFD83AB3
FFEB0EE5
FFF73E02
FFE57390
0004DB10
00097F09
FFEE69EA
FFFF111F
00199DE3
00100067
000909E4
001B9888
000F012B
0004E450
FFFCA86A
FFFC2378
000BA986
0009BEBB
0007A01E
0002E45A
FFFBD4D0
001CB80A
0012DD6F
000D0B3C
0011E403
000F0792
FFF6B884
FFF1BE5E
FFEC338E
FFE84BEF
FFD747F3
FFDF2BA0
0003E247
0009B9F2
FFFC3AC3
FFF64E22
00184005
0008D712
FFFE7319
000AE403
0008B5D3
00046610
0008D472
00016E2B
0009D06A
FFFEEEA0
FFF6E8E3
000137FB
FFFD810C
0013E6CA
00044CE4
000CB272
000B85F9
00078520
000B069F
FFFC8C84
FFF72086
FFDB5122
FFF3CCF5
FFEF401F
FFFCBB6B
0005BE42
FFFC81D9
0000FCFB
000EE353
00076E3E
FFF96B06
00055EE3
000A3D8C
000287BD
0006C778
FFFE93B9
000BDD72
FFF8E174
FFF3B0B0
FFF6AABA
000207CA
000EE49C
0011A0AB
000A4851
000ABAD4
FFFB7329
0004FE7F
0002F988
FFF6179D
FFDE2F77
FFDFC801
FFECA98D
00014264
000EBC1C
FFFE7868
00038F49
000EF3E5
000EE6EF
000D47B9
000F8FE4
000645B4
00010EEB
0001A787
FFFE279A
0003A9B9
FFF00223
FFE91F57
FFF65BDC
000B4AE9
00047300
000A5E16
00120120
000C5158
0009E5AC
000526D8
FFFDABEC
FFFAA86A
FFBBD128
FFEA74C8
FFE4C37F
FFF3D2C0
00041E55
0007493E
000708D7
000ECFB6
000D55AC
0017139C
00032A21
00076BFE
0003F81D
0004AF5E
0009038F
FFFCF572
FFFCD969
FFFE1208
00013B69
0002EA9F
0006C705
FFF65820
000ADDC7
0017B89B
000987A2
FFF73DBA
FFF99C2A
FFEEF153
FFBA36DE
FFDA8172
FFDB1F32
FFFA3A22
FFEA87A9
FFFE6A21
00116EEA
0013D727
0025D370
00195E72
0005F2E4
000CDBFB
00038691
00019924
FFF59ED8
FFFB3DF8
FFF4A575
0003CF9F
0009BE21
0001470E
FFF948BD
000A7DB1
00158C0B
000B6CE1
00083B76
FFF5659C
FFF83352
00019D70
FFD4C4B5
FFCB5C7C
FFED60C0
FFF7F4FB
000B5AF5
000257EA
FFFE7528
FFFCA3AD
001A4DB3
000919B2
00022419
00072C42
FFF5B0B0
FFEE6DFD
FFF4A514
FFF1100F
FFF78B07
FFF58BC8
00067ECA
00071702
000AACAE
00084F16
000A2ED7
000CF18E
FFFF9973
00038AA2
000308AE
FFF9B5AA
FFF8D6A9
FFF1C58A
00037774
FFF5C131
0002478D
FFF9CBFE
FFEE600D
FFF74868
FFFFD2A2
000D7C2C
FFFA434E
FFF1AD9E
FFF38E4C
FFF3D710
FFF0F679
FFF2C0F4
FFFCD1AF
FFFFE687
00076690
00063B16
000364CA
FFFFD3FB
0009B74A
0004B637
0004641E
0005722A
FFFCAED9
FFF45F6F
FFFB16DA
FFF91DC0
000669F6
FFEDC328
FFFFADDC
FFF28251
0004FE4B
FFFBFDD8
FFE61C21
FFFA5EED
FFFC14C2
FFF2DD4D
FFEC71B8
FFF6C9CE
0009E787
000771C2
0001DB44
00122262
000D3DBA
0012449F
000C6212
000A3F66
000573FF
000075DF
00013C09
0011888F
0013191D
000BAE77
FFFB4F0C
0004172C
000A84ED
FFF93F93
FFFFCDD0
000CDBA5
00278348
0008C461
FFF394E2
FFE9BF54
FFEE06D0
FFFFA152
00031967
000A4EE7
00003CC9
FFFF20E8
00003DF0
0006445A
0011D7E8
0009E12E
00133339
000D7E6E
000ED11A
00057D92
FFFA83AE
0008261E
00144161
00094DA0
000AC113
FFF5A05C
0002F821
FFFC5886
0004E6FF
0005432A
00286691
00202087
0008171C
00056155
00196D17
001CA35C
0012F820
002642B1
001B0AE3
0018F620
001A78CD
001E7BB7
000EE0E8
001A470B
000DD9FA
0009ADDB
00160F8B
0019BA4D
0007BE65
001770E8
00193176
FFF19158
FFDA7475
FFF4F992
FFFEC139
0007A658
FFFE2E1A
001403E5
FFEC029D
0001E82A
00076DE3
0011B491
0016DA6E
00207E78
002F500C
00365A99
0021BEEE
00239FF9
0020EAE0
000F9B4C
001840D3
0013B5FA
001E951E
0024018C
0021EC66
001F8822
001B08A8
0016A6E9
00289D42
0017CF13
00034A5F
FFFBD5A4
00028CFC
FFF96F46
0003A3A8
FFFF161E
000DCDA5
00257A75
00193822
0015FAD5
000490B1
FFF9DD93
0009D807
000E418C
00189D06
0013A288
000D21F6
0009679B
0005EC96
0007AD10
0019BCE0
0014522A
FFED7065
000AF297
00104E1F
FFFB68AA
00046C55
00082D15
00026622
00043B3D
FFFFAE99
00022E00
00065E23
0008ABFF
FFFB8418
FFF2FAAE
FFF1E028
FFF7A620
000C1E0F
FFF6037B
FFFE7B3D
FFF3F9E0
FFFBF425
000DF5DC
FFEF934C
FFF1666A
FFFEF5E2
FFF5575D
FFE186A7
FFF5F00D
FFF59570
00067DD1
FFEB2EE7
FFF2B3E8
FFE7DFAE
00023F5E
FFFB09F5
FFFB0C5C
FFFDCCB8
