FFFC3BFD
0001B4AF
0007F757
00042D03
0008F2E1
FFFC209B
FFFBA24E
FFFED6D0
FFFE289C
FFFBFA74
FFFF6EAF
00084285
FFFAFCFF
0005226D
00043F4D
00054B78
00027771
FFFC9F5C
0003C5FC
FFFBB19A
FFFA6351
00088BF4
00079412
FFF96476
00076D23
0001E557
000257F3
0008D000
FFFF851A
FFFD1796
0005BD5B
FFFDA366
FFFDCE1E
FFFC5027
0008FFCC
FFFFD7D1
FFF74810
FFF7D6A0
FFF880D1
000250D1
000F9A94
FFF4AB1D
FFFC31FC
FFFE92CC
FFE82CCB
0002B259
0014CC6A
00202417
001CACF7
0014A462
0012B2A9
000DA87F
FFFD4D5A
FFFE345E
FFF893B6
00058E8C
00061A77
000449EF
0004A584
001EAB23
002B1B3F
0002CF27
0010F29D
000BC173
FFFE4400
000581EB
FFFED02C
FFD1DE76
FFC73A26
FFB2796E
FFBAEB30
FFD298CC
FFD13BBF
FFED7AB8
000303A6
000E8F05
FFFD99AB
FFFF66F5
FFF3B17A
FFE6BBA0
FFF012EE
FFF76BFD
FFFB000C
000109B2
FFF6E0EB
000014A6
001D6483
00254D09
00213E21
00033EA0
000CE56A
00343A88
00076AB1
FFFB0027
FFDCC160
FFD1D16B
FFD4FB0A
FF929894
FF9401E0
FF9AE319
FFB32AEC
FFDAB115
FFDD8BFC
FFF9054D
FFF8BF5F
000E343B
000D26DE
FFFF2C05
FFF0F1FB
000AE85C
000575D8
0001BF6B
0007AD93
FFF9232A
001443DE
00153D19
001E6A20
0015B974
0018DBA3
0002B2A6
00113690
FFF21DC0
FFBDCEFB
FFC5FDB3
FFB309E8
FFC19328
FFB90782
FFC717AE
FFB89FC0
FFD286B8
FFD218AF
FFD806F9
FFD0D656
FFF04185
FFF0ED4C
00125A34
0000A4F3
FFF0EF88
FFEF957E
FFE85C5D
0003E510
00082243
0016EFAF
001D6AC7
002D051F
00131FB9
0014B547
FFFF2489
FFF03A79
FFE6D2DE
FFC11527
FFB3BC20
FFAE1A54
FFC1BDDA
FFD5B33E
FFD648C4
FFDBA1F7
FFD23359
FFBE1EDB
FFCF5966
FFE378DF
FFC842BF
FFDFCD95
FFF2F63F
FFFC3E10
FFE6EC09
000601A0
FFF360AC
FFFA6FD0
FFE87CAE
FFFAB1E4
001F96BA
00380A39
00207611
0011304F
000A135E
FFEA37F2
FFD059DA
FFB739E2
FFC3E875
FFB43009
FFC359C2
FFD1E4D6
FFE264A8
FFE0703F
FFDCF6CF
FFE43F67
FFDD4F80
FFF5289D
FFEA40D1
FFF25C33
000DC5BA
00065518
0004DAAE
000D4D24
FFFE2C1F
0002EEA7
FFE145FD
000A12FB
0012EB25
00371B0E
002D0670
FFFBADCE
FFF4DBFD
FFCBA9BC
FF9C61E0
FFB09F08
FFB62D72
FFCC63EB
FFE46FF1
FFF9E1A4
FFF8771F
000896B8
001ABC4D
00080BEF
000124B0
00055CCE
001C236C
00242EFC
001D5696
000AADD0
00009E91
0007A599
FFFD7FCA
00143165
FFE0516E
001DB5E2
001B04B1
0029756A
00253B06
000416E7
FFDF3922
FFC54A71
FFB0AFFD
FFAD2E42
FFB08DCA
FFD87D72
000E8E63
0026315D
00243E91
003325A2
003930BC
00354AC8
002CD684
0039DD22
003C7E0A
002D6002
001F24C1
002F4BA5
000F82E8
FFF81C64
000769BD
FFED23F3
FFF13F80
FFFE2216
FFE93D23
00218E41
001C76DF
FFE7BE25
FFE6656E
FFD0266A
FFC7B84D
FFC9BD0C
FFBF7CD2
FFEF2787
003A70CA
0051EFF1
0040433D
004490B4
00438EA2
004C9413
004525CE
00370BC3
0035C3B3
0023A2E4
002939A0
00336030
002BD192
000DE97B
FFF7A549
FFF1EB69
00047389
FFFD2EAA
FFDF9F86
000BC910
00056A5A
FFD08EF9
FFE0B84C
FFC7086F
FFCCFA3D
FFCDB4C6
FFDC250A
0011DE52
004C7C86
0060EB0E
0051C3BE
004824D9
00276C4F
002F4A29
002EB582
001BD951
0020CBE8
00284226
00388A29
004D189C
0042A906
003432C0
FFED1C68
FFF68C0B
000A2938
001578AC
FFF95005
00156DC5
FFE4B984
FFD5AA00
FFDF7AFE
FFDB6FCC
FFCE5980
FFE07876
FFF2D53A
001A2966
003BE721
0036E52A
002FADE2
001C2149
0000A724
00133E01
FFF7820A
0008D92F
0015AAAA
0027B87B
0040520C
004A8E1C
004B3D28
002E2684
FFF4F3BB
00050050
FFFACAC6
000B9655
00170C4A
00188206
FFD6962D
FFD5DABC
FFEC68B5
FFDEB602
FFF43024
FFF4EE5D
00068AEB
000E7694
00323C0C
003B3CFB
00244C50
FFF160F7
FFED486D
FFE6CC18
FFCCD5BD
FFD315B2
FFC4F240
FFDF20BD
FFF545AB
FFFD1B68
0010AA02
0018ABDC
000490AC
00164FD7
FFFDA001
FFF095E8
000AA434
00107A42
FFE2AA1F
FFF402E7
00129B4F
0005F62C
000486D1
0010A42E
0007EBA1
0021F931
002D0662
001FD42C
FFFCC7DC
FFFAA14D
FFE9C604
FFD4164B
FFC31580
FFA8622C
FFACE2C8
FFA5205D
FFBAD683
FFDCF0A2
FFF16970
0001EA33
FFFD2DE6
FFFD299F
001207A6
FFF2C94D
FFFEB8AF
FFF26344
000C74EF
0015F1B2
000A2297
FFFFA2B7
0009D9B7
00197CB4
001658B9
0013D5B9
00280F68
000F581D
FFFBE133
FFF69D42
FFEF230D
FFDEF770
FFBC1EC1
FFC47B10
FFBF8DBA
FFAD9A41
FFADF510
FFDA560A
FFE0718B
FFEF3724
FFFE7C49
0003A71E
0008B9C9
00022528
000BA257
0017B4EC
00228132
00281F27
001F77F5
FFFA1E6A
FFF964FE
0003CCC8
000F9C7D
001F58D7
001B2025
000B9061
FFF08D09
FFFE1387
0002A48A
FFF1D387
FFC60226
FFC88F64
FFBDE78A
FFB712EE
FFD10D25
FFDBF38F
FFCF93CB
FFF2FCD0
FFF0DADC
FFFAB0F1
FFF19990
FFE6A500
FFF92C1F
0011882C
0030C7F6
002A398E
000952E4
FFFD2D12
FFDEC81F
FFFC9AA0
0006C721
0011EC5A
00136847
FFFFD102
0003DBCF
0003D665
FFF6D0FC
FFF4EA4D
FFD41512
FFD284F7
FFCBDE39
FFBAB052
FFB40D43
FFDA54B0
FFD65FA2
FFFB8622
001A4069
000814CE
0004DCD0
FFE2B33C
FFEC0666
0008F3A6
002DED56
0033B2CE
00235044
FFFFE9E9
000D80D9
00125618
0006C870
FFF92A6B
00129F78
00065BC3
000DA2CC
000CEA62
000BB51B
FFFAE3F9
FFD66FF6
FFE82773
FFC61304
FFC2D987
FFD72114
FFE93320
FFFEDEBE
000AFDF1
001E2C21
00150134
FFF9B721
FFF4263E
FFBE4EB7
FFF35AD9
001280B1
001D21B5
002AF2CE
0014B088
0019778B
0018D385
001F274F
001BE254
001BFEE0
00292498
0019E9E4
FFFDD5DD
000F91DE
FFF185D3
FFE3CE6F
FFC04709
FFAD663B
FFC57CD7
FFD78043
FFE9F756
FFFF7BDE
00217032
001BB1B8
00061B27
FFF9AA39
FFF9E5DA
FFB0AFD8
FFD2EF2C
00039321
0012C549
001D3C9C
0012C07E
0013F082
00107D3C
001DC03D
00232E42
00282D3E
0016BE9A
000BC1C9
00031581
FFF828DE
FFFC5923
FFD2FCF0
FFA6A77A
FFAE9FE7
FFBD9CB6
FFC39EC1
FFE4A6F1
FFFF9C94
00038690
001BCC17
FFFE643F
000B8F7B
FFE9010B
FF9F7EEE
FFBD50D6
FFF8EA2B
0007A4B4
FFFC3C29
00061DC4
000F54A0
000D7404
00175BF8
000DE311
001A03C6
001D6B8B
FFFC4F60
FFE9FC52
FFEAFC95
FFE58CCC
FFCEEBC5
FF98AB4D
FFAFA6F8
FFCED382
FFD19519
FFED01AE
FFFC4292
0001658B
00127E09
00044742
FFF7D2B4
FFD0E202
FFC058F0
FFC75DF5
FFEC1B5D
FFF2B058
FFFF0F48
FFFAD656
FFFD1133
FFF57F1C
00085132
0002AA9C
000AA6C2
00047CB1
FFEDC226
FFDA218D
FFE1BCFF
FFDDFE90
FFC1E632
FFBC7DCA
FFCA8E6E
FFD88F88
FFF02251
FFF855E2
00122FD5
0014C07C
00045EE8
00123536
FFFF671F
FFD06099
FFD3553F
FFDBBEDA
FFE9ABB0
FFFF3116
0007D490
0015DC17
000D51E7
000C6D04
00028A2F
0014DEC3
000D6B76
000AF560
FFE6AD93
FFE07006
FFEC97C0
FFDA89E3
FFCBAD8A
FFD05A8B
FFE310C8
FFEDA903
000D82D1
00014052
0005DD1D
001F1A2F
FFFA2672
0008615C
00029A5C
FFDB4331
FFBC9ACA
FFF04C49
FFF5C079
FFFFF18E
FFF89B8D
001686B3
00183C3F
001EA6E8
0011EFCB
00182D8D
FFFE43FC
FFF822F7
FFEFEBA0
FFE635A9
FFE6C7D6
FFD568F5
FFB265BA
FFE25CDA
FFCFD7CF
FFDBD5AB
FFF86725
000168AA
0005E0E6
00238458
00032163
FFF8597B
FFFCE053
FFE3787B
FFE0D7B2
FFF38482
001267B1
FFF277D7
FFF8F687
0008EBE1
0015A84A
0012FB6F
000C9E38
0008773E
00071DD3
FFF93A21
FFF64C58
FFEA15B2
FFEA48FA
FFE3BD56
FFC7C80A
FFDE2696
FFE44B98
FFE77A16
FFF2243C
FFFB4654
FFECE07B
FFF9901F
FFFB5596
0007448C
FFF97B7B
000580DE
00155657
FFF55FF7
FFFFB149
FFD838E2
FFDD9729
FFD6DFC4
FFE3E549
FFE79D37
0000B085
00041A7C
000B1E16
000514DA
0013BB5A
00209AA6
0012AAF4
FFF70592
000442B1
FFF2B761
FFE51A54
FFF0BC97
FFEA6321
FFFA8EE1
0003A669
FFFA80EC
000873F9
0007233A
0007A42B
FFFFEAE3
000DECFC
000DC3E0
0012CEF7
FFFF0407
FFFB088F
FFFA2CAB
FFFE3AC6
FFFE9310
001B5FA7
0030B02E
00265628
002A2801
002F7498
003F6AD6
002270FF
0009AFE9
0017C910
000C0C87
FFFF1EE9
FFF1E06E
FFEE292B
00056C2E
FFFF031C
FFFF9706
000248B5
0008D22F
0002E511
FFFB70B0
00038967
FFE130A5
FFDCF446
FFF13060
FFFFB9D5
FFFCAF99
000945FE
001DF2A8
0025D8C2
0014695A
00093ED0
002AA0AD
0028B761
002256C6
001B52DD
001A72D8
000B434B
0013B5FF
FFFBB521
0001B613
0000F041
00063A58
0000EF04
0005832D
00025B0E
