FFFD358E
00019D62
0008BCCB
FFFF42D5
00051415
000680D7
FFFBF1DF
00015430
0000F591
FFFA489D
00059114
FFFB815B
FFF78554
FFFA6470
00070FDE
000988F8
FFFFCE5E
000026F3
FFF9A67B
FFFF2E3C
000124E8
0007DAF1
FFF8171D
0005116B
FFFCA0D2
FFFDD85C
0007ED67
000193CD
0007C5CF
FFFA26B0
FFFAFA78
FFFA2F5C
FFF42B85
FFED7099
FFF9F10E
FFEAD996
FFEA9FDA
FFF7D39D
FFEC88CE
FFF4B830
FFEADADB
FFF9C5E3
FFF27752
FFEE053D
FFFC30FE
FFF2E34D
FFF8E856
FFF8C4AC
FFF56AC0
FFE8CBE6
FFE7A01A
FFEB8BAA
FFF8839B
FFF82FC0
0001C9D2
00088999
000339DC
0004A9B6
FFF63685
00018327
0000E404
0006E3F7
00012E73
FFF773D5
000A1BA7
00239E7A
00187F02
001728AB
0017ACB0
001FE6EE
00248A52
0013007E
00106BB3
00069972
FFFD354D
FFF682B9
0021FC60
0027F462
0014AA08
000B1B05
00200947
00071552
FFFFB025
00001602
0006D860
00005D27
FFEC23AE
FFEFD4D3
FFED3D68
00107AD4
0012632B
0017D090
00136F88
000003F2
000BC7B9
0015DBEA
000F185A
FFFEDDE4
000C5AA0
FFFBE485
FFF379AB
FFF7E249
FFF1EAD0
0001FF57
0017126C
000C5367
0000823A
001F3C51
002B5241
0014A2BB
000F21E7
FFF6E3CB
0006E7C2
FFFDBB2F
000A7C72
00126C0E
00155608
000B5CA9
0012956D
00037A6C
FFF7573A
FFF0390C
FFFFC4FE
00055797
000C7E85
0005BB31
FFFF93EC
FFF7CA25
0003ABB8
FFF8DC7E
FFF8EAF0
FFFAA242
00096C23
FFF8A23E
000A40BD
0006BDEC
001108CA
FFFB8D02
FFF3FA53
001AA90E
FFFA3E9D
FFFB2B3C
000D66A9
0000A937
000BBE2D
0013D416
00024852
FFFA6E0A
FFFFAD63
0001246F
000230BA
00069930
FFFA9DDD
FFFFBB20
FFF3946A
FFFD0FDE
00073C4A
00037C10
FFFE34F2
FFFDCA00
FFEA1CEA
FFED833A
FFF7F367
000E5A0B
000FE963
00139EA8
00080E7C
001FB0C9
000170F6
00194769
0018D0CC
001809BD
0022AA3E
000F2769
FFFBF663
0002428D
0007DE72
000F5868
00076CBF
00023BF4
FFFB7384
FFFF9352
FFF5753E
FFEF91F0
0001A25C
000A67F3
00111C4C
FFFE4B0E
FFFCB2FF
FFEC2F36
FFE0427F
FFE925FB
FFEAB30A
FFFD28B7
0014F4B7
0009F115
FFFBA3BF
0018E480
00152993
00210038
0027B11C
0022CD64
000A4282
00042B94
FFFD09FD
000FB659
000CE8F9
0008904C
FFFE2866
FFF1CB20
FFE36A6C
FFE96933
FFF90A9E
001BBCB0
001AE892
001494F2
000B95EC
FFEEA658
FFE70521
FFCD141F
FFD39F7F
FFECE16E
0006DFC4
00113475
FFF1702C
0009097F
0016515F
0019C0B5
00302B78
0013E39F
FFF91C0B
FFFEBDFB
FFFBBD3A
0002DE06
00007576
00061C84
FFEBCB9A
FFDEE706
FFD8FCF4
FFF5A044
00057AD6
0023E2B0
00129D1C
000DD992
0000ACE1
FFE33409
FFE7CB35
FFCF2C72
FFBCDD0A
FFD26148
FFEC5139
000381BA
000C0A4C
0005D70C
002106FB
001EDFFD
00199D56
0006881A
FFFDE94D
FFFAE99F
00044C9C
FFF51B68
FFEB192D
FFE05702
FFD58A90
FFCDE752
FFEA335D
000D1897
00271E57
00203B4C
0015E225
FFFCCA24
FFF09C96
FFE40321
FFDD35B2
FFCF6811
FFB07CF8
FFC30EA1
FFE7962C
FFF13199
0015D53C
FFFFB270
001E11F1
0024A576
FFFA5A50
FFFD672E
FFE8B969
FFEDF5B1
FFE53ACA
FFCF777E
FFC343D3
FFCA0F7F
FFBF1566
FFDB13A5
FFF9E5C8
0010A5FD
0021F234
00180BFC
00064510
FFFE559B
FFEB6A88
FFD8AC40
FFD1BBCE
FFCD70E8
FFC47FFF
FFDCF1A8
FFF7CDE9
0011703A
000AB046
00160E7C
001A4CEB
00064B76
FFE5F228
FFE5B873
FFD9DBF4
FFC9044F
FFBEAB70
FFBBC5C6
FFD221A8
FFD15078
FFF4C657
FFFD75E6
00140362
001C1E01
000E8164
000370D0
FFF55C3B
FFFB853C
FFEABD59
FFD7EF84
FFD9B008
FFDA1DA4
FFDB73B8
FFEEBC82
FFFA459B
000F8965
FFFA36B2
00093A9C
0014C633
FFEF7E00
FFCD8810
FFD8EFB6
FFCABB46
FFC389E5
FFCFA464
FFDE64CB
FFEF3028
0006EEAE
001ADB74
00193113
0008C0F7
000909C9
0006C0D3
FFF47A01
FFF2D578
FFE8DFC4
FFE19AEB
FFF2191F
FFF6ACE1
000AA3A3
002B9C24
000CD350
00002A17
00110DF6
FFF64D5A
00064B46
0016BF12
FFEA79AC
FFCFDCF0
FFE2F9E2
FFD57ABA
FFD59B72
FFE7CF32
000ABDE8
001C5F17
001267E4
001E5EDC
000D2CAE
00028FF2
FFF91B0A
00010CB7
0000A58C
FFFE20E0
FFFBA727
FFFA1934
000FE220
0003558E
001950E2
0022FFB9
002CF6CF
00220F05
000CC2E0
0002F3EC
000A1ED6
001B52D3
FFFB4A6B
0009DEA0
FFF8349D
FFF396F1
FFF97CCE
00105DB7
00224330
00255562
001A8676
0016E2A1
00092EA8
000B1A02
000B1669
00071581
0004DA07
0002100A
000A6026
000B668D
001F4924
00218810
0015A681
00135744
00173F42
0021CBEF
0007D2E6
FFF8D62D
00024489
001B89E8
00010F0F
001F8816
0022E096
001A0D9E
001F1BF5
001E2F38
0015E6F8
0012A346
001BB5BC
0013949D
000D8872
00066195
000BA086
001146D1
00095D0C
000372A3
001AFA6F
0011C0EF
0024585E
00295A82
001EA035
0008F95B
0001EBC8
00377B50
00064C91
0006D58A
000664D5
00147053
00082BB4
001D99FA
00195FE2
000A6BE7
001A45C9
001B7B96
0011B37F
001148AB
000FCE40
00182F8E
001C28F9
0018ED9E
0016D029
000555B5
00020EDE
0014E002
001BCE85
0010500E
001BC642
0011C29C
0022B0C4
0029668E
00047F2B
002D3C30
FFFDE7FC
00066EB2
00035F75
002456F3
00143622
00147D86
00039834
000170D2
0001B901
FFFDE4E8
FFEC83A4
FFFAC9CC
0007BC5A
000EF776
00245FF8
00132FB0
001453E7
0007F870
000A6E91
000F1EBA
00193A76
FFFF72AC
000D3AD9
000CF69E
0016CDC4
000AD2B2
000A4C1C
001ED1C4
FFF35DD2
000AD204
001369A1
0026617E
001FA8ED
00140611
0007E793
00055DF4
FFFC4ECD
FFE983B6
FFE72040
FFE632C6
FFE727F6
00075042
0013CA49
0005A13D
0005E04F
0018027F
0013485C
001C156F
000D6B40
FFFC1E69
0007B889
000AF03D
000AAE4F
FFF76810
00117EDB
00024C68
001D99B3
FFF8283C
00013B02
0007DDA2
001BF46B
00038319
00013749
00071067
FFFB7012
FFEA697A
FFEDAE4B
FFDA0A2C
FFE6EA09
FFEF0819
FFFE3608
0005726C
0019B474
00140232
00023AE6
0001A9C8
FFFD044E
FFFBBCB6
000DD7FD
FFFFFF8F
FFF6FE87
FFF07E18
FFFF30E7
000D5A49
00134B86
FFFC3847
FFEEE221
000AABA5
001B8997
FFF59DA4
FFF6315F
FFF62861
FFFB4E1C
FFF1CB49
FFF212FE
FFECEB6C
FFEE6726
FFF4F741
00087F75
000C65CB
00038907
00039172
000706E8
000CDD0A
FFF1DBFC
00022E06
FFFA219C
FFF79082
FFF11F12
0001EB3A
00052592
00067F8B
FFFA8B6F
FFFEF74A
001B6180
0025623C
00162AA9
FFEC1018
FFF641E6
FFF61C4E
FFF194D0
FFFB5058
FFEE3901
FFEC8A62
FFED6352
FFF40370
FFF6527B
FFF63AF8
FFF51BED
FFFFD11A
FFF7B276
00055A89
0002A8F4
FFF7AE7A
FFF70C33
FFF884CC
FFF32FF6
FFF8E23A
FFFD7A8B
00006519
FFFADDB8
0003312A
00090AB7
0023E439
0011A0EB
0008B7BD
FFFCB932
FFEC5D3C
FFF476E8
FFF888BE
FFEF6B04
FFFE1C6C
FFE67A93
FFEEE54B
FFEB4F32
FFFAE4E8
0002D746
FFFE6595
FFEFCCF6
FFFC5B07
FFFADA9F
FFF21118
FFF1D75D
FFF5C16E
FFF248B9
00018FC1
FFF649D5
00017BCD
FFF8BDE2
FFFDE539
FFFDE9E5
001AECE1
00286A48
00089473
001347C3
0013D9EC
0012D888
00056A47
00007FDA
FFF7549B
00075E89
FFFC85F2
FFFA5C7B
FFFA650A
FFF64FA2
FFF8FEBD
FFEF0022
FFF09458
FFF35999
FFE47B72
FFE9667F
FFE3F636
FFEAD244
FFF20FD7
FFFFF29B
0008AA32
0001603A
FFFBA8B6
FFF96896
000B288D
00221350
0027157A
00113A16
001A9F62
001D7E5E
000E6EAA
0003D011
00093072
00113A8E
FFFE5814
0011642A
000AD46B
FFF23D8A
FFEF81AE
FFF400EE
FFEAF82A
FFE8310D
FFE6A31C
FFEC39B2
FFF9CBAD
FFF32CF8
FFFD9C3D
00032DB8
000C75D3
0002F9BC
000215F8
0004C01C
000D28E2
FFFED220
001207D6
000C4AE7
000E13B2
00114CAE
0020E340
00180BF4
001710B6
002025CE
00253E9B
00274125
0005DEA1
FFF782F6
FFF9BDAD
FFF6CF94
FFF168EF
FFE4F269
FFE41E1E
FFD65A1E
FFE1035A
FFFA885C
FFF708AC
000B0620
000186D1
0007200B
00077921
000103A5
FFF8A3BD
FFE9D44F
FFEC4C17
FFF171F8
FFFC8720
FFF76F86
FFF53B5C
FFF5B324
FFFFD49F
0009B4BE
000293D4
0002B088
FFF61C3F
0006A37A
0009519A
0009EDE2
FFF86C36
FFE7FACF
FFDC4576
FFD8364E
FFE00BC5
FFF3AF0D
FFF8A1DA
00052D33
FFFD07CC
000831A9
FFF7A031
0004D865
FFFA0673
000122A1
0008C10B
00060FE6
FFF819BB
FFF8EC3A
FFF07EF2
FFF950D7
000CCF9C
FFEEBA23
FFFCD5CC
FFFBDDEC
FFDFC16F
FFF41BF4
FFFE93D4
000F614F
FFF89065
FFFAF2D9
FFF9EB56
000046FE
FFFDEEA9
FFFB501A
FFF88A3D
00044A53
FFFDEE41
FFF70A38
