FFF730D2
FFFB61D7
FFFB6F46
000770F4
FFFDC424
0008978E
FFFA056B
FFF8C7F8
FFFA835A
0008E81B
FFFC9033
FFFAC0D5
FFF92832
FFFDDD97
FFF5BA76
0001E4CE
FFFE1153
FFFD572D
FFFAD607
000407F8
0002454A
00072073
FFFA1F02
0003F3D6
00035A36
FFF73BF5
000049C1
00083123
0006404E
FFF8C4C4
FFF7FC92
FFFAC2D1
0008E52E
FFF86FEE
FFEF601C
FFEBE0E0
FFF62A60
FFF4958C
FFFBAA61
FFEE23C6
FFE7F69F
FFE88E9D
FFF8CD18
FFE677B6
FFF28F76
FFFB88F3
0001C261
FFFD7992
FFE8467C
00033220
FFEFC595
FFF8C9F6
00060171
FFF97718
FFFC532F
0005A0B9
0002215A
FFFD3C33
FFFE39F1
FFF5F1AA
FFFDEBB0
FFFBA0D6
FFF1CA38
FFEA4D06
FFEA2438
FFECD0AD
FFD70290
FFDB46E8
FFDAE58A
FFD3B449
FFE007B2
FFE980E4
FFE4DE4F
FFED7AF1
0001164C
00089E00
0003F34C
FFEBE053
FFEAE054
FFEC8A78
FFEA5113
FFFF57D6
0006F48D
0000AC7E
0002DE4C
0002BDD7
0005DCE8
FFFABED8
FFFFBFF8
0007E9D7
FFF06A1E
FFE27366
FFD24878
FFCE94FD
FFD01BC6
FFEFC0DF
FFEC2A15
FFDA624C
FFE2D17F
FFE3410B
FFE26FD4
FFF38144
FFFE5285
000AA508
000062FE
00004303
0002BC04
FFF27C20
000076C6
FFEFC7ED
FFFBE64B
0002BCAC
00080822
0007C023
00006C2F
000611A7
000AF454
FFF51AF7
FFF4D171
FFF14931
FFEA1C9B
FFDCC1D4
FFE94FF8
FFF77E60
FFE6C45E
FFE86CF9
FFEBE154
FFEB33FB
FFFC529C
001031C0
00163B81
0009A50E
FFF1ECB5
0002AAD7
0004DF5F
001D349C
00146804
0019003F
FFFCB800
FFEC06EB
000295B1
000867C9
001788D9
000B94B4
000849B7
FFF2457B
00005AD3
FFF53C20
FFE68260
FFF08405
0001187A
0005B3F0
000F694B
00018ABF
FFFF9D86
FFF358E5
FFFF30CA
FFFE9481
FFFEE44B
FFFA26D8
0000CD29
0003FD0A
001504BE
0010405B
000481DD
0013A915
FFF7D241
000315C2
FFFA67F5
FFF9F472
000FBABE
FFF1CDF1
FFFCE156
FFF74B47
FFE8F93C
FFF9AD4B
FFFBD7AD
00064FB7
00068201
000F70A9
FFFD299B
0011660B
000EF9EC
0005CAF2
00019197
FFFF8D95
0009CA1A
00020B3A
000586BB
0009B9CE
0004E21F
0006AA64
000EEA25
00052002
000B05ED
FFF230CC
00043D30
FFF30F54
00096756
FFF297EC
FFF54E72
FFF4E508
FFEF0ADE
FFF88294
000DF06C
0004AAB6
00073114
0008051F
FFF6EDFB
0003B3D8
000357D3
00008D79
000CB819
FFFE1E58
00092CD8
001142A6
000220EB
00098805
0004FF1A
0002530E
00095144
00144844
00152957
FFEC1F1C
FFF9849D
FFE40120
00118A1A
FFFE7856
FFF25C33
FFEF58CE
00023CBC
FFF9A73A
0016BEA8
000ABAB0
00001459
FFFD07D1
FFE89940
FFF729F0
00046AF5
00080132
00137430
0007B9CE
00067449
000798AA
0006FD84
00165DA8
000FBE7F
00007299
001EF8A2
0038A8A2
0017A1C1
0005DC11
FFF1B836
FFEE461D
000B5CA5
00070272
FFF5C90A
FFECBEF1
FFFD820C
0012B8C8
00157C17
0015C322
0005288E
FFF865C4
FFECDB2E
FFE44004
FFE9F178
FFFC3D52
00065874
00058E43
FFFB74D5
FFF30F43
000264EE
000FF2B1
001B47C9
0000B505
000CBFDB
002F8052
001445F8
FFED1697
FFFE8F55
FFF619A6
FFEDA6E7
00076D1F
FFF4FB72
FFEF87A6
0000321D
000F33C1
0023C5A0
0009BBA9
FFF76578
FFEDF7BB
FFE54A28
FFCB16BE
FFD9466C
FFE39DDD
FFEDD76B
FFF43960
FFF507BE
FFE726F1
FFFB664A
FFF5FF3C
00086D77
000936D8
0010FDB8
00338130
0012CB97
FFF3FBB8
FFF9D3A4
FFF3ECFD
FFDF341B
FFEB5D9C
FFE521EA
FFF04DEA
00068293
000CAE49
001EFD81
001142A3
00018586
FFF0F061
FFE8F6AC
FFD52A27
FFE28148
FFFC2037
0001C2C8
FFF61B89
FFE90B6F
FFF68E04
FFFD7458
0003BD72
000C854C
0017E908
0014C83F
002F2FAE
002F53D7
00005D1C
FFFA2D08
FFF97D9F
FFF2CD0C
FFD9D2FE
FFDF79B0
FFFC67E5
001EB81A
001185AA
000BFF48
00156680
0017BA75
0007E510
000255C3
000F46F7
000FB897
000564DA
FFFE7281
FFEF85B5
FFF9CC35
FFF77C67
000AB609
0013073B
000E3B7C
0022DC0E
00047FB7
0004005B
FFF7AA41
FFEC04E2
0016831F
0004C5AA
FFE9D585
FFCB1014
FFF653E1
00040E0F
000CD00D
00252F4E
001F0987
001E72C6
001694A8
001C4053
001CCD72
0014905D
001DBCBB
000700BF
00047A84
FFFF35C0
FFFE4EE6
00009CDF
0006AECB
0011B0DC
000F3A40
0011435E
FFED550D
FFE68B6B
FFEC5871
FFF97808
0005DB27
0009D75A
FFEDC5C0
FFE7A5AF
FFE9E23F
0004886A
000DBAD0
001D7226
0029BAD6
0034014B
002C51BC
00219414
001EAEBF
0024FB12
0019DCE7
001D77FB
0012358E
000A6F4C
FFF7E223
FFF0922D
FFF98242
FFFC3D79
FFFBEA99
FFF5B47D
FFE95458
FFD4E199
FFDA9F6A
FFFCBDE6
FFFE5426
0007CCA4
FFFDEB70
FFEDEB3A
FFE68146
FFE9EB35
FFEE7C76
000D9E3F
00277F34
003E1058
0033E7B8
00306A10
002F717B
0032641C
00241E11
00147794
0019713C
FFFBAA29
FFF8389D
FFEE36E6
FFEDEF16
FFFA3F13
00027F6D
0003C993
FFEF01A6
FFD54CD0
0000FC19
FFFDBA61
FFF85574
00045509
000D11B8
FFEA08AC
FFD30FE5
FFC86B72
FFCB3739
FFE1F749
FFFAC18A
00194DE9
002321DA
003268B5
0045F5D9
00338755
001D1E2D
0009376A
00097D39
0003B610
FFF6A7CF
FFECB92A
FFDA2F36
FFEFA7D4
FFE7A442
FFFBB5BA
FFF5461D
FFDE4D66
FFCF7E16
FFE922CA
0005C036
000C9C7C
0010744D
FFE65C99
FFCE52F1
FFB18900
FFB5A501
FFBD0F24
FFB427AA
FFD545F1
FFF0EEA0
00020F14
00114987
000DDB26
000FB653
0005EB2F
000F72A2
FFFCC842
FFF88A5B
FFE6AA2B
FFE32B2F
FFF6FB27
FFE518B5
FFFE0F21
FFE92FF3
FFEA6960
FFD7FFE5
FFFC40BF
FFEDE98D
00072C85
000A8942
FFEA127A
FFD2BAEE
FFC66DF0
FFAC72F0
FF9ED684
FF839B6E
FF9E28A0
FFC95A25
FFE305F3
FFE36870
FFF1933A
FFFF7AEC
0004AB02
000D7E5F
FFFB3053
FFF2C7AC
FFE92912
FFF43099
FFFF8FFC
FFEF82AE
FFF12468
FFEE9D0A
FFE463BC
FFF0C09B
FFFE8486
000152A1
FFF0B2D9
00014E6F
FFF29379
FFE3547D
FFDAB9A6
FFCC8D3E
FFA76244
FF90E24F
FF9C81FA
FFACFCDC
FFC66742
FFCC33CC
FFD4F3E5
FFE54B01
FFFD7508
000302C3
0001DCF6
00036A4D
0006D686
FFFB2A92
0002A7F0
0005DB4E
FFF7B280
FFEC86EF
FFEDC263
FFF77754
000F2C8E
FFFC6FD5
FFF2DF66
0011805F
0007C174
00005600
FFF86EE6
FFFCA431
FFDC6CC0
FFDF0A29
FFD3C52B
FFD1DE56
FFE1B342
FFDD887E
FFDD9D33
FFED58D0
FFFFD61F
00082EF4
00051869
000F0316
000D344A
0004717E
00002CA2
0009C840
FFF9D1E9
FFE9CE08
FFFE231E
FFFEFF77
000BF34A
00032723
001864FC
000A0071
00112D70
001B2478
001B83F9
0017FB76
002B5588
001B7173
000D29D8
000999EA
FFF6EEB9
FFF6200C
FFF4DF27
FFE50390
FFF86C44
000101D5
0006B73B
000C5C4E
0005312D
FFFAA490
0009C51A
FFF86EA8
0007A2FE
FFF5EEDF
00000811
FFF63137
0002EB3A
0002BECF
0004F952
0005E8DF
001533F5
0033AB5D
001CBA2E
002720AC
00210CD7
002F630E
0029699E
00248832
000FF993
FFFF5955
00002EDB
FFF8E14C
0004DE11
0008DC00
000D1143
0004702B
FFF86CD6
FFF6E72A
FFE78E9D
FFEB5370
000A11E6
FFFB911E
FFFDBDDA
FFF2A779
0000711C
00001FCB
FFF96C28
000E9D99
002EC3B2
002B6F1D
002139E3
0016CDC8
00178D63
0031A05F
002185CD
0021358D
001D92C1
0003A1C2
0002E458
00084C52
FFFB9C88
FFFE534C
000193CD
000B6521
FFFC18CE
FFF6C2D1
FFFBDC82
FFF2894A
0001A980
000AE167
FFF6FABB
FFF91523
00080B36
FFFAED66
00068F44
000C12BF
0029C5BE
00216DCD
00162BA1
00026B4C
00079425
00158781
001176EC
001F29A2
00099DFD
FFF9919B
FFFA410B
FFFE9260
FFFCB7E3
FFFF1096
FFFC9604
000945E7
FFF871FE
000954E9
FFFF5103
000B7902
00296211
FFFAB56D
FFEE3A4F
FFFA01CB
0002E7BB
00007E77
FFFB70F9
000F41A4
FFFB67DF
FFF92625
0000FB3B
0006A4D5
00041C4D
001294B6
001C78D9
001B1AE5
0010DDB2
0008656A
00145046
0009B4AC
0002622B
FFFF9783
000ABD4D
000A900E
000ECAFC
001365AC
000F9152
0020BECC
003E2BF1
00121E55
00024ED4
FFEE1512
FFFE9165
FFFAC2E3
FFF9A855
000162E0
001194AE
0016B250
00092D14
0008A6F7
000E2B82
0002D124
0010E34B
0002B1BF
FFFD0172
0016032A
FFFEB09D
0016ACA3
000A5184
000E53B4
00157024
000A8181
FFF3A3D3
00088A7C
000CA0CC
FFF99B81
00110DCC
000B4A77
000485FF
FFFF75C1
FFFEF440
FFF739D4
FFFD71CC
000406D5
000361AE
FFFB05A4
FFF8FEA6
0003B654
0007EC4B
00051595
FFF8378D
FFEE8FAE
001148CF
00106245
FFF107AF
000091E2
000B38FB
FFF744BE
FFF1F640
FFF9CEA3
FFFF6314
FFFFC568
FFE7C0CC
FFE2EFEC
FFFED198
FFF72073
00054808
FFFC021E
00072E4C
