FFF737E5
FFF9958E
FFFD308C
FFFCBB83
FFF7C903
00036A7A
FFF977E9
FFF84E36
00050D15
FFFA8A0B
00065A75
00010825
FFE6A031
FFFDF2A9
FFF63E24
FFF5D806
FFF7EB2C
000522C8
FFF74C52
FFFE636A
0006F375
FFFDC985
0007CB7B
FFF85DF6
0004D89C
FFFC4515
FFF91399
0004B367
FFFBBC36
FFF801ED
0005737A
FFF83259
FFF7D75D
FFF2344F
FFF45326
FFF0A96A
FFEA57BA
FFEE80D9
FFE417F4
FFEECE76
FFE60F29
FFE2CCD4
FFE89F0D
FFDE73AE
FFFFA67D
FFF2596C
FFE4DCD1
FFEB710F
FFD8F002
FFF175A7
FFEDF417
FFEE6C30
0000B91A
00070986
000787A6
FFF8A2FC
FFFCFFC0
FFFE0E57
FFFC9FF0
FFFA4074
FFFA1321
FFF830AE
FFFF55C1
FFF75359
FFF4B518
FFF61DFD
FFFB6E08
FFFE51FA
0009D5F0
FFE78307
FFE582DA
0002D8D9
000BE992
001CB9D7
000D4312
002B4318
FFFC3356
FFE4E7F2
FFE30007
FFDD2DCC
FFEB304C
000FFA42
00084D01
000186A6
0006B360
FFF823C6
FFE9EE7B
FFF6C3F6
001941DE
000E046E
000352C6
FFEB0DB7
FFED296D
FFF1473B
FFF342EE
002A2DE9
0005CB28
FFE24D97
0008D328
0009A78E
000E99FE
0007D438
FFF97660
FFFF16AF
001D7709
002BB834
0017A4D4
FFF42466
00040A88
0003C667
0012ED9E
FFFF95A3
00019AA7
FFF2BDBF
FFE39F9B
FFEF13D8
FFF0CDC6
0003648F
FFEDE67D
FFE707DD
FFC7B271
FFC1D6B8
FFBC2768
FFCE1D33
FFE0B5D1
FFE7DFF2
FFED82CA
FFFC82A8
FFE50FCB
FFE7678C
FFF3F86F
FFED5F3D
FFF3717F
00005BE8
000F7FF4
000AABB7
001664A2
FFFB964A
FFEDDAD9
00000FB9
0008DE0F
FFFFACDF
FFE08554
FFEE3859
FFD052CE
FFE5E8A9
FFE65D76
FFF52818
0011049A
FFFCA4EC
FFED2E56
FFDD29C1
FFE00E5A
FFF33CD6
FFFDB28E
00030FA3
FFF4A3DC
FFDB9F6E
FFD75489
FFC9B4C4
FFDDD10C
FFE98B68
FFF5089B
FFF83EA5
00052261
FFFADAD1
FFFEF233
00114172
FFF99A1D
FFE98EFC
000A0EDD
001883B3
00040AA2
000F80D4
FFFED6F9
0003ADDF
FFFC4DFB
FFFE67FB
FFFA62FF
FFFBE6D5
00049ECA
FFFD1038
00057625
0005686B
FFF4D4BE
FFEE8A84
FFE824F1
FFCEECB6
FFD976EB
FFE16259
FFF7C780
FFF3327B
FFF50B3E
FFF72389
000B559E
00011FA0
000C825F
FFE5ABFD
001D1DF6
0033A890
FFF50ADD
0009F165
000F05B2
FFF1CA9A
000F511C
000F7098
FFF94AB0
FFFD7BA9
FFF4F2F7
0009EA23
0005441C
FFF59C2A
FFF6E227
0006E519
FFEA08EE
FFDCC981
FFDDEDB0
FFEB1C5F
FFEACC18
FFF170D0
00008BBA
000A4996
000DC5E3
0005355C
FFFF811D
0026D25B
00296566
000C5817
00015D32
00028892
000BADF6
FFFE9F6D
000082D5
000DB400
FFFF9785
000C7599
FFF918DA
FFF6AAD7
FFF4047E
FFF622D4
FFFBFA59
FFED24C6
FFEA48B5
FFE6FEFC
FFF38E49
FFFDB67C
FFFFE050
FFF858B1
00054B42
001064FA
FFEC0CDD
FFEF1EBB
000E5188
00202C76
000CD35D
FFF57EF7
FFE95CE0
FFFA1FBD
00039EA5
FFF70FEA
FFFD68F5
FFEFDD99
FFF71DE5
0003DCCF
0008C3CC
0003EB67
00158747
000CF0B6
000BE5F0
000A585C
0002FC90
0003CA5D
0006B482
FFF9526E
0003A59F
FFFC1829
00174378
000BDEAA
0001B988
0014121E
001DD0D3
000EE087
0017F3F3
FFFED0A1
FFE542BF
FFF6BD7D
FFF6E79B
FFEAD649
FFF285B2
FFED2F03
FFFE59A4
0009F3E5
001C9BD2
0026311B
001ABF7C
002EC663
00291FA0
00142E0F
000FC484
00057990
0005EB29
0001375B
FFFFE539
FFFDEF53
001CF6C3
0035DB38
0007BA72
00031C6D
00072D13
00203E44
0026FE32
000743AB
FFE80E86
FFDF2DFB
FFE1585C
FFEB5E4E
FFFAA99B
FFFE3259
00014871
002269E4
0033103A
00298E67
001BD8F7
002EDF20
00191CAD
00179FB3
0007A95D
FFFC4810
FFECF16D
FFF76281
FFEC5862
FFEABBC2
FFF12BA7
000E5ACE
FFD3BD36
000BE75B
000A5352
000CF57E
002C07AE
000F79F1
FFE046C9
FFC25B6C
FFDB87BD
000006C9
0000E819
FFF6DA7E
001CCBD6
00311E10
003265A3
002D4562
00263B47
001C95E1
00261BDA
00114861
0016106D
FFFA3E83
FFDE535E
FFD9497A
FFDDD9DE
FFC49B70
FFC883B1
FFFDD370
FFF90106
00123870
FFF8AA29
000BB1B3
0030CAC0
00054C5B
FFE83C8C
FFDE8461
FFE59144
001ADE30
0007B886
00049B02
0033A7A7
00306974
002BA204
001F9AC4
0003D2D0
00055F5F
0023A1AC
0028507A
001DE580
FFFD727D
FFE2FD0F
FFCB4AC2
FFCB3606
FFBEB532
FFEB8BF6
FFF486A9
FFECA4F0
FFFB86C8
0003B4B5
0004F6AB
0021EFD8
001B9208
00063C42
FFF0D50D
000269DC
000AD17E
00107472
0022BE12
0030A7E4
002F8AD5
002BC18F
FFF64662
FFF2E44D
000A12ED
002B2F2E
00393C21
003F64EA
0008827F
FFF9EAB8
FFD8EC42
FFED1AE3
FFF74630
FFFB3BF5
FFF04AE5
FFEFCC5D
FFFA67CB
0013EB14
000E105E
FFF25EA6
00103BA6
0010DAD9
000868D6
0007983E
000AA409
000058F8
001E5827
0026CD95
002DEB3C
001BFF42
FFE02D84
FFE77793
00247817
002E578E
003F63DE
0034A249
00100E81
FFF57342
00025189
FFFBACCA
00176ED8
00063A3E
FFEDD4FA
00005321
FFF3F180
0008A92D
FFF23388
FFF36310
FFFE2A33
000366E2
000258ED
00017EEF
FFFA89F3
0001635A
FFFA95AB
000CC6CA
0009014A
000B1E18
FFEC4FEE
FFF467A7
002F315C
00328064
00412FBA
002E4700
0017A740
001F659F
0011B6C4
00117F9C
FFFBEA6A
FFCC5C40
FFD1115C
FFEBFA7E
FFF440D4
0003A7B7
FFFD569E
0006FA19
FFE2C816
00049F7D
00089A42
00120C27
FFEC26D8
FFE59FC1
FFF54653
0008DECF
000115EA
FFEF95B9
FFEA6E73
000C8F99
0031897A
00332F64
002E41CC
00164646
000260BB
0002AA83
00136209
FFFB0FA6
FFF9673D
FFDA9CBE
FFE18315
FFF9DBAE
00010856
001B86BC
FFF9397B
0025094E
FFF6E68C
00079517
00132D97
FFF88175
FFECF0C1
FFF96F60
FFF7C442
FFFA0116
FFFBC119
FFF84E10
00076606
00261E3F
002E6CD8
001CC8A8
FFF9B49E
FFE51981
FFF0939D
FFEF61E6
FFE03701
FFE0E136
FFD2E4E0
FFD45141
FFDE5A22
00102F10
FFF5C2EF
FFEC3821
001A7059
001F10B8
001ABD0B
000AC1C0
FFF92E7C
FFDAF074
FFDDBFF1
FFE5B92A
FFE10214
FFE9903C
FFF131BF
FFFB799D
0013F0D4
00169AB7
000B4E13
FFED1BC6
FFE19A1D
FFCDE70C
FFC862F4
FFC6BB21
FFD9B430
FFCDBE60
FFC9CC8E
FFCF58D3
FFE502B1
FFEE1F58
FFF044F4
FFFEBC29
00074449
001756D4
00086604
FFFD0949
FFE572AA
FFC82EA2
FFC4DE68
FFDDD82C
FFE95D5B
FFE97065
FFF0582B
00080DA3
00117324
0002C110
FFEA9CAC
FFDCB248
FFCBCC38
FFCEA6D0
FFBDD1E0
FFBB64A4
FFCE98DC
FFCEE35F
FFC41014
FFE08566
FFFA6FCE
FFE5C879
0000E6E0
FFEE1A79
FFEA0651
FFFC3E05
000EA21D
FFF9EA47
FFE2F8C9
FFCD649E
FFE059F2
FFE0BFAC
FFEF3C22
FFDF8D9F
FFF0498F
FFF40380
FFE9D7E2
FFE5B026
FFC9254E
FFD7B42E
FFD4BD14
FFCD95C0
FFC8D260
FFBFD381
FFD53539
FFE31082
FFD4F22E
FFF0F16E
FFF235C1
0001D169
000473CD
FFF3298D
FFFA2D23
FFFA967C
00043BFC
000413C1
FFEF1351
FFF0DDAE
FFF9927D
FFEBEC37
FFEF1982
FFF6C0E5
FFEAB955
FFE4852C
FFCDFA04
FFD17FF7
FFD42CF8
FFD21875
FFDA0BC3
FFD2EF79
FFD5F10E
FFD1C9F3
FFE4E5B1
FFF6B242
000360C9
001483EB
FFFD1D9D
00185831
0005012A
FFF87E4D
FFFFD0DD
FFDC2F1E
000641C1
00007B93
000DFF31
00119570
00141614
0010DBBF
000E4204
00065383
FFE7AFB3
FFD7D42E
FFCF14AC
FFD46CF7
FFD8E309
FFDE7F24
FFE0776C
FFD704E2
FFE09433
FFDD174A
FFEB2F14
0006CB9E
0001D838
00022F7E
0006FF9B
0011733A
00006D12
0002E263
0008AB8B
0002237C
0016399D
0017E9A8
0026408F
00183B31
001D9FCB
00106663
000907BC
000FF07D
FFFD9B82
FFF65ABF
FFF0387A
FFEE77AF
FFD8B41F
FFE37417
00009719
FFED525D
FFE90E3F
0000C4B9
00097779
0013E890
0014F466
001936A7
FFF51B89
FFFEDBE7
00007A8D
FFF8B89C
FFFE4E45
FFEF8785
001101E0
0017C119
00254C07
000D2C98
0004240F
000600E1
0008A914
0015733E
0022785C
FFFEFD6C
00081DF3
00018466
00175603
0007B523
0004CAD9
FFFBBF2D
FFF23ADE
0010B12A
001CFDA5
003CCDD0
0030FE18
002CF536
0019A564
00085636
00087748
0003EA0E
FFFA0DD6
0006A758
00055BDC
FFE93058
FFFEB8D1
FFFA8C16
0003C003
FFF32516
FFF89A41
FFF66D62
FFF43A3C
000EA4E6
001841BC
0013F579
0024278C
001AA0D2
FFF12173
FFF4ADAA
00247CD3
001E5F30
0016F3A2
00107930
FFE3D790
FFEAC690
00013E51
FFF8DE8F
00024FE0
00091AC8
FFFF5B91
0008D59A
000210E9
00104401
0006C49D
0004E20A
FFFB195A
FFF54D4E
000AA84B
00220388
000590DB
FFFDBFB2
00276A44
FFF64D4F
FFFA53CB
00060E67
00178FDA
000B758F
000DD235
000E3DF7
001181C6
0008B8A3
0004AD0E
00052CBA
00074CD9
FFFCDA4D
0008FD9C
