FFF84B38
FFF7EE25
FFFBB4E4
FFFB3845
FFF761D0
00016D72
FFFF464C
FFFDFC88
FFFF933C
000464C0
FFFC9B7A
000093DE
FFF94E5F
FFFE881C
FFFF0700
000348C6
FFFC6B93
0007151B
000189F3
000189BF
00046D32
FFF6E2D3
00040A3E
00075851
000579C2
0005EFE0
FFF8A7EA
0007E9DE
00020B4E
FFF716A3
000845F3
00072123
FFF862D7
0001356D
FFF9214D
FFFD6FAF
FFF31A6A
FFF52557
FFF9FCC7
FFF71B98
FFDF5824
FFD9D72C
000FB550
0012672C
FFEB455A
FFE661C9
FFE5B18D
FFECC4A0
FFF53484
0002CFEB
FFE738A8
FFF418AD
FFFA5850
FFF6EA7F
0002472A
FFFBA055
000629E5
FFFCF800
FFFD3020
0006CE3D
FFEAA1AC
FFE9024C
FFF3578A
FFFE99A5
FFF08CA8
FFEF1411
FFE94E40
FFDA339F
FFE9E85A
FFF91D5E
FFE39063
FFF7263E
0001DF55
FFFE5D24
000F5AE0
0015D004
00040B18
FFFBF5F0
00010964
0000447B
FFF8B105
0011113C
0007ACB4
0007903B
00025E78
0006BF4F
00118EDA
00026BF3
FFFA372C
0004B682
00009493
FFFC0B9B
FFFEDF57
FFF77227
FFFD8241
FFFB3A37
0001DF76
FFE9F42E
FFEF7D58
FFF69527
FFEE2E8E
FFF4BA29
FFF51A20
FFF7A333
00081556
0000647B
FFF8DDDC
0009CD4C
000F0A57
0007F4E9
FFECFCAA
FFF760C1
FFFBCB5D
0004907F
00183E3D
001C9FB3
000868C0
FFF6A18F
00039F98
FFFC6472
FFFE4E5B
00029D2F
0005CA50
000342FF
000F54F4
FFFBDE67
00038405
000DF0BD
FFFAC0FA
FFF69FF8
FFFA5B13
FFEFCA96
FFF4E593
FFF05088
FFFE57AD
00013A61
001FEC15
00189172
000A2650
0006C77B
FFFEA262
0003AC9F
000DD8F3
0005C3C3
FFF07065
0019B1CC
000A7E54
0008184B
FFFA15DD
FFF5FF3F
FFFA6915
001178C3
000BE380
000F5B7D
FFFF0D4A
000520C3
FFFB9F90
FFF4BB54
FFFAC31E
FFEB344D
FFEE073F
FFF0AF0B
FFF096C0
FFE6D566
00090E93
0018E8A9
00190670
00010708
FFFE0121
FFEC9A14
000BF364
00039DC5
FFFC725A
FFFF21EE
000BB7FE
FFFA38D0
00085538
000AE036
001A2F48
001FB877
0017306A
0017E723
00168599
0017D4B9
000D9896
000B51EB
000E941C
000CB1EA
00098085
FFFC0709
FFF1DDAD
FFF95907
000DB5D6
0020DBB8
000C52C4
000AEE1E
FFFC336B
000D5D43
FFF3A7EC
000E3FAE
FFF76A81
FFEF62A9
00004861
0006ADF1
0014C3DD
0017ADE8
0015B654
000B75C0
001CE325
0017834D
002132CC
00212BEC
000D91EF
FFFF5AB5
00049130
0005984E
000E6F56
FFF54670
FFF8DF5A
0000655D
FFFC7BF3
000DE7AB
FFFBC21B
0008C648
FFECAA2E
00105930
FFF75FC6
0001172E
FFE5A0F8
FFFF0EB3
001422D1
000AF3D2
000B6576
000085E7
00016D09
000FBB1F
0011A05C
00106F73
00136BBA
000BFDBF
00162BBE
00085BF7
0013117B
000AAD84
00022B77
00009C5B
0004C54A
FFF7D923
0008CA98
000ECB8E
0019F0CD
00198956
000EF418
00098684
FFFA0B77
FFFB6CE2
00013A46
FFFF2442
0017E25D
00112ACE
001BE331
0015D9CA
000C99D9
00110E25
000A0C99
001158C1
001DC449
001D014F
00011D13
000613FA
000D9D3C
00033FFD
FFFA256F
FFFF3C9C
000A4CA5
FFF257F2
000E4307
003509AF
00333472
000B4001
000F58CD
FFFD673F
FFFBDC02
000795DB
00193390
0011EBBE
0014916B
0010E16F
0016E0A7
0013C9F5
000FB0F0
00116F9C
000FF1B7
00234CD1
002E5664
001AE264
000B4219
FFF95152
FFF8C5E8
000AED8F
FFFD2F08
FFFC23BE
FFFD3328
FFF68BCD
000CCF0D
0034BE36
003B01E8
00133B23
0004C4F0
FFF2F20A
001A0EE6
001CCE62
002FCAE3
001C2F11
0011AC5B
000E038E
00120E82
000B5817
000686A9
0010BD60
000D5400
002C0FD2
0031F5AB
00159440
0009D3A6
000C87A8
000E0807
FFFF99CB
000A6F0C
FFF63286
FFFCBEA5
00030A44
00087C21
002F51C0
002F1406
001091F6
FFF75002
FFFF3C56
00170EAC
0026103A
00366BBB
0024DB80
001680CB
0005ADF5
FFFAC9D9
00027865
FFF35879
FFF42282
FFF6E130
000B5304
001AC50B
00165C8F
FFFE9FC7
000FAF8E
00020C87
FFFE9239
00013670
FFF4655D
FFF40569
FFF0798F
FFD2E716
0005B070
001E8B82
00132981
0008DA25
FFFC8997
0006D147
0025262E
003297EA
000E2391
FFF8B23B
0001D840
FFF21C17
FFEF3870
FFEEB33C
FFEEDD5A
FFF794D8
00120843
001A448D
00144158
00051716
0005D86E
FFFDFCBB
0007AB6A
00078711
FFF07D19
FFEFBDD8
FFDBAABB
FFCC46BF
FFFA0C2B
FFF8908F
FFF419B4
000621F0
000E1DC7
0004EBAA
0015372B
0005D07D
FFEC5A70
FFEB7142
FFE3A0F4
FFE9C362
FFED2DC2
FFE8BA06
FFF30C33
FFF69FCE
00034395
000C06AB
0015582D
001378AD
0010D07B
000C4668
FFF8570C
FFFE05AC
FFFB47C2
FFEC3E17
FFEFF096
FFE86E0A
FFE4B24D
FFF7D40E
FFF01E23
00062A08
000C9025
FFF52FE0
0000093D
FFFFA93E
FFE8420C
FFEAC8C3
FFD91735
FFDEA4F4
FFDA917E
FFE6AA44
FFE0BAD6
FFEE76CC
0001BBC8
FFFD3C17
000E50F1
0005844E
0004682E
0006B307
FFFF02D0
FFFAFF35
0000F5F8
FFF75824
FFF34138
FFF21A8C
FFE2F90F
FFEB799A
FFFE14B4
0003DD56
000594AE
000237E4
0001E6C6
0000AD9A
FFE7271B
FFDEF5E3
FFD66BC1
FFDE26C8
FFE12A87
FFEE539E
FFDD90CC
FFF3373E
00058938
00026331
FFF5B2C8
000618ED
0008151B
FFFDA168
FFFC73FE
0000F5EA
FFF4FC09
FFFBE08F
00020D5D
FFFFE150
FFE72504
FFE668F4
FFFFC89B
FFFF9CF6
00091AC1
FFFDA4BF
000A38C1
0002CEA7
FFECC323
FFF779C1
FFF3ACAD
FFF04C2A
FFF10858
FFEC6CB3
FFECB5F5
FFF48AA2
FFFB2047
FFFDD3A6
000C86F8
FFFF2F4B
00084D84
0000B3B5
FFF93EC7
000CC8BF
0001A8F3
FFF8F0AF
00036E5C
0014D48A
FFDC1A87
00074502
FFF93506
000FC78B
000BE296
0009342F
00112CE7
FFF6C7C4
0003BC54
000EBDFB
FFF5CE54
00022EBC
0003C4A2
FFFA8CF1
FFFFB60D
FFE6E1B2
FFF94CF4
00106856
000BFAEB
FFFAE18A
000B22F5
000208F6
0011E83E
000944FE
FFFC31CA
000A1F1B
FFFBAB61
FFFF3B23
FFEFCCF1
001183A9
000AF26E
FFFBAF3F
000E7F82
FFFD0467
00024D8C
FFF98979
FFFEA890
FFFD5B2F
FFFD607C
FFF788CC
FFF84B6B
FFFAEEAF
FFEFC953
FFE718B9
FFFA401C
00036BB1
FFF912F6
00072331
00068785
0009BF8A
00187484
000CF352
FFF55791
00043C13
0010231F
001E1A24
0005B73C
FFF27463
FFF02FE3
0001F64A
FFFAAF99
FFEC966B
FFFA6191
FFECC93E
000944E9
000FCCFF
0002DF52
000B92A1
FFFF9A72
FFED08F8
FFEA1A8E
FFE66F67
FFF84E0C
FFF147EC
FFFE3ACF
0001DA2F
00020358
000404B7
000CABBB
00053D56
FFFFF2A3
00031D1A
0011DF37
0021BB39
0020BE2C
0002079F
FFFF69BF
000602E2
FFFD0E41
FFEE4291
FFF10290
FFFB9672
00086672
00216594
00168F75
FFFF5FFC
FFF7C6A2
FFF91580
FFF53400
FFFB1050
FFF30E6A
FFF10885
FFFEFB4B
0006734E
0004F6B5
000442FF
0007E969
FFFE89AC
000910FC
FFF8BA16
FFFDBBE9
001469B4
000C7512
FFE4734C
FFF99309
0008FBF5
FFFE50BD
FFEF6FE5
FFF31209
0013F6F3
000503BC
000D83ED
0011ABAD
0000F543
FFF958C2
FFF3455D
FFF2B08E
FFF388CD
FFEB3A7F
0007019F
FFF35DBE
00037B4B
0006205D
0002F175
FFFF40C7
0006CBF7
FFF0A0EB
FFF7E35E
000D7604
0009A46D
000D9812
000281C1
FFFC475E
0002729C
000871EC
00097A1D
0017A04E
00132A53
0017E557
FFF13CD9
FFFBD091
FFFFAB7B
FFF95E7A
FFF72D2A
FFF4DD68
FFF847AC
FFF1196A
FFFA8AF8
FFF946E2
0006D3D7
000216A3
FFF6B5DC
FFF79491
00049961
FFFAD290
000371A1
001A59E8
0017BA27
00044060
0003B6EC
000625A8
0000A27A
FFFD8EAE
0012FC04
002C2702
0025EFB2
0011B8C5
0000ED3D
000E449E
000B3874
FFF83A8F
00117743
000A2C3D
FFF7C052
0007880D
FFF7594B
00033C16
00093219
000C8F91
00074EAB
000B7FEF
0018F67F
000EA365
0007FFCC
00151C7B
00075D90
FFE3D4C3
FFF22DB6
FFF75E22
0003B145
00038301
00106DFC
0003C026
000E3995
001D69F8
00228F6B
0022A22F
0038735C
00278F20
001BFAFD
00283493
0031FB2A
002F0485
00221492
0013EFAE
001C7D02
0026D6E8
0024A9A9
002FA2D9
0031486B
001E39B0
00116E10
0018039E
001C2FD5
FFFADF4C
FFF9BE4A
FFFB4208
FFF6F214
0002B223
FFF93CA6
000BBAB2
FFF8C080
000FF126
00106A4F
003E5229
003F0CF8
004D05B0
00421FA2
003BBC80
00336AD8
005828AA
00579815
003C744C
0047544C
00515F94
0048E9FA
002F9F94
005092BE
0041689E
003DB206
001986C5
00165540
FFFCBC00
FFFCE246
0004CCA3
FFFF0D21
00078B50
0002CB88
FFFF394A
FFF11D65
FFF158B3
00141FA7
00150BF2
001FAA6C
000F53DE
001F27A2
0025B448
00296CAC
001DB616
003352CA
002154D4
0023090A
002719C2
001D3D85
000F2926
001D4402
001DE5DE
0022F615
001624C6
0003D682
0000CF62
00075BEC
FFFFDEDD
