FFFE475D
00006BED
00078C93
FFF8E27B
00026BCE
FFFF20F7
00013A25
000224E5
0003CA6F
FFFF4FAF
FFFED353
00011588
0003ACF2
000AB143
0003DCF0
FFF779FE
FFFF9F95
FFF8B8B2
FFFA0D76
0006907A
00077432
000709C5
0000DDB6
000091F4
00039BEB
FFFE6918
00031CF2
00077ED5
0005875C
FFFAC6B7
FFF77C2D
FFFABD6B
0000AD69
0008B0B4
0007D37B
000B88F9
00127648
00122DF6
001D9C8C
0004FF12
001A7EF8
000B79E8
FFF0E06E
FFF69457
FFE2246A
FFF31AFA
00152545
0014BA35
002E62EC
00252F35
002060C4
001C98E2
FFF80F36
00043DCF
00001E8A
FFFF7638
FFFD57CC
FFF6EC1C
001041A4
FFF8B7B5
FFFE7265
0003978E
001BA5F0
001BA791
001030C5
0000C745
000126CA
0013DC55
000C884B
000D491D
0013FBB7
0007CD3A
FFF50525
FFFC239A
FFFC5FCF
00063975
0020A976
00189773
0025734D
00147A62
000C8331
FFFE9D27
0000927C
00003BDA
FFFD98BE
00090F90
FFE7EE47
FFF0BF73
FFF2DA4C
000B5424
000EF7D4
0004124A
FFFBD042
FFF9731A
FFF133BC
0006B834
FFF55C91
0001B035
00075272
FFFF2A14
FFFBBFB4
FFED18A4
FFF41656
FFF98919
FFFAA66D
0004F32D
000F8507
001904F5
0014270D
FFF8F138
00077B12
FFFD49C2
00039F7D
FFF8C6D0
FFF07D1F
FFE4AA17
00169B19
000DC7B2
FFFDFCB0
000138BA
FFF9957F
FFFE7902
FFE887AE
FFDA7DB2
FFEAB970
FFF1A712
FFFCE229
FFECD26F
FFF544F0
FFF64FF7
FFE87928
FFEC75FC
FFFACDBD
000B89FF
FFFF72FD
0003EE82
FFF5A852
FFE9CBEA
FFFA441A
001137AB
00016546
00073137
FFFFA476
FFF144FA
000D6A29
FFED9457
0002FF3A
FFFFDA61
000955C3
0004CEE8
FFFD30F0
000D7686
00098A72
000F7D24
0010BE71
00016C5E
FFEDEF18
FFFD8458
FFF16434
FFFB1CF9
FFF19258
FFE968B2
FFF7E69D
0008D195
00045B25
FFFC28C4
0000841C
001AB29C
FFFC3519
FFED4EBA
0003E1CE
FFFECF0D
00131979
00040537
00062723
0006B35C
000851A8
00002786
FFFB0C57
00073F94
000871F7
000A75B0
000FF9C7
0008D980
00030302
00091863
FFF14B84
FFF4128A
FFF540D5
FFFED462
FFFFBB87
FFFFE1AB
0001573F
FFF22DCA
FFFB3A98
0005A216
00083B5D
FFE0944B
00143C9C
00043EC7
0000D96A
FFF9EBEC
FFF2EE48
FFF1E3DB
FFF1EABD
00005379
0001C9FD
000B22FD
00094D7B
00072CDC
000317E1
00101A52
FFFC1B2B
00007908
FFFC3140
FFF6F151
FFF79C07
FFFFA0DF
0002961E
FFFB063E
FFFC7D3C
FFF80E6C
0004EA1B
00036FFC
FFF388B5
FFE10BFB
000C403D
FFF7E22E
FFFA197A
00098985
FFF3E3D3
FFE84F5C
0006F24E
00099041
0004DEA4
0009C4EC
0000A3CE
FFFDDC6A
0001E180
00033BB8
0004628F
FFF1CD91
FFF153B9
FFF6D984
FFEB928C
FFF6E4F5
FFE997C2
FFDFDE78
FFF4991E
FFEB8F1D
FFFD0791
FFEB5FBA
FFEB99A4
FFF2B0FD
FFEFCB39
FFFBC103
FFFA5BC6
FFF86D02
FFF9E701
FFFF2FB5
0000DA84
00056CDF
FFFD5555
FFF70D78
0006B83D
FFFAB245
0000CE95
FFF87B36
FFEA3706
FFF761E0
FFFA7BB6
FFFE2D6B
FFF733DD
FFEB5A95
FFD2F8C4
FFCEE092
FFD21A38
FFCE8E7C
FFD81B49
FFFE9605
FFF1FC86
FFF22081
FFE311B5
FFE22A31
FFFA558C
FFF4E901
FFF35048
0006D47A
0006921C
00114894
00083C51
00004B13
00067300
FFF832E8
FFF98E42
FFF5ACDF
FFEBE434
0003130E
000A6EFE
FFFD972E
FFFF337A
FFE65386
FFD75576
FFCF6137
FFCDBB60
FFD42706
FFCA069E
FFF32D69
FFFDD439
FFF44E33
FFE9CCFA
FFE221AF
FFE89488
FFF024F4
0000A924
000912F8
00126756
0015BD27
000A1762
000B7EDA
00069900
FFFF6118
FFFE75AD
FFFA67BC
00062368
00121626
0008D455
FFFC2D98
00017898
0005B1FC
FFF94A5E
FFE2FEC3
FFC0F988
FFA984BA
FFC4AD96
FFF12E55
0003AA90
FFF0E379
FFEFDCAA
FFF30378
FFF6B2F0
FFF0E452
FFF74560
FFFEAC9F
0011C0DD
000A259A
0011E620
0013B562
0000B9B4
FFFDA53A
FFEAD7EC
0004E5BB
0012F954
0016DEC2
00107E41
000DF953
000900B1
0018292A
000D2947
000583E8
FFDA1EFC
FFBED183
FFC114DC
FFE520B8
FFF288BD
FFFD996B
FFF19017
FFF07BA3
FFF74A15
FFF36215
FFECC486
FFFAAAE4
000B06F3
000D202A
00193A7C
0008344B
FFF93A04
FFE7E655
FFF03040
00197D82
0019BC48
001A49C6
000E84C7
001AF14E
0010F10C
0019AA3A
000E8D90
000E10C5
FFDB14B7
FFD1F806
FFD6DA2A
FFEC7FBB
FFF8266C
FFFEDC7D
FFDE68E7
FFF0F6C1
FFF1F200
FFF105B5
FFF33B0E
FFFBCC22
00038FC3
0009884C
000EFDEE
00110B4C
FFFE3F3A
FFF86F7B
00022C0D
0007A5BE
001A3A47
0019BAC5
00134991
00145B14
000DBD90
00124FCB
000D26EA
FFEE7BB6
FFE125BD
FFE1D568
FFDD3C01
FFF86AD8
FFF863F4
FFFF1F06
FFEA3BF4
FFEE2C0C
FFE4DC59
FFDF4C51
FFEA7DFE
0008D327
00133E50
00044F70
0019A7CA
001B7769
0001523C
0000B9DE
0008FA4F
0011B56F
00136B3E
00141693
000F7FAB
0006176D
00059521
FFFE26C1
00000FCE
FFF8F5F1
FFD09EEC
FFEDE2AA
FFE754A6
FFEF79FE
000B4774
0000060F
FFF1ED5F
FFD2FDEE
FFC9CCC0
FFD1AD1B
FFDFD8FA
000B1A6E
001570C6
001A4CF2
000DA12A
0019F05C
000DEFC2
0002CFED
000FAC9D
0018F176
001B6C50
001A51BC
000B4278
FFFE0B45
00018477
FFF1A6C9
FFF0FBAC
FFE2DCC6
FFD5D2B4
FFF89A0C
FFE5BCC1
FFEE27A3
FFFC8F38
FFF9DEEB
FFF8FD05
FFD2F6B0
FFBD49B8
FFD49380
FFD41A46
00070EFA
0015AC4F
00211C16
000E6C83
0014F222
0009301F
000F2B58
0018700B
001950CB
000F95CA
0012FA2E
000D83BF
00055CE7
00068804
FFF73BE6
FFF77517
FFE33FBD
FFF0F2DE
0003BB28
FFE92163
FFDA4944
FFEB276E
FFF9D97B
FFF2DD84
FFE8B070
FFC72F15
FFC3F998
FFD83D7F
FFFAF8E7
0002BC99
00113814
0007D9D9
0010A461
0014CB38
0010025B
000FA1F4
000FFEF1
0000870A
FFFF9EC6
0003B7DF
00010410
FFF9EBFE
FFF55E31
FFE73DEE
FFDE5EAB
FFD4B85A
FFEABDAB
FFF892D5
FFE0679A
FFF042D7
FFEB0380
FFF59227
FFE7B3A6
FFDA625C
FFDDEA62
FFE60DC3
FFFEE540
FFFEAC07
FFFEC45C
FFFF7104
000D24A0
000E3CB4
FFFB32AF
FFFCB9D0
FFFC0BB4
0003C9A4
00006C54
00020F13
FFFE1C46
FFF34CAB
FFE946C5
FFF16AC0
FFD9319D
FFD24094
FFDC90A6
FFE4681C
FFE9A1F7
0005D570
0001D5F2
FFF90493
FFD5CCA3
FFD0C1C4
FFE895F9
FFECE627
FFEA0F1F
FFEA11BA
FFF59261
FFFBDE87
FFF95438
0000D5A2
FFF5A4B9
FFF9C64C
00097C3C
FFF880FB
FFF03187
FFF7105F
FFEF90DC
FFF8F200
FFEAD9C3
FFE1E908
FFE7608B
FFE3848F
FFE12FC2
FFEA76F5
FFFB96CE
FFECA6F7
0003E402
FFD98392
FFD63F31
FFD26CE3
FFEEBB15
FFE69AC1
FFF9877D
0007737B
000C8F46
00101278
FFFEDA3A
0003996B
000BBCA1
000C0972
000CBA36
0000DB71
FFFE9E26
0003B3BC
FFF4EE56
FFE3F51A
FFEEEFF9
FFEC801C
FFE1D1A9
FFDE1F88
FFD57857
FFDFF9C9
00039B95
FFF1D6DC
FFFC7316
FFE6D692
FFE73F2E
FFDEC394
FFE7F0EA
FFF8EBF4
FFFF324A
FFFE15D5
FFFF2694
00163D81
000E9682
000A8BB2
00049EE2
000C41AE
000B3A2B
000CBBCA
FFF82732
FFF6ECAB
FFFDBCF6
FFF5C289
FFF8028A
FFEDFBBD
FFF30CCD
FFEFB0B0
FFE0B99D
FFE1E99A
0001E30A
00088A5F
FFF92E64
FFE83B23
FFE61193
FFDEE786
FFE0FCBC
FFFC1733
000113E9
0007F58B
FFF2727E
FFF6DFCF
FFF33DFD
FFFD7012
0009E5EF
0008D10A
FFFCC709
0008E85B
0007D0D9
000BF9EC
000A7D2B
000C3DF8
000C8556
0003AC72
FFF82AD3
FFF2B264
FFEBD0B5
FFD9B5A7
0008E9DC
FFFDF432
FFFDD9AA
000A18CE
FFE8602B
FFFE45CA
FFFD911D
FFFACC85
FFFA9A6A
FFFC4585
FFFB2FAC
FFF5694D
FFF76571
FFF1AD00
FFF6CBED
FFEB413C
FFFA46EC
FFFE2ADF
FFFC1CEC
FFF9572F
FFFA42A2
0012066B
000C057C
0003DF45
FFFF99E6
FFF5CA46
FFFF0A55
FFEE254E
00007745
0007266F
0001113F
00045318
000BBA58
0001C8F4
0012BFAF
0004E505
FFFBE430
FFEEBD5D
FFF88900
0003CC51
FFFE7369
FFEEF07E
FFF7489F
FFFACCB8
FFF04F8E
FFEC7718
FFF26E98
FFF9164B
FFE61347
FFFF9823
0000D36C
FFF1C248
FFF06A7C
FFDEC931
FFFF6CC1
FFF01758
0007B779
0004EA4A
FFFE7128
FFFFEED6
00125349
0024FA90
002F36A1
00257E11
0016BC1A
001656B6
0012E21E
00000E6F
FFF6ECD1
FFFE5343
FFF8E9A9
0011A965
FFF99876
00035FFF
000994EF
0001B09B
FFFA5B40
0004E9E7
0004B9FF
FFFC38BE
0010D248
0016B1D1
FFF756E1
FFFBC29D
FFF83E11
FFFBFD12
0006AC6E
FFFF3D41
FFF6F29C
FFEEE15B
FFEFA767
00059115
000DDFDE
00064B12
FFFB1CA5
FFF03B66
FFFD50D5
00007B6F
FFE7C2B8
000D6ECA
0015BC8E
FFF37CDE
FFEEDA24
0010C4D1
0019C204
000563FA
FFF325DD
FFFBC260
FFEED85B
FFFCC061
FFFA0042
0001218A
000532F8
