FFFE085F
FFF96669
FFFE3ED4
00048670
FFFA99EA
0008D0FF
FFFF36F4
FFFA4AF6
0002C3D6
0001D257
0000F451
FFFC52FF
000D2BA0
000BD3A4
0002BBE8
FFF982DD
FFFBD6A7
00087727
00076386
0008A25E
FFF839E4
0002EB3D
FFFB6CDE
FFFB4430
0006F9A5
0002B7DA
FFF7A3E3
0006C8ED
000323D1
FFF85DBE
FFF9A0B6
FFFDB7D6
000C97D0
00069DAA
00186C09
0022CB81
0011A668
000CC309
0014F0B3
FFFEE413
00034C3C
00060017
000C2478
FFFFB441
FFE9E300
FFF064AB
001C0F20
00209F6D
00252291
000B8271
000F40E0
00060BF3
FFFAD6D8
FFFFB0B2
000449B5
0005CA21
0008E0B3
00031590
000FBC50
0008E567
00072FE9
000E7858
001E6C80
00236984
0010BF5D
00016DA4
00118A9E
0019599C
0017DE07
00250338
0016E27A
00215A4E
0011A1F0
FFFDF7BF
0001CE3B
000D13E8
00101DE0
0010C526
000FFFA0
00091F69
001249C1
FFF67552
FFFD7871
00021B41
FFFD3573
FFF841B3
0014FA79
000781C3
0001ED60
000EDCF3
0011D13F
0029556E
001683C5
00105058
0004A612
000A2F53
0004E4DE
FFF971C2
FFFA323B
000C3355
000F8B18
00097DFE
000333E7
000A645C
FFFB0F1D
FFF8C176
FFF9E80A
001C9B77
00085622
FFEF076D
FFEA440D
0008D198
FFF73FE4
FFF9E0F5
001CADAC
0012F84F
0028AD9D
00335C09
0019F3C0
000C959C
001CD93A
000BB406
00130E06
0004227E
001731B7
001070D0
00189E08
0007D86F
00224564
00134A45
00048C78
00139576
0015898D
0005A6F2
00056A0A
00010074
FFED4B1C
FFEF403A
000D9A51
000757D6
FFFD1CDE
FFF7FF7C
001C65C9
0017322C
0023E8B7
0017B26C
001C8AD1
00157FAD
000CB985
FFF89DFF
FFEF210C
FFF68E08
FFF9F3B5
FFFF6D66
00033985
000F22BF
0012A47E
00076E6C
000A949C
001E861D
0017273E
000A005D
0006E829
000ED2A4
00067BAD
000D09D6
FFFA2922
0004A314
FFFD0F9C
0010B90C
FFE9734F
00057B04
00114BB2
0006D2A3
000C3741
0001DF6C
FFFAB224
FFF547F6
FFFA7422
FFEAE014
FFFAD830
FFF5EB11
FFFC7C87
00076EB8
0005E881
FFFC6037
000401CD
0001F729
FFFE0E3E
00003BBF
FFF2888F
00029A8A
00050E22
000F1DB9
FFFD2F32
001B0B6A
FFFAC4A9
001C7F78
FFD83C21
FFFB32C3
0036CCE5
00170C98
00033C6F
0005EB4C
FFFAA74C
FFFEA234
FFEF012E
FFDD8D77
FFEA551F
FFECC676
00003254
00051827
FFF76574
00047E2B
FFFC9A23
FFFDCC54
FFF6D92B
FFF162C7
FFEA8949
FFFD5986
FFF9B33A
FFFADD1A
00099A04
00050672
FFE2D22C
FFF96077
FFF26A02
0014DDE8
002E4AEA
0006D218
FFF9D046
00057969
FFEF063A
FFF62731
FFE8C9C1
FFE041BA
FFFE591D
000308C0
00029F60
000C4B43
000DC8FC
000F47BE
0006ED6F
0002F8D1
FFF965E5
FFE122F3
FFF8A3EA
FFEDD9C9
FFE1C211
FFEA6353
000E9A02
0010509C
FFF16D8E
FFF62840
FFFFB20F
00004CF9
00217656
00125F05
000CDBBE
000C8633
FFF9B128
FFE9A3ED
FFE1E03F
FFEF7FA0
00055620
0011A95F
00101E89
0011C3B6
001BB8E0
00122161
FFFE9445
FFFAE10A
FFFAAD5C
0001E55D
FFF82F34
FFF502F8
FFDDF06A
FFF46E4F
0002C3C0
FFE454E4
FFEEB7BC
00017CCA
FFEF50AA
000FC1D4
0013CE27
FFFFD4D9
FFFC8A8E
00039231
FFED137B
FFDD1899
FFED9F60
FFEDCE82
000B2F38
0018CE3B
0013DE80
001E2BEE
00070E9B
00095886
FFFCAA81
00050DAE
FFFADF3A
FFF472DE
FFF6DEC9
00004960
FFDA72A0
FFD9030C
FFEC7566
FFF79D08
FFEB47A1
FFF7DED3
FFF6B397
00220D11
001CE072
00055BC7
FFF5038A
FFF18902
FFE6A424
FFF5878C
FFF31FDB
00014FF5
0017691F
0020A91D
0024F936
001199AD
00039E1C
FFFA658A
FFF851A9
FFFBE49D
FFF40164
FFE62AB5
FFEFA759
FFF09AEC
FFF8C815
FFE5E503
0007F285
000D8A8B
FFF48A87
FFE83972
FFEDFD1C
00174454
0001F7A5
000B0F3C
FFF36F8F
FFFBEF1A
FFE4A32E
FFF71B1C
FFEFED7D
FFFEB129
0027DAAC
0019031B
001F6458
0008FD4F
000B879B
00043CD4
FFF73C50
FFEEBDD9
FFF4213A
FFF493F4
FFE7E8FF
00030ED0
001AFED6
FFEEA401
FFE5DCBA
FFE8892A
000E7927
0001D722
FFE9EEBA
00044E40
FFDC8DCA
FFFBF429
FFF65114
FFE532EF
FFF188C7
FFF5C795
FFEB43F2
0001357C
001B48DC
00178BE4
00115956
001923C2
001A701F
0005CBB4
FFF6EA4C
FFF1CDDB
FFEE10B7
FFE5083D
FFD8F4B6
0001AD9E
000073AE
FFF3A28E
FFED04CE
FFEBD6EB
FFFC5C2B
000B51D7
0002B728
0013373D
FFE33CB3
FFE9C439
FFF03818
FFD9E9C1
FFF7CD75
FFF55F40
FFE884E4
000AC677
0016C3F2
00131537
0023C1C6
00260C4E
00160994
FFF32AA6
FFE5EAF4
FFF2A849
FFE9C3F7
FFE6DAFB
FFE053C6
FFF64EE6
FFEB8BE8
000FA423
FFE8E440
FFEDA11E
FFFD463D
0007FFAD
00219B5E
00068C1F
FFEB24B3
FFE91A04
FFEDDE96
FFE969BC
FFFCAD09
FFF7DCB6
FFEAA454
FFF752B5
000EFF42
00200A64
0023E8D0
00146836
000B0D5C
FFE20081
FFE8ABB6
FFF4CC6A
FFF98F8F
FFFB319D
FFF31098
FFF60EC3
FFF6D7CF
000520B3
FFF8C2FB
FFF43975
FFFABD7E
00038C95
0019010E
0005EFC9
FFED9E12
FFF1C820
FFFBD32C
000B8C76
0001B3D8
00060E9F
0004F601
00011A18
00089E45
0018292E
0027D72C
0014A1F5
FFF51385
FFE843C3
FFF2BB6A
FFFCB35D
FFFDB09C
FFFD1DB1
0004AB3D
0006057A
000843E1
0009AD49
FFFCF005
FFEEC890
00027F47
001AA67D
000FF038
000116BE
00000F9D
FFF7D923
FFF9B387
000BCB35
000A49D8
FFFACF76
00039830
FFFA14E6
000B8EAA
0014AFF6
001A15EF
FFF9FA7A
FFFCE578
FFECCE50
FFF6CDF1
00014CA4
00087CFB
000C32E3
0000D472
00101305
FFF1C696
FFE7AA50
FFECC91F
FFE74F57
FFE781C8
0014C73C
0015C950
000ABE24
FFF51DD4
FFFA649E
FFFF5336
FFFC14BD
00036CB5
0006CC45
FFF25696
FFF587A8
00049D55
0018BB07
000C3423
FFFFB0A2
FFFEE9FD
0005F5D4
00076AC2
000D4244
000C8294
00161596
0000883D
000FB33D
FFFC7FEE
FFFE25CB
FFE7576D
00139258
000978DA
FFE526F8
FFFBC55E
00058209
0005D306
00034532
00061391
FFFCFFA8
FFF807EE
0008D879
0004F579
FFF94DF5
FFF2BA50
000BAD7E
00102F82
0013DEE0
000F94D7
0008778F
000AA459
0007BCF7
001296FD
00114DDC
000608E2
000DE691
FFFEA852
00003335
FFEF9F95
000C1617
00019881
FFF316A5
FFF7E921
00026FBD
00025D97
FFFA057F
0011A6E6
001288B8
0011001C
000611FD
0008AFC7
FFF295CD
FFFBFB34
FFFF0981
0010137A
0013D97F
000DC41B
000D2DF5
0017969B
0008C164
001707BE
002145A4
00061E28
00102755
FFF69DAB
FFF525E8
00008F5D
FFF89B15
0008B735
0009B84D
0001CA77
0004A0CF
FFFD9BA9
FFF48F9E
000271C7
001E0337
0013636B
00083225
00113BB6
000DB85C
00017478
0010BE70
001A8D6F
0013DBB8
000D3D85
0013F4AE
001108B4
001A9E7F
00177EBE
000247D9
0006BF65
FFF1CE8E
FFECBE14
0004B271
FFF22B94
FFFD58D9
000800B6
0009A459
FFFEAE24
0011DFC6
0010AE54
000D3115
0000440A
000BD740
00022252
000294B2
0003AB19
00050878
0009D873
000D7B8E
00005EBA
00123100
00055507
0006D459
0013A317
001EEBE0
0011D8D4
0008D84C
FFFBED3C
FFE9B73A
FFE723AC
000670A9
FFFF4342
0002225D
FFFABD17
000827F8
002D47DD
00164B71
000324D8
FFF50F04
FFFD74AC
FFFD6ABC
0009D1AB
00013058
FFFD113C
00003B68
0003C4BF
001316F8
FFFA1218
000CC4A8
00145C9C
000C2833
001EFC31
001B4E7A
001289CF
FFFC57B3
FFF04E66
FFF5ADB5
FFE46ADD
FFF7A55F
0014709A
00009555
0001A034
00017314
00093838
000D5C4B
FFFD4751
FFE0CCF4
0004F035
FFFD3F81
FFF9FD96
0005ED03
FFFF37E5
000C65D9
FFF83E49
00054C7D
000B1AC6
FFFC9B62
00065374
FFF901D6
000230C8
00100006
000DBA5E
000E1351
FFEDF550
FFE91AC2
FFE70F1C
000F84CE
000EC1AB
0008B7E1
FFFAC9DC
FFFBFC5B
000D52F6
FFDE7873
FFE170D8
FFE036BA
000649CF
FFFE1C9D
0001CF0B
00008292
FFFC0882
FFF47C23
0001C8C3
FFF998E3
FFF32B27
FFF7F3AC
FFFBCBD9
FFF8D9EF
FFFC4A96
0003F6A4
FFECD9E6
FFD974D9
FFEBD9D9
FFF7B7EF
FFF94AE0
FFFD548C
0011F1BA
FFF7B7EE
00088F77
FFFFC465
00032599
FFEBA4D3
FFF3CBCB
FFE64A02
FFDDFA08
FFEDE5DA
FFEA1EA1
FFE19B28
FFF062A8
FFEC3098
FFDB80D1
FFD4AFCD
FFC41CA4
FFC2AA88
FFDA2D8D
FFDFB858
FFEE8B63
FFD26B4B
FFC97508
FFCCC883
FFCF3BF4
FFF52596
FFFB5086
00076029
FFF8BFBC
0004573C
000196E8
FFFA4AAF
00091BD4
0003223C
00082D3C
FFF90671
FFFA30AF
0005FB62
FFF55E07
FFE3BA7B
FFDC0E70
FFE611F8
FFDD0A3B
FFED5943
FFC3F3B6
FFD70157
FFDE5194
FFCB0794
FFCFCF5D
FFD6A1BC
FFE9A2FB
FFF2B092
FFE7C2DE
FFFA694E
FFFF27AF
FFF92C53
FFF944A4
0005B2B2
