000750F1
00045762
FFF9A2A3
FFFB306A
FFFC23CF
0002893B
0004EDB2
FFFF916F
FFF7011A
FFFA3471
FFFBA0DA
FFF9D877
FFFF1306
FFFB436A
FFF78777
FFF8885A
FFF95200
FFF9AA80
00036DB8
FFFB3274
FFF82BD0
0000A90A
FFFF73A8
FFF86B60
0002769C
0000C7CD
000131B3
00040422
FFFB6289
FFF802B9
0005E8F1
00084AEF
00058E0D
FFFBF50B
FFF26429
FFEE1640
FFEC7CA3
FFF55E7B
FFED276F
FFE48F5B
FFE9685E
FFE203B8
FFF543DF
FFE9711D
FFE0E432
FFE6487C
FFF868C5
FFF41F46
FFE8553A
FFF557EC
FFEFD823
FFF483F4
FFF9BFA1
FFFD2E63
0006AD1F
FFFF92F4
00047D15
FFFC1FF4
00027721
FFE1FA54
FFE24D0F
FFF31AEA
FFEA8CED
FFE9D3A2
FFEA099E
FFE9F15D
FFE14BAF
FFE91794
FFEE84D3
FFF51DCE
FFEB3D2E
FFF4DF04
FFF0A853
0004D99C
00045302
00000C98
FFF9F2D6
FFF245F6
FFF1D4E1
FFEA5216
FFF4DFD2
FFFAF2A6
000194E8
0007C789
0005FA39
FFFACE80
FFDFF832
FFE15F95
FFE4EE53
FFF95C63
FFE10917
FFE2A825
FFC43AD1
FFD2F760
FFE32BE0
FFE84200
FFE1EDB9
FFD7EDF3
FFE46E31
FFE2364C
FFF0ACC9
FFF42735
FFFD57AD
000AA5E4
000073CA
00071451
000090DD
00166440
FFFF7B84
FFFCBE08
000F4003
FFF9BBAB
FFFA0CE5
FFFE10F7
FFEF2642
FFFBF27D
00011DB4
00086EEA
FFF3954A
FFE8FFE4
FFEDADF5
FFFE87AE
FFF2DB0E
FFEB1C40
FFEE524D
FFE756B0
FFE04E5C
FFE4384E
FFE95D20
FFF3D8B8
FFFE6811
0000A790
FFFA1043
000272C1
00001DC1
FFF547EB
00151F9E
0011D334
00178C10
00275094
0002FF81
0002C061
FFE317AA
000C485D
000EC60E
001C5790
001A370C
00147681
001E3389
00213292
0005387D
000BD54A
000B5617
FFF8F52E
FFFBC0D0
FFE689F6
FFF175BD
FFF877F5
FFF3A272
FFF2CA6A
FFEB57B2
FFF8D3A9
FFE5CAD0
FFF709AB
0009F104
002B3379
0006B209
0023F4A8
FFFAB429
FFFEB454
001A8835
00226A4E
001A67C0
0027C63B
00297375
001ECA92
00224D64
001B3AFB
00073E4E
00138906
00142DF0
0004D71D
FFFFF5FE
0000E52C
FFF9AA92
FFFDCAF2
FFF0D552
FFFCE4B9
0001C741
0010A036
000B7B6A
00136A90
00067778
000E19F9
0001CC7A
00136F76
00072ABE
0006FDD7
0020D815
001EEE70
001F4B92
0015510A
00122333
001D89BF
000DF953
000E4585
00071036
00007838
FFFE9A83
FFF782D3
FFFA618B
FFFFAC3F
FFFD66B3
0004BD08
00014092
000867F8
0008B254
00134E0A
00142FAA
0017AB26
0011D845
000D51E4
000724DD
FFFF5E70
FFEA57E6
000A4837
00120DB6
001D5036
00175085
0012DDEA
0025DBA6
002A652C
0012ACE6
000D27CA
0011DF81
000CB32F
00043EAD
000F557D
FFFE7A70
FFF50B1A
FFEFF1C1
FFF50ABF
0011C72F
000D10E2
00066790
00182D49
001E610B
001440DE
00121FEC
0008932E
000EAC72
0009891A
0007FCA0
0011E49C
0010AAA8
000E620E
000A21EA
0019F64A
00182147
0011288F
00110B88
00024B44
FFFC9279
00040BC0
00100493
000CF8FE
FFFF1603
FFF01927
FFEF3D09
FFF597B2
FFF5DA1F
000A7255
001768AA
001C0A03
001E451E
0016147C
FFFDDAB1
00043500
0019F903
000F50B2
000E89C7
000C71FF
0010CAAC
FFF95622
00116C42
000C9475
00095924
0007E20B
00067E5B
00031689
FFFFE42C
000C1B26
FFFB51E1
FFF59A40
FFEA372F
FFF253EC
FFF78CD3
FFF153EE
FFF985A1
000FC355
00199272
001A6DC2
001B4373
000924F7
FFF6DFD9
FFF84969
FFEDF648
000E1DF8
000CB2DC
000D78D1
001F629E
000E2D87
000A1C9A
001790E9
00000445
000C5C67
000C2C82
00112A4C
000F87C0
0018B379
000225CB
FFEAEF03
FFEA1CAE
00086225
000D48BB
FFF313B8
FFF7F1EF
000E2787
00183B5B
00176487
00132F26
0004E87B
FFEAFE54
FFDA5036
FFF44763
000BFBB5
00086013
000E48DC
000F32EB
00213AD0
FFFB567E
00058AE1
FFF6C2D0
0004ADCB
0002447A
000E0817
0006287D
00067BF1
00054D62
FFEED3E0
FFECB28C
00122AD8
0018052F
00056A09
00075D0C
00084798
000FD5A5
00211BC9
001644A0
000B1971
FFF6849F
FFED8820
FFEC1369
0009D138
FFF42C99
0000CE8A
001D0D4A
000D44D9
FFF6AC10
000135F4
FFFFDF8F
FFF3D43C
FFFCAD19
FFFFEA70
FFFBF4B4
FFFB80E0
FFEDE912
FFF01F67
0005BA09
001D8460
00210773
0008C446
FFFADE69
000CFE2E
001DF77A
0014B834
0015712D
00045B2A
FFF6A9D6
FFF2F24C
FFEA1DFB
FFF06FA5
FFF82689
000E1D9D
0013566C
000FD5BE
FFFA5A70
000D9352
FFFA9CF9
FFF376FB
FFF123DF
FFE660B6
FFF77D51
0005639A
FFF7C8D6
00082BED
00143837
0022EF3D
000EA233
00049664
0009F1B9
00177F36
0001AF55
FFFD70CD
FFF2D295
0003ADE5
FFE51EE4
FFECA6FC
FFD81D7A
FFEB0AF1
00030350
0011A1EE
0015463A
0004D593
FFE926D7
FFECBF1D
FFF15E3F
FFED802B
FFEA936C
FFF03381
FFF454EC
FFF5EC40
000F68A4
00114C38
002D4F6F
002BD60B
000F0B45
000E572E
0001F0D9
00088E0C
FFF2266F
FFF3E695
0001DAF6
0008C480
FFE2F18E
FFDDEDA3
FFECD9E4
FFF59B60
FFFFD58D
0000D386
FFFD7E70
FFFD9C85
FFDC3947
FFE22181
FFFAFBDB
FFE6B9B9
FFF15341
FFE56E7B
FFF20355
FFF70348
000D9F13
00230B7B
0026B36B
002A4252
0021CFD4
0011AD42
FFFF8B08
000618CA
FFF3FEA5
FFF85CC4
FFF857B2
FFE9F0DF
FFE4A3B0
FFD3C196
FFDDCB06
FFED3A18
FFFC3888
FFF9331B
000D4D32
FFF30F3D
FFE87898
FFDC2A36
FFE38D2E
FFE63B7C
FFEECDE7
FFF02265
FFE9F8F0
000739A5
001DDCE5
001FDE44
001E31EF
001E29A6
001B7BBE
000E53F6
FFEEB16D
FFEF27D3
FFFB4CBA
FFFDD3EB
FFEC12CF
FFF94C43
FFF361D1
FFE51A05
FFF2B895
FFED01AF
000AE3C4
FFFA80FB
000800BD
FFFB7748
FFCD580F
FFEBD84C
FFDD1906
FFE8A4D9
FFDFC468
FFE3C23E
FFF26CFE
000510DE
000D683F
00183722
00082035
000523D9
000ADA20
FFF399EF
FFE9EE6A
FFEF272C
FFEF48FA
FFF54F43
FFEB9CF6
FFDC4DEF
FFE1C1AB
FFE4FD4F
001E36AC
FFE519BE
FFFF8965
0014FFD0
000A8036
FFE86F37
FFDD4D1E
FFE0E8B9
FFEA80B3
FFE2BA58
FFECC568
FFF36269
FFF12782
FFFB13CA
FFFE7113
000C2698
0008CD88
FFFFF861
FFF3A919
FFE9CEAB
FFE9C6A1
FFDEFD0D
FFEC8C4F
FFE6BD01
FFDD2979
FFD9019A
FFE0DA45
FFD7B13B
FFEBB799
FFE9B546
FFF835AE
FFFFC626
0003FD89
FFE0D35F
FFD551C3
FFD7724A
FFE94ED1
FFFD8BDB
FFEF6619
FFF0C67E
FFF81CA4
FFF18F08
FFFC23CE
000F6A0E
0006384D
0006D156
FFEECFAC
FFE9D83C
FFD22754
FFD973C3
FFDE581E
FFED59A2
FFE45378
FFF31A33
FFF3B7B0
FFCA1455
FFE53C46
FFFC0BA4
FFEE2346
FFF55942
FFF8C0B2
FFE570DC
FFEC8109
FFED394D
FFF365C4
FFF49555
FFFF2563
FFF03152
FFF2EC7F
FFF93BC0
FFF91802
0011B39E
FFFD4053
FFF797C3
FFE940CD
FFEB27D4
FFCF75BA
FFE98479
FFF0F1E9
FFF69073
FFFBB453
FFF4D9D0
FFE30266
FFE06BD8
FFE2FDAF
FFFBF448
FFEB9D11
FFFD00BE
FFFBB482
FFE7D07F
00007FAC
FFF65EDA
000B111E
0002E799
FFFBF932
FFFC89DA
FFF47C37
0000FCDE
0007A919
FFFF6C06
FFFAF739
FFFD4D82
FFF1A3E9
FFEB01CF
FFE22DC8
FFF31526
FFE51FE4
FFED4B6B
FFF2601F
FFF4E24E
FFF2AEEC
FFEA8592
FFDA02B0
FFF59770
FFFEA081
00034BBC
FFE62D8F
FFE39741
000724A0
FFF8204B
000D243C
001B9335
FFFF570C
0001737B
FFFF1A80
FFF7A7AB
00050753
0006E17E
000499E4
FFFE755F
00082EA1
FFF1704F
FFFA388A
FFFF5555
FFEDF89F
00010007
FFF44FF0
FFF62187
FFEFC52E
FFFD03F5
FFE14A9E
00082C5B
0007F2AA
0005810E
00047975
00070806
001180B7
0016EED5
001B621F
001A4581
000DF253
0005F5B9
001383F4
001BADB7
000EEDE5
0016DE2B
000CE06D
0012BACE
001B4B89
FFF94C07
FFFAB1D8
FFFCA1E3
FFFD5E2F
FFEB4BD0
FFFD1284
FFF32417
FFDC0364
FFEAE694
FFFADA39
00072C6F
0000A581
00065C01
FFE49F1A
000A1CA3
0017C77A
0004FDAB
00113406
0015E1BA
000C6FFF
000AED46
0024A2BC
00231648
00140397
00158ED1
00192F46
00057FAF
0000B177
FFF809D1
FFF8A18B
FFE37E5D
FFDD1FE1
FFDB1904
FFE2E825
FFE9C2E4
FFE9B2FB
FFF60A2D
FFFD52F4
FFFF69CC
00086B16
FFFE6951
0006CFB6
FFEBB9D5
FFE1756B
FFE6E0A5
FFEF9D44
000C857D
00107E6A
001133F3
0007E8C5
0005E3F4
FFF435E5
FFF98E90
FFF91893
FFF68E05
FFF99852
FFFC453E
FFFA1C6C
FFF0754F
FFE30D45
FFEF7A61
FFE76DD0
FFF277B2
00052C3B
0000A395
0003D8D4
00031B2C
000628F9
0002EF3F
FFF7E3B9
FFFF4B20
00071D4B
000261BE
FFF63B72
FFEE5965
FFFB4882
FFFE0E94
0009AC06
FFFBDC4B
FFFC806D
00145AC9
FFFBBBEC
FFFF4841
0008D057
0013C698
000DD1B7
00021DBD
0005DBB6
FFFC7136
FFF49D78
000A2B71
FFFA024E
0004FE6C
FFF9F6C2
0002CC60
