FFF975ED
00057480
0002D9FC
000920E5
0005271B
0005C9ED
FFFFAE5A
0006BD67
00082F4D
FFFC8C98
FFFF7E80
00001ABA
00068E93
FFF844CD
00016F1A
FFF8A6A3
00012322
FFFD1FD2
FFFD553E
00050DB5
FFFD009C
FFFC4256
FFFEF7BA
FFFB6F4C
FFFDD494
00008DE5
0008933B
0005B4CA
FFF8DDC3
FFF9F4DE
FFF98287
00002512
00000EF0
000D9356
000B9478
00082A31
0014F212
001184BE
000DF35C
00131D20
00209C88
00098A92
FFEBDBB4
001D9624
001FEC10
002B27F1
00208F86
001403FB
002999E0
0024A5DB
0014A0DC
FFFE1A57
FFF8C799
00065D5B
FFFEEF02
0000F814
00037CBA
FFFF6AA8
0009AF11
00183964
00171A9C
FFFF26B2
00169358
000EC824
0011C67B
FFF8CC5E
0010035F
00220088
001981A6
FFF1BABC
FFE4620E
FFE81562
FFEFF7AC
FFED0510
FFF65F9D
000600DB
001550A6
00179AB9
000EE6DC
001E6B34
000BAD46
FFFB94CB
00017120
FFF88822
FFFD1EB3
0007007D
FFF1ABDF
0017B876
FFFC7EFA
0017489E
001E9786
0003E4CE
00146AC7
FFFAE0C7
001ABB06
001669ED
001C4C7B
000F6697
00104674
0007DB06
00101BAA
000D1CBF
0024E55C
000E1D1D
00171F50
FFFE699B
FFECBE75
0008CEB5
000A40B0
FFF93FAF
FFF15006
FFF7CCB4
FFF7919E
FFFF1B8D
FFEF9CB7
000AC918
0027E8AB
0017C218
0010CCEB
0009E235
0007B169
000DCD7F
001559C4
0011F38B
00072360
000F4CDC
FFFB8D3B
FFF96BAD
FFFF6AEC
00027A21
00127F6C
0001D8ED
FFF47C61
FFF8BE01
0002ADCE
FFEE3B16
FFE4958C
FFED1B9A
FFF6A0FC
000E2054
00082435
00041A2F
00044093
FFFE4BFF
0015ECC3
001595E2
000C1885
0001394F
000C82AE
000AB084
000977E6
0003DB38
FFFF4058
FFFEBBCF
FFEED586
FFFF9BF2
FFF59638
FFF465A8
FFFF73D7
FFFED7A1
FFF8240C
FFF9EDB4
FFFA3196
FFF1D6B8
FFF40469
FFE6A95E
FFFC76FA
FFFC13D0
00004023
001A00A6
0003A397
000F7ADF
001B7A32
0013D560
FFFEEEDA
00013BAD
000797BA
0007D6B0
000488EE
FFFA48CB
FFEA16EA
FFE8DDE1
FFED2D79
FFE365F6
FFE682F9
FFFD5DE9
FFFD452A
0001E3BF
00040BB4
000BE2E7
00042B4F
FFF1BE75
FFF8F445
FFDB5866
FFE02D1A
FFF11C6A
00028393
0022AEE0
0003BB7E
000FCC27
0000A9E7
FFFE8C88
FFFF6A3E
FFFA01B3
FFF515F5
FFFEED1B
FFF0E43B
FFF4830A
FFE0C2C2
FFDE8303
FFDBBCCF
FFE53D2F
FFF38AB5
000A474D
000C847F
00085064
00134FC6
000160B9
00026B89
FFFEAF3F
0007FAA3
FFE1D105
FFE4DE5A
FFE624FB
00113AB7
00106303
FFFC8897
000DCBBA
000067CD
FFFA87A9
0004C192
FFF98C99
FFF513E6
FFEA93CA
FFF1C663
FFE51EB8
FFE46AA0
FFE4829E
FFF6DB9C
00055286
00109023
000D4EE3
000C123B
000EFED3
001419CC
00114C98
0013E62D
000113D2
FFF31C99
FFC62DA0
FFD6F763
FFEBB9BF
000D1185
0018E01A
FFF72638
0008A24D
000EA7D6
00098342
0006F5FF
FFFE680A
FFF678FC
FFF14864
FFEFEDB8
FFE98068
FFEB0C78
0006323D
0015C54B
0019DCC9
00227977
0009390F
000BC6EA
000EBF31
00189302
000DA024
0014F56A
0005337A
FFEACE06
FFC9C168
FFBAFEB9
FFED1B5C
0017334F
0001DDAF
001F9A2F
001726B1
00039CFC
000A9F5C
00066137
FFF9E0D2
FFFFD4AC
FFF6F1B0
FFF347D0
FFFE6469
00087635
001E1D01
003241FC
001A938F
00180FFA
0011C938
000577A0
001070D2
0025BD6B
001EFE54
001707E5
0011A442
FFF40B90
FFD5E755
FFD62732
FFF2D082
0003104F
001D948C
0032BDF7
00128B92
000F1389
0007C9A5
00053B03
000ED589
0010051D
0006367C
0019243C
001CB6F6
002045A3
002C56BC
001E615F
001260C1
00019BB5
000664E8
000C4923
000A5D2E
001D4EDC
00163F3A
001DE222
000877AD
000587E2
FFE42C10
FFE4625A
FFF89A48
FFFF7727
00138FFA
001FD40C
001A865C
0017F03D
000A5A6A
0016BEC5
00168210
0018DE10
00175F14
00252573
001FD1AC
0024985F
000CE598
00049A9E
FFF7A3FE
0006E712
000594F8
000F9D2F
00084E2B
0000E18F
000ACA6B
00183C0B
00157688
0003A785
FFEFD620
FFE6C79C
0001F68A
FFFB04F6
00081984
001EF494
0021A372
000FB028
00248A4E
00265DFA
001B2201
00168D98
001A1B2C
001EF171
FFFFF99C
FFFEDFE9
FFF92CDD
FFECD66F
FFF4F8B3
FFF0A5AC
FFF5F16E
00077EDE
FFFADF43
0002C12C
00162EDA
0004B018
000F151E
000ED3C6
FFE86543
FFDE4FF7
FFF4DDB0
FFFD2D98
000DA2D1
0014BDC5
000C686F
FFF9F8A2
00304C78
0028A796
00152A03
000F13E4
000F7A5C
FFFB22DD
FFE4E41B
FFEE9ABA
FFE54D66
FFE8382E
FFF497FD
FFE25094
FFFBC331
00042178
00021763
0007EE96
0011F19A
0014B4EC
001D7286
0013D937
FFF30C78
FFE1A8D8
FFE96151
000100C0
00062026
FFF79F9F
FFF1B804
0001725E
00222EE6
00169A79
000FE1AF
FFF4439F
FFE891DD
FFD64A96
FFD8B948
FFE8625B
FFE381CA
FFF468CB
FFF6E228
FFE9AAB3
FFEC4F54
FFFB702E
0002D1DC
001E07B7
000E2F50
001297A0
001CCEDB
002287F8
FFE54722
FFE4E6A8
FFEC1F22
0003B7D8
FFFD4C20
00051A70
FFF1AF0C
000F6AEA
00239DE6
00046103
FFFFB1A2
FFFC4ADE
FFEA3FF5
FFD63810
FFDB53F3
FFE12284
FFE5B77C
FFF17E33
FFF40CAD
FFEC68C0
FFF66126
FFFE0186
FFFF6EBE
00109A5C
FFFAC121
0002C33E
00000BC3
FFFE1248
FFD959BC
FFD8D8BE
FFF0DC58
FFF8AF0F
FFFF6CCE
FFEF0481
0000BE75
000DEA37
0008F172
FFF5BECA
0002BF3D
FFFEAF98
FFED468E
FFF2373C
FFDC5B2E
FFE6D510
FFE2BEFE
FFE71E0E
FFF235E9
FFFFEFC9
000EA57A
FFFF38AF
000E142E
00079E71
0002162D
FFFF4C1E
FFFF0A84
FFEDE476
FFE17AFD
FFDFCF2C
001A14E6
0010797D
001447D4
000B0108
000E22AA
0008272B
000178AC
FFF8F54E
0009EE24
00081EEA
001663B6
0009F30D
FFF6CC6F
FFF1BBA9
FFF52D29
FFF7B9E0
FFFA308D
000A29BA
000EA795
FFFD8834
FFF92807
FFF18495
FFF70A03
FFFF5412
FFF1B606
FFDF6160
FFE4F949
FFEBD6B4
FFDF7502
FFFF05B4
0013D643
00044A1A
00090FF9
00118DAF
001514C9
000095A5
000F3047
00183FAF
0021D193
00296E2B
00162A58
0011588B
000D1447
000F2962
00060D18
00046883
00069858
FFFD017A
0005A6F7
FFF91E4B
FFEBBD7A
FFDBE9F2
FFDFA43A
FFF1458D
FFE424DD
FFEBF69C
FFF58D8C
0001722E
000A3659
FFEBA47C
FFF58948
00068038
000322A5
00017F17
00074645
0011BE1F
001D8D0F
0028C955
002CAA00
00296DC8
00220244
001624EA
FFFD1CBB
FFFA2B66
FFFCD710
FFF4E2F8
FFF33014
FFE3A745
FFD4966F
FFCB3B23
FFD41B61
FFE69696
FFF35BFA
FFF2A64A
00073F7E
FFF050C6
FFF99754
FFFDE82A
FFEF5695
FFE8CE48
FFEC5BA5
FFE80CD4
FFFFD19B
00014794
000EAFEC
000DD8F1
001B183B
00192016
001FFECA
00062E87
FFFA9BC3
0009E53C
FFFFF5AF
FFFBD70E
FFE4E48C
FFD3CF7E
FFD0AB51
FFC9AA49
FFC99EFC
FFDB01DA
FFF39480
0016AD15
000567B5
FFF8C9F7
FFFFC2ED
FFFE7F10
FFE91532
FFDF1B91
FFF053FF
FFDF7F11
FFED1FA7
FFF9B632
FFFC8F87
00014CD9
0006075D
00107E88
000A26B4
00035ADF
00021092
00129A4D
000A03DA
FFF040C2
FFECE7A2
FFDFDD3A
FFD84D54
FFDE4BDA
FFDD3DA4
FFD7F2F0
FFE5F30F
00049906
0003F5AB
0001C747
000907BE
000FFC0B
FFF8B2A2
00037DA7
FFFEC589
FFF4B461
FFED8D47
FFE06252
FFF61485
FFFC2E65
FFFE67CF
FFF608EA
FFFE1AE8
0006116F
FFF54023
FFFF00B4
00087B58
FFFC1585
FFD724A3
FFD4BB7B
FFCAB1FC
FFD2E579
FFDAB768
FFDEE298
FFF58415
FFF036E6
000764F1
FFFEED52
00019C58
0009EAF6
000F1B35
00373FEF
0037F0E3
001C9750
000CBC91
00003D38
FFEE69D3
FFF8981E
FFF057DE
FFFD525A
FFF2CC72
FFF63F1A
FFF3E226
FFF43196
FFF48700
FFDBCCDE
FFC8F12C
FFCE12EE
FFD3D49A
FFDC5EC6
FFD49656
FFECBC9E
FFEC9EC2
FFF823DF
00008B68
000901DF
00017310
000A4803
0001B093
001F4BC1
00295125
001B686F
00141B5B
0017EDC7
000CA1D2
FFFB6BB4
000C9EB7
FFFEA583
FFE9E287
FFF114A0
FFE42431
FFF493EB
FFE4206F
FFCE0D94
FFF1B0CD
FFF38946
FFF4EFC0
0006BB52
FFEE662B
FFFE3EBD
0001931A
000377DD
FFFAF166
0006E803
FFF9F48C
FFFD2E76
FFFA1A3E
FFDC3136
FFF24B0D
0000D8F3
000ED4B5
00146C9E
0015A19D
001AA4F5
0016C3D0
0007CDDA
001EF106
000AD0E0
000B2321
00130A1D
000E5DB6
FFFCA652
0017058E
000208E9
0009CD87
00203604
FFFE9348
FFF798E1
0007A60F
FFF87A6E
00008FF1
FFF842EE
0004265A
000291AA
FFFF983D
000C7449
0006DA4F
00099371
0016DC93
00185E72
0012B319
0025621F
000F5230
0009FF12
0023F108
002486F4
000DA9BC
00178DCA
001F46AF
0012F107
001716CC
0004A363
000D02FB
00213E1C
0023894F
0000FDCC
000189D5
FFF81AE6
0007D778
