FFFFCFCE
00011F5E
00004180
0006EAB8
FFFAC355
000423DE
00086BAE
FFF96ED6
FFF8D6BF
0003170F
FFFCC11B
FFFFCB37
FFF3C12D
0001DD83
FFFF6578
00008FE6
FFFCD265
00032C83
FFFFD99E
FFFC5B31
0002456B
FFFC9AF1
000364A3
FFF73E40
FFFC765C
FFF9BC4D
0003E3CC
FFF9946A
0007157E
000239E7
00059A7C
FFFA0935
FFF892AC
FFF6FF7B
FFE7AE19
FFE80282
FFF0D8B6
FFF949B6
FFEF3A3B
FFF966E0
FFE129C2
FFDB45F2
FFF0D23D
FFF25423
FFF47689
FFEE775D
FFFAAB34
0001DD25
00003EE8
0000FD6D
FFF20525
FFFEEF12
0001ACA1
FFF8943F
00009654
FFF72BA9
0001F677
FFFAF8FC
FFF9D92E
FFF2A05D
000413E5
FFFF1F91
FFE43AEA
FFE57E6A
FFE2C5D0
FFDC8A11
FFD27485
FFCE948B
FFCD48F9
FFD3C1FC
FFE388B8
0007C3BA
0009D0D3
0011B57C
000C971D
00177BB1
0017212E
000D701E
000E5DD7
00072548
FFFBC201
FFF98F26
FFF7CA1C
FFF73190
0003B7B8
FFFAE834
FFFC0050
FFECC279
FFFFE161
FFFA3896
FFECA0CF
FFE90278
FFF3BDA1
FFEFC63C
FFFF13C6
FFFEA127
FFFAB361
FFF8FBF2
000D7919
0012B939
000FC93A
0006572E
0005291B
00063564
000C93E9
00065453
FFEA2E98
FFE64F21
0007EE47
FFF6A61D
FFFC0F39
000017D0
00049664
000329AB
0007D056
000C751E
0017122B
00060D97
0007D307
FFFD25C6
FFFECE20
FFEDBF0F
0008E8C0
000CB163
0010C03A
FFFE8BE7
00044C75
0013A59A
0008B166
FFFFDC0E
00107234
FFFC877E
FFF8FE83
0015D92E
00106671
FFF25C3E
FFF91E85
00126A75
000E6ACE
FFFB7B46
FFFF05C8
FFFC8B56
000DAA5F
00044FEC
0007A01A
002D168B
001F38DD
0003644E
000934A9
00134EA2
00117C10
00169725
0006069E
00075800
FFF6ECBF
FFFB4A59
0000A213
000ABA3D
0004590C
0002331E
0001DF5E
FFF8D771
FFFB073F
0002A0A8
00042CB1
0011A2C0
0017AE81
000DF3B5
00046B28
000A7656
0016C241
000CD751
000FA14D
000E9724
000D7922
0015D484
001BA9EC
0015B561
000EFBB2
000F2BC4
00059470
000A6CCA
000E8CF0
000C4D2F
000D8AD1
0004D898
000AF649
00052C34
0001DD1F
00071628
FFF5FBED
0006F082
000EBA6C
002710B0
00188CF8
001B4B20
000B437B
000A9319
000FCF05
00138158
FFFA2FEE
00017B51
000A32CD
0017E2F6
0017EB31
0013CCAA
0015A635
00069B6E
001092EC
00097102
0002B879
FFF85720
00102886
001620BC
000836B6
FFFFA172
000F936A
0008B2EB
FFEEBBDC
FFEFF88F
000141B9
00204B6F
000A4502
000481B1
FFFA3AC2
0009F798
0003B073
000B64FD
FFFE13BB
0006EF56
00071CF9
000D0DCF
0005974B
000116D4
000B8302
00137D50
0005DF48
0004663F
000E3B9A
00027E29
0002F37E
FFF8802D
FFFED759
FFFCCB91
FFF8CA9C
FFFFC20A
0001A5CC
FFF72672
FFF525FF
000BDA1A
00119A64
000432F1
000BC305
0006184E
FFFCDB48
000A0F4D
000FA872
00053002
0005D90A
001085FB
0004BB3E
000194F1
FFFBE998
0006DFF9
00090CAD
000BE0CF
000DDB2C
FFFA12DC
FFE769FE
FFEC1C7C
FFF1404A
FFE7A1F0
FFFBAED0
FFF1A54F
0004F062
FFF45303
FFF53CA6
0004ACE2
00006479
FFFED1B1
000B4EC5
000CA172
000157F5
002483EC
0005CCAF
000E4B31
00079172
0001F4D2
0001B9BD
0000AF5B
FFF55095
00078EE0
00049B4A
000A024B
FFF147B5
FFE68B9B
FFF21DF9
FFF6B64D
FFF33C15
FFE55515
FFF7A89C
FFFCBAED
FFF4A068
FFE2C0DF
FFE4D88E
00133688
0014D002
0004CC8E
000F3D00
000A8625
002A2BA2
001735C0
00179639
000EA736
000AE7AB
000B0D52
FFFBAEA7
FFF8E19B
0001CE47
FFFE3AEB
FFFB77DD
FFF80FAC
FFF6C3A1
FFF2C6BB
FFFC9742
000B0358
00034EAE
FFF4FAB6
FFFD12CC
FFF5A61A
FFF31C21
FFFB2F90
FFE1E671
FFFB55C9
000C67E0
0009BF42
0003B23A
000D9ED9
0011B33B
0012360C
002A7E2F
000E0A93
0011B53B
000DADE9
0009E4CE
FFF823A9
000CE1AA
0008D2A9
FFF50D1A
FFF4D62E
FFFCE651
0005BC0B
00004A37
000A4759
00029327
00005FD8
000C7AF3
FFF3E46F
000D1693
00070490
FFC2E6FC
FFFA6AD8
00016AFC
FFFDB21F
FFF6D44C
000A5EDA
000E0E7A
000C6217
002C26FE
001A1852
000E503F
00046C2F
FFFB6E87
00043A57
0001BEE3
00030265
FFFE7C27
FFF92CFF
00065705
FFFBD39E
0002B51A
FFFF4FED
FFF7D353
000249E0
00162B32
000D9457
00130EE8
00058856
FFE7209E
FFF0B587
FFF686E2
0002327D
000732C6
000F205C
0023BE52
00141A7F
001C3138
0002CB66
FFF79AA7
FFF847FD
FFFBFFC6
0007D283
0002D70C
FFF1F86B
FFFBE24A
FFFA457F
000ADBD4
000319D5
0001D571
FFFAB1A2
00017B94
FFFFD648
000C0FAD
0011ECDD
002036F2
002084DC
000D2DF2
FFEBC310
00085EA6
FFF42ABE
000A4A3E
000F75D6
001432FC
000CD37F
000874E7
FFF55DF0
FFEF27F2
FFD4E3CA
FFD649F6
FFE55D78
00049756
00048C26
FFF821C6
FFFEE4F5
FFF195C2
00061985
FFF73ADB
0009440C
00031002
000302DF
0016178E
001413FB
00167AE4
00244A3A
0019F2BF
FFEC16E3
00129EFE
FFF74E7B
000048E9
0002C85F
001565EA
000530FD
FFEB6576
FFE9CACA
FFCDDE15
FFCDE9FE
FFCDCE17
FFD277A0
FFDE9122
FFEE4CB1
FFF0B498
FFE1E115
FFEA89F6
FFFFE7FA
FFFDC5FA
00057522
000FCA56
000F2E75
0000BC49
0008B728
0013E572
00039647
00100DF7
FFE395D0
FFFA74A3
FFFC3490
0002CBA6
0006D9B5
00013507
00083850
FFE084E6
FFD1DC82
FFBFDA91
FFB752D9
FFB8EAB3
FFA90016
FFB1B862
FFC1541B
FFCB783A
FFC6C2DE
FFE16024
00112AA3
FFF5F9F7
000194B1
000E1FA3
00039502
FFF9BF7F
00086182
FFF606EE
FFFD902F
000919DD
FFF82DE2
FFFBC4DF
0006EA75
0010AEEA
000AFCD0
0014002C
00150100
FFECC97F
FFDE79F5
FFD031E2
FFC997ED
FFB8C00B
FFB73F31
FFB967CA
FFB0E34B
FFA51F5C
FFA4ABC1
FFF6154C
0011DDCB
001052A9
0006FE14
0004FBB8
FFFC3343
0001189C
0016201A
FFF577F6
FFEF2106
FFE7FD82
FFF9612C
0002F64B
0009BB9D
0005FA9A
001552E9
0013C772
001402C5
FFF5E7EB
FFE7D74E
FFD2CE36
FFD2C588
FFDDBA36
FFCB40B5
FFBF3B08
FFBBC594
FFA8DADE
FFC6B357
000A915E
001B9593
000DC118
0004C067
00026F40
0003CDE9
FFFE802B
FFF8388B
FFF55A6E
FFF0BA92
FFFDE9CF
001042BF
00030ABC
000185C2
FFFB2FCA
FFFABD9E
000B7519
0016F436
FFFC8E55
FFF27186
FFF4226D
FFEF34F8
FFF7EAB9
FFF36DB7
FFE5FF2F
FFEA695E
FFE21708
FFF32B9D
000E635F
001CC510
00098952
0005C675
0007300D
0000156B
FFF76D7A
FFF1CBAE
FFFC04FF
FFF336FE
FFFE8572
00198125
00070E1E
00076B57
FFFCE5DD
00002390
FFF5C846
000D7787
000B9730
00046B8A
0008C434
0012991B
001B2EC1
0007F312
001A814F
0010CD64
0026BDD2
0019A26C
001011CF
000EC209
000CD498
FFF9521B
000597C4
FFFA6799
FFF9463F
FFFC540C
FFF73C64
FFEF4AFA
00014A10
FFF2CE40
FFFBC5C6
FFF4D331
FFF788A7
0005C806
FFFAC925
0014A277
001896A2
FFFCFE37
000133D4
00046D32
0012F3C2
00158C6D
001F7078
001AA424
001E474F
001CC67E
000EE31B
0017666B
00055F30
0004B2B4
FFFAD149
FFFA40AD
0008C3A1
FFF0E181
FFF62DC6
FFF2CD91
FFF33FE8
FFEEA50F
FFED858B
0002B203
000350E2
0005F688
FFF8C198
00134D7F
001D42D5
0001FB50
000E4C1D
000B8751
00015A3C
000CD05D
001CF5B4
001E1BF9
0013DAF7
000CB327
001528CA
000C7A0F
00076EFB
00003FF4
FFF40ACA
FFF8E428
FFF04595
FFE8A31E
FFE9FAAD
FFF3D880
FFF56BED
FFED8D51
0008D883
FFFFDA77
FFFE804A
00039522
000251C2
0014B366
0015A233
000D74D2
000A1191
000F55BA
000D3AEE
0007F5CC
0009C1EE
00082608
000A5997
00029600
000B4670
FFFC4177
00038D06
000A49C1
FFE4430C
FFD5E6A7
FFF37F00
FFFFCBEC
00060F6D
00087F8B
FFEF3D4E
FFEAA488
FFF87DCD
FFF7C482
00019CF2
0001F43C
FFF8F162
0011AE20
001524EE
0016C02C
00098DB2
000CFCAB
001D681B
0019BE26
0004041D
001926B2
001E4F7C
0008809F
FFFD0A5F
FFFFA2C6
00086A8B
FFF69511
00037C3A
00117A05
001567B8
001CF8C3
001740ED
0016C97B
0021784F
FFFE8371
FFFDA914
0009237C
FFF6E959
FFFDE986
FFFC62AC
00075169
00010692
FFFDA683
000CEDC4
0010F571
00135864
00313C43
002332EA
0018EB13
00190A79
002373FC
0036E7C4
002CB495
0023FE5A
00275F26
00287A6A
003A9FBD
00309F4C
0031E2C0
002204EA
000CB6F2
FFFE5058
FFFD8D0A
FFFAEB40
0000A5EC
0000E013
FFF70DAF
0004965E
0004A860
FFF971B8
0009F664
00012187
000EE651
001A98FD
00170E9E
0017641B
0009539F
000AB593
000EDD96
00102925
001285E1
000CFDCB
001F5F61
00133F5D
001E5C13
0011BDAD
000C2CCB
0009028E
FFFF138D
0008870F
FFFA7D62
00034378
0006682A
