FFFFDEDB
000700A3
FFFBC176
0004DB44
FFFAB175
00069411
FFFD0E2C
FFF8C7DD
FFFC8222
FFF864B6
FFFF6EB6
00001E04
FFFB3FE9
FFF9D12C
00041675
00082A17
FFF9DB54
FFFEB5F9
0003812D
000681A5
FFFBB094
0006C7FD
FFFB5851
FFFCDB00
FFFE08D1
FFFB2920
FFFDD002
0001990C
FFF899A9
FFFB46A5
0002152D
0004C947
FFFCB5A3
FFFCEDBF
0001C741
FFFBD08F
FFF5BACD
FFFD6B69
FFED1E7B
FFED4935
FFE26838
FFF4527E
00058C6C
000597D2
00148F0B
000EA6D3
FFF8EE32
FFF61026
FFDF4EC1
FFF01226
FFF1830E
0000E48A
FFFB5492
FFFB9F1D
FFFD07CD
FFF965FA
0001F0CC
0001DC0C
FFFED501
0004663D
FFE791B3
FFFA6905
000010E0
FFF78628
FFFC4F31
000A2BB5
FFF0BAD4
FFF86091
00056EF9
FFFCBC69
FFFD563B
FFFEC8E2
0008B33F
FFF71C0A
FFE89650
FFDC9FE7
FFE88732
FFE4CE78
FFEACA20
00024236
FFF9E3D3
FFFFFD25
00046790
FFFE56FE
0001FC06
FFFA2F39
00171A93
FFE2DEAF
FFE8D426
FFF95735
FFF93627
FFFB06E1
FFFF439B
FFFFA900
FFFCC7CB
FFF7B369
FFEB073F
FFF6C462
FFE97DFF
FFE33F12
FFEF47FF
FFE56075
FFE4CD45
FFD78376
FFDB57E5
FFD33C8F
FFF1AD5C
FFFC9A14
FFF7F0F2
FFFAAFF8
FFF46B30
FFF9F63F
FFF9642E
FFFE6A31
001BF011
FFE88A6B
0000115D
FFFB4224
FFF9E72B
FFFBEF52
000149BD
00070A63
00034969
00045F6E
0019E2BF
0009155A
000ADDE5
FFF7E96C
FFEEDEFC
FFE5371C
FFF45E6D
FFE8B4F8
FFEE6F0B
FFE1875A
FFE83DF0
FFD41820
FFD651E7
FFF73445
0003E577
FFEBB67E
00028C1E
FFFFBC10
00225018
000F9C4D
00278DAE
FFFF3337
FFF85DDC
FFF93FBA
000561CD
FFF7C0CA
FFF8F1E9
000AD0F4
00112795
000C027D
000B5758
001441DB
0005ED32
FFF600A3
FFFEA235
FFF7285F
FFF1A6A8
FFF32874
FFE9B4BE
FFF331D8
FFF27399
000E606A
FFEFDB87
FFF0C873
0007F8F1
FFF5DDF5
FFE923B4
0026AF7A
001D0ED4
FFFC86F4
000BD94B
00025AA9
FFFCF070
000D93F6
0010A932
000A4471
000E2B84
00238200
001044F6
0019127A
00116F35
00131F6C
00048F4A
FFEDDDE8
FFE64DA6
FFE9C228
FFEAA3C0
FFDD05CE
FFE76AB7
00110B0C
FFFAA21F
FFECB383
FFF6BCEC
FFF3DE5F
00034089
00255824
002F6232
FFFEBB15
000FCF7C
0001AF71
0009E1D9
001749C6
00045A38
FFFB8F7A
001308D1
001865DA
00083C25
001039FE
0016F5F5
0002634D
0003E1C5
FFF5D896
FFF3E5F6
FFEE7021
FFE79502
FFE55D5C
FFE87D96
FFF2ED05
FFF431E0
FFF0F096
FFF1A051
001BEAAF
FFF42B01
00032D56
00284BD2
000F58FA
000E94AF
FFFDD01F
FFFD98E2
000BA3F0
0011BE20
FFEF9BD6
FFFEC1E7
000947E8
0016129B
001F99BA
0022C8FF
0014474D
00135EF0
00072273
FFEB4562
FFE1FC06
FFDCFAC2
FFDA47A3
FFD1B7B9
FFEF9E35
FFFE97B8
FFFBB2AD
0005FC8F
000162B1
FFFA82CD
001BCB47
0013FCCF
0024346E
00027D94
000129C8
FFF709C0
0003E900
0002A165
FFF62A97
FFF98DF1
FFFD8BE5
00183EF0
00261B78
00203BEA
00337CB2
0028EF68
0012BF6F
FFF8991E
FFDC7FAE
FFDDBBB4
FFDF871D
FFDDB884
FFF9CFF2
001E7139
00160E27
0005E1A5
FFF56D7C
000400ED
000F8B50
FFF8C254
000DC45E
0007225F
FFECA59E
FFF5000D
FFEC294C
FFF8B6D5
FFF52AE4
FFFE5494
FFF7D2A4
00006C02
00158442
0022023F
003A9920
00347D18
002C24B1
FFF84FEF
FFE92DFC
FFCEA37C
FFC7A4FE
FFC53006
000BCF33
001D8C8F
0014B298
00067615
FFE0A458
FFFF1CCF
0006157F
FFF0AE72
FFFCAFE2
FFE79FB5
FFE3E6A8
FFE88652
FFE93A57
FFF6F35F
00035EC1
0002849E
FFFB963A
FFF60EB7
00106DDC
002B0B80
00380019
0039C79E
002B8DEC
000BC979
FFEBA89F
FFD1D3BF
FFB7C02A
FFCA2E77
FFE9A973
00112859
000A4C10
00024ED1
FFEB1A5D
FFFAE788
FFF4FCBF
FFEFC7F1
FFE2C72A
FFCF326D
FFE85B66
FFF4C967
FFF46A8F
FFFF62E6
00051EE6
FFF1861A
FFEF1558
000C4E96
002314E0
002FEA9F
0037B86C
002B5872
002BF949
00007664
FFD338D8
FFC45184
FFC2E021
FFE9E33C
FFFB7A99
00068573
0022F4A6
000335E2
FFECEEFE
FFEEEF49
FFF2C003
FFD83B41
FFD050E0
FFD3A17C
FFE730FA
FFFF4C2F
FFFAF5F1
FFEDEA48
FFF06B95
FFF58EDC
00030968
001DAC4A
0018900C
0021C097
002C9FC2
00289ACE
000AE417
FFE73176
FFC499F5
FFC267E8
FFD849B0
FFF3BC5C
0012BCF5
000AE06A
00156A2E
FFFB9E7B
FFF72541
FFEBD44A
FFED9110
FFE89CFB
FFC9336A
FFDEBAE0
FFF9D8CA
FFF1775B
FFDDC226
FFE60C44
FFE96A32
FFF22478
000EFF78
0019E588
001CA5B9
001A44C2
002CFBD5
00134D4F
FFE974C8
FFD18FEF
FFCC7069
FFC3A975
FFD441BF
FFEFDE1C
00100152
001481CB
0011C870
FFF5EBC2
FFF834C4
FFE6958C
FFF8EFAA
FFEE977F
FFDF1A5E
FFEC29B8
FFF682E7
FFF6AED8
FFE9C0A1
FFE41E6E
FFFBC198
00032D53
00158495
000DAD9B
001B4A85
0020F1D1
000BD2C0
FFE8B91D
FFCE4537
FFD27078
FFC44744
FFE180F3
FFDE4197
FFED5FF2
00042B82
FFFDAD42
000950EA
00063FAC
0007A775
FFFB374A
FFEE2DFD
FFED0600
FFD3B31C
FFDA6A60
FFE75A5B
000254A6
FFFD6F39
FFF3DACC
0008F358
000553FF
000881F4
0016A5A4
00115A1D
000FA787
00042C7C
FFD6F1C6
FFCDF564
FFD135E6
FFE0BF75
FFECFD7C
FFF86F43
000AEB30
0018FBA2
0012A205
000D2D9E
FFFCD199
000561FD
0002C6D0
FFFA2CF3
FFEA7909
FFD40038
FFD31D60
FFD9E0C2
FFFCCC1F
0007C284
0003EDA5
00072BA0
00186978
0016118A
000DFE6F
FFF52BE1
FFF1BD5B
FFEFFAE8
FFD40A54
FFD6A0FB
FFDDD9ED
FFED5618
FFFB99C5
FFFD636C
001247CE
001E85F0
001BEED4
001F179F
001A03A4
00077DA4
FFF256B6
00054BE2
FFEB9558
FFE4CE1E
FFE0BFC0
FFEB68E5
0003664E
FFF36612
000B356D
000EA3A1
00003CB1
FFFE1392
00038799
FFF700CA
FFF5BFF0
FFF1B61D
FFE31ADE
FFF07860
FFE62168
FFFAA78B
0011DD38
0010075B
00079EDF
001A2DA1
001AD299
0027206C
FFF91AC8
000742A1
FFE7A7D2
0006451F
FFF30D79
FFE3F773
FFE8B312
FFF5E0BE
000081D2
0008167A
000D3360
FFF44B49
000215AF
000D883A
00005182
FFFEF8A7
00013E82
FFF8E8E4
FFEC3EF9
FFF5FE9E
FFF9E430
0002C3E6
0013175E
000A2649
FFFE2605
0004C830
0015442F
000D1063
FFF90AC2
FFFED06D
FFF8231F
00151ABC
0005F08D
FFE1A378
FFFBE0B3
00068093
00027683
0001C964
0001A9EB
FFFA8DC7
00043328
00026F1E
FFEB529B
FFEE358C
FFF8B2B6
FFF881F8
FFFFCC9C
0006C205
0008B2DB
000B7568
FFFF2F91
000CEB79
00104225
FFFD09D2
000B4E85
FFFC358A
FFFC6F30
0019FAFB
000FC0F5
00108418
FFFF615A
FFFE7075
FFF94F57
FFFCC6E2
FFFC3DCB
00092419
0006A46B
FFFC2C61
FFF00C3E
FFF31A39
FFF4DFE3
FFF60B3C
00084FFC
FFFC7B0A
000B6CBB
00154C88
000DD650
000BF80D
0004A290
000A8B32
FFFEF787
0010CA84
FFF5E94E
0004D3C4
0003F1D3
000043AA
000F89CB
001D8143
00032AE1
000B3D06
0014724F
0011A1D4
00145A80
00076A48
0002CC2B
FFFE074E
FFF687FC
0004D7A7
00015C6B
0000BE31
FFF85861
FFFEFD64
0008C9B3
001441AE
000D8269
001EA91B
00113B11
FFF7FB96
00020C87
00061E16
FFE66A58
00081525
FFF94CD5
0004E06B
00002074
00018793
FFEA464A
FFF7AF6F
FFF7B465
001B8D0A
0007F268
0009E0ED
000B13B2
000AD9A2
000E5853
0007AF8F
0000275C
FFFD8586
FFFE67ED
FFFBDCF6
0013B355
001F2026
00144BEC
0020C923
0019B809
00062F40
0002FFD9
FFFEFBC8
FFF047C4
FFF85C8E
0008AA4C
FFFC6EE3
FFED1439
FFD9AE38
000E4E23
00077C84
00010192
00045394
FFF941C2
FFECA29A
FFF5651B
FFF00432
FFF05983
000232D0
FFFEF8D0
FFFF1B17
FFF286A9
000B5B66
000396B3
00165444
00063FF8
0009AC20
FFFB1DA1
0011F7BC
0006E4F7
0021AB4E
00105210
0001B75E
FFFBC03F
0001DFB4
000B2611
FFE73B3D
FFFB49B1
001C1613
001960EC
000F4B41
000B0D5B
FFF11504
FFEB1629
FFE62CF9
FFFAABA6
FFFFF31B
000844E1
FFF61297
FFF43EE2
FFF6705A
FFF858ED
FFEECA4C
000B56D8
FFFBBD0F
FFE695F3
FFE44D44
FFEB99A2
0010B605
0006BD36
0007A5C8
FFFEC026
00042247
00003280
0009F9D7
0013598F
0013421E
002E9290
0041D71C
00467B40
0038AC10
0036CEB6
001E65AC
0005B4EC
000A9366
00279494
000FB32A
000E088E
001FAAE6
001B719A
000CB234
0010DD18
000DE23B
0006FF7D
002087E7
FFFE8B63
000886BB
FFFFE953
FFF9D423
0005E2AC
00053616
FFFFAD67
000068B6
FFF4F158
FFECB072
000F7057
000D2116
001B97E0
001CC05E
000987A1
000FC7AD
0007852F
0002DEDE
003095C7
002C6F0B
0026AE48
00235B1A
0012D006
0011FD51
00119388
001475DA
00185BF4
0003B14F
FFFA9274
FFF8CB1B
00064B23
000668BA
