00041532
FFFB1A7C
FFF7DA78
000118C1
0005A2B5
0003D905
FFF89FD0
FFF83967
000407FC
FFF6F3E9
000470BA
00004E0B
00038FF4
000ABD19
0006AFC8
FFFCE710
00021C04
FFF8B700
FFF9ED92
FFFD6CC7
00004C4D
00040452
0002A864
0003A904
FFFEE515
FFFD367A
FFF72394
0005B542
FFFD22E6
FFF90309
FFFA79BA
FFF948DB
00068A2C
00065708
000F9996
000C3042
000EEB4A
000EF3A2
001B8FC1
001789AA
001B1122
001E3FAF
FFEB765A
00168B8D
00277B98
001F0F4B
00108954
0014A241
001A2DDC
00065A66
0015AF88
001ACC34
FFF7651D
0008C9C5
0004104E
000056A6
FFF9E986
00019C73
0010F391
00126A28
00256C2C
0007A950
000F8EFB
002A38E3
0027C88F
002A94E4
002D6B82
003EB41A
002B907E
FFFB3C1F
FFF61139
FFEA5101
FFF8DA73
00001E5C
000C6210
00026668
0006209F
0020BA9B
001717EA
001F9775
001152FD
00037316
FFFAD1F0
0008A333
00006056
FFFCA6F9
FFE2CCD1
001A676B
001E6A08
00340CA0
001A91D7
0021E15E
0030056E
002C8126
00353A96
0043E90C
003BAA87
00365FC0
0036000A
00245D08
001D3913
002BD9D4
00282B52
000879B6
000CCA0E
000620B9
000ABC5B
00217621
0029CAC8
00135E05
000F2BE9
FFFC2291
FFF97C9E
0006018F
FFE6AAC3
000672A2
0002EFFD
0006F811
00048B96
00128510
0018B903
002C6E32
00277D03
002BFA78
000DF55F
FFFCEBDC
000B51F9
0012077B
001998E9
0018D57F
001EC1EA
000D2131
FFFACAF2
FFF4A3D3
FFFA8D99
FFEAE565
0002DFE5
001499B6
001C6E2B
0010DB6C
FFF8D84F
FFFB7185
FFF145A9
00005052
00126BE0
FFDF01A0
FFF342FB
FFF0B2B2
FFFE8CCD
FFF63CDD
FFFA2914
0001BEE6
0002D377
FFFEDA46
000CCB79
FFF9B177
00120D50
0015D1E0
001394A6
0020DA78
000EF935
0006A129
FFF9D46F
FFE07A90
FFFD7856
001E3DEC
00234F50
0015E25F
00010C86
000E0442
FFFDD30A
FFFDF985
FFFB232B
FFDF05D6
FFF14C2D
FFF85EFF
FFF24F8F
FFF31317
FFF74559
FFF81C3B
000301B3
0008E88F
000C41EB
00070612
00118E09
001243ED
000B33FA
0010D15B
00015461
00044F8C
FFF918FC
FFEF150F
00018470
00175290
00040A17
0002A65F
FFFB163A
0013F7D7
FFEF7401
FFF84D5E
000231CD
FFFC8461
FFFB49CB
FFF69371
000BB64E
0007CB65
000BE34A
00002CFF
0000E283
0003D9FF
0005E270
00105DC0
0013E5ED
FFFBE6BE
00093CCE
FFF65A8C
FFF32CC1
FFED792D
FFF1437C
FFFDD063
00058E74
000C8241
FFE96207
0013388C
00191C33
FFF95E1C
FFF1C3A6
FFFA47A9
00004ED2
FFFB4D64
0002B88C
FFF73BEC
0009D6C6
0008EFF0
0009D58B
0006CD6C
00099BD8
000D740E
00061A02
001454ED
0018AC48
0005B9B6
0005DB5F
00092B9D
00088A0A
FFFB2C97
000235A6
000847B3
00103730
FFF862BB
FFFDB3CD
00196F87
FFF002D8
FFE74FC1
00014EB7
0009AE4E
000AF340
000EBB27
00012241
000FB08A
FFFF7CD6
000FC285
0007BEE2
0001E592
00072E5D
0003BA18
0004518A
0009364D
000E64E8
00080A11
FFFADEF4
000B8E5F
0013B1A1
00040968
00095C2A
001C9E1F
001F1804
000A2C95
0003619F
FFEB0C3E
FFF16D2F
FFE9E663
00031410
0005561A
0009B5E0
000793A3
001C2D96
000D836F
00014483
00058B4F
FFFF8CA4
00054078
0004AA02
0008DC16
000191E1
FFF78B90
FFFB400A
FFFD2E92
000DD68C
0004E88B
000C2036
000AE67C
0004E4CA
002FEE48
002056A2
FFFCF5AE
000162B6
FFF16844
FFFC3A0B
00038A43
FFE45CD9
FFFE2F59
000BC74D
0005899E
00187A3E
0011CE10
FFFBE846
00027E2D
FFEE7877
FFFC040F
FFF2D1D7
00103029
00107827
FFF4AE30
FFF2E10A
0007EDDE
00097229
0001AC01
000D30D2
000A3430
000E6A30
002EB5A0
003EC378
0026890C
0022C41B
FFF9B4E7
FFFE4DDF
FFF6DB6A
FFF0E0B2
FFFC7475
000B976D
000AAF3E
000F953F
FFFD3039
FFF8D7CE
00000CD6
000340A8
FFF26EC7
FFFD4DA0
0015CF3C
00167729
FFFEC21B
FFF4DAEB
000A51ED
0001FAC9
0000EC72
00042A63
0008E126
00080895
002315F6
0040627F
002AE17C
00087000
FFEBCAD1
FFF334EE
FFFD7FFA
FFDF0640
000A45E1
FFEEED75
0000A596
0002A430
FFF9A783
FFF5A316
FFFC5DCE
FFF9F746
0000636F
0014652D
001CA3A6
00093F70
FFFA0E54
FFEFC3C9
FFFA5139
0005E792
0009B366
FFFF6BEF
FFFD7198
0015F9CA
002CC106
00295F95
001D7706
000B7EB6
0017191C
0007EEA9
FFFAABD3
FFD3DFCA
FFF5954D
FFE13EE5
FFFB2A1A
FFFEB241
FFF67EFF
FFF39B1A
FFF6078F
0007A181
001CA318
001BF20E
002B4E94
0004179B
000271D7
FFEE8C89
FFF5F2B0
FFF5EC7D
FFF6B6A4
FFFA2C6D
0005EEA0
000C7569
001A5576
0020EB6E
001FDDEC
00181B28
00088D1E
0002D3A5
0015C27A
FFE43E3B
FFE7B370
FFF30470
0003290A
000070C0
FFF5F250
FFF09218
FFFD0A5D
0010E852
001B404A
001D4460
0016C6B6
FFFFAE3C
FFEF155F
FFEC6520
FFEB92A3
FFFA192F
0006CD3E
00043EF7
00062043
0007F0F9
000F14F7
003BCE13
002E7DFC
FFECCC93
000372C6
FFFF10D7
000828C3
0007E224
001274E9
0008223F
001506EC
FFFC181C
FFFE8D80
FFF55777
00046F64
001F4136
0023EC90
000BEBC4
00005381
FFEAC3D3
FFEEFE86
FFFB5BC7
000610C6
FFFC65E7
FFFE7B76
FFF4C442
FFFB4EEF
0006FF38
001C67F4
0029CABC
002276EC
00122D52
00158FDE
FFFE93C8
000C4D64
FFFD40B0
00198CDA
000534D6
00123C80
0011287E
00088D20
0008D224
000A0FB8
001428E6
00184830
00066585
FFF0CB56
FFE2FF6D
FFE865B7
FFFE2DE5
FFFD3879
FFF4E435
FFF9EAC0
FFFFDFD2
FFF5C50E
FFFA0F55
00115900
FFF8A860
FFF9128E
FFF923BE
001B8CE7
FFEF3389
FFFCD1D8
FFF38CC2
000F103E
0000D16C
00082E91
0015378A
000AF648
FFFBB7DE
000521D3
0015843B
001148C5
FFFB724A
FFE69538
FFE0EE11
FFFC06F8
000B7CD7
0004BA98
FFF02411
FFFAE11B
FFF28FEC
FFEE9986
00043F3B
001242D8
00070149
FFF296A1
FFE840F2
FFE6547E
FFF8473F
FFF9F800
FFF6450A
00026BC9
0006DE4B
001799E8
00037B2A
00071BC3
00063629
FFFF5EA2
001DA2D9
001681AC
000FAE26
0007D1E4
0000CDDC
00063FBE
00067B6F
000A91FE
0004612A
FFF36627
FFF7D5B7
00032AF4
0022D81D
0014DCB7
FFFB7D25
FFE80DA4
FFE5E1FC
FFF4309B
000332F3
000E3924
FFF8AA56
000BDE61
000F50B5
002049C8
00087073
0013C1ED
0009DCE6
0011A250
001E9B23
001C135A
00156013
0020907F
000E8DD9
0010C133
FFFA97B8
FFFB6F72
0002C40A
0004B12C
000F3116
000B8FD2
0008A05C
00090EC2
FFE88F8E
FFF7D267
FFF2ED54
0005A9CC
FFEFC5D0
0006B130
000072CA
000BAB24
00051195
FFEA1811
0003F247
000EBF2F
00004005
0006CB78
00127C6A
00188DBF
001F35C0
001EBB8B
00184356
000B06FC
00075A4A
00070DCD
0006289E
FFFC661E
FFF3290C
FFED3A7A
000092AE
FFF82910
FFD5E488
FFF45598
001A2EA0
FFFDE3B6
FFF5E848
FFFBF90B
001341C6
001DCB2B
FFF3A182
FFE5D7E5
FFFC3654
FFFB51E7
0003ADD9
0006EA67
001198E3
001D01F8
001D27EA
001ED565
001D9124
0010A44B
00079752
000B326F
000060B4
FFFADC7B
FFEBB6BC
FFF36E5C
00054686
0002E615
FFEAB819
FFF50E4E
FFED1CDD
0000B6EB
FFFF2FC5
FFFAC5AF
0017FCCB
002DA004
00051A42
FFEA39F2
FFE6C16A
FFF361EB
000ED588
00068F4C
000DAD4B
00148EDB
00071C76
001FF191
00174602
0013CC07
0012A2E2
FFF94F28
00064670
FFF31980
FFEBF61E
FFFC9E2C
000F3AC1
00242706
00085728
0003857B
FFE9606B
00061B62
FFF71FD2
000182B8
FFF30FFB
0014F194
FFFDFDF9
FFE23CDC
FFDCE5EC
FFF14E46
FFFEE56A
0008171C
000AA1BD
0005C52B
00197040
001E7318
001D634D
00182626
001B7BF5
00053F7F
0006BEAC
FFFF1635
FFFE7B76
FFF1A24D
00045C3C
001F9114
0028E210
FFFD3976
0002D3DC
00045386
0000EEF3
FFFD47D7
0018ED85
FFEDC62C
FFDCC47B
FFF75995
FFF7C70D
0006C16C
000929B7
FFFE960B
000D3EB5
0015E36A
0012E122
00191197
000E5CE4
001A570F
0014A0AF
001189B6
000E0F27
001F6C66
001194F2
000F1993
0011475A
000EB3AE
0026B39E
0006E0F4
000DB32A
000196A1
FFF85532
000048E1
FFFA9516
000710BD
000D0BF6
000C1F35
00071736
FFF9C20F
FFFEC513
FFFA3D64
0018E70E
001D9888
00222F0F
000B32BF
000FC241
00057DF4
00161970
0019848A
0008B323
0007D051
000A0530
0001F786
0001772E
000ABC63
0017DECF
000541F4
0003747F
FFFDD5CC
FFFCB017
0003A916
FFFDCACF
000802B5
FFF2E309
FFF9905A
0009762D
000B29F8
00058828
FFFAC533
FFFA828F
000C5E2D
000EFE43
FFE6CA0E
000F19A6
000803A9
FFF872A5
FFF3660A
FFFD59F3
FFFBEE06
FFF7445B
FFE9B644
FFF0C63B
FFE72404
FFF8D866
0003D1AD
00010951
FFFD2C7F
