00079B71
000521FD
FFF916BB
0005AC42
00030866
00028061
00006678
00010C79
0008DB69
0000B5A2
00048359
FFF774AC
FFF947AA
00024A01
FFF6BC72
FFF9FFCA
0006F0CF
00039B80
FFFB27D2
00008928
0004625C
00003BCD
00057B9E
00090D6D
FFFE7182
00069D62
FFF836B4
00033C72
FFF81F78
FFFBD3FC
000624A3
0000EF9F
0002BB0F
FFFE99F4
FFF72CB7
FFE7A31B
FFEC3E34
FFF70DDA
FFF3387C
FFF6C724
FFF50F72
FFF728D3
FFF8D432
FFEDBAEC
FFE73B21
FFEEE0FD
FFFF8E13
FFF7530D
FFF79E48
FFF62AD8
FFF8A69E
FFF1E13F
FFFD7B70
00063E7B
0006ECD0
0002056B
0006F160
FFF8146B
FFFFAD76
000B435C
0000D8DD
FFF3896D
FFEA0D34
FFE540A8
FFF3AC12
FFEAF0BC
FFDDABBE
FFE6962B
FFD89ACD
FFDEC0DF
FFD82F62
FFD8B2F7
FFD84EDB
FFEF4BC9
FFF61B28
0001E7F3
FFFC50C3
FFF3294D
FFF358C8
FFE99F5A
FFF0F138
FFFCC4E9
00042E3A
FFF7CE47
00053581
FFFF4ABE
FFEFEE46
FFF20C4B
FFFC8892
FFFF4EDF
FFE100C4
FFDCA71A
FFD1C230
FFD38BD6
FFD1AB00
FFDFB9FC
FFDF2A80
FFC3FDA5
FFD6FA5D
FFECCFEC
FFEF57DF
00023122
00006E26
FFFCC50D
FFFF9FE4
FFF038FD
FFFB15A3
0004DB4C
FFFA32A9
FFF8796D
FFF8BBDE
FFF7A4D1
FFF8E6E7
FFF9E0C5
FFFF6551
001116BE
000941EF
FFF8E6A9
FFD91F31
FFDE9994
FFD8548A
FFE081C6
FFEBB084
FFF044D3
FFF4B58F
FFEAD83C
FFF5D382
FFF4B276
0003FEE3
0016D583
00127AAF
FFF0CC97
FFF33A9C
FFE8B888
FFE899B0
FFF5944F
0000C8FE
0011B786
000F9708
000528D9
0006E58A
FFFE24E8
FFF9B402
00020DBF
FFF5C761
FFF17D5F
FFE9E4C0
FFEBE71C
FFE0A87A
FFF1988D
FFFB7650
0003A166
000BB479
00108738
0002FE27
FFFE4E2A
FFF3B72C
FFFC65CE
FFF72A38
FFFE4940
FFEBED24
FFDFFA13
FFCD8584
FFCA0684
FFE9B2EA
0004ECD3
000406C6
000F4187
FFFC5BFD
FFE89F77
0004AEBC
00064789
FFE3D026
FFE3E671
FFEF3272
FFE5E271
FFF4369E
00026762
00123B4B
000B13CC
0018EBD4
00127EB5
001FE6E2
0012C586
0018FEE7
0024B960
00112884
00038B13
00037AA2
FFE30FBB
FFC73B43
FFCA925B
FFE0BD25
0002AFBA
0005B58D
0003D3EE
000738A0
FFF4125B
FFFC174D
FFE6ED65
FFD4552D
FFDF4042
FFF2E672
FFEA74D2
0002AB47
000F9DFE
00109C9E
0016FB55
001CC09A
0013237A
001D2B66
00176A4C
00141FDB
000FB84F
0009A21D
0006B60C
0004C11A
FFEA8181
FFD8428D
FFD61B4D
FFE304D8
FFEECA07
FFFFC9F3
FFFEE3C0
FFF6ADB6
FFF4718E
FFFCD0FB
FFE75E04
FFE599ED
FFDDE00C
FFF2F4D2
FFF53A4A
00157DD4
0009353B
0008BEDE
000EE13B
0012033C
0013F9D8
0014C109
000EEBEC
001C9023
00055F86
00104552
00006F72
FFF83CA9
0009C33C
FFE72788
FFC84357
FFE39856
FFF82C54
000526F3
000FF5C6
FFFE8E7B
FFFE91AE
0004F84B
FFF6AEDD
FFDD64D7
FFEEE8CC
FFF88798
0005333D
0015C916
000F54F8
0007E6B0
FFF8681F
FFFBDEEC
FFF97BF2
FFFEF05B
000047A4
0011099F
0004DB00
FFFE24EB
000642F8
00143534
0004C58E
FFEE5B90
FFDE1662
FFE2BA8F
FFEF7746
FFFE9B4A
FFDEBF06
FFFC7DD1
FFF30F13
FFEC51B2
FFF37A47
FFE597F3
FFF327DF
FFF70395
0005C84E
00112474
000A1261
00000D21
FFF99C3A
FFEEF322
FFE266B6
FFEA5D10
FFF34EA2
FFF8A810
00098698
00074F18
00026F3A
0005CCE5
00015A6C
FFFD4C34
FFF8F77B
FFEC2FD1
FFE41122
FFF125F1
FFFEFF46
0000094A
FFE646DC
FFDEB7F0
FFF0C136
FFE99472
FFF1A5BF
FFFC7FEB
000B916B
001B0C4C
00069A4C
FFFC464E
FFED0E22
FFF69C50
FFECB814
FFF3D1DF
0004DAAD
000C0C93
001AD2E3
000BB84A
0007A8BF
0010488C
000AA1AD
000C32F7
FFFBA749
FFFCA16E
FFF637D2
0018DA1B
0002D6F6
FFF5E210
FFEF57B8
FFDD19DE
FFE60849
000653FC
FFFB93C1
FFFC0A52
0006DA00
000CC31F
00033E72
00007F0A
FFFFC1EF
FFE5037E
FFFC541C
000C2740
0016C5F4
0011C264
000C0FF2
000EA28D
0004AAFD
0001AE25
000CA7DE
00164CA7
001440C4
FFECB549
FFE4C75F
FFE909CD
FFF30316
FFF24C99
FFFF4388
FFE556CC
FFF00950
000F9EDA
FFF0EE0C
FFF93A0C
00073184
000F04C8
0005219D
FFFC3042
FFFAD3E7
FFF5346E
000F3612
000CBE06
0010ADCE
00087146
00035382
000E8DAD
000980F4
FFF9FD20
000786CB
000AEE22
FFE5660F
FFCD49E0
FFD5432F
FFDC5B73
0000B30A
FFF32967
FFFDE6ED
FFDEDA70
FFF25E93
FFEFE42C
FFEB2F78
FFEF9DAE
FFFF9B8A
0003F369
FFFC77E9
FFFED9A2
000843DA
0002F417
001AACA0
000A2496
00089D1A
0003E180
FFFF9526
000CC012
FFFC7203
FFEC323C
FFF02BD0
FFF6D206
FFCF76C1
FFC535E4
FFD7E9F3
FFE7E0E7
FFFBFE72
FFFA3A5D
00118C5A
FFEC50E3
FFF6429D
FFE8BC58
FFDAFD9E
FFE07EF4
FFF44D8F
0003762B
FFFDF740
0015BB0C
001991EA
000DF926
000ACED5
FFFECF9E
0007E002
0002F22B
0004D9AE
FFFBF79B
FFED2DCB
FFF63582
FFEBA2B2
FFF02C35
FFEDA389
FFC9F11C
FFDDD6CF
000B964E
FFE9E9CC
FFF461D9
000EF4BE
000372F8
FFE2B4D6
FFF4AA92
FFD6E82B
FFD9D9BA
FFDEEFBF
0006A2B4
00100AA2
001E4E42
0026AE9C
001F6913
00095A6C
FFF52A08
0007BF87
00105524
00109A1B
000BC263
FFEAC620
FFEEDD5D
FFDD8AAC
FFEA057B
FFEE16FC
FFD2B205
FFDE5B72
FFFB6DF9
FFF579E4
000805A2
00152239
000234E0
FFEB9A99
FFDE636F
FFD55CEE
FFDC7684
FFEACE6C
FFF8AF4C
000F5776
0013A6D4
000F683A
0014A7C5
000B84DF
FFF30145
00059619
000E7ADC
001B957D
000C3052
FFF76DEF
FFEAEBEB
FFEF1AB8
FFE716E7
FFE51D10
FFCA03A3
FFDE4AD2
FFFB0360
FFF23690
FFF726F5
FFFF8395
00082959
FFF10124
FFDD555B
FFDFA3DD
FFE5D400
FFDD238D
FFF607F6
FFFECF27
00085F8F
00166776
FFF95CEA
FFE9677F
FFED5711
0002BB96
001A4E58
001DB336
000A0186
0006E87A
FFFABDF0
FFF25C94
FFDF8400
FFC4CE9E
FFCB5E4F
FFD8B8F8
FFF54625
FFE507F7
00014866
FFF0C8A4
000AE9DD
FFF87820
FFF77D4A
FFF4A5F9
FFED33FB
FFDEBA90
FFF14433
FFE8AB8E
FFEAA94A
FFEBB3DB
FFECC879
FFE747B9
FFEE14D6
FFF0605C
000F2483
0012A91A
00169F45
000A6751
FFFF5241
FFE22EA8
FFE8C51D
FFD653E2
FFC919E4
FFDA0EC4
FFEDA317
FFE63C0D
0007DC77
001BE784
000CA9D0
FFF40CC4
0000C159
00092E90
FFF04B67
FFEE1527
FFF078A6
FFE346C0
FFE754EF
FFDB2C4C
FFE2075A
FFE3E26F
FFF30DA5
FFF0D5D3
000F7C5C
0009BF7D
000D6481
00050C51
FFF88379
FFDF0FBA
FFDA04A3
FFE5ED56
FFDA161C
FFECF9F8
FFEEF75B
00021625
FFFB36AD
000137A3
00052E21
00056F66
00165441
0011B52F
000CECAA
00034AED
FFEF7B44
FFE444B6
FFE168CE
FFD8C4A9
FFE84A28
FFEFC173
FFEC9105
FFFD62DD
00035A88
00095A5B
FFEF7116
FFF3644F
FFE3652B
FFE2E35E
FFD86680
FFE85E91
FFECC23D
FFEB76FD
FFE9835D
FFFA4253
FFFE9A57
FFF72013
FFF36DBA
00146724
0013F60E
0008BD42
00008067
00037AB9
FFE73C8D
FFE3B715
FFF2A300
FFF193D5
FFF7B8FE
FFFC62A9
FFFE7B31
0002558D
000004A0
FFF94F13
FFE47A33
FFD9BD1E
FFE8E966
FFDFF9B0
FFEE3C03
FFFCC801
FFEB7AE4
FFEF73C9
FFE834A5
000A1CD2
0008AF08
FFFCEEB8
00179C9B
001C02DB
0004725B
0006CBDD
FFF4FA47
FFF7AF5B
000D1C06
FFEFE7A2
FFF8E2A3
000C0BA5
00049063
000D507B
0008A7AE
000BBF17
0005E96B
FFF8B1E5
FFEAD823
FFEDF8FA
FFF0A5D1
FFF91926
FFF551CA
FFFE2EEE
FFF45D90
FFEB673A
FFE89D2A
FFFEAEC8
FFFF47A3
000910DF
000DF7B2
0021C9F7
0024F337
00191F09
000D9462
00199D26
001973AF
000F5A29
00172A1B
00138153
000379FE
000DF1C8
FFFF9FF0
00040839
00072644
FFF79164
0002BD0B
FFFA7355
FFFEFEB2
FFF601F1
0001C1B7
00163C2E
FFE559A4
FFE88F07
FFECF24A
FFFCEBD8
00091BFE
FFFE0FE3
000F668C
FFF5B7F6
FFFE08A1
0015844B
000AE14A
000D4497
001D0653
0023E2DB
002E9CF5
001B9FFC
0011238C
000E12BA
001A369B
0011CFD1
000D2C9D
000C6E1C
0016D808
001E5F18
0011D278
0011094C
FFFA87B2
000CDD8E
FFF3230E
FFFC5775
FFF29ED9
0005424E
00068987
FFFBBF1F
00018874
001A1808
000EBC74
00288953
002151F0
00255C54
001EB59F
00240351
0024FBC9
00217DD7
0026351B
001AA885
002F0762
001A4DB6
001B1DFE
002B6DE6
0024191E
00153CC4
001B1D4A
001D4160
00004B2D
001418E7
000C1FB9
FFFB9624
FFF72210
FFFC6D9F
000120A5
FFFCC852
0000CE29
000323AD
FFF4963B
FFFCEA8A
00041AED
000E9B84
000A5721
FFFAD2A4
FFFBE5AF
0012AA8E
0013F688
FFEA6EE2
000EE44A
00149454
000579BF
FFEA7D0C
0008177D
00093A8E
00093E46
FFFABD84
0007C2D9
FFF640AB
0000F4AC
0002685A
FFFF1B96
00023A43
