0008C513
FFFA2FD4
FFFEE6FF
0008F27D
0009208E
0007B878
00051ADD
FFFDD693
0005A288
000009F2
00004276
FFFA3139
0006BBAF
000E4BA0
FFFD2932
000AB640
0001A96D
000430A7
FFFA9051
00057A0B
FFFE201D
0001910C
000361BD
0006A7BF
FFFAA27B
FFF7D965
00080C81
0003B235
000450E2
000001E4
0002D1FE
FFFA5420
FFFCBC9B
0007E30D
000B70D9
00044B2C
0016497C
00140D2D
000A6B2C
0013E139
0024CDD6
00232D2B
0024C9F3
00385048
001FDE6E
00244EBD
001870C9
0018E37A
001471EC
00098B26
FFFF2E73
FFFDBD05
0000E0C8
FFFEC86A
FFFB957E
FFFDC7D1
00063D4A
FFF7417F
0006FBB7
00094154
0015E437
00097602
000ED60B
001687FA
001053F9
001BFDB3
0010EA90
001A2A33
001CBC5F
00215B9B
00147585
0032185E
00388B0C
0023C601
001C19B9
0028BD58
001D030B
000CCBF4
00118ABC
00109940
002A52C8
000CCCB8
FFF7505B
00023406
0004D944
00026D42
001E7A4E
00180F43
000DE278
FFFA2E68
FFF5F295
00018C5A
FFF985A1
000A0BB8
FFFC82E4
FFFE3C70
FFF613A6
0009BB3A
FFF9682B
000561F9
0005A4F6
FFF93CC4
FFF1B766
FFFF0056
FFEB9666
FFECEBEB
FFE5FEDF
FFEE310E
FFF9AD5D
FFEE60C7
FFF557C8
FFFF6092
FFFBB2DE
FFFE757F
000CDBD2
FFE85E49
FFDDE290
FFD63AFC
FFE4BE30
FFE44138
FFEA1566
FFEC071C
FFF6C3A4
FFF6A09C
FFF72115
FFFB8A01
00028B32
FFF51518
FFED3895
FFF9AA3A
00099D28
00047F3E
0005A33A
000B6520
FFFDF253
FFFE7CC9
FFD363B4
FFCF8784
FFD6DE3E
FFEFB608
0002457F
0000E1C0
0018026A
FFFBB4A3
FFE7A2F4
FFD66224
FFDF4B01
FFD73CF8
FFD41344
FFDB12FD
FFF0515C
FFF22C03
FFF4C591
00011600
00033868
FFFEBD05
FFFC78AE
FFF50E04
0003D2B6
FFFD7257
FFFC9E80
000F4FCD
001C9730
001525ED
FFFAD0E5
FFDCB788
FFF0E8DC
FFE1E3F7
FFFA6117
000BB0EE
000C4BC7
FFFEDD0F
FFE80D89
FFE289BB
FFE63071
FFED3C3E
FFDAFE9A
FFD42239
FFE8D677
FFFF3E4F
FFFD7643
0004A8F0
0009E5BA
FFFFED82
FFF79590
FFFA856F
000A5D1E
FFEF3671
FFF402DF
000D5B2D
00118EBE
000A03A0
0005896E
FFE32152
000D5150
000602B3
FFFDCC20
FFFFC5EC
000389AB
FFE2E8FA
FFD4A7A9
FFD34414
FFDCFBFF
FFE3F21A
FFE4B1BC
FFD631FB
FFE4EA5E
FFFEC72F
000222FA
0013FE06
001E2EAE
FFFEFBC0
00068086
00001504
00013AA6
FFFAE105
FFF9B0A4
000480E6
FFF9C8E4
FFFF0610
FFE77502
FFF24F4D
FFF84303
0005C5FF
0019B05C
00050808
0013260C
FFF708CB
FFDA2EF4
FFDACFD9
FFE265AC
FFE9CFB1
FFF00206
FFE5A9DE
FFFB4540
FFFEEB95
0016BFCB
00156A05
0018585E
0018F6B5
0009E841
00079CF7
FFF29AAC
FFF12127
FFFD0C8C
FFEF666C
FFE3CEDA
FFEFC8C8
FFE3D51D
FFE28907
FFF48B13
FFFCACA5
FFF1F3C4
FFF5023B
000AFE0E
000F4BD4
FFE3382E
FFE9F288
FFF89E1A
00015AF5
0001083E
FFFA4833
FFFF3DF4
FFF9D38F
000D9C2F
0013CC48
002160C4
0025B1D2
0013D850
FFFF43AE
FFF06718
FFEB896E
FFF160A4
FFE5C738
FFE3BED3
FFE75457
FFFC17DB
FFEC7101
FFDFBB39
FFED8226
FFF50755
000B31D8
001B367B
FFF79DA0
FFEA337B
FFF094B2
0003F3EF
0010D6ED
000CA759
FFF88A39
FFEE3ABF
FFFD6DF2
000EE594
001AB396
0021A279
0028AC38
001EF4F1
0006D3FE
FFF668A6
FFEE91D6
0004F1E7
FFFFE6D7
FFEDFFFC
FFEEA4AF
00088A87
FFF91E5B
FFF675F2
FFECBFCE
FFF09E36
0012FFF8
FFFA88DB
FFF2D397
FFE69B58
FFF26999
000E24C7
000D9019
FFF7EAD5
FFEB58C5
FFEFDF15
FFF59A3B
FFF3BA96
FFFA96D4
0002C393
0011C96A
0001058B
FFFBB82B
FFEBB458
0009FDB3
0005A4F0
001666D4
FFF8265C
FFFBBCA8
FFF02D4A
FFF66CA2
FFE967C7
FFF322CF
FFFF3A41
00047902
FFF1A786
FFEA4EB1
FFE4E976
FFE8D56E
00093ED4
000ED70F
FFF9CEB0
FFFC8286
FFFA34C1
FFEC67F7
FFFFC584
FFFE9D96
FFF90E62
FFF7E5D0
FFEE91E1
FFF36B5A
FFF45C50
FFFDB9AC
FFFB0A3A
00075A6E
0008FEC1
FFE89243
00022970
00068681
FFFE294A
0009E757
00057299
FFFEABFD
FFFF85F7
FFF9B5B1
FFF3D28C
FFF22EE4
0003FBBC
00094CF7
0000ADBB
FFFDE0C2
FFF9BA72
FFF20FC1
FFFCC86E
FFF5699A
FFF5C657
FFD812FF
FFDB101C
FFF1A570
FFE9C96B
FFE95B7A
FFE6F0FF
FFFC3697
000ED5D4
0007395D
001DBBED
001623B0
00195805
00148A04
0000D2E4
FFF6734A
FFFBC46E
FFFAD510
FFF426DE
FFF99EDF
FFFA89F6
000BFDAD
FFFC1D43
0004C593
000B22A7
FFF5F396
FFFF5C20
0005C4E7
FFFAFDED
FFE638DC
FFDF745A
FFEE85F2
FFE84FBC
FFDABED8
FFF71B80
FFFD9372
000265E4
0019FC89
0035D309
001785F1
00214269
00213AC5
00057230
FFF52946
000B9579
00009DB5
0003761C
FFFEAC5E
FFF6E5EB
FFFB7F71
00003CC0
0012858A
00035A87
000015AE
000A9A84
00085AFD
FFF2D287
FFDEA072
FFEE0A7A
FFF9D6B1
FFE1D672
FFD8D843
FFF39D05
00031F25
00022E2D
000F1B4A
003000FB
0023DD98
00278BCD
00139A48
FFFE9B8C
00062B4F
FFF47276
0002D05D
FFF8FB75
000009DE
FFEAF509
FFF28F47
FFFD3CA2
000E9159
000563ED
0010507D
000893A2
00102B73
FFFC481F
FFF3BDD2
FFFDD4FE
FFF954CE
FFEEF25D
FFEC8960
FFF262BC
00129267
00021374
0008ED2E
001BD05F
002734E4
0028EB9F
001513C2
0001A19A
0002EFB2
FFF23BB7
00015B95
FFFA5C97
FFF774C9
FFE93D4E
FFF3FCFA
FFFEB5C8
00122B51
001EF3B6
0005C033
0005E0CD
00052418
0012426E
000A8B76
00075D76
FFF93DCA
FFF590C7
FFE9FD9E
FFF18179
FFFFBD70
000B8A9B
FFFAC79C
0004C058
00329C47
00086A6B
00197F8F
FFFCA3A5
FFF7B255
FFEB9720
FFFE5CF0
0008AD20
FFEDA7A9
FFEE3A16
FFED281C
FFFDFD85
0006A4DE
000637E5
00011B42
00070CAC
0007A8E3
000F9088
000775E1
000C4C1A
0003E446
00027049
FFFAD439
FFFE0D5A
000D051F
00009C94
000A526A
001D8E29
004507DD
00007B24
00190866
00017ACC
000AC0D9
FFF8614F
000A915C
0004F401
FFEA2A4E
FFF0934F
FFF539CD
00011C3A
00180CFD
00141BAC
001BAF05
00106B64
0011DF1E
000D4A47
001E6822
0022FE09
000A970B
0005AD92
000C978E
000D94E1
001A0A94
001C761E
001843F1
00125B1F
00492622
002D5830
001D6467
00055FEF
0003E20B
00125824
000E3789
0026AE70
FFF7CB49
0000F605
FFFEE3C6
000D0643
0011582A
000F391E
00215B4F
001EDCD6
00124DC9
0010FCD2
001F6386
0025F118
001F04B6
002663F2
0020959E
001E2B10
00169888
001D097F
0011B02A
0010BD23
00223693
002642E0
FFFAA742
00042EED
00060D71
0003F1A5
0031044A
002C7FBA
00201AD9
0004B42D
000AC49A
0009E961
00106733
0019A056
000EC36B
001782CE
00129E27
001637C8
00137F07
0019D77A
00196C8F
001A07ED
00125A09
00164AEC
001D9D2C
0013B516
0001B43F
0019D14D
00248219
0021AE36
FFFFD657
000B5AB2
000CC86B
FFFCE6C8
00191A1C
001B071C
00259D10
001C3A74
000A10C1
0017B459
00174579
00097916
FFFF04ED
0004C243
FFFD28BE
00066F20
00024754
00013882
0002DBA3
00186EBF
001961F0
000D58A7
0007239A
0000D2B4
FFEB188C
FFF9C9A3
001C0CA9
0018912A
00068F80
FFFE331B
00038B65
0007F903
FFF4A658
FFFBD13E
0005BDB0
00128F7A
FFFDB62F
00082849
0007C54E
0004BB52
000E1B87
000A8604
FFFD8943
FFF93F04
FFF4AA96
FFF7A81E
000A6883
FFFC5776
FFF27F7F
FFE6382A
FFF0C6D0
FFE1AFAA
FFEFBE95
FFF32095
FFFE947D
00137AED
FFF8B3F4
0003C5CB
00025027
0004635C
FFDA5912
FFD889BC
FFF70F96
FFF18A38
FFFA1A30
FFEAC94A
0008524C
FFF50725
FFF137FB
FFE8F392
FFE50604
FFE52A02
FFDB4462
FFD5C26D
FFF4D352
FFEBD233
FFEB911E
FFE1FF78
FFDE61F8
FFD93038
FFE90298
001702BA
001B18B3
000F37B8
FFFF8CD1
000783D4
00038974
00069080
FFDF1AA0
FFE7D945
FFD3C556
FFD66D11
FFCBF070
FFCD937A
FFC68847
FFAB2458
FFB65AE6
FFBD5E8E
FFB85660
FFB10F63
FFB4A2B9
FFA69A97
FFBCEEF6
FFCE0A67
FFD3B3A6
FFEF0247
FFD3F1D3
FFEACDA0
FFF114E6
000B7120
000D1DED
000EB9E4
00087474
FFFCB215
00054840
0007CC79
FFFF7A25
00050B69
0002D988
FFF1DAF0
FFF047FE
FFE1A04C
FFCB692A
FFD1FAD2
FFDFEB3B
FFD26162
FFE2C850
FFDA2A36
FFD58BC0
FFF3A967
FFD44DFE
FFC046AE
FFBBA0A2
FFDBB3F8
FFE717C2
FFE81762
FFDC54AE
FFF7AD19
00030AD0
000700A8
FFFFFD90
FFF7BB94
000517C6
00024EC3
FFFFDB65
00026C5D
FFFB34DE
0006F693
FFF5379F
FFF173B0
FFF1045C
FFF1317C
0009AE96
00058BFD
FFFC5E0A
FFF2EB32
FFF954CD
FFF6FB9F
FFE9D084
FFDAF976
FFF47DF1
FFEF1B6E
FFEF4F06
FFF43D31
0003BCE4
0005B669
FFF871D0
0003FD25
00064AF9
