0006BD76
000428E6
FFFB4460
00082801
FFFB11FE
FFFF1D99
00077978
000070C0
00026E8C
0008B959
FFFD4244
FFFD94BF
000451E4
FFFCE38E
FFFE14A7
000255F5
FFFE3F0B
00078E17
FFFFB40E
FFF86D5D
0000A646
0006B5C1
00015D15
FFF8A8AC
FFFE5534
0009237E
000595CD
FFF94931
00090089
000832B4
00061B20
0005EBFC
FFF5ADF1
0000AD0A
FFFF7B17
FFFE7F89
FFF258CA
FFF40D58
FFFC3044
FFF3291E
FFE68D1B
FFDD9F9E
0012FBD6
FFFC437F
FFEE5258
FFEFF6BA
FFF0E441
FFF5D840
FFEFE8EA
FFF3C44A
FFEB5DA6
FFE45A3E
000283C6
FFF993A5
00076FFB
FFF7CAFE
FFFF6304
FFFC3687
0004247A
FFFEC582
0005518F
0003337A
FFFC622C
FFE65486
FFF7C2C7
FFEA8726
FFD9B8FE
FFDFCDC0
FFF5B957
00062AD1
0002C319
FFFFCC1B
FFFB5AD2
FFDFCB77
FFE9F275
FFE29001
FFF122D7
FFF7FC19
FFF70DB0
FFE5B60D
FFF9F3BB
0004F52B
0000AF13
0005E064
FFFA0304
0006FCF9
001D06EF
00014C32
FFF249E1
FFEAC661
FFEB5584
FFF5E2BE
FFE72720
FFE6A2DA
FFDD6FCE
FFE820C5
0002388B
FFF20016
FFF0E23C
FFF203DA
FFF5C587
FFEA777B
FFDC9D33
FFD0A775
FFDEF53C
FFE3FCF9
FFF70F58
0000811C
0001A985
FFFDA05E
00090FBA
0006596D
000235BD
FFFBE428
0010FD86
000384FD
FFF42BC6
FFE70112
FFF0513D
FFED3328
FFCE5F06
FFC06FC4
FFCDFE66
FFD83D23
FFEF371D
FFF4B9EA
FFFD4476
FFF97B66
FFEE86E2
FFE70FC0
FFD9054C
FFE37F37
FFD6C584
FFE248CD
FFDB508C
FFEE1EDE
FFF7302A
FFF40A63
FFF7F579
00086BAB
00020566
FFFF69F0
0020DDC8
FFFF254D
FFF006EA
00029EEF
FFFBC320
FFEA112A
FFDF54C6
FFCA193C
FFD679EE
FFEA2EE3
FFF3F134
FFF82A89
FFF41627
0003398B
FFF288EA
FFE5EE3D
FFEC2526
FFEB6F3C
FFD1624B
FFD427FD
FFD396C5
FFD9A7DF
FFE8B21A
FFEC6301
FFDF5AB2
000476B4
000800B9
FFFF8ED5
000A8F48
0014B2C6
0004A7F5
FFE0CEF2
FFE98296
FFE5AFE8
FFEC5983
FFF0378A
FFF52BD3
FFF968E9
FFFFCDE8
0008FB78
0007EF02
000B5D23
00150EB8
001517A2
001195C3
FFF5AF7D
FFF41523
FFEA0506
FFDC3ED0
FFDA2EEC
FFD94C82
FFF4FD76
FFE85F4B
FFF740F9
00051827
FFFF6087
FFFE1C84
00181267
FFFE265B
FFDD3AB2
FFE84B84
FFF651B2
FFEF2796
0009C9CA
0005D225
000B18CC
001BC4CE
00105BD4
0015E996
001A4655
001641F2
00176A04
00042191
00000C9D
FFFB76A8
FFE9C980
FFDBDA53
FFDE4225
FFD6CC9F
FFEC66D3
0001A49B
FFF55BA0
FFFB5006
0010E8CE
FFEF6C9E
00039D82
FFF6242D
FFE54441
FFF3C8D3
000872D5
0018DAEE
0011F3DC
0018BDAA
000F968F
FFF87FB9
FFFB46EE
001438D8
0013A562
00078FD0
0016F8E6
00032597
000983E4
FFF7976F
0004666D
FFF86290
FFDFBB61
FFD1F1C4
FFD17B41
FFFBB74A
FFF70526
000C4858
0013A482
FFF24966
FFF83494
000CCF41
FFF6411F
000BD11E
001B76ED
00233A7D
001AC63C
00117B7D
000A3CA2
FFFF510E
0006600E
001C3D97
0027ABF0
0010AC36
0004FEC4
00080BCC
FFFECE7C
000016CC
FFFC90DB
FFF97EBE
FFE5A1BF
FFD57BB2
FFDFEB10
0007592C
0008449E
0017A99F
0017254F
0002C298
001075A2
0010C355
000A013B
000CDF05
0012C621
00211FBA
001A6830
00106EB7
0001DCEB
FFEBF6CE
0004639B
0012BE98
00185EEE
0012E0AE
FFFC5277
FFEC286A
FFF0CBF1
0006D296
00029E3F
0004BA6B
FFF84E1B
FFDE4225
00158DEB
000A57ED
001442F5
000BE04E
001512B2
0020EF10
001495F5
0011D626
00182BA5
0017FC00
0011FC7E
0016E678
FFFC59BD
FFF62351
FFEDDB67
FFE48003
FFF9E6C3
002712F0
0019577A
000C4147
0003D04C
FFFE085F
0006F0F2
00155608
00128D13
0014D340
FFF7DE23
FFC064C5
FFE81B22
FFDFC7AA
0018AE7E
00040423
001417D8
001A3C28
00063E25
002F0DCC
000FFF67
00005FBD
FFFDB458
0007F077
FFE5D8C8
FFE44824
FFDE5EED
FFD869F2
FFEB0E8F
001DCC0F
001896D2
0012782D
FFFFC01B
000D159C
FFFBA9E5
00057991
00062F29
000F7F26
FFFB2A78
FFA21072
FFE5C847
FFF33B51
0021C95E
00055949
00070E04
0018B00E
00011526
002165EE
FFF74BC1
00047430
FFF63861
FFF50A35
FFDC8570
FFF28321
FFE2972E
FFD90BFC
FFF3B697
00226795
0011EB6C
00092F60
000D7F31
0000F0C7
FFFEBFE0
000C10EA
0019B4C2
0001780A
FFDE7B50
FFC7E125
FFED98DC
FFF8E807
FFEF0233
FFF578B5
0006094D
00112FA0
000B48A7
00106466
FFEA73D8
FFF4D6F2
FFEC2B7C
FFF3E48C
FFEDB4E0
FFF0D82D
FFF24779
FFEE2D25
00051982
000A876D
000DEF5D
00051F5A
00080106
001266CD
00151A2C
0011831D
00098EB7
FFFD1F3E
FFEEBF6B
FFC818B1
FFD9ACBB
FFF78382
FFF6B13A
FFF187E3
0008AAAF
FFF17E0C
FFFE0093
00073E81
FFEE5AC1
00001482
FFF32C36
FFF49737
FFFA6837
FFFCC836
0005C4C8
FFF20283
FFF626F8
0004DBDF
FFFE2838
00054D2A
0012219C
000E2F63
00216058
0019BB8C
000CFA0C
0000007D
FFD856EC
FFDA3DAB
FFC3D0CA
FFEAD832
FFFEB496
000E64CF
000AEDB9
FFF8E0A8
FFEDA00E
000785FC
FFF8BC39
000649CB
001092B0
00100C8A
000C6A29
000ADA14
FFFD01EC
FFFCB35D
0001A746
FFFBAEC5
00034994
0007AB4F
000F8B77
00075EA1
0012B27E
FFFE1678
0002FED5
FFFC6DD3
FFD64413
FFDB381C
FFBF89F1
FFD5A6F8
FFE968D2
FFFE1AEF
00045702
FFF8CE6C
FFED83B6
FFF2B3E5
FFF10A0C
000A69D1
001133AD
000A3CBD
FFF39811
FFF3D880
FFE6E7FB
FFED9378
00002842
0007DD02
00007277
FFF9A2AA
000465C3
000C0DC8
00016846
FFEF3847
FFEB1659
FFF1048C
FFD92C69
FFDD2A63
FFEFF186
FFF4959A
FFEE0EDA
001E2B0C
00012223
000D663B
FFFC6498
FFFF934D
FFEC3901
FFFA896D
FFFE797A
FFF53A5D
FFE69F87
FFE034F2
FFDA3902
FFD7DC35
000343D6
000A216D
0007AC18
FFF8D401
0004FEDE
0001BA58
0001D75C
FFE96DEB
FFEE6352
FFD7D1A3
FFC7F648
FFC8BD26
00008169
000F02A3
0011F80F
000B0E11
0006987B
000A5871
FFEFFF69
FFFE4700
FFDDE374
FFE69E1A
FFF1A2C6
FFE76A9B
FFD06DF6
FFC3A1BC
FFCF7801
FFE5D2F3
000C9F2E
0012EA2F
000388AA
FFFA6F1F
FFFE5484
FFF8A1BC
FFFC325A
FFEC62CD
FFDBEA12
FFD53597
FFC591D8
FFCA229C
0004C572
FFF81648
0013A31A
FFFB668A
FFE9B093
00058D03
FFFAFDBE
FFE91CAD
FFE4D708
FFE16FDD
FFDD9EB4
FFE0AD12
FFCF34DE
FFD9B82B
FFDE49DD
FFFEA3BC
00162C4A
00135670
FFFFAF2C
FFFBF790
FFFCEDF4
FFE82BE6
FFEB82BD
FFDEF448
FFDEBFA7
FFCE89DD
FFDAAD9C
FFF1C6E3
000F419D
FFF6AB01
FFFE8B68
0005366B
000DC2A6
000946E0
0006FECC
FFF3AAB0
FFF55CB2
FFE769F6
FFDEF68D
FFEADAD4
FFDAB9CC
FFF2009A
FFF75609
0010B7FF
00115BAD
0002D69F
0000EFB7
FFF6B2D8
FFE7E096
FFF0CD30
FFF229A7
FFFD1EF8
FFF6867E
FFE267A6
FFD7D3D1
FFFEDFF2
0007A7E1
FFDAFAAD
0006A354
0008B5C6
000D610E
000B997D
FFF34444
00048502
FFF1C62A
FFD6CF8F
FFD98EE2
FFE12774
FFF74795
0002618F
000D10A0
000EAE87
00002D69
00050470
FFFA513D
FFEC7001
FFDCE1DC
FFE1116E
FFEFF9A4
FFEE4B82
FFF3C710
FFEE3C1E
FFF6A852
FFF3BBD8
000AC000
FFE98268
FFF943AA
000686BF
FFFCB5DD
FFFF7B7D
FFEF9801
FFF907F1
FFE5B1B2
FFEB3063
FFDD4DE4
FFD7F596
FFE53256
FFF6807D
00082E5D
000B228D
00078345
FFFDCD96
FFFF02DE
FFEA8D25
FFDFE05C
FFEA00F6
FFE97F81
FFED6494
FFEFE8C2
0000BF68
FFF56A82
00017DF8
000CECC1
00116C30
FFFA8641
FFFA3C7C
0001C939
00121153
0013650E
000CB308
000A3715
FFF26CB7
FFF917A3
FFFEEDE3
000697B6
00054705
000C25BF
FFFEBB2C
FFF6CADE
FFE85A90
FFF8ADE9
FFEB0C00
FFF343B9
FFEF0BAA
FFED5030
00060E16
000B7A52
0000CA37
000FD175
FFF48962
0005D001
FFFDF815
FFF8E493
00065213
FFFE3989
0013983E
0003FBD1
FFF6C781
00086A63
000983B1
000D6A4D
0021BE62
0017F8F0
FFFD4172
000D8F08
0008E096
FFFAD385
FFFF7BED
FFF14BBE
FFFDCC04
FFFE0089
0009EEB7
0009CFB7
001502CF
000BDD11
FFF0E49C
FFEA636F
FFEFF7EC
FFF6B1EE
FFF35F4E
00037EED
0008CB22
FFFD5150
FFFD1313
000E30C5
FFF55014
FFFD4353
0009E7B6
002DAB4A
0030BE64
003C9F13
00384D2C
00121E9C
00035002
0018FF24
003B8009
00226D5B
00382BB2
002DFE49
0020797D
0027CE55
001FD6AA
002666DC
001EA8C8
0022A9FF
0018A8D4
FFFCD017
0005520D
0001A83C
00004885
00038203
00034B34
FFF901F6
0008ECAB
FFFD1D6E
0015EB07
0012DFDD
001DDA28
001093EF
0023D4B5
0005D38C
0005BB8B
001831E1
00272971
001893A3
0027AD8A
00288FC0
0029CEFE
002E8B0C
0025DE78
001A7D10
0023BFAA
001A35BE
0006D3DD
FFF93E79
FFF9D4B8
0004A4D4
