FFFD3BC0
00024475
FFFF6B0E
0004EB1A
00038880
FFFE9910
FFFD2DB5
FFF90625
FFFBDD51
0006D2F1
00047C32
FFF96769
0007E83D
FFFDA34A
000432F9
0004FB91
00061F4D
00073401
0002F210
0006B617
00076EE0
FFF9C310
00066C90
0004043C
0002E5D3
0003DA99
0005C775
FFFFDB4F
FFFD83FD
FFFC161E
00084C2C
FFF934C9
000FB622
000FCA30
0013503D
000CFFE3
00115E9E
0005F1B0
0018F712
00146318
00160D64
0015B65D
00050B3A
0033049E
00216408
0035E918
001D305B
001A7584
0024963C
000CD71D
0012648F
0013FECA
0004E9EB
00001F23
FFF881D7
FFF96C1E
FFFEDDD7
00060EBA
00070641
00156311
001CA02C
0008B2B3
00198130
001BB31D
0015D184
0007906B
0022F759
002C0356
001E68F3
0021F044
001E4FE6
0029D802
0020D56E
0003C21F
00006E9B
000C1561
00055CF6
0010F5A4
000DA55F
000EC04E
0004D744
FFFCCBE7
0007A12D
00067742
0008C953
00073480
0019E7A3
0019CB6D
00122428
0015A3F5
00231730
00229E39
00250C95
0006293C
000D9233
00124D9D
0014A1E0
0019C9E7
001462CB
00171964
000F72A7
0014734F
000C749C
000E256E
000FFC60
000CE083
FFFEA05A
00171DBD
00005B22
00024114
FFFA9B89
FFF9E507
000835D2
FFF9BF51
001C9B0F
00274905
0034A3EC
002574A4
00262A3E
0012B8AF
0015EF42
0011E8AB
000DDBB8
0006CDC7
0003F377
001379ED
0000AB9F
FFFDBAA2
FFEFD2E0
FFEB960B
FFED2FAC
FFF5CE1C
FFDFA47B
FFDC2D54
FFEB7B07
FFFD62E1
FFE94140
FFFC58B2
FFF41B44
FFF80D37
00082FB5
FFFB7CE7
00221380
001456CA
0023195C
001B3CF8
002298E4
000BE496
000AD114
0004370A
00065AAA
0002CFFA
00093C00
0003B5F2
FFEA889A
FFF86ADB
FFE5143D
FFD9DFCF
FFC7EAA4
FFD6D7A1
FFBA5800
FFC91CE8
FFD2C636
FFD9572A
FFE99618
0000FA81
FFF9111E
0006C300
0002021A
FFFFE867
000D1F25
001714D6
001835A4
FFEEA19D
00035F08
FFFB8F03
0003624C
00111339
00005181
000800DB
FFF5C40E
FFFD18C8
00052FD4
FFFAB4F6
FFF654BC
FFF0E11E
FFE22346
FFB79994
FFAB531D
FFC53996
FFB97B1C
FFC8AF06
FFCD21BB
FFE2A0A1
FFFD4957
FFF9A49D
FFFD0B9B
000E7B34
000E8BA9
00192CFE
00236E6F
00014AAF
FFFAB115
000A1814
FFF2B6A6
FFFE0A1F
FFFBE94B
FFF02A2A
0004BD85
0003A6A1
0012022E
0017EC43
FFFABC71
FFE0F15C
FFD23D23
FFBFCB92
FFB4086E
FFBFF03F
FFAC25C2
FFBFD23E
FFC01596
FFEACCCD
FFFF7A53
FFEEB6B6
FFF6D63C
00092329
00061781
001792D6
002A9FDC
FFFB05E9
FFFB1D62
0004AFF2
FFEAB493
FFF271BA
FFFE7848
FFF48E97
000D214F
0019C9AB
002BD5C4
002262D8
FFFC24C9
FFDB6459
FFC21F58
FFBEB400
FFC1F1D6
FFBAE426
FFBAEA70
FFC5567C
FFC5BDAE
FFD820F8
00065E0A
FFF5BE57
00139AAC
0018AD2E
FFFED662
000D7B99
00233B7E
0009839C
FFF92E14
0009C6A2
FFF3CCF0
FFEF9E44
FFF22556
FFFA7362
000D0E12
00374E2E
0048913D
002E491A
FFEC4464
FFD5769B
FFBD3646
FFC76588
FFC91724
FFD3AE9B
FFD1A346
FFC750E8
FFD4838E
FFE38682
FFFFBAC0
000FB9D8
000AD244
0010A46A
001731AD
001D6E9E
0007D71C
0009B7B6
0005786E
00004B82
FFF61310
FFF8530C
00081DC3
0011B7B4
0026DB26
004E27C5
003B84F9
000717A5
FFD99718
FFC372CC
FFC61341
FFC32B05
FFD3ABB2
FFE4DFB0
FFEA3744
FFE99133
FFC5F6DA
FFD5F218
FFF62010
0009A3CD
000B6A7D
001B13B4
002B8B16
001F25E3
0022816A
000FA9AA
FFF359DD
0002A7CA
000508D2
000635FB
00130B57
00268684
0027691B
003D2E02
00312220
FFF09DCE
FFCC22E2
FFD0FB3D
FFE58D4E
FFF04C3B
00043CA5
000D18CC
000E4E59
FFFE1337
FFC49570
FFB6874E
FFCDBF5F
000710E7
FFFC1687
0005E6ED
002B4724
001581FD
0011E087
00042753
FFF6E93E
000261DA
000949D0
000F650F
000D5E03
0018EC14
0019FC09
00199C35
0015D4DA
FFFCBD78
FFF158D0
FFFAF746
00075CD1
FFFF5513
0010D3B6
00095A1C
0017BE73
0005B20E
FFE89CC7
FFC8B5E4
FFE19930
001495CD
000EB35B
00095B63
0027D49A
00142D85
0014D940
000C35A8
00047A33
FFF8FCC6
FFFF6807
000617C0
00078084
00013208
0001DC89
FFFC9C82
0018D55A
0006B66D
0008A770
00031CB6
000ED26F
000BEE55
00085839
001B2E68
000F131E
001A2F29
001264D0
FFE7F9F7
FFD796C0
FFFD72F1
FFEF79D0
FFFF3F59
001B9182
000AF7B5
FFF39C72
FFFBDDAD
FFFA393B
FFF300F9
FFF75E23
0011538C
000A1F80
FFF3F65C
FFF5D675
0002C741
001098D8
0005389C
00067432
FFFDA332
000573E7
0019400B
00165782
001C2C98
001567B5
001DCD1F
000A7095
FFF0A76C
FFE9457B
FFE521C3
FFF4F2D5
00029086
0004854E
000702E9
FFDA1B95
FFF68DF2
FFFAE660
FFF6B145
0001CDBC
0001B42E
000691C5
00085AF3
FFED41BB
000010FC
001E7EF5
FFFE59DA
00025D4B
0003F81B
0014E7D3
0020B720
00287085
001E4362
000DE892
FFF9FBD7
00045D29
FFFCE51B
FFDE4C65
FFFE17B2
000E0330
000CFE16
001816DF
000831B4
FFEEAA7A
FFE8FA09
FFFFF319
0006EB21
FFFAF3CC
0004B1FA
00079F84
00009489
FFE80B8E
00005C64
00196A40
0002FC5A
00030D7E
FFF1A074
00065D74
00172AC2
001A32EA
00135F33
00075D23
FFE5E0FA
00033F50
FFFEBEA2
FFF582D4
FFED6D56
FFF71C2C
0005B802
00126341
0005D1D4
FFF89C3F
FFE7619A
FFE82CFA
FFE35BA7
FFF2B553
FFF51175
FFFE1658
FFFED505
FFF71E53
0017D4FB
0014D148
00093FAC
0006B3E2
001253FC
000F653B
00143C6E
0009AB89
001A7869
000DB748
FFFE6292
FFF19685
FFF7E12F
FFF84473
FFF12CBC
000D2C16
00011610
00214DFE
00071CE6
FFFAD9C9
FFE6D473
FFDDA2D0
FFD89F93
FFF298F5
FFEE9B42
FFFC34E7
FFF8646F
FFFAD2A9
001C86DD
000DB497
0011AB70
000350ED
0021A2DC
00215F1A
0014726A
000440C9
00158105
00040791
FFE80AA4
FFD99256
00170055
001622C0
FFF38D09
00024EB0
00181A44
FFF371AB
FFE55BE0
FFF8F5D4
FFE4B01E
FFECD08E
FFE84420
FFE227F2
FFECA1C9
FFEA202F
FFECE795
FFFDF101
0007C7F4
00117F24
000F9F38
001B2627
001D07E5
001E8637
001AE59A
0008AD8E
FFFDE22B
000180E0
FFEB19B8
FFE6C10A
00016B5D
FFF31222
000BAC27
00086AFD
FFEE0289
FFEF61A3
FFE2427D
FFCDA5C3
FFEA5BE1
FFEA1871
FFF64848
FFF3ED89
FFF3B766
FFEB7968
FFEA8135
FFFB44A4
0009D957
0022C72A
001771D5
00183149
00153B2E
0016FE14
00075797
FFF0A2E5
FFED5822
FFF0C1E3
FFE7DC12
FFF8EBD7
FFF7889D
0002C069
0002D8C6
00097A87
00028482
FFF7E1C4
FFECFBF1
FFCCD53A
FFCE41CA
FFE467BF
FFE8CD08
FFE9A7F6
FFDEEEB6
FFDAE11C
FFE9B1D7
FFF1CEBD
0002F8D5
000B90F6
0006F4F1
000D7DAE
FFF7D6AF
FFFE65F0
FFF8B27C
FFECDB18
FFE5DCAD
FFE3C240
FFDE3571
FFEC7846
FFF7D96C
FFEE08D4
00039E32
0009552A
FFFFAD2F
0000D63C
FFFD1F74
FFFF15D8
FFE74A3F
FFD42013
FFE4C54B
FFE04D37
FFED0D1B
FFE13317
FFE0D922
FFF2E6D5
FFFD2973
00021979
0004EA45
FFFE0114
FFF4D352
00015193
000338DE
0003CE07
FFE05CCD
FFE96BB7
FFDC399F
FFE5DEBD
00029AA0
FFE73AC2
FFFC79AE
FFFE92EA
FFFFE169
0002CB06
000E264A
000CCD12
FFECCEE6
FFEBAA1D
FFD3675C
FFBCA340
FFD29080
FFD93087
FFE2794A
FFF02094
FFF2F19C
FFFD4908
00024386
FFF6355A
000A3667
000CECA9
0007292E
FFFD973D
FFEEB08C
FFE77AFB
FFE0DF41
FFF14253
FFF8E431
FFFCD93B
FFFC9F0A
FFFCB36E
FFFD8C4B
000BFCF9
00075BC7
000CF926
00048F2E
000637EF
FFFCBE7A
FFE937DD
FFD5AAA3
FFED57BA
FFEAAF4E
FFEE3FA2
0001E6A3
000882CE
000AF6D9
00069D22
0013B0FD
FFF4BEB4
FFFD4819
FFFAA550
FFF81616
FFE1D869
FFF263B5
FFE6BBF4
000C8EC4
0013DB9A
FFF996DE
0005B2FC
00040270
FFF9A062
FFFC0FCF
000059D1
00042DCE
FFFEE6FB
000609E1
00010FD0
FFF10904
FFF21CD6
FFFF5B4C
000913C7
000E743F
001CC787
00118DD0
000B0B63
0011C3B0
000671B7
0013C464
FFF58F71
FFFCA904
FFED6FB6
FFF3643F
FFFCAE52
FFFB0CFE
FFFCE49E
FFFC7698
00090266
FFFA568A
0000DEB7
FFEF5DB2
FFF62882
FFF5BC10
0007D830
000492E6
00154116
0012C823
001A2EFE
0011EA7A
00073077
000A25F0
001B2654
0008A841
00128DFF
0020531E
00232F14
00200BAA
000F475B
0004FB6D
000E9AE2
00148865
000F5800
00061C78
FFFAA3CB
000080EA
FFFF967E
FFF76A8A
FFFFA282
000066A8
000551EF
00007D02
FFFCBC94
FFFD933C
0016A0E2
0011EEC5
000F2B07
0000694C
FFF504C0
001CA0A3
0021BE67
0005B3BC
001765F8
002B2EFA
00240C55
0024D3B8
0011067B
000E03C9
00116CA9
0012ACAA
0005E1FE
FFFC7AF9
FFFC339A
00042DDF
