000155BC
FFF98D90
00086974
00073C2D
0005A04A
00059B17
0007019B
0008B041
00083A82
FFFE2096
00031FD5
00046C45
FFEF86A8
FFF770AA
0005EABF
FFF98509
FFFD71A5
00082697
FFFD8ABA
FFF9C632
FFF7862E
00069096
0002F83F
0001F7D7
FFFEA0A4
FFFA3125
00055505
FFF92E04
FFFB97FD
FFFD16F3
00080407
00042C55
FFF2524D
FFEC719D
FFE2A9E0
FFE4214C
FFF5BB5C
FFF4B33D
FFE77281
FFF25D09
FFE16876
FFF330EA
0015F443
FFFEDB5A
FFF6D8A3
FFEBCB1D
FFE786D8
FFE5F86E
FFDEFE73
FFE4E850
FFE63F5A
FFEF96BB
000222AA
00073E09
FFFA2DB0
FFF7D7C4
FFF9A52B
FFFBF33B
FFFFE9CA
FFE4740B
FFEAD32E
FFFAD405
FFFCA868
FFF5B783
0010EBA5
001EBF8C
0016DDE0
0008A037
0013E1E8
0030B0E2
0039F0F2
00359E93
00104A4F
0008D50C
FFF6F3D6
FFFA154A
0005B7CB
000B81E8
0004B186
FFFF4E1C
001743FE
00086666
FFFFE833
0008426D
000070BA
FFF96AE3
001447E4
FFED29E4
FFED4DB5
0007BBB6
00129254
001AF8AA
000272A0
00063D7F
0007178E
000F48AA
FFFD1C2D
00031B85
FFFE5B7D
0005E315
00025E06
FFF94BFE
FFF0B3CA
FFF612F6
FFE32BE4
FFF80356
FFFCB33B
00097D05
000A47AD
FFF9C4B3
FFEC2870
000240C0
FFFE720B
000109DE
0010BA3D
FFEAB3AD
0015928C
003CD9EC
0029F986
0016E778
00202C0C
001170F0
000CCA8A
00076669
0007DB6A
001A55B6
0008EDB7
FFF5CEF7
000477B3
FFFAE9FB
FFF89B47
0003E4C8
00071D08
0001786B
FFFD5AF5
FFFE9D32
FFF1C0B6
FFE51A25
FFF534E5
FFFE3118
00034441
FFFBA1DA
001F9A90
001160FF
002C7DEE
00133F0A
000EBD93
00104F93
000542C6
00058400
0007508E
FFFDA2B7
000741A4
00031BC7
00095A1A
00104DCD
0014FEA1
000A99D6
00094C35
001292CB
0008D28D
0014876C
000C6AA2
00192761
0003C2CC
FFFAF904
FFE8DB69
0011D7E5
FFFE5130
001B7FF7
FFDE7CCD
0006AD00
001D58F4
00091D4C
0002FD34
FFF89CAD
FFEFE0EE
FFF9EF68
FFFA92F8
FFE90390
FFF246B2
FFF1E9B1
FFF84031
FFF8AB22
FFFAF532
FFF8A38F
FFF4CAB2
00011F64
FFF5192A
FFFCB48F
FFFF01AD
00112969
00013380
FFFF0808
FFF6F07D
0010FF61
FFF723A5
001027EE
FFEEB234
FFFF9AA2
0031CAFD
001251AF
FFFEEEB6
FFFB77E6
00018ADB
FFEFE42A
FFEFF65B
FFF117EE
FFECA411
FFE874AB
FFFD0F46
FFF8D2E8
FFF48D6F
FFF1C728
FFED22DA
FFFCF3E5
000478BE
00043F03
0006CD22
FFF1B75A
FFEFC805
FFEFFC6B
FFF60B6A
00017F92
FFE336F3
FFEE5206
FFF18CA2
0003CDE3
0025C8DB
00063C39
FFFA3B10
FFFF3205
FFF37400
FFE6628F
FFFB2713
FFF67456
FFF9AD97
0001CD3F
FFFFE019
00010443
FFF53531
0004837F
FFF27E70
FFFDE58E
0001CA2E
FFFA9E06
FFFD60FD
FFE665EE
FFCF8D5F
FFDB3398
FFE8C212
FFEF2649
FFF54156
FFE6B9E9
FFFD08D4
000593E0
0013F8C5
0010D28E
FFF67D9E
FFF5CE99
FFE3FDC7
FFE84FEE
FFE9E6E2
FFEDD464
FFF157B7
000328B5
FFFE8806
001046A7
000DCEAC
FFFE1144
FFFAEC86
0002C206
0008CDD6
FFFBC7B5
FFF8A5B0
FFEA3AF9
FFC470FD
FFCDB0B8
FFE3DE6A
FFE3CF35
FFF001E2
FFFA166E
FFF443AE
0009A34A
FFF650B4
FFFFDD37
FFF7200B
FFEBA163
FFEFDFF1
FFE2D530
FFED5270
FFFD336C
0003873D
0000277B
0002D61F
FFFFCF85
000AA859
0008868E
00010410
0007C9E2
FFFBA9B3
FFF7D075
FFF090F3
FFE76FD9
FFC4C8CF
FFC9E667
FFF0D6A5
FFFE8012
FFF077D6
FFDE0322
FFEDDD8E
0005B719
000130CC
FFFA6BE9
FFE7EE7E
FFEC7E40
FFF3965A
FFF2B120
FFFF2DC9
00019BB8
0007E53F
FFF15530
0007A803
FFFF072D
00070734
FFF46A58
FFF6E65A
FFFF1E92
FFEBDECA
FFE59D0A
FFF11614
FFEDEFDF
FFE65322
FFE41608
FFE39C46
FFF2AF7E
FFFC5BEA
FFED9289
FFF1CEB3
FFF39668
FFE2F5BC
FFF5A2AD
FFE66686
FFF7788B
FFFCF49F
0002DD4E
00007994
000806E4
00099DFF
001270A2
00050BB0
FFF97C03
000FA672
FFFC43CA
FFF87E50
FFFB1005
FFE5A156
FFF53100
FFEF7371
FFFA7B12
0023DEBE
0004323E
FFF3A84D
FFF1A4A5
001161DC
FFEFD582
FFEC4395
FFEDD7F5
FFDADDE7
FFF73B82
FFF581CA
FFDF0938
FFF5A706
FFF70B6B
FFF9E6F3
00022223
000959DC
00198FFB
000F0551
000A87F6
000CB153
00077ABD
FFFB7E13
FFE7E85E
FFF16514
FFF3B949
FFF57557
000668E3
001AA570
001295FE
00257B24
0011209C
FFF264EB
FFF6A224
FFEF1D97
00030C2A
FFE50C39
FFFF4DD0
FFFBBBB0
FFF2C606
00001F0E
FFFAEC8A
FFFC9490
FFFD7882
00141041
0008093A
00162391
000E4E30
00220E1C
0006F1DA
FFFE0D35
FFF76751
FFEAB61E
FFF30D28
FFF86A9B
FFF46A0E
FFFA4C21
0026EB15
0028DB26
00124DBA
FFF93423
FFF51E34
001B6A0E
00199B60
0001B315
000B32B8
0005551D
FFF74F7A
000CE393
FFFD8EE7
FFF41F0B
FFFA51B2
000D8627
000E688B
00255564
0016DE81
001A975D
0009F9C9
FFF540AE
FFF9AA38
FFF7A542
FFF941D0
FFFD94D3
FFE8D4B1
FFF9EE25
001958EE
002DAAB1
000EED8A
00012846
0009C474
001607B0
0014523F
FFF97C98
0006414C
00174548
00168A8D
0001F7D5
000F5B9D
00003B6F
0002178A
000C90B6
001CB235
0018750D
00134E0C
00101E5F
FFFF7AF2
FFF8141A
000AF9EE
00025896
00138BE8
000B4630
FFF52911
000FA3CD
002B11ED
00320040
00179D7A
FFFD36B0
0005EFDF
0016CAB9
0000C56B
000B1AC6
FFFC71D4
0006B860
0010A9A1
0008F07D
FFFC68D0
FFFC32DE
000046E0
00026B64
001352A2
0008CE59
0009C98D
000CC19E
FFFD5971
00037752
00081B6C
000874FE
0010BD02
FFFDB265
0002C4EB
FFFC0DDE
00185688
00189B50
FFF615AB
FFEB98C0
0010B047
000A634D
000DB2C7
00072FC9
0013BE7E
00107FA4
00136A0E
000DEBAE
000854EE
FFED1FAC
FFF6D2EF
000C7156
00124FCC
00096E2A
000075BE
000935A4
00088372
00185532
0001A709
000FF6CA
001983CF
00131E9D
0007E8D8
000BDC23
001CF236
0002FF78
001F45B5
000E5855
FFE68FDA
FFF69FA1
00032FF1
00013C17
0011626F
001297C3
001C1418
0007DA4E
00016A5C
0000A227
00004101
FFFD5EC3
00042FE7
0004E3F8
000BED6D
001CE79B
000A54DA
001317F6
000DDBDC
00084E81
00186638
000C1524
0011A1A0
FFF78228
00191BB6
0026C997
001E78A7
FFFA6E3C
FFF3F1DE
0006193A
00165C87
0006DA96
FFFB4659
001AC127
00198A18
0005D5B2
0005A3B7
00043EC2
FFFA3470
0001DD7A
FFF3EA52
00014B3A
0011E20A
00121242
000D9561
001C6525
00136536
0024D80E
001CD301
00137A94
000E9801
FFFB83AA
FFF1457A
0019596A
FFFE1AE6
000F7C2D
001406B9
002240C3
001D5FB4
000D126C
FFFF6C3D
00109E70
0012473E
00160D02
000C5F8B
00131ACC
000000D2
FFF725CD
FFF66165
000CE7B4
000E4A0C
0005D926
0017486B
0025E379
0023A8D2
0017EB0D
0016EFDD
000F5E30
001E2E8C
000172AE
0002A237
FFF39E1C
FFF3AF23
00104A87
0008D250
000F29D2
001DE874
00106954
000E802B
0013B918
000D8AB4
000EAB87
0018FBBC
0012AD90
0000D672
FFF08336
FFF3158E
FFFB9F5F
FFFC4365
FFFC6948
FFFEF232
001DD4FC
0022E5B6
002A16B4
00278872
001751BC
000B97BF
00002820
00049E67
FFEDFA7C
FFFA435B
FFFF159F
000055D9
00310332
0006D983
FFFAB588
FFF8F7E1
FFFE58EA
000322D6
000CEB3E
00059BC1
FFFE3365
FFFE6534
FFFDF978
FFF5EA2C
FFF040D2
FFF1E46D
FFFD841F
000A66EF
0020CF1A
002BD67B
001F04B8
0023E9FE
00145EA4
000060B5
FFFC4AC6
FFFA1145
FFFDADE8
FFFCE811
FFFC01C2
FFF9605B
FFF7796E
FFDCE147
FFE1B977
FFD2C360
FFF9A7A1
FFF71CC7
FFEC4EC5
FFFCC436
FFF96B09
FFFB3F99
FFEEC0B5
FFEFCF4C
FFF06C16
FFE8F06F
FFF8F02D
FFFB4A94
FFFB4F85
FFFCE5F8
FFF9E061
000A509A
FFFDD6A3
FFEB9716
FFFE2EE4
00173248
00079AD1
FFFA62AB
00083501
00032535
FFFBC3E1
FFEDA8A0
FFE27BB7
FFE1D359
FFF06AC3
FFE3CDCA
FFEDE21E
FFDC78D0
FFEAD2A4
FFD71046
FFE992E2
FFE73BCB
FFE8FB5F
FFE40F03
FFD796AC
FFD24FE6
FFD7FB98
FFC9575B
FFD47696
FFDD2DF8
FFD84AE4
FFE632D4
FFDDB987
0009D775
000AD0C8
000667D4
FFF76A7C
FFFEED22
0000888A
FFE9C7E8
0006625B
0000FC82
FFF286B5
FFE93402
FFD67730
FFCAEE66
FFC3CE3C
FFC1E9B6
FFBAF8FA
FFB85E62
FFBB97F1
FFCA0788
FFCE7AA0
FFC18CE4
FFC28ABC
FFC3598E
FFBA74F2
FFBA5F41
FFCF3ACA
FFEE269C
FFF3CC1B
FFFE223D
FFFAF3F9
0002DC92
FFF7BF73
0002F55E
FFF8893E
00001631
FFF8EE5F
FFF84DBD
FFF5B06C
FFE91960
FFE424AB
FFE6518C
FFD3F2AA
FFD51408
FFDD48C4
FFE915B9
FFD64DAC
FFE1FDBC
FFDFED81
FFE416C0
FFD3D35A
FFE27AD8
FFDAE988
FFE7DDA0
FFE555D8
FFF2F710
0004FCD2
FFFB5689
FFFC975B
0005572A
