FFF86317
FFFAD4A8
FFFDECF5
00086C30
FFF84363
FFFDB01C
00059EB2
FFF99D2C
0006CD74
FFFEE662
FFFFF046
FFF84081
FFF6F3B2
00002AB0
FFFC09BA
FFF84CA1
FFFB6F34
0005C884
00040479
FFFB698D
FFFAAB14
FFF71E17
FFFDF935
0005EEC5
0000CCFE
0006058C
FFFDB964
0004630F
FFFDBE5D
FFF83CFE
FFFBD414
FFF7701F
0004D97B
FFFBD64E
FFF23AD9
FFDF59C1
FFEF6CD5
FFF67231
FFF7B309
FFFF8074
FFE1A6BE
FFE05561
FFED5ABA
FFE8DD3A
FFF8F115
FFF6933F
FFF8089E
FFF8B1D2
FFFC2653
FFF776FC
0009126D
FFF90FF8
00080817
0006116C
000232EE
FFF8AECC
0007BD47
FFFCEF1A
0002EF0C
FFFF9BB5
0007EDA3
FFF31EF1
FFE8D494
FFD60252
FFE29C44
FFE1899A
FFF72C67
FFEC09F5
FFD68160
FFD18EFB
FFB8DE0F
FFC00F8F
FFDDD200
000028C4
0012D7BF
00083E27
000D3DCC
FFF60A24
0003BE41
00025D96
FFF27FC0
0003D57A
FFF8A60A
00063402
FFFB95C9
000306D4
FFFC0A2B
FFF897ED
FFFDEAEE
FFF68E44
FFF60E31
00008C8A
FFFF8F1D
FFECD61A
FFE8DF2A
FFE05FA6
FFE39081
FFC1B352
FFC52888
FFC519B6
FFBF860E
FFEAB7E5
FFF8C8DB
0005EC9B
FFFD3212
0001F4DD
0005B95C
FFFEE3EA
FFF5277F
FFF7298D
FFFA1D7E
FFF88746
00090746
FFFD80E3
00047C1E
0025B4FA
000FEA40
000C2C16
000A1AEA
FFF9DD02
000A99D4
FFF5892F
FFF9C9B4
00035D94
FFFF56DD
FFFFF677
FFE93634
FFECD1A0
FFD19802
FFC94705
FFD35820
FFCBAFFA
FFD83871
FFF8EC37
0009E055
00138E6B
002BE287
001897F2
001E68BF
00014314
FFFE6900
FFF97783
0002D3E1
0009C7E3
0010F530
00326BF3
0027635A
00101A97
FFFB644E
000467A0
FFF5F588
FFFF46DC
FFFAED17
00058482
00033154
0000C548
FFEEA168
FFEF82D4
FFE21FC5
FFEF9CF8
FFF3A6C2
FFF15823
FFFD0D08
FFFEC69A
0005059D
000CEBE8
00045061
FFF3F998
00016D8E
0000F644
00132A4C
0017F1C7
0010938D
0015F600
0019AA37
FFF62DB1
00081012
0000A9EE
00025D3A
FFFA442A
00056E0F
00081CEF
000D00F9
FFFD8560
FFFCB277
FFF4ABBC
FFF120BA
FFE4063D
FFFB5207
000A394F
FFFB9CC8
FFE861AC
FFF299DE
000F869B
FFF25AE8
0003EEDA
FFFC5697
001CF5D3
001879CE
000D48DC
00195E60
00047A86
0015B888
0013948D
0012DEBE
0000D63D
0008C976
00046A01
0013795E
000AA7DA
0008B444
FFF88635
FFED8FBC
FFF3A6C7
FFDFDE00
FFEA6263
00016531
FFF5A875
FFEABF18
FFE94324
FFF66397
00043695
0005191D
0011FD4A
000D222E
000DE5A6
FFFE1C7A
000E9439
001C6F41
001576A8
000D2EB2
000E3E18
000B5A8B
0010BB36
000C9C9A
0019D613
00201FFD
00235DEA
00148C68
FFF52EFA
FFEE70EF
FFEF6C26
FFEB9FC4
FFEC0396
00052F52
00089ACC
0004A49B
0001B0A1
FFF897D7
FFFED9B5
FFFC3A68
0005DDD1
000965CB
000C79D8
000B316A
0012D7CD
0029704E
00078EB2
00147DC1
000F8787
00179ED2
0017DBD2
001FB236
00331437
002FFB7A
003C9CB4
0036A6C5
FFFB5691
FFDEB113
FFEFC7D5
FFEFFE84
FFF288DB
FFFBEBAF
FFF7DA53
00091B96
0016BCAE
00083DEF
001E9BF5
000EA326
001A79CD
00159910
00178771
00113AFE
002C4A12
00140FFB
000AFE63
00063936
00160CD1
000FECCF
0012CEB4
002331CC
002C40AE
0024B896
004674B8
000D97BF
FFD3F8AD
FFE06616
FFE789B7
FFE996FA
FFEE5193
0003F23A
000AA404
00256FBC
000F033F
FFFC5C6E
002AAE6E
002BAF8D
001CDAD6
0004DF65
001D04AC
002346BA
000C4A08
00090098
FFFE9E78
FFFD49FF
FFFB7884
FFF88BE7
0006DAF6
0004248B
00177B58
000AA01C
0009D11A
FFE545BE
FFD98A6C
FFDDF77A
FFEBCA00
FFF124DB
FFE385A6
0002086A
00108F5E
003043A5
0025ABA8
FFF8981F
0010CC02
001AF50A
000E8E20
00005FDF
001E7567
0015AABA
FFF60B16
000A4CDF
FFEBFBB6
FFF03ADE
FFF414F5
FFFB832B
FFEDD9FF
000D63A0
FFF4B1AF
FFF3B289
FFF797A9
FFF3F8B6
FFEBEDB8
FFE79294
FFEC9F40
FFFCE1B0
FFEA6E9A
FFFC20D5
000FC8A4
003230C8
0036A464
FFF47089
000C4A95
0018196E
001C19B8
00012205
FFFE4493
000E7FFC
FFF67C6C
0008C547
FFF8C5A1
FFEC9065
FFFB2AB7
FFFC1C12
FFF8C972
FFFA88BC
FFF6DD51
FFF7FA45
00070AE1
000CB9B0
FFF95ECE
FFEEE545
FFEF5882
FFF2A949
FFEBFAE8
000CF056
00099484
000CBC2C
0019BFA0
002A2BE6
FFFA044F
00140B0A
0003AD21
FFFD0F83
000BFCCE
0018D7BE
FFF4373A
FFFF6CF5
FFF45394
FFF748B9
FFF8BE76
0010D1A4
0006236B
000B2AC9
FFF1DE22
FFF9CC92
000BE7B9
0013498A
0009D7BE
FFF02BD7
FFF911DC
FFFD157C
FFFBFFE0
0015B274
0020ABF1
0022C346
003A08B3
003706FC
FFFD44E3
000B1E48
FFFB09FA
FFFB5CAD
001676EB
00091215
0007CA74
0000E301
0011E6E0
00133FEB
0013E4AA
001B2B18
0032DFAE
0031F701
001A213E
001BF760
0016D5F1
000FD386
000BD583
FFFF12B0
0004540A
0009AD01
0002327B
0019431C
002C917F
002774CD
001F0DB8
002F7C92
FFD882DB
000A5208
FFFBA2A5
0001CD7F
00170767
00135B3D
FFF948D9
FFF78088
FFF90445
000D8E66
001BDEEB
001A88FA
00262AA8
002EE624
0029C674
00253610
00200F90
001CC371
000CEED1
FFFBA1CD
000E458A
00227E26
000EAAEE
00031B3E
0012DC20
001A9213
00204358
001AD699
FFD2D822
0007BD57
FFF99FD9
FFFE1FBE
00104855
FFFDADF4
FFF49B12
FFED0790
FFF282AA
FFEC7D9E
FFFDCBE7
FFFA3C1C
FFF85EEA
00045742
FFF88B64
001452F8
FFFE6F04
FFFAF7BC
001000B3
FFF3C1D2
000F7732
00144A03
0006836C
00052475
FFFC82D2
000A7C88
000E1DF2
00056E62
FFED03DE
FFFB95C7
FFE063B9
FFFE6904
0004B488
FFFC1CD9
FFEF9A2B
FFE8F5F3
FFDE1DE2
FFCE5951
FFC479C6
FFCF10E0
FFBC56E6
FFC3FB78
FFC68C8C
FFA8ACB6
FFA45E48
FFD8047E
000092F9
000AED38
0016F660
FFFEC092
FFF9CFC8
FFFB98A4
0009B659
00086BDD
FFFEDB30
FFE5C4CE
FFF495B9
FFF82144
FFE153D4
0008DDD0
001F356A
00008186
FFEC4284
FFEA73F5
FFD163B1
FFC5F6DE
FFAE513C
FFBCB7B1
FFA2B98E
FF9099CC
FF7E4E49
FF778DF4
FF6FC65E
FFCF0573
000FD299
0016D5AE
001785B9
FFFDD328
000A493E
0002CC63
FFEF3EED
FFE631F0
FFED0744
FFF10E55
0016E161
0007055C
FFFF34B2
0006F0FC
000D0384
000942E2
FFEFC0EF
FFECF5D5
FFD43681
FFD23AE5
FFD0CE1D
FFD123C5
FFB761CE
FFA9614C
FFA1248E
FF7B7F57
FFA23660
FFEDE4C6
002875E6
001F645C
000EFE8A
000B683E
0006B553
FFEFAF7C
FFEDAA01
FFED85E8
0006914B
FFF46754
001F701A
00140971
000511A0
FFFA4ADF
0016C073
00128FD0
FFFE4F08
FFEE171A
FFE66488
FFDDC3BC
FFE2FF19
FFE49E50
FFD59B50
FFDD81D3
FFDEF4BA
FFE7E9D0
FFFD5D9B
0016900B
002736E0
001F48E4
00050737
0006EDA0
000D4713
FFFA13E2
FFF17D84
FFED550E
FFF94336
0005657A
0022460F
FFF83E6C
0004DC27
FFFDE929
000E6069
001EFF1E
000EAE37
FFE825F3
FFE692B0
FFFF1E18
FFF652D9
FFF87EFE
FFEED9BF
0003CEB1
000A2466
00110137
000CC5B5
000CBA74
001DF351
00092DCF
00060D3B
000F8BE4
00079F6A
FFFE5585
FFDB4399
FFEB4F60
FFE78F96
FFFD7D97
0007D5C4
FFF7CEDB
FFF86BA8
FFFFBBBA
00041F73
0024DB4A
002436C0
FFFC267A
FFF631C0
00023E00
000B5DE4
FFED4147
FFFFBEFD
0010610D
0016E935
00157CB9
001C93A4
001D5222
0018E988
FFFDA7FA
000B5406
FFF8994B
FFE9D9E5
FFF3111B
FFD24BD0
FFCFBA26
FFE54C81
0000E110
FFFD5C05
0011E0C9
FFF718D5
0006604B
FFF972CC
00104343
00003619
00058137
FFF333E3
000A48DB
FFFF1B3D
FFF34C44
FFFEDCBC
001DD67C
000D1AC7
0018DEDF
001B6945
001840A4
FFFF4051
FFFEA27A
001BA020
0004F484
FFF6E3E8
FFF407B4
FFFE2D3B
FFF9FD6C
000828F5
FFF504F9
FFFE5BBE
000A0CD6
FFFC4BE7
FFF95029
00001912
FFFBE87C
FFF3C7C4
00121A39
0017DBEF
0007118A
000271D7
0003CD65
FFF9E8AC
FFF20BF6
000F2D80
002599E7
00137551
00167439
000E6EAB
002142F2
000C4BE9
00259CEF
002C90B2
001E53A6
0012FC08
0019D7D3
00197B1F
002BF072
FFFA7598
FFF9B25C
FFFE288A
00075F69
0005F311
FFFD4E55
FFF987F8
FFFE924F
FFEAD1A1
FFFB6F53
002DD18A
000E22C6
FFFD171E
0016EA2B
FFF90255
0004B163
0012FD35
003598F1
00439B60
003A6B75
0032AAAC
0033BEB3
004FDBE0
0040AA42
002A59FF
0021BF22
001532E1
FFFCF833
FFFB026A
FFFE9FE9
0004750C
0003C708
FFFB00AF
000196EA
000207C8
000572AA
00075A70
000854F6
0007E79D
00170BA2
0013D1FF
00186E83
00017956
0000AF26
003F4CC8
002F15EE
00089F35
00159314
004382B8
0023577F
0013FE88
000F6E01
001B79B0
001ABFC5
00186B07
000453F4
FFFFC907
0008CB74
FFFF54B4
