FFFF94E6
00076EFD
000763C1
0008A6B2
0006120C
0008DC16
00035204
00014C55
00084D9E
FFFEFA83
0001D09A
FFF9B9B9
0000EE4E
00040DA3
000599A7
0006070B
FFF88206
0001064E
FFFDD51E
000666E9
00082B44
FFFA054D
00089AB4
FFFF6753
FFFCE89E
0003BB97
000427F6
FFFEC609
FFF8117D
000355C4
00053005
0004A4BA
FFFFB286
FFFA54E9
0003D64F
FFFFD22D
FFF73C28
000488AA
FFFA799C
FFF2F744
FFEC1D9B
FFF12CF0
000E54CA
000B0290
000C91B3
FFFF61FE
FFF7BBDD
FFF73A48
FFF92E6C
FFFB049B
FFF24E96
FFFA34F6
FFF9B208
FFF94CBC
FFFAE7E3
FFFBA82D
000152EF
FFFAE55A
FFFDD041
FFF852DC
FFF93EEE
0002994E
FFF4E6D4
FFF1D456
FFFD9F0A
0009E819
000C4629
FFFC058F
FFF66071
00098B25
000454DA
000D6DA5
0016B507
0013CBC8
00107FC2
00165C5F
0007BEEA
00093BEE
FFFEB248
FFFD495E
FFEFA151
FFFB0F29
FFF84526
00005A26
00015A83
FFFBCED0
0018A917
FFFC63A2
FFFA8EA0
00061D85
000C2544
0011E34E
00186A4B
0027C507
002620D9
00186468
002B1D04
001DFD7E
00184B27
00119129
00025F45
FFF64CFA
FFED05DD
FFF6A91F
000EDE21
FFFDF203
FFF21ADB
FFEF3188
FFEC7057
0004D3BB
FFF7BBBF
00009303
FFFF928B
00022664
001838AE
00090E40
0002A10D
00102E5E
0020890B
002CB2FA
002534EA
003292DA
002C0EB4
003597A7
002C33B0
001DE152
0019420D
0019EB06
00137B05
001337E8
00146467
FFFF6609
FFFB091D
0006188D
00051FAD
0002A791
FFF4E0F2
FFF558A8
FFFDFAEB
FFFBE62B
0007FB41
00009B71
001B7872
00213C1E
00102AE6
000746AA
0004DAB0
FFFE34A3
FFFF8862
0005BE0A
00162410
0016D1AF
000C41D9
000A7716
000EEA12
0017BF06
000E3147
00119012
0014AA5B
0002CCCB
00092788
FFFDB2B3
00089929
0008B7D5
0000FD90
0013AAC9
0017F6D2
FFFA137A
00058AA0
0011600E
FFDE0E8C
FFFEDC6E
FFF90726
FFF33B50
00121C7B
FFFDCE0E
0005A827
0007BC26
00097E61
0010F7F8
000C3F1B
000BE2B8
000A3EF2
0007C7A5
0003AC36
000CC5E0
FFFE86E2
FFFB6A8B
FFFEA552
FFFF9973
FFF709CB
000C1578
0012EA5A
001A05F6
001F3753
00062C63
FFFDA858
001D698C
FFD5BE15
FFEE0677
00043738
000485E7
000224B5
00030651
001165E3
FFFED89D
000B5334
000F98D5
000975AD
000578F6
000B476A
FFFAE6A0
000809ED
FFF7260D
FFFB9AFD
FFF53611
FFFF5181
0000ED3E
0004239F
FFFCDDDE
FFFB6DED
00186B2C
0017F31E
000A9635
FFF898F2
FFFB2C79
FFE05848
FFEF089A
00178491
00157024
0009B78B
00002245
0006122C
FFF59911
0001B483
FFFC33B4
FFFD6136
00096D22
000D6465
0003C5D3
FFFAE2E7
FFFA88B8
FFFA7C8E
FFF31BFE
00038B1C
0008F7AB
00066B3B
001216EF
001091FB
001D8E07
001AE11C
00092A4F
FFDF1D3C
FFFC36BB
FFFEDB3E
FFF7C4AE
0015AE6E
001ADCAA
000831D3
0001BB45
0002846A
FFFE4DA5
0005E80A
FFF7662B
FFFEB26F
FFFFA377
000205EB
00113568
00023561
FFEFFAF6
FFF1E3A2
FFEB35B2
FFF50DCD
FFF78FCA
000853C8
00147139
0018B15D
002D3726
00208B3C
000BC165
FFE1B76A
FFE74917
FFFAD20E
FFFE8EE8
001014A9
000F6642
00059F40
FFFFD2B5
000540B9
FFF1D82E
FFF5DF3B
0000A806
FFFCC6EB
000E6D8D
000A6CFE
FFFE75F3
0004DE48
FFFE7F02
FFF4F740
FFECB3AA
FFE42F96
FFE935BE
FFFD722D
FFF3FEF8
001439E4
001BC20C
001DF46F
00085C72
FFE61668
FFE9CFF8
FFECF000
FFF979F7
001C52EA
FFFD217D
FFFB99DC
FFE35862
FFF2C855
FFEAC7AE
FFF4158C
000197AB
00075940
0002BC3A
FFFB0948
000134D9
FFF1749A
FFF60BF6
00075A1D
FFFAB115
FFE77EFC
FFE5DACE
FFDD8AF1
FFD40075
FFEFAD44
0008894B
000F0C66
0015D370
FFE40712
FFE60552
FFEA02C3
FFFB4BD9
0014BB76
FFFEE251
FFF141DC
FFED0468
FFF439FA
FFF1F9F7
000FFEBB
0009AE08
00119520
000A73CD
000120D2
FFF75235
FFF0C2D8
FFF36856
FFF69BFA
FFF923A2
FFFE9A99
FFF8FA91
FFC3A0FB
FFD27C4A
FFCFDA4D
FFDBB5BB
000333F4
000F9036
000AEAF3
FFEB358A
FFE30E3B
FFF71981
00036551
FFF99499
FFEED9FD
00060DE5
0002F9A1
FFF46B79
FFFA2B63
FFFE9384
FFFE13F8
00069214
00086CF1
FFE5BADA
FFEBA644
FFFED729
00057290
FFFBF3EC
0003A7ED
FFFF73F0
FFE31433
FFE58C43
FFDF6370
FFE8288C
001257C0
0005F202
0000B241
0006DA37
FFE33F14
FFED22CA
FFF09460
FFE588FE
FFF0AFD9
FFF04DF1
FFED3D87
FFEADAE8
FFED117C
FFE713A1
FFEB280D
0001B010
0004D01F
FFF96F7A
FFF06179
FFF8737B
0001A439
FFF3D413
0008538B
FFFE65FF
FFF60DAF
FFF26BDB
FFEAF7AC
FFE98B04
001513AF
0007AE73
00102968
00002389
FFF92B4C
FFE6AA21
FFF5C402
FFDE096F
FFE13CF7
FFCE6DB8
FFD2CB59
FFE334E0
FFE9C5A9
FFDC1247
FFF771D8
0004B2F3
FFFF823F
FFF077A7
FFF91E77
FFF4F348
FFE7649E
FFF442AB
00038A2E
FFFB8D3E
FFEE18E7
0001F47A
0016827A
FFFB3667
001E3653
000C7B8E
FFF9BDC0
000E8DA2
000D4E93
000B9BFF
0000CE27
FFE10563
FFD0DDB4
FFAFFA9E
FFA8713F
FFB536EC
FFC46D9A
FFCD2057
FFCF7871
FFFBA939
FFF65791
FFEBBF4F
FFECB6AB
FFE82B6A
0007331E
000BC758
FFFAAAA7
00078C6D
000E87DD
001C16AE
0017B8EF
0016423C
001680C0
00158580
00008A4A
000CF960
0016F309
0028B438
000D51D2
FFE31583
FFE409E2
FFBDC016
FFB94D74
FFB3B06C
FFB33A2E
FFB31F1C
FFC50958
FFEFF6B7
FFF49059
FFEAAC9E
FFF5DF9B
FFFDD501
00011F9B
0002BBE8
FFFB31CB
000FD39B
FFFE8937
00062F6B
0005A904
000E762C
000CB554
000D0026
FFED7C20
000A9F68
000F6F7A
0030319A
000F0D90
FFF5E3CF
FFE6F396
FFDFF482
FFDB9359
FFC3A264
FFC521A1
FFBE5192
FFD0F462
FFE643F6
FFF6C102
00027D67
0006A49A
0003E40E
00048949
000C1856
FFF97EBF
000A1076
00096B04
000E03FE
000DEAF6
000D4DA3
FFFEB0F1
001FBCE3
000908F7
FFF1E5DE
0010F54A
00191E2A
0006706E
0005A595
FFEFF46E
FFFB3AC4
FFF52B98
FFF4F643
FFDFBB4C
FFDD9A3E
FFF84C55
00123092
00120D61
0019AC74
001445BA
000A0719
000CB8E8
FFFD8344
FFFF974C
000963C5
00070B01
0010EBEE
0014CDDA
0016974C
00108BE7
001EA7DB
0003031A
FFFF25DB
0008E069
001CD867
0014B2E5
000615C5
0017AFD0
0005B062
000D76D6
000A658D
000D9327
0017D71B
001A89CF
001F0AB1
001EE475
001ED99A
00285781
0019A9E8
001DBB3E
0005E1AE
00065262
000E046E
002817D1
00247272
000EA444
00135B5A
001FD7C5
00002E88
0013806C
00148292
0011F04D
003B65A6
001E6338
001E221B
001C805E
0021018B
0018BDD6
001DCCE0
00237799
0022E627
0028C22D
002CC342
001B1AD5
0013B39A
0016B87E
00050785
00157436
00078470
000998F8
0016CD77
001F954A
0022AD06
001E9C90
0014721F
000DCE73
00061C79
0005A112
001186AE
00151CD2
00327A57
00211EE0
00197186
001780A1
001B5381
001AE542
001CFA84
001EB840
00260C2F
0023C794
0014800A
000F6D0F
0013CB17
FFFF01E8
0014AF95
00128229
000F6AF3
000FA19E
000CF1A8
000E4537
001DCE8A
00045B92
000DA0F7
0004E63A
0000EDB4
0000309C
000317D2
001DE2C0
0031EF74
002029A1
001B5F98
000AE4AA
0010396A
001C45BD
00245066
00288050
002BB6BA
00269FF6
00168548
00129343
00145641
000D8874
001FFCCA
000BF634
0003E297
0004C935
FFFA62CE
000A8BA7
00149C60
0012CA83
000906DC
000D2195
0005CA01
000233C3
0003C9DE
FFF52F07
000B09E7
000D6BEA
FFFA847D
000C441E
00120E74
00192D11
001B4557
000BDB70
0008E446
0014896F
00150467
000A16F3
00068CE8
0005DA5F
000E30D0
00171579
FFF58329
FFF320AB
0005F327
FFFB6BFA
00080860
001524D0
0017FF32
00125913
0001D88A
00085BAD
FFFD4290
00092070
FFFD6E3B
000040DF
0008FB81
000E902D
000D994C
00019034
FFF580D6
FFEC4D92
FFE9DD56
000888BA
00179766
FFFCAFCB
FFF8212F
0005382C
FFF745E6
FFE9CD8C
FFEEC244
FFE35A81
FFE9F532
FFF02352
FFFFE81C
000BA2FD
000D1E07
FFFCB713
0000E70C
00083D8F
00024A6E
FFF9E94B
000011E7
000BEC8B
0011BE8F
000B7641
FFF2010E
FFE73084
FFEFEB70
FFFF9C56
FFF3707E
FFE5CD15
FFDE7E09
FFD298EA
FFE3C0AA
FFE08844
FFDD9FB8
FFDA95CE
FFD269A9
FFDC5704
FFF28BC7
FFF3E253
FFE5EE4B
000039E0
FFF61F58
FFF73901
00090D88
0006F0C5
FFFE162C
000859F6
00037A80
FFFE0EFE
FFF7CF46
FFFE86C2
FFFB4D3A
FFF8DE3C
FFCBCE82
FFEECE94
FFE9E349
FFF33333
FFE5CB0C
FFDEB62A
FFEC8EED
FFD0B58C
FFB74955
FFCA3880
FFE06C5A
FFEB738C
FFF5EEFC
FFF93F82
0000AE89
000131B1
FFFD46DD
0003C0E6
FFFDF2F0
