FFF854FB
FFFFEC0A
FFF8684D
00013BE9
00008246
FFFCC40A
FFFD357E
00051BBE
0000744B
0005521F
00046A6F
FFFF11C0
FFECFF06
FFF48344
00139C58
FFFD1AF1
0007667D
FFFEEBC6
FFFAB7E8
00011DD3
FFFA9D66
FFFA0745
FFFC949A
0000E591
0004348A
000479F4
0002B5E4
00066FE8
FFFB03D8
00085167
00062641
FFFB5FA5
FFF4976B
00042D25
0000A6CB
FFF8ACDD
FFFD8B99
FFEFC26E
FFF86341
0005F0A9
0009BC59
0003CA1C
FFFC0323
0018BB62
000A44C8
000ED659
FFF7743E
FFF36E24
FFE54048
FFE9DFD0
FFF5BFCB
00091494
FFFD700E
000569E0
00067943
0008F29B
00017D5D
0007DB6B
FFF458DB
0011D453
000D6F5A
FFDD5F44
FFEF0FDF
FFF86F50
FFF7CD90
FFEE833C
FFF2E24C
FFDEF232
FFDFC5A2
FFE2D2C2
FFD247E3
FFDA3A90
FFF1DBE2
FFEDED6D
00025714
FFFCCFEE
FFEBE0FF
FFE17F54
FFE6400C
FFF3AD09
FFF9484D
000A53BC
0005040E
FFF8A8AF
FFFAFCA2
00043089
000F6F15
0009BCDA
0013A6D6
FFF77F8B
FFE5CF57
FFEED22B
FFF5DA23
FFF2C8DF
FFEFFC07
FFF7305D
00027F8B
0001742E
FFFA81E8
0005CD28
000477E1
0009EC8F
00005F2B
FFEA654A
FFFD4A57
FFEDCA34
FFF5B530
FFFE9683
FFFD1D0B
00167A38
0002B3CF
FFFA3FFC
0008FEED
FFF4650F
0009E497
0012507F
FFECDF2F
FFE25186
FFDC5E5B
FFF19C66
FFE5FC13
FFF07F72
FFFE8B7E
0014BA6B
0010B36C
000332C7
0005B02A
0012211A
000AD04E
0002A459
000652F3
FFFD7B08
FFEC6D64
FFF547DE
FFFBA54E
FFF66C2C
000F40FD
0019F71B
0017FB30
FFFDF79E
FFF794FF
FFF9F84D
FFE823D0
FFFD5A36
FFD4BC5C
FFE15D93
FFD95314
FFE0A7DF
FFE35B8B
FFEB865D
00042EC7
00194EF1
0017360B
0010CD1A
0004FBDB
000E820A
0008196F
000766F2
00011863
FFFE2017
0006C7D3
0008534B
00032DB6
FFE02372
FFF7DA7A
000B9114
0009C6CD
FFE7B710
0004922A
FFF0D852
FFF5D9C1
FFD89FA4
FFD2B9D0
FFD29534
FFDF60CA
FFEC58A0
FFF51D9E
FFF4881D
00115D49
0021FF8A
001B66AE
0015C64F
0013013D
001642F6
00146C86
001C3615
0018F2BE
000BF014
001273E2
0002F01C
FFFA8313
FFED3D3A
FFF3099D
0016B9D9
0005EC73
FFFF3B2A
FFF6685A
FFD771C2
FFD9D25A
FFC1F454
FFBE5B38
FFCB1A8E
FFEC9E72
FFF0192E
000D63A2
00031362
000FBD84
001756E7
001F5193
001DC13E
00154275
0012165B
001CEA95
0007589D
001858C4
000D17A0
000195C4
FFFF584F
FFFAF7EC
FFFBEE92
0001D9D8
000D564B
FFEFCCB8
000284B0
001776E7
FFEEBB65
FFD8B641
FFE03A8A
FFD04970
FFF07CF0
00014C2C
FFFDDA13
000D87BD
000B9AAB
00056CC8
00079901
000F59FA
00139ED3
001D217C
0010BE5D
001BAEA1
0013374C
00162152
00112FFD
000CB3F1
0004691F
000C38BA
00068A87
00224EA0
0013C5EC
000251B2
001B944B
FFEF565B
FFEB5869
FFD6DFFC
FFF02DF3
FFE29A78
FFFB343B
000ED74A
000BB1A3
001508EA
000FC211
000F5B62
0010A645
000157EE
00107F8B
000F0388
000B3E34
0012759A
0004900F
0006F4FE
0005C1B9
0004DBCC
FFF8FBE6
00023754
000B800A
00363D7A
002D834E
0017F0AD
FFF02794
FFEA0CB8
FFE474AF
FFFB63C2
FFF9C98A
00097BDB
0015843C
0024957D
00138DF7
0019A283
0011A73D
00191C7F
000C5F2F
0010F0BD
0006A110
00175534
000578A9
FFFC9046
FFFCD736
00094A40
0000F8FB
0004FA6A
0008DA63
00057DDC
00221CE2
002F4BCA
0025E1DF
002571A6
00045E0C
FFF91BC9
FFE5B772
FFEED0AE
FFF7A266
001A0474
0015F84F
001E1E33
00120D88
001E12FA
0010AEE2
000C5775
FFFEEF13
000263FB
0013EDEC
002A919A
00169510
FFFDD05D
FFFE96B7
000D2090
0001BB72
000C2638
0008949C
001BAE60
0025FB9D
0045353A
00347784
00306249
000F7C44
FFF4E811
FFEEDFAB
FFF6D9A6
0011C1D1
0021C3DF
0016EBCE
0027ACD2
0008A896
FFFA1B19
0007A58E
FFF21312
FFF68047
FFE8542C
00089468
0015B863
00141164
FFF845B3
000A63A4
000CC202
0014CEE7
0018B5CE
0015DF81
00107E55
00242DA0
0014457A
000D2CB7
0026BF70
FFF82FEB
0001AB0A
FFF41FA5
FFE5BBF3
001E4FB9
00290EA2
000A6824
000141D8
0008F700
00018F61
0002C47C
FFEE5C29
FFFB4903
00036523
0015E4B3
000B5776
FFFDAA28
FFFAA5D4
FFF6E73E
0003E6CB
00100BA1
0010DF75
FFFFA0E1
0010C93E
000BE3DC
FFFB4576
FFF030AB
FFFEF980
FFFA9B7F
FFFF2BD4
FFFA4528
FFE1F270
FFFFA0C6
00060E42
FFF78E3D
00109D1C
00028B09
FFF311BD
FFF737BE
FFF535ED
FFF9A454
FFF61B12
0010313C
FFFE9F1C
FFF5600C
FFECFA0D
FFFE65C8
0003412D
FFF920DE
000BF374
FFFDDF58
FFFC1466
FFFBE28C
00054016
FFEAF646
FFFB8B99
FFFCB365
000B4A80
0005410C
FFD6E9B3
FFF2D22E
0015BB7A
0006A82D
FFFED0E0
FFF44784
FFF8086F
FFEF9262
FFFF37E0
FFF1360A
00024213
0005B14D
FFE52618
FFF1C424
FFF887C8
00012BD5
0000090D
0002C0DE
0001E2FF
FFF362B0
FFF5BF5A
FFF30296
001A4B33
FFEA2DE3
FFF11071
FFF87269
FFFDBF16
FFFA0BD9
FFEC5B49
FFF5F6E5
001C17E9
000EB906
00017738
FFEDD4BB
FFEDE388
FFFC2E3B
0006221E
00068B33
000BF2BA
FFEC264E
FFDBFFF1
FFE6985E
FFEB43B9
000054BB
FFF776F3
FFEE01E0
FFEE2C3F
FFE74595
FFF79BEF
FFFBF6F2
FFFD88AA
FFD250C0
FFF777A3
00099832
0007ADA5
FFFB6FDE
FFD934C2
00068FED
000547CE
00048FBC
0012357E
FFF892E3
00066355
000BF938
000521DE
0001B8C2
FFF5436F
FFE2982C
FFE98065
FFF48563
FFFCEAA5
FFF4BB4E
FFF1FCA4
FFFCF324
FFF9DC29
FFE94708
FFFD91EE
00056AC6
0009E7C9
FFC601E8
FFEC6BD7
001526F7
000383CA
FFEF5BA2
FFEA6FB4
FFE60FF5
FFF23207
00022B6C
0019C5FC
000B297D
0002E56D
000E9073
0013F88D
000DBF46
FFF2B0C3
FFF0411E
FFFC325D
FFFCA9A4
FFF34AFF
00042FD9
FFEFB044
00058EE9
0004C15D
FFFEEF00
000B614E
0002C933
000D8FE9
FFDF5687
FFCD4D5C
FFDD624D
FFFB7CAE
FFF3F58A
FFF77964
FFE93001
FFEE8431
000EC15A
00104A72
0005131A
00098D8B
00004148
0015E108
FFF854B7
0006F813
FFF65437
FFF2A41D
FFF9D34E
FFF9AD87
FFF613B8
FFFD56A4
000EF64D
000B41B0
FFFFD80C
0019BA36
001656A7
00171B24
0001500B
FFDECFE3
FFE3D89B
FFF8EDBC
00176F2A
FFF02366
FFD7B4B7
FFFC9111
00261CA3
000DF43F
FFF64FB7
000035B8
0008D37E
000755AF
FFFBB51B
FFF431B7
00091AA5
FFFBFC44
FFF2D3AF
FFF9A0B6
FFF7B140
FFFF2E84
000A8800
000C2B7F
FFFB80F4
001D92D3
00139397
001D4225
0018F18F
FFEA6472
FFFFF7C5
FFF30427
FFDFD9B8
FFDC655F
FFEC481D
0002BB18
001619DC
002700A6
001AD433
00029989
FFF97F06
FFFBF319
FFF2782D
FFF6D60F
FFF9339E
FFFA2A71
00002188
FFF5C07A
0000CEED
FFF85660
00033DF8
FFFCF103
00001753
FFFBE646
FFFF2857
0017BBD4
00184AFC
FFF4116B
0007C6DF
FFF5465E
0000284F
FFDB8B9F
0001FDD3
FFFEFB30
FFF5C1C2
0016B2BA
00070022
0008F399
FFFBD74A
00003C7D
0003A5A1
00076726
000B01B1
00054F62
FFFD7BE5
000056EF
00014E27
0007816D
FFFB1826
FFF5A862
FFF1EB40
00029BAB
0017B63C
0014D094
000B4009
000E2138
00035486
00063468
0002CE0D
FFF2E32A
0012DC0A
FFF7DDBE
FFFDBFD2
FFEBCEBF
FFF5DAE5
000CBC07
00027C57
000E725F
0001B173
00050E35
000B26F8
00051B0C
FFFD80BD
000A0011
000A50D7
0003F4D9
FFF4BA9E
000166F2
0001E636
001AE167
002F7E45
001D02BA
0013D7BB
FFF7A40F
000260C0
FFFAEBF0
FFF975E6
FFF88A5E
0003F15B
FFEC245B
FFF04A52
FFDB5D88
FFED9A37
000856C4
000BFDDA
00058B74
0004FC02
001D7293
0009AB78
000A3A1C
0009780D
00010EA7
000B6F16
0014E4FD
00110BC6
00163B55
00024658
00053204
001F233A
00102DF5
FFE368A0
FFEC7C1F
FFFCAAFB
FFFE93E9
00039342
0019A8D9
FFF9B68E
FFEAF29C
FFF51E55
FFF5499C
000496E7
000312DF
0012E798
00041EF6
000C6EE5
000EE3FB
000C9E58
00121E79
000E9BD9
0020B3A2
00149339
0017846D
00237D6D
00230344
001FCE84
0009D5D6
000E3D6E
0017D39C
FFFE0B98
FFFE9C93
FFFF1558
FFF6EBD8
0004F69A
FFF9D9C4
000B4836
000BB1EA
00099416
00092ABE
002041F7
0020A316
0019C39E
001C8194
002B9082
0030F210
002CD976
00416818
0020D021
00311F48
00326A88
00296932
0027F327
002D2251
00295EA7
001A5F80
001843D4
00124F32
FFF8A0A6
FFFFD08F
FFF7BA55
FFFD4FFC
00086838
00038F3A
0008AD3E
FFFBD73F
FFEB30B1
00040A44
0011E76C
000AD0BC
0005E1A5
FFFE5B42
00133F7B
001E68F1
FFF10856
001D28FE
000EAF9D
000F4230
FFF3C0E1
000E6200
0012E235
FFFECF24
00050E56
FFFA7727
FFE9C940
00027A68
0007033A
FFF74ED8
00069A8D
