0005E24D
00015770
0008E4D3
0006F528
00080701
FFFDD1F8
00036021
FFFA9156
FFFCCE22
FFFFB635
FFFEA7F0
0004F27C
FFF9F5FE
FFF57E2A
0000AFDA
0004C540
00040884
0006EA27
FFFB14D9
00081083
FFF9F258
0007620D
FFFA87BC
00012036
00044451
0001010C
00030351
FFF90578
FFFBBB8D
0008ABF6
00002C98
00012BC6
FFFD88B1
FFF2832F
FFE350AD
FFF4198A
FFF94E62
FFF92127
FFEF6E95
0005A15C
FFFC64DD
FFFAE36B
00064116
FFEBC821
FFFF15E3
00063342
FFFA6B19
FFF49BAA
FFE08CA7
FFFFF831
FFF684F8
FFE783A3
0008301B
00052B28
0008B6F0
FFF87B21
00070A90
0002E11D
FFF0E5EA
000D3E02
FFFF5E3E
FFFD5DBE
FFE4378E
FFE80574
FFD7E691
FFD36C09
FFDC1B4A
FFDF72CE
FFF0F48D
FFE858B2
FFDCA378
FFDBA1F3
FFEE4AF2
FFF3843A
FFFE766C
FFFA301F
FFF5DB72
FFEFEF20
FFF7AF48
FFE4661C
FFE9CE61
FFF0854F
FFFEDFBD
0005ADBE
0003B433
00044268
FFF72977
00008166
00044C01
FFF2E0CE
FFE09D25
FFF9BBD5
FFFC88A8
FFEA9C03
FFF79F37
00027A4D
0001FBBF
FFF1A3A4
00051A5E
FFFB7ADB
FFFA7D78
00128348
0006764A
0010C12A
0027537E
0000C9FF
FFFC20A9
FFFA3356
FFF89F6B
000593AF
001ADCF9
FFF73198
00068A2A
FFF8A6DE
FFF81C99
0015A7F5
FFF1B505
FFE30F34
FFE06E6B
FFFC739C
FFF506FA
FFF674FE
FFF65740
000F186E
000C8AA7
FFF86561
FFF05CDD
0006E3D0
FFFA1818
FFFBB1E1
0005780F
0005B676
FFFA4745
00169EB2
00100ACC
000E169B
001508F0
0014CBFA
FFFF4D14
FFFDF954
FFFE81DE
FFFC9A79
FFE2D68F
FFFC223C
FFE02C80
00002612
FFFC75FE
FFFF448B
00094746
001847F1
000CA069
0015A956
0013CE3A
000A1284
FFF822A9
FFF29FFA
FFF378D5
FFF74617
FFEF5A55
FFF435C0
FFF4B7EA
FFF26799
0001EE33
FFFCD8B8
FFFF9B5E
0000D267
0010B412
FFF63912
FFF7A6B0
FFF743C1
00266FDA
0005E4D1
0002E8FA
0012E163
00110CA6
000EC93D
001A39C3
000C6360
0016B1A3
0014404B
000B5823
00161487
0009C85B
0007CD64
000022E7
0009CFAA
0006A905
FFFB19F4
FFFDF7D9
000C523F
00087C40
FFFD2E71
00021960
FFFFEC97
00088C2D
0001C61F
000842D4
FFEB6F9F
001C7A83
000EC466
FFE715E8
000BEDF2
00068C59
000CE292
000F9609
001613F4
0020D516
001565C0
001B36D2
001458E6
001419F9
000DB853
00188870
001F83C2
00098D0B
00057E3C
000A6515
00019A16
00094A70
000F47C3
0015474A
000E0BEB
0000113E
0006C6D6
00151971
00055CF5
000C1668
000A9C85
FFDD71CA
0007FB91
0009BC2F
00067650
00160FC8
0013C1D2
0011C3D7
001ABE10
00141F42
FFFDF9DD
000ECAAA
001226C4
0011E9A4
0012701B
00186FF0
0007D8A4
0011636A
000C07A6
000DF524
00018C95
001659F1
0024712B
0004765C
FFF77F2E
00165184
001268ED
00020ADF
FFFDDF09
FFF4F251
00011B86
000D7C1E
000E0BAB
0017A2AC
001AEDCD
0015CAAF
000F0AD8
000758FD
FFF73FD2
00044FB1
FFFE5F3B
0007D114
000BA257
000DC3E1
0000CDB2
0008A49B
FFFFD04B
FFF85E80
0004FB7B
001C0BB2
001BD1B4
FFF97398
000D2FE5
000F9CF4
000D85C8
0018CB24
FFFDA789
00057BFB
FFFAABA9
000EC08E
0017AFE7
0012B42B
0020F27C
0007D872
00078CD4
00002C5C
FFF31EB8
00008E2C
000DB26A
0016ABF1
000EBF10
00118D5F
FFF536C4
FFFE2A2F
00029C07
FFFC0A08
FFEAAD8F
00113EEE
0021C883
00051B02
000EAE19
0006DCC4
001E51F1
0021085C
FFFFBBAB
00020430
0001E6C5
0011E8C0
001355FF
00194506
000A2825
000FE784
0001E70F
FFFD1206
00006C61
FFF8C155
001D3D30
0013F762
0019E2AE
000D3C84
FFF5D4AD
FFF8B185
FFFAF6A6
FFF0B57C
FFE38DC6
FFEE39B6
FFEE7A94
000144B8
FFFCAB46
00095307
00168E4E
0021964A
001A7E7E
0012260C
000E90F9
000FF42D
0012BA24
0016AF42
0006DF1F
0008ABDB
0005AD41
FFEC0166
FFEA7B43
FFF57D4D
000E7C57
00033800
000022A7
000836D3
FFFFEDF1
000D985E
0007BF4F
FFFA8B3C
FFF93534
FFD737C0
FFD8EAA8
0000A67D
FFE91F44
FFFB09BB
0007CE34
001B2E16
001E6DC6
002C12B3
00182443
00144902
0013FD48
000F418A
00002488
000D38EC
FFFB6B38
FFF4137E
FFEC7065
FFFE0E13
FFF086BC
FFF0AB60
FFFCBD15
00126403
000ECF04
0015E937
000FB81D
00108BE2
FFEC547A
FFD99C95
FFDFB63B
FFE5D189
FFF302D0
FFFE33F9
000886B0
00238361
00108B6C
002D1FA6
001AE9B9
00176615
00134A2C
000FCF7A
00062858
FFFB4872
FFF77EF6
FFE5C920
FFDDC0E9
FFED52E3
FFEBC64A
FFE5EB64
FFFA1669
00100616
000FD698
0014B14C
001DC42A
00188673
001ACB97
0006900E
FFD07E23
FFD2AFB3
FFE074BE
FFFC98A3
FFFF9E7F
FFFA7335
FFFFCA55
001B50B4
00144DFA
00153033
001A7480
0010A6DC
0000BA5E
000A1D6D
FFEE1556
FFE358D0
FFDABA70
FFE5756C
FFE5D7D7
FFE328DA
00027F70
0017B21B
000E2606
00246418
001A49D0
0018FF6F
001D7C90
FFFEF1AE
FFD66DE0
FFEFFE70
FFEA9D54
00019DAB
00045124
FFF85CA7
FFEF24BA
00100F0C
00137AAC
000254FA
00159810
001E45D2
FFFFDC93
FFFA4A90
FFEEB6F0
FFFA8F76
FFEED935
FFDCF94F
FFE96587
FFE00F5D
00083E28
0015E87F
001509C6
0017F857
0015FF31
0014F6BB
0000C1B8
FFEEA3D1
FFD3078B
FFCD50B5
FFE14619
00027E3D
FFFB3669
FFF3CA36
FFF8A7BA
0001CDDF
001137FC
000921A7
000467E6
000DE164
000E9962
0007F246
FFFE409F
0007D6C0
FFF910BD
FFF4B783
FFEA679A
FFFA7920
0004BE00
000A917E
000CBB6D
001DB558
0009DB92
0007DECC
00047394
000712AB
FFE802B3
FFEBCC93
FFF5EC62
000A1003
FFFC9BF4
0000BF2F
FFECA9F1
0005E71C
FFF8246A
00085308
00057454
000CA6B5
000B2EDB
0019D9FF
0017F195
000A56C6
FFF59AF5
FFFBBDFE
FFF91027
0001EE91
00001E2E
001079F8
001AC3D8
000FAD50
001437AB
00060EF1
FFF2A5AD
FFEA9206
FFD8AEE8
FFFCA85D
FFD878DE
0004F693
00199F2C
0014DCB4
0000C305
00075AE2
FFF60911
0003FB39
FFF4D5BD
00088379
FFFCCEC3
0005B8B1
00093162
0009CA5C
FFF5A759
FFFC2AFD
FFF6C93F
FFE9B173
FFFCB2F9
00111A4B
000DE98A
000DD711
0000BF50
FFE83050
FFDE914A
0005F7D8
FFE0F5DF
FFD354C1
FFF7DD0E
0004BD1A
0018ED5B
FFFDECEF
FFEEAF63
FFFF01A7
FFF452E9
FFED3D80
FFDE7793
FFFB48C5
FFF452E2
FFF39760
00035D1A
FFFA22F3
FFFC186D
FFF92EB8
FFF19FD4
FFFF421D
000C192C
FFFE896E
00029BDF
FFF473AA
FFEF4881
FFFC5E6F
FFE89370
00038002
0012E7F0
FFDD7E32
00071436
FFF42092
FFE9A9F8
FFDD1D8D
FFE53A8A
FFE9C15F
FFF00FF9
FFE9AC9A
FFDD659D
FFE9BBAC
FFEE210D
FFFC0009
FFF7E32F
00018FC0
FFFDBCFA
FFEDB2A7
0003061C
000638CD
FFFE3990
FFF71262
FFF2D374
FFF4602C
FFFACAC5
FFF909AE
FFF80617
0009FA9C
0008B61E
00109676
0009390E
FFF29467
FFF5D038
FFE2FE38
FFEE0823
FFF285CE
FFF3730E
FFF04D1A
FFF5482D
FFEDA5B3
FFE399C6
FFF6471F
FFEC61CA
FFFBFADE
0003C352
0003B528
0007507F
001DA26D
000DC546
00095D64
0009B613
FFFD6E4C
FFFD81D0
FFFDA185
000A2969
000958F4
000C345F
001319FC
FFFE3355
FFFE0DD3
FFFFAC3A
FFE50C8C
FFFD5617
000EEA4E
0007CDE1
0003E768
0007AF34
FFF51BD6
FFF17B2A
FFF4039B
00036698
FFFB6F98
FFFDBD88
000BD9DC
000F9B19
00150E94
0004C1E8
FFF9ECA3
FFF61B00
FFFE8067
FFF57E75
FFFFA435
000EED26
0017CBDC
FFFE5111
0004DB58
FFFFE720
FFFD8A4C
0007A657
000F9A7C
0022D493
0029A7CD
0039B3CC
0018A202
001AB244
0005B172
0009B301
0009D2CC
0007483B
FFFB7CB0
001150B1
0009DC37
000E495F
000EF885
00107EC5
FFF99538
000448A3
000AA5CE
0000FDB5
00109897
000996E1
FFF1656B
FFEC07CE
FFF0AAF5
0001B7C5
0007E08A
000565C1
00059BBD
001FD011
0029811A
002A1498
00122C4E
0005DC1B
00040239
001201E6
0014B7B3
000E11F6
0005D73D
000A39E8
000027D3
00044C66
0014D2CB
000D43D5
0014CE8C
00172B69
0018CC6E
00292FF6
002B6659
00314EF0
0024C234
FFF8A951
FFFE51A0
FFFE68F7
FFFC08FE
FFFD2D3A
FFFCB47A
00081456
FFF53A25
000B9314
0005C995
001400A6
0015EE3A
001D6542
00151C4F
0012F105
000D7285
0018A999
001F326F
0022146A
0027356A
0026B287
0022E6E4
0030FC96
003D1DDE
00468F24
0030B59B
00164743
000A1779
FFF92A8E
FFFF6FA4
0005D0FA
FFFE91BC
00030EE9
FFFF316E
FFFB1CBA
0006A248
000800D8
000F6E84
000AC0BE
00135DF0
00190C7A
001C6FD6
00183528
00144FEE
0018E552
000DC3BE
0016BA12
00100817
0010AF72
0021878E
0024EAF0
0023F5A6
00212440
00197547
00108D40
FFFDA76F
FFFEC408
FFFFC34A
0008B12D
