FFF73252
FFF701ED
FFF99550
FFFEA0A4
0005AF12
FFFD37AB
FFFC395E
00061584
00075529
0004D16E
0007E697
FFF7C18E
FFFA19F6
0003CB3A
FFFA9A91
FFFFB357
000590BD
0008E248
FFFE299A
FFF7EFC4
FFFB7D14
0008E2A9
FFFE4E8A
FFF77F3B
FFFB28BB
FFFA4C1C
FFFD9D0E
FFF96165
FFFCE7CC
000861CC
FFFBAB90
FFFE091C
00052220
FFF53E94
FFF8E60E
FFFD3995
000E918E
000123AD
FFF62A27
FFF8501D
FFE7CC79
FFE5CB2F
FFE43467
FFE3A2F3
001DC2A1
001F9F1F
FFED8D67
FFE8A716
FFF2700A
FFEB918A
FFF37333
FFFC199C
FFF8DACD
0006F14A
FFF984E4
000593D1
00078F96
FFFE51E4
000881C2
FFF5C5B4
FFF445C8
0002F3D9
0000DB3C
FFFF5ADF
000AA480
002568E6
0024E27D
0020742C
000FA2E2
000FB69E
00148680
000CA9AA
000B991F
0014B2A2
000EA609
FFFCFE45
000F7898
000D82D3
FFFDB347
FFFFA359
FFFCB603
FFF271AF
0004E4C5
00046207
FFFC1E85
FFFA8FAC
000B5A6F
FFFFA2A7
000AF6A8
000FA598
00136B1A
001BEB3C
00372900
003E4F16
00469450
00489DD4
004A5AFA
003E2F52
003DAA40
0026C844
0024027C
001F8880
001B8C50
000AA6EB
000DB61C
000D628C
00044862
FFFC93D2
000BFE2B
00099273
000D6859
FFF8BF5E
FFF83901
00061AF2
00143331
0013AC77
000216DB
00148C1F
00379E4E
002F4938
0017D7BC
0033BC98
00318D90
0036E353
002EA179
001A5B67
0017848A
00164AC8
0008B001
00168AAF
0021F5AF
000E0BFE
0002F78B
FFFBABB9
00013F84
00003C15
001FB12F
00208EDC
FFFD274C
FFEAB453
FFFE8F52
000021CF
FFF70B5C
00218DF4
001498C4
000F7418
0017815D
00176930
002472C8
001FA907
002619A7
001DDDE4
001A4CC6
0016DA10
000C21B1
000FF6E4
000FE54E
00088D8E
0001E487
00002CDB
0000884D
FFFD4546
00195A10
FFFD7342
00057640
001A05B6
FFF806AB
FFE9634B
0007FD3B
000C8FA2
00146579
0019DE60
0021F9B8
00155F4F
001480D0
0010F1AB
0015E494
0021AC31
0024D306
0017EA30
001FA145
0012A75B
001F332D
000DBA20
0015FBC9
00119909
000640D5
FFFB1460
FFFD1C28
000333BC
000E548F
FFFAE83E
0014050E
000EB400
0023AC47
FFFF68E4
0000F992
0017AD57
001FD5CE
002DFE0D
0015A3D2
0004315B
00033BC7
000BE7A2
0015B36C
0021720A
0015DF65
002286ED
002468DA
0025306C
00266496
00215D55
001A2DE7
00190174
0024051C
001623FB
000AFED1
0010BE70
00131898
0008B8B1
FFF0D522
0002EE20
000E2CC1
FFF5E254
00028943
000C1CDA
001AC082
0014BF80
000BE0B5
FFF392E9
FFF418A1
FFFBC107
00125B70
FFFDC1C0
000839DF
00124134
00161FFE
001F062C
00336C7E
0025C062
001ACA23
001CFF7A
001997F6
00104AE0
00109EC8
FFFDE7DC
0007D9D9
0007103D
FFEE979D
FFF31638
00150246
000980FB
00024FAF
FFFC8ED8
001A39E4
00159B78
FFF918B9
FFFFF4F4
FFFF9745
FFF02C10
FFF10C22
FFE784E4
FFD90B41
FFE3E702
FFFBE6F1
FFFD2C85
000ACCBE
00082649
00081392
001315F8
00032853
000BB56E
FFFC0482
FFFDC506
00103FD3
FFF79C6C
FFD6CF02
0002A1B7
FFF293F2
001297EB
000A58F3
FFFF46E8
001B89C9
0016CFBC
FFFBF341
FFFA1CCF
FFEE0690
FFCEB39E
FFCFDFA0
FFBD10EC
FFC5BACE
FFC88840
FFD058A8
FFD99285
FFD5335C
FFD06366
FFF330CE
FFF918D8
FFED75F4
FFE9B6D6
FFF55F8E
FFE281E4
FFEB9ACC
FFD9EBAD
FFCD9BB2
00015838
0013A243
0015C696
0008C0C7
0011E032
0009FC48
0005B031
FFEAE758
FFEF3D8E
FFD589F1
FFC97ED6
FFB596E2
FFBA72D4
FFD342B6
FFD03418
FFD25B87
FFC5C4C8
FFBFFCD1
FFD63774
FFE4DC03
FFECA176
FFEBD9EE
FFF5D9FB
FFF04069
FFDDC27D
FFD8C8D8
FFDEC6E5
FFE2C3A0
FFF38707
000F3614
0005D4BC
0007186E
FFFF04DD
00079B9A
FFF86A85
FFD41DF6
FFD55DF9
FFCAB5F2
FFBAB3A4
FFC414D4
FFC57408
FFE3D58E
FFE2A1E8
FFEFFF69
FFE30547
FFE1E245
FFD69CA3
FFF51391
FFF8170E
FFF8494D
FFF7A3FD
FFF26905
FFD30441
FFC64A16
FFD5D8A7
FFEEE386
FFF03026
FFFE372B
FFFF0FC7
FFEE2418
00019947
000451CC
FFF10E0F
FFCCC618
FFBC8B05
FFB9730C
FFCED478
FFD9B383
FFF2498A
FFEF4748
FFF3C194
FFFA600C
00015042
0000EC0F
FFE8C91F
FFFD78F4
0003CB78
000B8BEB
FFF4F581
FFEA43AF
FFE268BF
FFD99DBE
FFE70588
FFF60872
FFFCCD8C
00055193
000A958C
00069F32
FFF71FD5
0012A943
0007A9AE
FFDF6964
FFBD6282
FFD116F5
FFE7F054
FFE19640
FFF02EC8
FFFFDBBA
FFEE9E97
FFF6AC1E
FFFFFAD7
FFFD8404
FFF968C6
FFFBDACD
0001F1FC
000D9451
0001244F
FFEBE015
FFEA6891
FFEDF9EE
FFE4A3F5
FFECE6A6
FFFAC741
0019F722
00118748
000E3CBE
FFFA2AA7
000B5373
0007CA96
FFFA8A4C
FFE5AA04
FFEB0C11
FFF07596
FFEA315E
FFF40CBE
FFFCB563
FFE6F9A4
FFE56C08
FFFAC665
FFEDB4C5
FFFFFC8E
FFFDD04B
0000F9CD
000376EC
00068257
00007CEB
FFF41FA9
FFDA6012
FFDD8C82
0007CB4E
00066C2D
001984B7
000272BC
000131E9
FFFF62DB
00140DEF
001D4BC9
00086D04
FFF50F36
FFED2BA5
FFDB277E
FFE89C6D
FFF15A3B
FFF9E102
FFE2CA1E
FFEB5F06
FFF72D70
FFF1CFF8
FFFA9B94
0005D7D0
FFFC50C0
000525E4
000971F6
00013B30
FFFAB705
FFE84CBA
FFE2CEAE
FFFEE4C2
0021B06B
00216FA6
00092E33
FFFD5047
000502CB
00115CEF
000FE1F4
000F2F22
FFFFD2CE
FFF611B2
FFDE56FD
FFF0A6FD
FFEE16AB
FFE06B5E
FFE18D96
FFEB93AE
FFE83EA9
FFE21E3F
FFF3803D
FFFD5B08
000A9146
000579AF
FFFA87F2
FFF8E6D7
FFF4C9FC
FFE7FEB6
FFD506AC
FFF1B69E
00318E2E
001BF0F9
0010F01E
FFFE7BBB
FFFE8F3B
000E4690
000F4B3F
00170828
0017F466
00024389
FFFFB1DF
FFFD2A5D
FFED9712
FFF28638
FFED8856
FFEFDBEE
FFEF707B
FFF7B1DE
FFFF8653
00187293
0014C55A
0000C95B
FFFDE639
FFFAAC0F
FFFEA4C6
FFF89279
FFEBF643
FFFFDDF3
0017B07A
00153D63
00193D1A
FFF8F859
00073486
00233A27
0011F394
0017EBC2
001F91F8
000B867C
000CE8A2
001A1B3C
00092931
0015A175
00098C08
000A5C4C
001F4E83
001D80A4
001CC3B2
00087470
00137131
00010522
FFF93A6F
00066A47
00067729
FFF7D20D
FFE94549
FFF7D0AA
0005FED2
0017616E
000E8A17
FFFEA568
FFFE2DA5
001EA545
001EA091
00193DD2
0014FB5F
0016BF70
001C1E9E
001F101C
0020C6E2
00157DC8
00200820
00185200
0021FE73
002718F7
0027C36D
001A9A4A
00017974
00032E66
FFFA1D77
FFFF8072
FFFEC83F
FFEE626C
FFF7F152
FFFB69E7
00088EF8
0004D7A1
FFFF2B09
FFF8326E
0018C804
001C8CB5
0008D113
FFFE715F
FFFC831F
00043273
00116F88
00105EB1
000F6F2D
001F4035
00298AF0
002B7317
0021D55E
001C90C2
001264DF
000E7F1A
000C5DC4
00082610
00011852
0006B149
FFF59E58
FFFF6641
0017481E
00128521
00147F14
0016F1D6
FFFB1258
FFFD71FB
FFF21E0A
00236916
0016AC5C
000D788B
000580FE
FFFEECCA
00000A81
000C62E2
000C8B62
000B9D1A
001A4704
0011F817
000A1081
00059822
000186FD
00014B27
00055A23
FFFEF14D
FFFC39B5
FFF91B9F
FFF72267
0000020B
0011FE5B
00282262
000B31FA
00004224
00013A67
000630DC
FFF9DE5E
00194454
00133518
00182F95
000A5FF3
00151106
00147E03
00077B15
00148BC2
00077E58
000D505B
000392E2
FFF9695A
FFFEEB00
FFFD726E
000B5EDF
FFF8A5B3
00004E7A
0000CD59
00033E63
00078C4F
000FB2F5
001648C6
001B940C
00116B9C
FFF1B82B
000099E5
000430D8
00044412
00010FE3
002083A5
00275F73
0009AFB2
00112E23
0017F9FA
0017D627
002496E2
000C9667
000FAA80
00070A7C
001515BB
001A56BF
000DB0D1
00070106
00102A0C
00042C3A
0003FE65
FFEC384C
FFF1E325
000436E5
FFFAB147
0018BCF4
0004DB93
FFF0DDC4
FFF7B652
00012B3C
FFF8F307
FFF658DC
001678AC
0018D6D3
000854EC
0017ED90
0022DABC
002CAC6C
003384B8
001F4EAE
001F3C46
00211C0B
0017947E
0011C1F7
001E9EF8
00317004
001AD6E6
000A43B8
FFFF2CFE
FFE3EDDC
FFF21B48
FFEF7A0B
FFFD5363
0001A1DC
FFE92B9A
00088BED
FFFEFB85
0001A09E
0008997B
FFF763DC
FFF377E3
FFE0599C
FFDB3DF2
FFF5FC76
FFFA81DC
000D4060
000AD850
00165DF5
000F0342
00177352
0020CA84
00268C92
00337AA6
00379373
00318E3A
002695FE
001823D4
000D6DE4
FFF06EDC
00047FB2
0017D38E
0005353C
0003EED3
00028278
00025A2C
FFF79E96
FFFC61E2
FFFAE15F
FFFEA768
FFFD3B59
FFFFB473
FFFEACD7
00017EE1
000CC78D
00174CFB
00179576
000C0955
000A87BD
001061E4
0007388C
00189A15
0013BE50
00149C95
000649ED
0001223B
000916DB
FFF6FE0B
FFF36053
FFF86259
0002C869
FFFEC7A5
FFFA6BF6
0007C90A
