FFFB2F21
FFF6EF23
0004C923
00022E50
FFFB599D
0008CF9D
FFFBDD7B
00062DA2
0004A370
FFF855A5
0005E588
FFF797E8
FFF2019E
FFF70777
FFF7E42B
000700E9
FFFE2A87
0003A1A7
FFF7D613
00054363
FFFD2897
FFF90B98
0001563F
00046DEB
0007E986
FFFA6A65
FFFB8032
0001C201
00027AE8
000383E2
000504AE
FFFDED44
0005145A
000452BE
FFF71A18
FFFF7652
FFFD705E
00014D84
FFED02F2
FFE9CFAE
FFE6103F
FFE8BEB2
FFF81630
FFDE8FCE
FFE17E3F
FFDC17A7
FFFCE4D5
FFF7799C
FFE5D5BD
FFF76515
FFEFE0EA
FFF6283F
FFF9DE89
FFFF3CFD
0001F8FE
FFFAFC71
0002A32F
FFF7129C
FFF5B5C8
FFF37E37
FFFAB7C4
FFF95355
FFF99106
FFF255BC
FFF38AC9
FFE79C57
FFD3BB4A
FFD74A8D
FFCE9C74
FFDBAE32
FFDCB902
FFEA4BC3
FFE850BD
FFEF6A07
FFF80165
000B6C97
000034B2
FFEC0A2B
FFFAD3AC
FFEA6AB3
FFED312E
0002A466
00071580
0002C335
000092B7
FFF84F31
0015F0C1
FFF9CA59
FFFDA8B8
FFF96180
FFF189CC
FFE6A83E
FFDC9C7F
FFD5C26C
FFDB8D45
FFE4CF53
FFF0B6AA
FFD8CC92
FFD43503
FFD1A61E
FFDBBB4B
FFFA6BD3
000DC30A
FFFDCD61
FFF288FE
FFF4DD01
FFEE5391
FFE8CF3E
FFF1CEE2
FFE8AA7F
FFF436EF
0002D9A7
FFFCC0E0
FFFE88AD
0015B6DC
000C9562
001E4E0C
0016E1A4
000977C4
FFF8B2E4
FFE16557
FFD678C9
FFD09B5F
FFEC5B9C
FFEC61A4
FFE9F797
FFDCE734
FFEB2807
FFFA0ADD
FFF6182F
0006B755
00004299
FFF86408
000D52A2
0003C22F
FFEBF1B2
FFE1B930
FFE98174
FFE2D46F
FFEFAB26
0008EA00
FFFD2F89
0000F347
00065572
00078307
0023FEF0
0025405C
000FEE6A
000A5E00
000EFBBB
000BB19B
000B7F8C
00068B30
0004D924
FFFDCFB0
FFF7586C
FFF3F901
FFFB5728
FFF1EC7A
FFE3523F
FFD86ACE
FFED9F85
FFF4C9A8
FFF8FBF4
FFED6A63
FFEB627C
FFD7E9A2
FFED170D
00072AA3
FFF60279
001E3A8C
0009F7C0
000289A5
00145B6A
001AF02C
0012F966
0011A0F9
0017AD5C
0013AF22
001E1F5E
000FB13E
00164725
000882BF
FFFA4E09
00065C1C
000A9C97
0009B05E
0000B832
00055D05
FFFE9B81
000D1FD2
FFF8F895
FFFBE24A
FFEA812F
FFFC0C8B
FFFBA851
000567C9
FFF39A5D
00166411
001CB8AB
FFF08DDB
FFF9887E
FFFF0581
000D821E
000AF109
00123B50
001301C9
00171EC2
000AF1B8
FFFE5C36
0005B395
FFFACE60
0009C4CB
00192A6F
000AC792
00034130
0010595E
FFFFD75E
FFFA1434
FFFF174D
FFFEAD7B
FFF50D97
0007375D
FFF025AF
FFF49266
0006FE16
000A9827
00072774
FFF065A9
FFF37A51
FFFEBA90
000F019C
00035E2E
0009EC1D
00079CA4
000A942D
FFEF0C1A
FFEAC00E
FFF1F54E
0008217D
000F1334
0012729B
001AC459
0007534A
0004FA9B
FFF9B7CC
00030FBE
FFEE3C36
FFFC438C
FFFB7A8E
FFF1E719
0006451A
00124304
001868D2
000C16B9
0005F7DF
FFEC6BF5
FFF9DC18
FFFD6CE8
0003C477
0003385D
FFFC2A07
FFFAF921
FFF64593
FFF4342A
FFE91BE2
000AAEC4
00186038
000E9443
0012371E
001EE7F3
000D749E
0004FD9B
FFF7B963
FFFDD1AD
FFEC18E4
FFF3D854
FFFB61EE
FFFE50A5
00145FDE
00084297
000B52CE
0001ADAF
000A8AE9
00021B4E
FFFC4814
FFF7E472
FFF839A9
0000A91F
FFFE7F59
FFEBA3AD
FFF0A75F
FFE87DF7
FFF06B7A
FFFBFBBA
0015BA76
0010DE57
0005ECA2
00008896
FFFC4CFC
000934A6
00084BEA
0011F144
FFFB0886
FFFEB1C3
00189F80
000CE424
000CAD40
00064495
0016692A
00230658
00182964
000254BC
FFFFE52E
FFF76FC0
0003AEDC
00005E09
0002DA5C
FFF74B46
0004162D
FFF31EAD
FFFE7B26
00185305
0027B523
001398DD
001087E4
0001D933
FFF8DED1
00054CFE
000FA5B1
0010ADC8
FFFC0940
FFF39DED
00173406
00097D45
00153BA8
0000669F
000780DB
00209106
000A495A
000B56EF
FFE51BBB
FFF9C375
000F0CB9
000BED5C
000389FA
0003781C
000C36F4
FFF199F6
FFFE67B7
002CBFCE
0028CA53
00178254
000C938B
FFFDD327
FFF303D6
0006AB26
0008945B
0015CFD6
FFFE6F55
FFEB3478
00022FDB
FFFBD60E
000B6821
FFF4312D
001510CE
00156FEC
00171E41
000D6C2A
FFFB90F3
FFF63B00
0009B8F1
0011C559
0014BC0B
00103763
0010AC74
0001865A
0012E2AC
00277D39
00293D41
000D1388
000D3C95
FFFF363A
0003CCDB
00107E5E
0016B842
0003F590
FFDF3D2A
FFE0658B
FFEAB345
FFF51AA4
00003D44
FFF94D0D
001679FB
00234AC5
00130191
0012287E
FFFD6695
FFEFD8DB
0003EF21
000DEB21
001AE3F5
0014E970
000C8D14
0010EADD
00151B72
0013E6F3
0023FC9C
00168BBC
0000CD65
0000839B
000661CE
0011A687
0012CB85
000C08F2
FFE41A3A
FFCE1190
FFD6CB62
FFDB229B
000548D7
FFF1479C
000ACAA8
000382E6
0009057A
0012CF1B
FFF25894
FFF24E92
FFECA870
00092077
001FA322
0022F844
002DE5A3
00200478
000E44E8
00159D7C
001857FA
00022CB4
000EF2B8
000C610E
FFFDEEAF
0017088E
00163B2B
0018B1CE
FFFB1D4A
FFD64798
FFCE4506
0000799A
FFFFC176
00074C66
0004DCB9
0002969E
FFF0F80C
00003518
FFE4DACA
FFD3FB31
FFE63631
FFEEDD84
0008059A
00164272
0012EA08
00211C91
001448AE
0008FE91
0011A8A9
0001F45A
00096DB8
FFFBFCCA
FFF57F2C
00045F21
000633E4
FFEBE82B
FFE7F53A
FFD0F0D4
FFD1226B
FFD2D1B7
FFDA9823
00022600
00119E42
FFF63B06
FFE905C9
FFFA61BD
FFDD2EE2
FFBC0758
FFBC1BD2
FFB89722
FFC78A4B
FFDF0023
FFEEB94B
FFFC81D1
000C649B
00037B93
0013D71F
00081EEA
00007714
FFF74A62
FFF3EAD5
FFF02819
FFF4B1B4
FFEAC6C0
FFE6D50C
FFE4873D
FFFDDBA8
000224EB
FFDB1BBB
001456E6
000EA8A5
00197976
FFF765EE
FFEDE422
FFC3701C
FFB81011
FF9F899B
FF8D10B4
FF9ECEA6
FFBFF9FC
FFE3BE5F
FFE7D9F8
FFFA28D8
FFFCBD9D
FFFBDA1E
FFED440F
FFEBCF99
FFE7A062
FFDC341D
FFE80C28
FFE9D6C2
FFE13EF6
FFE0FC53
FFE2BDEA
FFF990A6
002A4C64
00016657
0000A0FC
00143F53
000F0E6C
00012241
FFE57875
FFD993FF
FFC35BAF
FFB28009
FFA1E1E1
FFAA773E
FFBF37D8
FFDD569C
FFDD91DA
FFEFDD58
FFEC6F83
FFECC353
FFE9CAE8
FFE5AE09
FFDBAAA7
FFF0FE05
FFEAC67A
FFE3D36C
FFDD48CD
FFC7857B
FFCE39F8
FFF021EF
FFFEFA9D
00166BE8
0000BA7F
0008502A
0012B1EC
00155673
FFF25516
FFF6AEAD
FFF43DEA
FFE1860C
FFE344CE
FFDF7EAC
FFE1F06F
FFE39CDB
FFE646CF
FFF95808
FFF5F1C6
FFE7B0F6
FFE63BA3
FFEE74DE
FFE1D092
FFF1AF95
FFE323D7
FFDE623D
FFE683CD
FFDAF0EB
FFEA1085
FFF60FC4
00054115
000C73AE
FFFDF77D
00074483
001D2550
001AFEA5
00203A96
00184EFF
0022934E
00222AC2
001CA19A
00046D97
000EABD1
FFF491FC
0003DCA0
FFEEBA00
FFE37AFC
FFF40752
FFF324F6
FFDFFC6D
FFEA828E
FFE7FB28
FFE77216
FFE78F4F
FFED1505
FFEBD7B8
FFF21D0A
FFFEFAB7
FFEFAE5A
FFFA27F8
FFFE2514
FFFDBBD8
00078C89
00211FCD
001A6B72
002004CE
0025452B
00287A55
002323BE
00235F7F
00227E5F
000E513F
0000F1DB
FFED7514
FFF05A70
FFF7205B
FFE8C6C4
FFEBC0D1
FFE3849C
FFEBFB52
FFEA459F
FFEBB123
FFE57E62
FFE74B20
FFF02919
FFEEDFAD
0007C4E8
FFFF659A
FFFC87E2
FFFC9E07
FFF9AD39
001DC5A9
002E4442
003505D4
0020D141
002CF5D5
0021B236
00237F36
001EA193
00160E64
FFFC6AB7
FFFCBA6C
FFF8A5FD
FFE3CBD6
FFD65378
FFD85889
FFE98E05
FFEBDF19
FFE049C5
FFDF458B
FFE695B6
FFE5D867
FFF88412
00054478
0019151F
FFF934EC
000221CA
000351A9
001A70CF
00253EF3
0030FBD3
0049476C
00287A3D
00239AB0
000F5A0E
000B1A28
00212427
000481B1
FFFDA81B
00022713
FFEFCEE1
FFE6507F
FFDA35AC
FFE58FF0
FFD78316
FFE70928
FFF76325
FFF8211C
FFF1F716
FFFA4F93
FFEA9100
FFF6B20B
FFF18E20
FFFA3887
FFFDF3B8
FFFCAF04
000617FF
00199116
002B8712
0047B9C7
0010C55F
000FF7CA
0015E4DB
00107730
0006CFB0
FFFEB899
FFF5B060
FFFC2520
FFF4A80B
FFEC1DE5
FFF0CB95
FFEB7F24
FFF9802A
FFF80368
0001D85A
FFF43B63
0002F4E4
000D0C54
FFFEF2A1
FFFCF9D0
FFF1CFAA
0007D876
00045D0B
00060182
00013524
001308D5
00148D06
0022B255
0032826A
0024147A
002375B8
0024B62C
0027DA70
000F8AF3
000D31C6
0018BB62
002C4237
002AD90F
0028AEF2
002051C6
00233A76
00203370
000D74F3
000CCD64
000699EC
0004A3F7
0003E705
0000DBC8
FFFB47A7
FFFD0F65
FFFCBD79
0008BF16
000381C7
0008FF63
00048CC0
0004DD94
000B75D7
00130A7B
000DB2D2
000F41FE
001AC1E6
0008FFE4
000EB383
001464CC
001E821A
001649E2
00112382
0010E6D4
001EB11B
0017FF68
000EDB77
001C7994
0016228C
FFFF82AF
FFFF475E
FFFD48F0
FFFFF773
0002EF54
