FFF79C82
00088A5F
FFFCDD7E
FFFD7FDA
0001BEE6
FFFD7418
FFF92EB3
FFF793D9
0000C1DB
FFFBA7CA
FFFC9C45
FFFE029F
0011B5D2
FFFDC94B
FFF8287E
00008821
FFFB9882
00020D8F
FFF779C5
0007DB4F
FFF8738F
00030DFC
FFFA2817
0001FC9D
FFF7FE14
0004A11E
FFFB4B70
00089D1A
0001320F
FFF99492
FFFD590F
FFF852FD
0004CBBC
0001C867
000C9170
000303DB
000CFCEF
00072417
0018016F
0009D4BA
00036461
000D8D25
FFFDBDDF
FFE8EEF4
FFDEDA5E
FFFD3BE8
001532CC
000A2CAE
002895DD
001CA502
00081900
000DC2DD
0001B7E1
FFF77ECD
0004B846
FFF6F23E
FFF93D92
0003E845
000B571C
FFE692C6
FFFDF3C6
0004781D
001553FF
001926F1
00185CA4
0013C3F3
001E9270
00258814
00132D83
000347A4
0008CD79
FFF6A575
FFEE6DA4
FFFB3A5F
FFF55E6E
FFFE14C0
000909A5
001F504F
0019F1FC
00043BE4
000B7112
FFF695EB
FFFFB657
FFFB6671
FFFC1468
FFFC35F0
FFE4F28A
FFEB8AB4
FFFBB96A
00101E6D
00158B23
001A39F2
0003F974
00179862
0008CB78
001E2099
FFF8BF35
FFFE6362
00070EC2
FFFDF275
00005564
FFF55522
FFF52B0A
000507A5
FFF9B4EC
000CA71D
000B5F9C
001F5F5F
001571F7
FFF6723B
0002BC4E
00013F9E
0002627A
FFFEDC15
FFE6AE6A
FFD8AA88
000F0F05
0011DB36
001214D8
0019D580
0029D61D
001A8C97
0017C22A
000C5AE1
000AC9AB
00137DC1
00077228
00045F36
000AF221
00078CE0
FFF5C78D
000687C3
0015FABB
00151FC5
00145D9E
00076A37
0003FCC0
FFFF291C
0001DC2C
001E0BB9
FFF9B284
FFF700AD
FFF29F7F
FFFF2226
001F0820
FFF9C3A7
00074858
0020784B
00109A28
0004D59A
0006BE33
FFF697F0
FFFEA8D0
FFF52D0B
000B16C0
00041F86
000CCD5C
000BF75C
0006E8E7
000E62D7
00075030
0008B925
000CA0A1
0020CE9C
000AFAC9
00092315
000C333B
0011D0C6
0004E9CB
000E8D30
FFE9D8AB
FFF9678E
00183439
0016CC0A
00086AB2
0017E844
0002AAD0
FFFB9489
FFF0CCA3
FFEE0BA9
FFEFC25A
FFE7EE5B
FFE482FD
FFF170E7
FFEADFB6
FFF590A7
FFDDA591
FFE9A72F
FFE80E5B
FFF6A560
000A0877
0019A2A2
0015C1F3
FFFC3710
FFF48237
001841E5
FFF8562C
00097E55
FFF8D867
FFFCB3F3
0037F6DA
002A5A7D
000CAD9F
0017CC86
000831C3
FFFAC0BB
FFF6941A
FFF16ECF
FFE82D5A
FFF24D08
FFE97C33
FFE9D61D
FFE67A0A
FFF2A0EC
FFE9E200
FFEC4B06
FFEF04C5
FFFC8492
0002BC6C
0007F79A
00118C40
000C1728
000C4D19
00117C10
00191766
FFEB16C1
000B9E73
0013A09E
0038BB40
001DFA86
000D22EE
0004F303
FFFA45FE
FFFB03F3
FFF73F4B
FFF95B71
FFF3EED6
FFF7E45A
FFEF8218
FFF50CA7
FFFDA582
FFF97BAC
FFF5E038
FFF7D9CA
FFFC2831
FFFD160F
FFFFFCAD
FFFA1A5B
FFF2CB02
000455FA
0000172A
FFFEA57A
FFED212C
FFDFA1F6
00125E44
000F9D43
000F2412
001582F9
FFFF10F3
FFFD65C8
FFF69A17
FFF5E9A3
FFEB4A2C
FFF1A39F
FFED3C46
FFF80905
FFEE4621
FFEE6F08
FFFBD515
FFF9C326
FFFC9B8F
FFFE479D
0005C690
001611BA
FFFDBAD1
FFFAD616
FFE186FB
FFE5C787
FFEADAA0
FFE802D0
FFF1B412
FFF4C589
0000415A
FFF7A22D
00094735
000A7E5D
FFF7E52A
FFFFABCB
FFF4F6F4
FFF179D9
FFE57805
FFF880CC
00073304
FFF7A68B
FFF45CBC
FFE8EC23
FFF98600
FFFE1551
FFF9E7A3
000AE751
000ABE34
000B6014
000174B0
FFECC371
FFEBD020
FFD2FAC7
FFD03971
FFF40872
FFFA5E50
000615CC
FFE78F05
000983F8
FFF0978D
0002B068
FFF628A8
000090D1
FFEA0DC0
FFFE0F65
FFFCF10F
FFFFEB14
0020E0DB
0007504F
FFEB703B
FFEBC359
FFF1F0B3
FFF9CFAA
FFF6EBEB
0002FA61
FFF47DC0
00024E43
FFFDBAD2
FFF98081
FFED2A5A
FFDCD765
FFD6A17A
FFE98A32
FFFB0B1C
FFFB65D5
FFEEC9BB
00001102
FFDC3A0E
FFF48BDB
FFFB8998
FFFE8FBD
FFF7B071
00055241
00104020
00233F3E
00288906
001AA09C
FFEA44EA
FFEB4407
FFF94E90
FFF05352
FFE82C4A
FFF55CEA
00024B1A
0013029C
000D962C
000D97D3
003269CE
FFEE7E1E
FFCDA70C
FFEC917A
FFF66D0B
00051AA1
00001683
FFF3DC5C
FFCB9415
FFF67874
000B02C4
FFFE66F7
00025740
000B1DBE
001752D2
002ABE59
001FFDD2
000ECE5E
FFEAA8D0
000A0338
000BB8B1
0002D360
00060B75
000355ED
FFFB6D1F
0000FB52
000C1CCC
0013D841
001A9CDC
0007A543
FFEAB16A
0006B1F1
00091C9C
FFFCB344
FFF1C857
0001AAF2
FFEE127A
000E1A54
0004894E
FFFDCE3B
0003C137
0012BECA
00207291
001D1CD2
0016C634
00036085
0004895C
001018C3
000C533E
000B6630
000E3C8D
0008FEF3
FFF72991
FFFC1EC8
00057044
FFFF262E
0008AF94
0017D64A
FFF25613
FFFD4FF2
FFFF793D
000000A0
001B7793
00144BAA
FFE50D50
00034902
FFF7C863
000292FA
00181217
0014F232
001D9025
0023E0B0
001DA34B
000EF486
00201F2E
0018F9A1
0019ABDE
0004563F
FFFD53CC
000B7DB9
00040266
0007FDB2
000ACED1
0001EA67
FFF82D50
001FB2A6
0007A7FE
FFFC723E
000262BC
FFF8C774
001090C9
0006DF4E
FFEDD373
FFF3B1E0
FFFE7575
0013BBE7
001A3E66
00132E60
001878CE
001E6BDE
0015D4BD
000FB50C
0020738A
0025230C
0016D647
000B761F
00025358
000C02CA
000CFA8D
0009A50C
0007DDCF
0005D8B8
00022CD5
00333590
FFFC4BEA
FFF8868E
FFFECA9E
FFF22A64
0018B206
FFFC394F
FFFDF356
FFFEE2B2
00095633
000DE011
000D1A9F
000228C6
000121E8
000EEB54
000C8DA6
001E1BBC
001DEFEB
000F3B76
001AEBA3
00090C61
000E3290
00093C32
00016BE4
000BC5A4
00168CB2
0009A445
FFFB7AAD
00142C73
FFE3C910
FFED21CF
FFEFE28C
FFEFD277
0005EDA8
000B4685
00036F16
00084EA2
FFFEF406
0015BF6E
00110527
000B997C
FFFA996E
FFFE78C1
00207784
001477A0
000502F3
000C6E50
000E703B
FFFCC73C
FFF9C9B9
FFF4184A
0008A7AA
000CF15E
FFFBBBEE
0015E9F0
000A9BA2
FFF9F874
FFE7C20A
FFFEDA82
FFF9240A
FFDF19F6
FFEC58B3
000D7A1D
0007AFF3
0015F0A0
00047627
000ECFBA
00031BC6
00082EE2
000A5949
000F5D41
FFFD87EE
FFFFE3F4
0017C2D0
000A0C92
00113ADB
00051133
FFF87DED
FFF3DAC3
FFFBFF3C
0008D2B2
00025730
FFFAE62D
FFEB1A2A
FFE14B1E
FFF5C7A2
FFF6BB1A
FFFE3CDC
FFECBD39
000F4986
0016900C
000415FC
FFF96AC7
FFF8EC9F
0012294E
00058858
00027ECE
000B9FE4
000B6A26
0008B72A
0004CE5F
000CBD81
001BDF74
FFFCCB02
FFF82E8F
FFFB83C8
FFF651BF
001884A9
001AEEE2
FFFF4E1C
FFFCEC73
FFDB7FF6
FFDCA672
FFF2B91B
FFFEE7BF
FFFF9037
000E7164
0023FDD2
0010CB01
FFF7DAB3
FFE78CE5
FFF70EF1
FFFFD778
000CB527
000EBFF8
0007F78B
001FF491
00176F0C
0017AE15
001B2234
0014633E
0009F28E
001265AE
FFFBD453
00056111
00067362
FFFB78F7
00101A42
00092358
FFDE2F54
FFDB9615
001E06AB
00079A2C
FFF2F615
0001AC3C
00127473
000B13FE
FFFF6DBF
FFF83426
FFF6C510
000513ED
0002C729
0001B309
0015B832
0017D35D
0013141A
000D3556
FFFE7F7B
0012602C
000B2E1E
FFFD5655
0003E048
00103F78
FFF4DC0D
001010A7
FFFB337C
FFF4E857
FFE1D401
FFF03F00
FFE969F0
00041536
FFFA8401
FFF8336B
0012C070
00011FB4
FFED2905
FFD756EB
FFF41FA4
FFFF79CB
0003BBBC
00100C33
FFFEF380
00100DAD
000946AD
000F85E9
00046C4B
0008B5E2
0006CE8A
0002F90F
00110C83
0006D1B9
0007D46E
000DE4BB
FFFA0A3E
FFEE137D
FFCF242E
FFF34693
FFDE4611
0008900D
00080B15
FFFEE67F
FFFB7F3C
FFE76FE7
FFD2F156
FFCE162F
FFE2922D
FFE7D370
FFEE0721
FFF54F57
FFF32A36
0000E967
FFFC0F2F
000BEC2F
000C722F
0003AD20
000980E4
FFF57CBA
FFEBB127
FFF60FFA
FFFCC7D6
FFFB9D43
FFF1EAC1
FFED6D2C
FFE91142
0009AE4E
00013AA2
FFF95DCF
FFF7642D
0004A249
FFE678D5
FFED8225
FFE67E3E
FFDAB260
FFDFEDEF
FFE5689F
FFDA4D24
FFDF28C4
FFE9788B
FFE456F4
FFCE4333
FFE6604F
FFE78644
FFF09D94
FFEE8344
FFE7CC2F
FFD52512
FFD8A19C
FFE83680
FFDCC4D8
FFF679BF
FFEF6F1F
FFE2DF20
00085EF3
0005933A
00013564
FFFE6B89
00074A96
0000E40F
FFF15040
FFFA546F
FFEE63D9
FFE909C8
FFCDE2DB
FFC56697
FFC4742F
FFBB5BAE
FFCA4BBA
FFC4EF92
FFB94D71
FF9CC9F3
FFC3DF61
FFC5DE14
FFD03A1B
FFC7E6B6
FFB7BEDE
FFC19209
FFCC299C
FFC744B9
FFEA23EF
FFF13526
FFF8E2BD
00057696
00042C4C
00082ACF
FFFD986C
0007A8C5
FFFC8913
00009C15
000EF491
FFED3C6F
FFE6FDA2
FFE2A000
FFDC5345
FFDEA5E2
FFD2ACA7
FFCE9E46
FFD55E44
FFCDEEE0
FFDA5189
FFD17558
FFE1A312
FFD87119
FFE9F6BF
FFECD8FF
FFF1157E
FFE7E9F6
FFF02D6E
0001CAFC
00030068
0003F8F4
FFFDF390
