FFFFCC34
0006F13A
00066971
FFFB9434
0002C447
FFFD9016
FFFE3AA7
FFFCF4C2
FFFFC31C
0001D852
FFF805B0
00077521
000A8600
0010C766
00004FC6
00038E59
FFFF20E4
FFFF8615
FFF6F94A
000646A2
0001BF73
FFFECEF4
0007A43E
FFFCA1A6
000782CF
FFFE4FF4
00039359
FFF864D3
0006AB38
000247F4
FFF8015E
FFF9B32D
0008FAE9
00169C7E
00121204
001955B4
001ED454
000B63CA
0017F489
000EE795
000E42EB
001035A9
00065340
0030422F
00080693
001EC5F6
001641EF
0011865C
001EC37D
000D100A
00175446
001F7617
FFFE65B2
00009AEF
FFF7125C
0002FF36
FFFEA71E
FFFE8E37
000E164F
0008C7B6
00126666
000A8728
002223A5
0025AE68
003351AC
000DE2A7
00326314
00454834
003BE622
00328BDE
00304444
00333709
000CD7EC
FFEABB4C
FFECB04C
FFFB1375
00044EA0
0001E373
00073E2D
0005183E
000EC392
FFFB365B
FFF74EEE
0007E773
FFFBA1B5
0000BA06
FFF5C2EC
0010F0CD
00131C25
0021E300
002D80F0
004395D3
00344749
001F0866
00170690
002AAB0A
001B869A
001F396C
0020D91D
0001C1C1
FFFE72E9
FFF7C771
FFF51800
FFEB8F8F
FFF50BB4
FFFFD5C5
0000207E
FFF9563E
FFF38112
FFFFEF81
0005159D
FFF8D1D7
0007F66B
0003DA8E
0009A52B
001C395E
002E0C9E
0033854C
001BD01A
0019E763
0021C5D7
00042022
00144E74
000A7244
00192E9D
0015452B
00025A9E
FFE7D08B
FFDA6F89
FFCF830C
FFCCF2F2
FFD0EF69
FFC03542
FFD69F22
FFD712CE
FFE8D1A4
FFF69BE3
FFFAF97B
FFFF30B4
FFFED364
FFFBE805
FFFB2F18
00014DE2
00173EF1
00365F63
00255161
0028831A
00204612
0016D279
00189254
000CC32D
0014FF49
0012A838
00138FC8
FFFF63BD
FFFB18D3
FFE3F246
FFC7CB2D
FFCBE010
FFD77F52
FFC942F2
FFC5F151
FFD061E0
FFD3E99D
FFEA7423
FFF46332
FFF6C29C
FFFE0296
FFF878A7
001BCCD7
000B2921
0020DAE2
0024F71A
FFF29B22
001247C5
0011ADE3
0013DC6C
00222F6B
001F62A1
001CCFFE
0013F3D6
0019A5FC
00100C90
00052C9F
000AC139
FFFE4EBE
FFF6B9FA
FFE9D0AB
FFD7F9EE
FFDD3A27
FFC063F3
FFCA8A56
FFCCEA4F
FFEB4C6B
FFF49284
0000E2FE
000A3A14
001FD255
00046817
0027EDDA
001CA8F6
FFE8EB3C
0008D935
000E68F4
FFFF940C
000D336A
000E637A
001A60CF
0014B757
0017D836
000CDAD2
0014B3DF
00070C6C
000DCB31
FFF54B44
FFEB96B0
FFE5023B
FFE16932
FFC8ACEC
FFBC74BA
FFC278E5
FFDE8523
FFF3FA7C
FFF46DD8
FFE66CAA
0013FE5D
0000CB1B
FFFDC4E6
001EC5F6
FFF5E188
FFF59C0A
00113BA6
0019D72C
000FC500
0010548B
000599D5
0005D44B
0002C3D1
00138285
0009D475
0007ABEB
00050EE6
00048342
FFF26CEC
FFE6CF89
FFF52B4E
FFEA5335
FFDA145F
FFBE3D2E
FFD7CADF
FFEFB7E2
00037889
0014B019
00196607
FFFA7723
00128A7E
00239911
00013B08
00044CF3
0017A8D9
00084F93
000D0A4D
000C33D4
00023E1C
000217CF
FFFA8525
001F4A38
000F42AE
000137DC
00080ECB
FFFF4F44
FFF824B0
FFFA7E06
FFF39940
FFF75E1C
FFE65A03
FFE82F43
FFE7999F
0002F5F3
001A4064
00152784
000A5D9E
00014368
00269EA5
000D6FFE
00171E2D
001E2AF5
000BDC94
00030FF6
FFF4212C
FFFD4F16
FFFA83F4
FFED236B
FFFCE774
000DD6DF
00075CFB
000148EA
00087740
0003C69C
0005B337
00052A8D
00076FBA
0010C4B7
000678C9
FFEF6FB1
FFF7323A
FFF1BB85
00049F38
0005F54C
000D5D5C
00283B52
001B6A54
001245BF
001186C3
0008C7AC
0005F2A1
FFF98254
FFFAD4A8
FFF31F9D
FFF147C8
FFE72534
FFF49B33
0008E551
0003217D
00102416
001212E9
00216763
0011652B
002393F4
000C2295
001BEF63
00167459
FFD85F90
FFCBD21E
FFDB62E1
FFF2EF8A
FFFC66DA
0009D433
001BA331
000EACC9
00228783
0008ABAA
0001EC42
0005D53E
0002D4C6
FFEF3871
FFEADF9D
FFECD2B1
FFD50DDC
FFE62FC7
0015E930
0023A4C1
0025BF14
00282333
001784BB
000A4B68
0014E1D6
000F72EC
0020D489
00116CDD
FFF83882
FFCE752F
FFE27748
0021D725
FFFC7005
0007311C
001102CC
00058EAD
001CAD6C
0003C221
00055C8A
FFF5ED09
FFF1DCA1
FFEC00BA
FFF51367
FFE4AF58
FFE67A0C
000456D4
002A874A
001A4408
0020648E
00200530
000791C2
0009A1AB
000289DE
0018F26E
000480D0
001A5F2E
FFFCFD8F
FFD1B4EE
FFDB6077
FFE3EB3F
FFFBD630
000DCF0A
001927FD
000EF9AE
FFF99BA9
FFF29B44
FFED8BE5
FFDE9469
FFE800F8
FFE843D2
FFEE53C7
FFE062C4
FFF88811
000B4B61
00266971
001AF6E1
0017148F
00001F82
00056C06
000ABDA0
000BB246
0007D779
00048D4D
00129446
FFF6EE6B
FFE2344C
FFDBD7C5
FFE9144E
FFF143C5
0011D436
FFF9F7B8
0009BC37
FFE981F0
FFF11AC2
FFFCB2EF
FFDED3E9
FFDED39A
FFE37E4A
FFEAE7BB
FFEE2F1B
FFFD4722
000ABA86
001ECF4C
0018A60E
000B926B
000ABB8C
000747B7
00054C2F
001E06FD
000FEF12
FFFB2933
FFF314A0
FFE81C58
FFE07E85
FFCDDF10
FFFF8FF0
000D26BF
0015FA0D
0021FDC4
00021A26
00000BEE
FFF350DE
00039771
FFF75A28
FFE9A677
FFEE8313
FFF0BCA0
FFFB046A
FFF0034C
FFFBB2B7
0005D0DD
00023149
FFFE7C1A
FFF70A2E
FFFEBA21
000620E0
0006378A
00142596
00093975
FFE7FB3E
FFE0E54A
FFDEF9F7
FFDDC5FC
FFFEE322
00042D69
000F8D89
00250361
00120439
FFF360E3
FFEACB0A
FFE57FE1
FFEDA6E6
FFE751A9
FFE8A712
FFE6A088
FFF01DC9
FFFA372B
000B2178
00159D38
00092CA1
000A9DBD
00075D28
00043605
00085C5E
0006883E
000080B0
FFF944D0
FFF04CDA
FFEE5C8C
00134F07
FFF85F33
FFF2EB4B
0011197F
000C193C
001A4575
00162B3C
0000F5BC
FFF74CA4
FFF2AE99
FFE4242B
FFE3BE0A
FFDC13E2
FFE57A26
FFF9DE34
FFFFACCB
00126FF8
0020E30A
0010561E
0013C7CF
000FE90D
00109C28
001291F1
000397CF
FFFF8E66
FFFD1B2D
FFE8A566
FFD69688
00183D52
00149546
00103538
000BAB7B
000EEB17
FFF95AF5
FFF5C0A3
0005E945
FFFCCDB1
FFF2EB11
FFE919F8
FFE5587A
FFE00FAF
FFE99CC0
FFEABD7F
00148CB3
000DA431
00218FC4
00118245
000F78BE
000C8591
000C8009
00159B4F
000011FA
FFF4E637
FFEBB829
FFEAF662
FFEB2FFE
000F7F8B
FFF6B2F1
0016A09B
0003FF9A
0001E69E
FFEB00F3
FFF8127A
FFEE83B6
FFEDC615
FFF735E8
FFFE9081
FFF7FD24
FFE9318D
FFF13157
FFF24E50
0003A69D
000E34CF
0021A53F
000CA179
0006FB58
00016DFC
0001B7DA
000AA18F
FFFE7BFC
FFEEB813
FFEB8481
FFEED631
0010178F
0005D3D1
000F87ED
0008CE63
0000F65F
00119848
000237B0
0010A6C2
FFF896E1
FFEB8CFC
FFEFDD4B
FFEFFC50
00006BDD
FFF45F5B
00025745
FFFA1186
0007A902
FFFD1162
FFFE4ECB
00084903
FFFF0B00
FFF952EB
FFF79C00
00013586
FFFB32D1
FFE5EDEA
FFE84282
FFE6909A
FFF33E45
FFFA1C83
FFE4CB62
FFFEE003
00075566
00127680
000EEDA0
00084CC0
000B36D6
FFFFFF26
FFEDF934
FFE8F1BD
0001161C
0006CA11
FFFD122D
FFFA292D
000608BF
FFFB293D
FFFF3A84
FFFB0752
0001870D
FFF6877A
FFFB6B8B
0006ABF4
00020D85
FFE77C62
FFE35BDA
FFE92237
FFF102BB
FFFEF42E
FFE79B82
00019A5F
FFF9AC4B
FFFCF6D4
001A707C
0005E32E
000106B1
FFFFB870
FFFEFEED
000723B7
FFF5D1DB
FFF8EF64
FFF7ECE0
FFF6190B
00035607
FFFA6085
FFECB06A
FFF57697
FFF19D88
FFFCB278
FFFD3BF3
FFF9310E
00002917
FFE8D2A1
FFF452EF
00014C52
000F24E1
FFFDE8B7
00016DED
0004709B
0001FEF5
0005C258
00143DD3
001B3054
003C24E5
0030C4D3
0011422C
00147D17
FFFC9150
FFF9F1D0
FFF8C61C
FFEFC0D9
FFE9675E
FFEA6312
FFECFD47
FFFC5B49
FFF20B0C
0003132B
FFF27815
0001BB5A
0008E1AB
0001670C
FFF60113
001153B5
000C2BA5
0000853A
0007BE09
FFF9B936
FFF87218
00079088
001460F5
FFF8C7FF
00151D44
0028B047
00065D7C
0022AE91
002EC664
001D4F90
0003441C
0007B94F
000B07C1
0001DE05
000825F8
FFF97532
FFF83BB3
000321A2
FFFDBCAE
000D05AE
0013D497
000940B4
FFF39476
FFF5E7AE
00016604
00016040
FFF2B627
0006D2DE
FFF84968
0003DD0F
0003EA40
0008EFAD
FFFF969B
FFF97D27
000A4AEA
0040AEDC
00468386
004D01F8
004A11DA
001BA782
000C7588
001BEE9F
0040ABE8
002B30DE
00273B78
003A6FC9
0022F824
002D0469
001C163D
0018A912
00198953
0020AAC8
000F76FD
000A4F30
0006880F
0004F922
FFF9EDB9
000122A0
000834A0
FFFAF2CE
0004A77C
00033227
0005363C
00199F93
0018A977
00167C7A
00278BE7
000ECE76
00184907
001F8E79
002DAF64
00281DFF
00267C3E
002EC082
003690FF
0021030C
0026F32C
00193F4F
000EF690
0004039F
0003D93D
00007215
FFFCEB7C
FFF6F9FE
