FFFD46AA
0008C42D
000625F3
FFF72776
FFFA7ACD
FFF723DC
FFFD1B6E
FFF93CB9
FFFA5B13
FFFA677F
0006C6A2
00064674
0002D498
00065A33
0004F167
FFFE921B
00074CFE
0007284B
FFFC2C86
000193E7
FFF72C3C
FFF8DA7B
FFFDE25A
FFFAFF0D
0007BAAB
FFF939F4
000049D0
00003D87
00013499
FFFF1C60
00073E33
000497FA
FFFF85BB
0001BA64
FFFAB4D0
FFFECAA6
FFF8D71F
FFF7A2DC
FFFA5ECF
FFEAE4AF
FFF654C8
00025C19
FFFE37EF
0001D0D5
001CBFD0
00152F88
FFF8CBAF
FFF3F7EA
FFF3FFDD
00078641
0005B497
FFFA79E7
00089B2B
FFFE52B9
FFFE420F
FFFF540B
FFF77547
FFFB18FB
FFFDA713
FFF8D138
00039F57
00008E66
0001DAFC
FFF6D6C1
FFFE4BAB
000412D5
FFFDC8B7
00031F28
00063675
FFFDCF67
0007AC14
000A1685
00114CD1
0010AB7D
000B7912
FFFC6AF3
FFFBDBFD
FFF83B9B
FFF128F7
FFFFE72A
00024CC3
000E4FBE
FFFC2AF2
0001A998
0007C4BD
FFF8C9B8
001F80E9
0013054D
FFF54F31
FFFC6100
FFF6B2BB
FFFE30DC
00095A1B
001521DA
0003F5A3
0014E20E
00098ABC
0017C01A
000C898C
00100BD0
0015877B
000E811F
000F7B14
FFFD8249
FFF17DE6
FFF0F273
FFFBF972
FFF3C788
FFEA8A15
00043559
FFF0D3FE
00004693
0005E5DC
FFFA24AD
000AB375
FFED31A5
FFF52EA7
FFFFF8BB
0017035A
0002F43D
0007AFF5
000BAE09
001514E5
001AD633
0015ADCA
0011C624
0013C57D
000DBB9D
002101C6
001C0C45
000FE17C
001195AF
00077693
FFF7E2EF
FFF33EC3
FFDFE0F6
FFF513A3
00091A21
0010B647
FFFE90A1
0003A36E
00006458
0020C7CC
001EE4E9
001AC6AA
FFFE2DC2
FFF67368
FFFD346A
FFE81E54
FFF1166A
FFF92449
FFFC5E3A
FFFB1C0E
FFFA3E4F
FFF7516C
FFF5AAF4
000BD150
0000079B
00071AEB
001280D8
002280BF
001D68AF
00284A3B
000B1B90
00045CC4
0012E5AD
0001462E
FFF2420E
FFFEE315
0019CC44
FFE50357
0006C3F5
FFF4D412
FFE050D6
FFF5E764
FFF1E9CB
FFF56601
0000469A
FFFB8D1C
FFFAA5F1
FFF5552B
FFF16B23
FFF18CB3
FFF68946
00024310
FFFC41B4
FFFE3ACA
000BD4B4
00046ECA
000024D5
0012633C
00124AB5
0002A0F3
001288C8
00075AE5
FFF632FE
0000757D
000F0787
FFF413AF
FFF9682E
0005EF9E
00011E4A
FFF40230
FFFA4B64
00044AF1
FFEE8F7A
FFEB4237
FFF8694B
FFF66F70
FFFFD328
FFFDC6D4
00011F03
FFFDE6C9
FFFC610D
000D416A
00064C96
FFF5381E
00005ECC
001FCD9C
FFFDBC80
FFEF9171
FFFD2717
0009107C
FFFB2246
000093AF
000DD44A
FFEE5364
0007B36E
00122C2C
FFF6FF1B
FFFF6D2D
FFFB66EF
FFFAF6B7
FFF75EE4
FFF8C93B
FFF640A4
00015F44
FFFC8C8A
FFFBB320
00008BCC
000524B2
000E6BE9
000502B0
00154137
00083E9F
00012785
001FA07C
0019644D
0004DF1F
FFFECD43
0027D25E
0010FB7B
FFEEDABA
FFF74494
0002C996
000B0247
0011D340
00083416
0006B184
000C53A4
0005D4B1
FFF93EAB
0003A931
FFFFEBFF
0000A957
FFFD4747
00079D19
0002E4ED
0011E1DD
00141A0D
000B4BFC
000FAEEE
00109368
00172523
002948EC
003740CE
00243D73
002DBBC9
0019EBE9
FFF6DEB4
FFF50458
000E9055
FFFAB52A
000F57F6
0007FCDE
0001750D
00114581
000A9BC9
0001C79C
FFF487EA
0001E661
00001232
FFFA98DA
FFE9B86E
FFFD8E57
FFFFF459
FFF8E03C
000DE2DF
001C13BB
00145839
001687C1
000A4A36
0014129B
002D3B6E
00166400
00112009
000FFF8D
FFFA527C
FFE7764C
00001314
00039801
FFF3D260
000AE473
000A8EF0
000E61EC
0009BA9E
FFF6BD9A
FFEB6B2A
FFE28554
FFE509CC
FFCEE23E
FFE7301C
FFFC72BC
FFF48826
FFEBB2C1
FFF3590C
FFFED126
0013CC1C
00076594
00073724
000D5EF0
00044862
FFFBEDDF
00122DD4
0010FD53
000F63FE
FFEA5742
00015160
FFF7C097
FFF08E0D
FFF4F249
FFE9208D
FFF34FBE
FFFCC795
FFF0EF7F
FFEC820F
FFEB56B6
FFD00B14
FFDA6996
FFED0B2A
FFFFC213
FFDB1468
FFDEE7C6
FFE7E8D4
FFFABCA4
FFFA473B
00056A0C
0008CE80
FFF61E55
FFE44953
FFF1673C
000A36A0
00110127
000A6E63
00131287
00033543
FFF4CC7F
FFE81162
FFD3686F
FFDA9DF8
FFEEA5B6
FFE27E7E
FFEE9D83
FFF4A01F
FFD64243
FFDC3A1D
0006238C
0006CBF7
FFFCC7D4
FFE96D3A
FFD57CD4
FFE72F55
FFEC68F0
FFF82406
FFFFD315
FFF3C608
FFE776A1
FFCE17F6
FFE833CF
FFF896DA
001398E9
0003E529
000AAD65
FFEB0893
FFFB71D9
FFF89C7F
FFD0619F
FFD8F9D6
FFE1C0F4
FFEF81C3
FFEDB28E
FFEF3E08
FFE0FF4D
FFFA6523
000D26BB
001F3114
000B8E3F
FFEB6627
FFDE2C46
FFDB6F68
FFE37CED
FFCE6CE8
FFDB9C61
FFDF4A76
FFC8EDC6
FFC85EE2
FFD36B8C
FFF37D08
00177106
000D97B5
0007CD4E
FFF068A7
0005BD4D
0004D5CE
FFED8374
FFF2E7A1
FFEEF04A
FFF78D84
FFF3C52B
FFF52792
FFF5B7E0
000F15A7
00233F72
0027DB86
001EFB7B
FFFAD417
FFEA7889
FFD80E87
FFD6FEFC
FFCF2183
FFBC9940
FFCCC5CF
FFC1424C
FFCCE2CB
FFEA45B9
FFFA8980
0015509D
0003A85D
00025B84
FFFDDF0B
0004A84D
00191166
FFFF98FF
FFF9BE28
FFF1D008
FFF0A064
FFF7DE5F
0001CDBE
000CEC94
0013EC6B
001E8AAE
00214A4E
001935EF
00036C80
00033892
FFE89E75
FFD90FFD
FFCD1116
FFC40236
FFD65BD0
FFD47F30
FFE16831
FFF51992
000DD774
0015E87E
00085CAF
0005C36C
FFFD240C
FFFD0089
001A628F
00083450
FFF9CD97
FFF44259
FFF287ED
FFF40BC0
FFFBFF08
000F41CE
00190BA4
000F33BB
0015FA47
0009ABDC
FFFBA421
FFFE62B6
FFF6D298
FFE933A8
FFE550E7
FFD44372
FFDF1667
FFE11015
FFE331DB
FFFE09C5
000C112E
000E6BEA
0018621F
0000AC08
00108C33
FFF1BDCD
0010408C
0016D43C
000ACBFC
FFFBB6C2
FFF7ED78
FFFC42A6
FFF882C5
00003153
FFFF63FB
000615CE
000B6717
000C3A20
00093838
000CAD38
00099C8F
000330A1
FFF602A1
FFE9B1EE
FFE703D0
FFF5686D
FFF30A71
000B56FA
001898C8
000E0CD2
002360F6
0001C47C
FFFF053F
FFF5DD96
FFFF3554
000A9059
0002E749
0000AA2D
00047485
FFF95003
00061ACD
FFFD6BA8
FFFE6495
FFFE4F4B
00173D65
0008B8E4
00151A3B
001CFCAE
002375F7
001C30AD
000A754D
0000EE8C
FFFB9A39
FFF83264
000C0FC5
0000E88C
00191C2F
0010A367
00178972
FFFACCAD
FFFA641D
0004C542
001614F0
001945DE
FFFEB6A7
FFFFB8F3
000C1FE4
000C6FBE
FFFAD1A0
00042E53
FFFBE4CF
0005C10D
000E1890
00048018
00140432
0017208B
0026E958
002DF88A
001C5A22
00230E29
001899ED
000FEB6F
0019A7B8
0014F5C4
000FD113
00086F2A
000B2C60
0003CC0C
000DB52F
001F5CEC
00278F11
00162615
FFFF2ECF
000D5747
000560BF
FFFA6619
00039F7F
000220A5
FFFFFBD4
FFFEB3FB
00113789
0020C1FE
0018D924
00109BD6
0021D976
0021DBB8
00324E25
0030F921
00225986
001A31CB
002D42F0
001DF63C
000B760F
000DBEC7
FFF64030
00074823
00076C6E
001C792C
0025F853
00162ACB
0009B5BB
0000812A
0000A3C7
000DD26A
001329D6
0005F5FB
000CEC33
0010081B
00166264
00196BA7
0012FD4C
000E454C
00245DF4
002B048D
002510FF
00260958
001219F4
001D7712
002EC17A
002204E2
000A461D
FFF7FFF0
FFFAF604
FFF877F1
0004FD4B
0027BA11
002414A8
0009E900
FFF51ADA
0001168E
FFF82AC7
00083BCE
000C51CE
000C3884
0012F7A0
0018BDA3
00255950
000C18A3
001A3248
001CE94B
002E0881
0021FF37
002593B7
0024366A
001A22F0
001BE95E
0029D6CD
001B6EAD
001794E9
000B3A6F
00035094
0004387A
000001D4
FFFC1228
FFF05881
FFEAE60F
FFD9E174
FFEA5970
FFF16ABC
FFFEF700
0011CD6A
00044BE5
001113AC
0011751E
00175138
001BC698
0019D80C
001693CE
0020704B
001E857E
0026A7A8
001A6648
000FDF35
0005F798
00177229
00237A2F
0018E406
000D0333
FFF87EDB
00075522
FFFAAE40
0004EBD0
FFE0C75D
FFE4588D
FFE4410D
FFFD0568
FFF257C6
00001634
00042725
00004E17
FFF3FCFF
FFFDE8E5
0005D632
00024E76
000A1BD4
0009D226
00174CE7
000DE42E
00140242
000714F0
FFF34BEA
FFF43FEF
FFFB563A
000FCA9B
00018E6E
0006E5DF
000813A6
FFF73BCB
FFFCF0CB
00021ED0
FFFE032B
FFF41DE4
FFE3311A
FFD11169
FFDD0E95
FFE0ECFD
FFDF31FA
FFFE4E7F
FFF43EED
FFECF9BE
FFF57331
FFDF7993
FFEB1B2B
FFE8A90E
FFFB0F7C
FFFE573C
FFEE3E1C
FFE289BF
FFD36831
FFEBA072
000550BF
FFF65F74
0005ED78
00001F3D
FFF7634F
FFF866E5
00007708
0001A939
0000DD12
00067152
FFFE0B5B
FFFBF1B2
FFFDF06A
0004E2D8
FFFCC56A
FFEA244C
0000BBE5
FFEC2318
FFED5D65
FFF4B13C
FFFF4E79
FFE9DBE3
FFD0582C
FFDAB72B
FFDE17C4
FFF46CAA
FFEE5A46
FFE3C847
FFFF7FD0
FFFFC18A
00025487
000473C2
00010F5E
