00016755
0003961B
FFFA5C68
FFF6F975
FFF8B82C
0006015B
00026517
FFFC677F
FFFE0402
FFF873D0
FFF889D8
00003B35
FFFA0162
FFFEC0FB
FFFA508F
0004ABEE
00044E5C
FFFF9E6F
FFFFC522
0002E8A9
0003F776
000297B4
FFFCAD90
0001C766
0006F4E4
0003B5EA
FFF74A53
0000CE98
FFF7B8F5
0006C8E0
0003471E
FFFC4C4F
00089B6E
00051DBC
000463B2
000865A8
0001FAB9
FFFBC617
FFF6D229
FFF3D302
FFF5EDF7
FFF4C903
FFFD9DBA
FFF4176E
FFEC8A45
FFF4F3C0
FFFCEB20
FFFCDC7D
FFF5E6DE
0003DAB4
00069839
0005CECC
FFFBDD9E
0001ABE1
00077872
FFFEB2D1
000220AF
00041E37
FFFED3CC
000A210E
0005FFC5
FFFE9CB9
FFFA0A60
FFF9B10D
0016EE5C
000EED7F
FFF25FCD
FFE928DE
FFDCEC96
FFD2D8D4
FFCBE713
FFC97BD0
FFD78F78
FFEA7B2B
FFF1D1E1
FFFC81EE
FFF101E9
FFEE37ED
FFED9831
FFF41585
FFFE3584
00043E81
0000888A
FFF83A15
FFFC7364
0002CD02
00046285
FFFCA0E8
FFF81FDB
FFEFC2B5
FFF3C9CE
00049D86
00161CA4
0010BF4B
00177F4A
000252B3
0012608A
00108A07
FFF07507
FFEC6A32
FFD4BDAF
FFD8CF3E
FFF54886
FFF89367
0003699F
FFFD3AB2
0004EC67
FFF5970D
000A63E0
00167C3D
00095397
00048DDA
FFFF72D7
FFF20AC0
FFEFDA3C
FFF25B98
FFDDF1CC
FFD6E306
FFF18193
00121910
FFFEE1C2
0007AB5F
000A8FE6
001D5560
0004EA14
FFFAA2B7
FFF4905C
0001AC0B
FFF93643
0002B780
000550B3
000354C5
FFFB94AE
0000F333
0010CFE8
000D6006
001F5622
0024E7A6
000F1402
00010F73
0002FD79
FFFB22E8
FFE91368
FFF76E89
FFDEE247
FFED05BE
FFEEE29E
FFF880E4
0002B1CA
FFFDEA20
000C77DC
001CB224
0014B576
000FED9A
001A7470
000C325B
0013DA68
0020AC18
0004EC65
0007452D
0005B17F
00157F0F
0015E562
00123DD5
001EDA59
003E16F2
001EAA14
FFF26F8F
00068517
00174229
00168C3C
FFF4A75E
0002DFBD
00052569
0001C6E5
000B6630
0011B5AF
000B99D3
0017D54A
00202B30
0022C138
001CB45F
002420B0
00326B27
001E4559
00271AA9
000EDB8C
000BB4E6
000F8AF7
00071A01
001623F7
000C2B4C
001E2A78
003816C2
00227C6A
000170A0
FFF9B9C4
001DBEF6
001704A7
000C318E
FFF5E280
000BAB16
00082158
00134714
002964BA
001CE449
0020DF0B
001E99AF
001820AD
001BDC22
0028DD79
002217F2
002743DA
00210262
002439E4
001CB826
000B3DF8
00078E00
000EE007
00081B3A
0002DE08
000402D4
00129314
000A44A1
0009FD53
001055C3
0011EA0D
FFFF7AB3
FFE74B1C
000B6907
001A83B8
001A5AE4
002A68E9
0028AD4E
001E5BDD
001F867F
001AE2B4
001646DB
001F36F2
0017D7CE
00255E47
0018DE74
00273E2A
001EA3BD
000F3147
0004C849
000E6885
001384EA
0014641A
0007B770
001088C4
0012C801
00095792
0005AC14
001571D7
0008650E
0011A3B4
000BEB3F
0016164B
001B544A
0021A8A1
001B0A6A
001E0B1B
000F1640
001D6FDA
00117C3D
00134B2E
FFEF0C52
00039047
000CC8B2
000E8C9F
00104C22
FFFD9879
FFFE14A3
00046304
00109518
001522A4
001FE6FE
000B147B
FFF99C82
00007B4C
00120310
001214C0
000C7FA0
00137761
000C2699
0013BF0F
000CB730
00126004
00138930
001A58D4
000F0F16
000D400C
000ECEEE
FFF5B9AE
FFE46BE2
FFF88026
FFEF1200
FFFCF434
FFF856DF
FFF50CF3
FFF14418
FFEF71F7
FFFA3106
000B54DE
0015FCEA
002612F8
FFEDC5F6
FFFFCFE5
0008D0D8
00082181
0005E551
00007354
0003895F
000E5E5F
00111FDD
0006A9E5
00098890
FFFD93A8
000C7262
FFFF15F8
00056426
FFE9FF78
FFDC2F72
FFDCD14B
FFE9B72C
FFF1C26C
FFE36F0A
FFDC7ADF
FFDB3E3D
FFD44C53
FFE85B21
FFFBD0C5
00114AE6
002FE8B0
FFF76722
0007D37E
0004AAD7
0009DA2E
FFFAAE92
FFEBE7DC
FFEC5216
000695B2
000040C8
FFFECDA8
FFFA551A
FFF3DBB4
FFFBA727
FFF41C74
FFEB05F0
FFE0D9FD
FFD6B717
FFE4D662
FFE86DF1
FFF31D4A
FFEB34BF
FFE0F137
FFDFCC88
FFC28F8E
FFD115A7
FFDB0B62
FFFDC0D7
001F61D9
FFF1DFC9
00075048
0006BC5E
000303D8
FFFA3DA9
FFD7AF0E
FFDDF12E
FFF59D78
0005DA73
FFEF9F2F
FFFF46CF
00035675
FFED11A8
FFE83789
FFED025B
FFF2DEC8
FFE8B8B6
FFE050CE
FFE90B7B
FFECCAB2
FFE71F4F
FFF87BA3
FFE733FD
FFE0460E
FFD3E8CC
FFF13339
FFDFB525
0003B835
0005A162
00107122
000203BC
00110742
FFEBA974
FFD99437
FFD95EF4
FFEC4DD7
FFFB3328
FFF14F6D
FFFC7BF0
FFFC3626
000072A0
FFF7A9AE
FFEC85E8
FFF609C1
FFF74A63
FFE5DBB0
FFE3B34F
FFE9D92F
FFECF805
00000C7E
FFF00C2B
FFEFCEEE
00081B1C
00162132
FFF4BB66
FFFCB232
000BA27B
0007C716
FFF04AF6
00012A0D
FFE60C7E
FFD565EE
FFD7E3EB
FFDD2625
FFFAC484
FFF8AC9B
FFFD0CA1
FFFF46E2
FFF66741
000D670D
00069F39
FFF3C1F2
FFF0EB37
FFD5FBEE
FFE0942C
FFEA1F2A
FFE7E2DA
FFEF62D9
FFF51A18
FFE4EB5F
0004BC44
00279EFA
0000C3E7
FFF82650
000D04BF
FFFD3D75
FFF9BB70
FFFF2D45
FFE342B1
FFD0776A
FFD825D3
FFDB9F81
FFDFC4EC
FFFBA529
000B534C
0007ED22
000696EF
0013F814
0012617C
FFEECB45
FFED92D2
FFE2847A
FFE5CB9B
FFEC776E
FFF47849
00004C2C
000694E7
00024CA7
001B6CEC
001F3F14
00094587
00036460
0011E92E
000466DE
FFF13E88
FFE3A084
FFFF2569
FFE02A23
FFD9EB41
FFE318D1
FFD2BB8D
FFEA3F2E
FFF4F23E
FFFD9E80
000E4B15
0015821A
FFFDF6CA
FFE24624
FFE4F2B6
FFEECB63
FFF47B27
FFFF50B3
00009BA0
001066D1
0006EFF8
0009B2AA
0021384B
001DD1C5
001773E9
000C2FDF
00268066
0002DBED
FFEF3703
FFF15FFD
0001FC82
0001F513
FFE4978C
FFE4BC53
FFDF47F4
FFF1C8A3
FFEC7A59
FFF581A8
FFF13653
FFF0E670
FFE7059D
FFD418E2
FFDF3573
FFF21B2D
0004196F
00007550
00037127
00162727
0010697F
0013108E
001285D2
00195FBE
0001DB35
00010A3C
FFFE60AF
FFF705A6
FFFAFCCD
000D9C21
00070F5F
0014EF29
00054434
00013486
FFF0356A
FFFA7DE8
FFE9F63E
FFF79B63
FFEE35AE
FFED9F27
FFE90285
FFEFF3B6
FFF24C09
FFF45335
0007364D
000AACA2
0010DED9
00141F30
000B29DB
001512F9
0011B8EF
00120229
000089D8
000B4F91
FFF809B8
FFF77676
FFFE903F
0016D0B6
000BDEC9
000B4E3F
0010B570
00103871
000878A5
00096893
FFFFEB9B
FFFA7326
FFF56A89
FFF9CFB7
00012D78
000628E9
0006AA1A
0008CA9A
0006717B
0009BC94
0006DF97
0015DCC9
000C3FD1
001F18B1
000F8AD6
000B760A
001B411C
FFF21295
00030CDA
FFF0D719
000006E2
0009FC64
FFFC7FC7
FFFA4C46
FFFA319C
00108A91
0011C4BC
0007CB14
00065B7E
FFFC4F72
000FA813
0010AA02
001DEC97
001F536F
0016535E
000D274E
00108D20
000C1F1C
00162579
001B6DAA
0016FA85
0024BE3E
001771CC
00118D90
0011C913
00110395
000848B5
FFF25E72
FFEFFCEA
000A815C
00005CDA
FFF09B8F
FFF07146
000243A7
000C1488
000EFC97
00126E12
0004EE5A
0016FB0C
00162F40
0019BBC9
0020D74B
001C72E7
001F278E
001B2811
000C991F
00084D3B
00136FE4
000D3749
001DA58B
002BDD92
0010B312
0004FA88
0009C6A7
FFFCB387
00090E7B
00077F11
000EE4AE
001CA448
001FDEF2
0024EAB1
001B3AAE
001B4478
00138D6E
001A0382
0024B35F
0026D51C
0014EC1E
00132EA9
00249325
001869FD
001F73CE
000D9FE3
FFFD335F
0005C8C5
0014D7C0
0007EAB6
00129257
002A3D82
000E6E22
0003D962
FFF876D1
0001E02E
0008ECB9
000460E8
FFFC3A5C
0005E4DA
00148843
00143F46
00137C0E
00115086
002118A4
0025A0D8
001FB030
001B83BE
002F947D
00264913
0024F511
002BE58A
0017B86F
00123C1D
002353D9
0023897F
00130BEB
0008C856
000F26F7
0013B293
001CF746
FFEFB1CD
0004DC7A
FFFB7065
000279A9
0006F325
FFE9EF8C
000CD576
001D123C
FFF9AD26
00170AD9
00225F7E
001B7B68
002451EE
0022D0A8
0024EBB2
003327F1
00244D77
001A99F2
002D9719
00383B52
002E560C
0020627E
00311DCD
000C645B
001A3936
002164EF
001529F0
0026C17D
00033BC9
0002FF5B
00053551
FFFDE16A
000274D5
FFFAC801
FFFA2BCC
FFEBF523
FFE790B5
FFECFD66
FFFEB73A
000428EC
0001EF0D
0014A4B9
001C5412
001E2DB6
002A676C
0013A9BF
00179B20
0026018E
001FC8AB
0017137E
003024B1
000FA691
00160F85
00168470
001A3EAD
0004F6CD
00023BED
0007603F
FFF999D9
FFF945EB
0002BB76
FFFC1B01
0005ED09
00039AAB
0005F73C
000C6FDE
000C8E9F
00073113
00058722
0011EA78
000F5B42
000D6363
001C201D
00014060
FFFE6AB7
FFF6E85D
002046D4
0008F7CF
000201E8
FFF78B02
00072CE4
FFFFEB8F
0015C90C
0003C311
FFFCE859
FFFDCBD5
00054DC5
