FFFB1EC4
0008215C
FFFFAD8C
0000B62C
FFF8B6D6
0000F7ED
0008620A
FFFC8365
00087AED
00012373
FFFFEFC6
FFFAB389
00082644
000DCCFC
FFF5E416
FFFF0282
00084955
FFFDE51F
00075B83
0003DED4
0002A08B
FFF920FF
FFF78B5A
FFF965B0
00064644
000214EC
000838EC
FFFB7BB7
FFF993E9
FFF70EEE
0005029E
0002F903
001089E2
0011AE9D
001CB67F
001E1748
0020660A
0015E459
001A7994
000EC9C6
001E6346
001517CC
FFF5055F
002F31A4
0013A3B1
00272E33
0021DA68
00237048
002272E4
0008D7EE
0009229C
001843EA
FFFAE1C8
FFF9301F
FFFC0E99
0003CD44
FFF83F35
000620D0
0001403D
000E6A0D
00223C9B
000FD94E
001CEE06
0021ADC0
0028A2A2
000B33F0
0025B71D
00253882
001BD01C
00162D3E
001500AE
002A86FA
00199FEE
00111E8C
0015FF57
001C3F00
0010C411
0020152A
00157430
001294DA
000DE249
FFF80037
FFF93987
FFF93177
000228D2
FFFCD9D2
000FFE5F
001C1D3D
000132F5
0013411E
00196AE5
00184DD3
001A8C7C
0019A736
00118778
00152D10
000F66D6
0013B6FC
00115868
00182037
00180872
0004C08D
00080CFD
000A0700
FFFD3720
FFF7A9DD
0006054C
001FCA09
00107A8A
FFEC7AD0
FFEC1E20
00024008
0000B474
0001B596
001F2935
001974E1
001DE642
001D7AC2
000FFE7E
0006A78D
0019C3AB
00224792
00168373
000C0E87
000ACB6A
00074836
0012F597
00182787
000CF06D
000ADFF0
FFFADC56
000FB93C
000DB014
00038B91
0003518C
FFEAAB18
FFDD405A
FFEEA1D2
00085E1E
001C2F9A
00026571
0003F838
001DA198
FFFA4342
001F988D
0011AF0A
00015A9B
FFFA00E1
FFF43CE1
FFFCA97F
FFF46AE0
FFE3D1CD
FFF20FE4
0001F14E
0009D157
000A1886
00024BAB
000D2D22
0006B0BE
000AE384
000AAE4C
00135912
00037ADE
FFF4F79D
FFFBE504
000564FC
000B3267
0008E02A
00002248
000B7EC6
FFF0313D
0014C9B6
00110A1C
FFF48B90
FFF69FDD
FFF5A37E
FFF33204
FFED97F0
FFEDEA96
FFF5C2B9
FFF09552
FFF366CE
FFFEAD15
00066F5F
FFF7AFDB
FFFD2C80
FFF5ECB2
FFF71961
FFF86BB3
FFFAE159
0007983A
000A9536
FFFCF39C
0009B398
FFF341AF
00069E69
FFFDC216
001D312F
FFE49F47
000B1391
002D5AE6
FFFE97FD
FFFB5995
00105CE9
FFFB5716
FFF16289
FFF7CA39
FFF2ECEC
FFF6540A
FFEE9AA2
FFF9C58A
00033534
FFF76CCE
FFF04729
00048F57
FFF2364B
FFF616D1
FFF4AE89
0001462F
00035920
0007F9C4
00013485
FFF8DCBF
000C739A
001F12D1
001CC729
FFE56D4D
000DD885
002AE14A
000A7B1C
0009B7E1
001317BD
FFFA411C
000365DB
FFF9971B
FFF2B30A
000087C4
0002C537
0000C137
FFFBCF3F
000A45DE
000AD2E2
FFF8E922
FFF68AFC
0005B98D
FFED4DE0
FFFC75FC
0005F692
FFEEB3FF
FFE2310D
0005DCC6
0011DFB3
00052770
000C445C
FFF90902
0018AFD0
002FA5CF
0007B5BE
000C8730
001063DF
0009231A
FFFA4A66
FFF0BEF8
FFECFFD3
FFF45D4C
00052CE7
00121342
000D0EF2
000037A7
00072B09
FFF1EDFC
FFF7970B
0003D154
000CDF07
0005308A
0001B43E
FFF51134
FFFA3DC3
FFF6B64C
FFF0B99A
0010111E
0010E593
FFFD23BA
00131077
00217022
FFF5D456
0005E5E0
00038206
0000445F
FFF5CE8A
FFF4BC52
FFE348EA
FFEA0928
00158ED6
0026220B
000D619F
000019A6
00028795
000A6DEB
000343EF
00098417
0008358C
000A56B8
0018D37E
00021A13
FFDF36C8
FFED010E
0001DB75
0013E92D
0023EEBB
002260E2
0012098A
0023D090
000329ED
FFFB7838
000BB559
FFF6BB80
FFF03354
FFEC3B5A
FFEE3680
0003BFB1
002132D2
0024F954
0019255E
FFF8A9A3
FFF644A7
FFF699FF
FFFE8902
000F5518
00099DE4
000C552A
001EC31B
001DCE22
FFFBD1A4
FFFD98C8
0015EC6A
FFF41220
0006507F
000DDF6A
0016B186
00067465
0001F45A
FFFA2C27
0002F23C
FFEE67C7
FFF76EE8
FFEACD5C
FFF09622
000FAE7F
00241EAC
0025EA13
00123D0C
00007679
0003F2A6
FFF9166A
FFF8F216
00005176
000AC8F8
0005B6CF
002B9EEC
0038C6FE
000DC29A
FFE551FD
00005604
00108A3F
FFFD2467
001A1CF1
0010C10A
FFF21B50
FFFF6CA0
00057DC8
FFE7E909
FFF05D07
FFFB7CE6
FFE2E2D8
FFFFEDB8
0013A073
0019F958
001D2D78
00130E7E
000EAC67
FFF28642
FFFA48ED
000568F0
FFFFB5EC
FFFB02F4
FFF80B61
002B4CF4
0037953C
0016B714
FFEE3714
FFFE69AD
0000CA71
00030725
001C3F28
FFF88CCE
FFC862B1
FFF759BC
FFF59FBC
FFDD78A9
FFE783B0
FFFF5504
FFF6F048
0016FB97
00237BC2
0019C2FD
002A0180
001597CA
FFF152B1
FFF8454D
FFFA70B9
00018251
FFEF6B46
FFF89B09
FFF73EB0
0014B4C4
00155025
000BF279
FFE855F6
FFF7B4B9
0009897A
0008FB6E
00227D4F
FFED531A
FFDB0AF1
FFF72D18
FFF93C98
FFE76688
FFEF330A
FFFE9307
0008E497
00223F9E
0024B6C8
00227481
00288398
00050FD0
FFFE03FE
FFEA4427
FFFBF9CE
000414DD
FFF01E6A
FFF48A4A
000790EF
0008C0D7
00057E65
00055166
FFD65743
FFEC378C
00044208
0015F0C7
00258698
0001F109
FFFFE511
FFF1498C
FFFE7C45
000493E9
0003BC2F
0020C19D
00235BF0
002279EA
0013C570
002AE6DE
002729B8
000A5F5A
0002D750
FFF1AFFC
00049968
00026839
FFF4EF43
FFE8876D
000023A7
0005160F
00164181
FFFCB408
FFDBD3CE
FFF6E840
FFFAD12D
001A23EE
0019B1F9
000E94A9
000BD9C9
000307C8
FFF4580D
0005E7C1
000B18B7
000FA0AA
0018134D
0024125B
00170977
000EF605
000B95D0
FFFEE076
00068847
FFFAA1A1
FFF7EEC6
FFFFD531
FFF5575E
FFEF2606
000B459D
000A46D5
000AF9F4
FFEA5A99
FFE7D78A
000F68F1
001435EF
000CF4D3
00081812
FFFF8AC1
FFF23B01
FFF26AD8
FFEE0F4E
FFF4B382
000C06AB
00149EA1
000EE287
00033F8B
0013429A
00036BC9
FFFE2549
0005F733
00065206
0001BB59
FFFFFC38
00023012
FFFA5FFE
FFEA0ABA
FFF6784E
0010CD77
FFFFD133
00095CE5
FFFE18D9
FFF86FA0
000E33AA
000F4599
FFFA660F
FFE87AE8
FFF6EA33
FFFD2719
FFF696C0
000995D7
00127E21
001B838B
0016C120
00014A38
0007A781
000F218C
FFF72A77
0007467F
000774EF
0002F6A7
000C7092
000511CA
0003FF59
000850DC
0009EAFB
00108E3C
0002888F
00069F5D
FFEC6E4D
FFF3A4B9
000870DB
FFFE29FD
FFEBA0FA
FFE5FF38
FFE28ED4
FFEB1B80
FFFC3A31
0020CB16
001397F6
001AF648
001843A4
00093081
000E2D21
000C77D1
0012DE45
000B0D12
FFFE44CD
000529BB
000C0427
0005F6A7
00103027
000F783C
FFFE70A5
FFF2B268
FFE6C4DB
FFF562D6
00019691
0006E421
000E9DC9
000D8ABC
FFFA8C69
00000A16
FFF15848
FFF309DE
000B6DFC
00148AC4
000DE135
000B3F3C
00077BE0
000D286D
000C95AD
0016619E
0010021C
000E99F7
00055DAF
000B406A
000C8897
0008D229
000DAAE0
FFFAC956
FFF5F356
FFDF3D74
FFE186E4
FFFC5536
000A9FD2
FFFB8558
000832E1
00065288
FFFD647E
FFFC8249
001114B7
0012A6CC
000B99D7
0010D358
0005101E
000A694D
000184F1
000B214F
000E5375
0007AAAB
00060D21
0008B43C
00093D8C
00082775
0007A4A5
000FAE5E
FFFA37C2
FFF44551
FFEFEEC4
FFE08611
FFD521F8
0004AFC6
00015B3E
00021816
FFF9EDEB
FFFCE4A0
001A95B6
FFF93C79
FFFD5EE5
FFF8D973
000A2CEA
FFFFFF36
FFF829FC
0004AFBD
FFFDD7E9
FFF74C4A
0009A3BD
0002B6D9
0000773E
000B052E
00027C7B
FFFADE21
00011443
FFF9CFD8
FFFB6C86
FFFB5613
FFF1757F
FFFAC621
FFCE77B9
FFEB6A1B
FFFE29BD
000310F2
FFF7B277
FFF93707
0005F5CC
001B3F08
FFEC2B05
FFE16E45
FFF0381E
FFF3CBBC
FFEB54ED
FFF6071B
FFEB7BF1
FFFBC697
FFFD1B80
FFFF44A2
FFFE2D99
FFFE392F
000CB6B9
FFED0031
FFF060F0
000371C2
FFF1217A
FFEBA6E0
FFE8F723
FFDDE176
FFE0D293
0002E82E
001600CF
0008DCF2
FFFF34FA
0007FCD2
00048640
FFEF41C3
FFE69FB1
FFCC7EB3
FFECA435
FFEB48A0
FFFB33D4
FFF3F9FF
FFEE1176
FFF46F62
FFF82B5B
FFEB0F4B
FFEA7A38
FFF65BC6
0001BC08
FFF69EAC
FFF2097A
FFF9CA0A
FFE827A7
FFC35BD1
FFD19A86
FFE8890E
FFEB01FC
FFFAD0E6
000C92F3
0008673C
0003723D
FFF863C5
FFF97863
FFECA744
FFD5E8A9
FFCE9A09
FFCEE88C
FFD3E8C8
FFD920B9
FFE172F0
FFE43E55
FFEB6573
FFD8AE5A
FFD3AFD9
FFC00F9A
FFD13BDD
FFD5BD1A
FFE98902
FFE4651E
FFD51EEC
FFCBFD0A
FFCEEA28
FFDD44DA
000B7508
0001A801
0002A025
FFF92748
FFFF264A
00031A73
FFFA7D55
FFFA0CA2
FFFB92D1
000D8DB3
000AA3E8
FFFA8612
FFF47971
FFE73B60
FFE2D226
FFFBFFEB
FFDF0AA9
FFE4F59E
FFEC55D0
FFD3CB8E
FFD8E02A
0002ADEA
FFF86602
FFE61B36
FFDC7F98
FFE9F1B4
FFF676B8
FFEE9492
FFFEFDB6
0005F3E6
FFFC02C6
FFFB2CA8
FFFF0374
