FFF94B48
FFF989EB
0002995E
000198E7
FFF9D78A
000729ED
FFFDFFAD
FFFF03B3
0000C173
00082BB1
FFF6E574
FFF7CBAE
FFFBFE45
FFF879E5
FFFDD481
00016B27
0000DCBA
000609E9
000469D4
0004D064
FFFEDDB0
FFFF1339
FFF7F117
FFFA948B
00025E69
0008F91D
0001A1AB
FFFB07E1
000099A2
FFFABA88
FFFAF490
FFFD9219
FFF9BA45
FFF4EC43
FFEB37A7
FFE1E056
FFE454EB
FFEE3ADD
FFEADC7A
FFE6C08A
FFD8C186
FFF27370
000CE3A3
FFF47DA8
00147F18
FFF70F9C
FFE1D80F
FFE72C47
FFE0710D
FFECC2BA
FFEBB728
FFE6FB3D
0002881A
00000AF1
000572CD
FFFEEE3D
00086654
00051505
FFFE07F6
FFE2D00F
FFEB31F0
00001C03
FFE46779
FFD7A1E3
FFE1A6A5
FFE6F6C5
FFDC3E83
FFD830B0
FFDFD14E
FFDE23FE
FFFB49BE
FFE04170
FFF9D669
0005A12A
0007A1FF
FFEB6AF9
FFED2840
FFEA9B13
FFE6FCC8
FFEA75C6
0006DC07
000328BE
000332A4
0007948E
0007719F
0006F323
00083ED9
FFED7CF2
FFED5B8C
0002A655
00021CEB
0000004D
FFFB4A6A
FFE46460
FFE2FEE6
FFEAF3D5
FFE80B12
FFE8048A
0007AC20
00034F3D
000032D3
FFFDB0B5
000EE276
0004AA5C
00032EB7
00192E70
000FC6F3
0003EF45
FFF5CAF2
00029717
FFE85B79
FFFB3F6F
000476EA
0001305D
000CE14F
FFFAFA4E
FFF22224
0001A60E
00159D3E
001F92A9
00010058
0000776A
000BEFEB
000ABC20
000C3C46
000CD699
000F23C2
000D7B3F
001508C2
001387BA
001AAE33
0013228A
00111BDA
0004312B
000172D2
0006ED84
00118CCF
001EF228
000BE4D2
FFF078C9
FFFF4491
FFFB8E2B
0009812A
001F7FBB
FFF124E8
0009BE27
000FE30F
00126B4C
0003831D
FFFE8351
FFFDFFB6
0012F0A0
0014E438
000969DC
FFFC43C7
FFF45D16
0015227A
0010C1F3
000D5878
0010165C
0012498C
000C9995
00019297
0001EB58
FFFDF3C8
001765C8
00012697
FFEEB0B3
FFFE1BCA
00192B8A
FFF186E3
FFF95B08
00056652
001973E2
00091F47
0007E9E0
000DE1A7
0018003C
000E2349
FFF35503
00001157
00028742
FFF417BB
FFF0FD60
FFEB0E86
FFF11538
FFF640CD
FFFBBE8E
FFFE6CAD
FFFC7265
000740A5
0015F2D2
00182CDA
001B85E3
00161E74
FFF6E138
FFF4E480
000DDB6C
FFEF4E70
000EBB85
001CE9DA
002396C7
0017603B
000B54FE
001A22AF
000FC3A4
000D9394
FFF85D96
FFF1FC82
FFF0675D
FFE6AC43
FFDD524A
FFDA8078
FFE0E2D2
FFF52908
FFFDEA60
FFF45616
000AFF31
001A348C
0018F4E8
001ECC6D
00381424
00219510
FFFA2C4C
FFEC192B
FFF1D21C
FFFA1E65
00253DDC
001DC5E8
0022AE36
0014CA0D
0021C3B0
0004B0F8
000BBBAF
00162FC4
0005D247
FFFBEC74
FFFE0E0D
FFE1EFF5
FFEE9033
FFDF9488
FFF0B478
0005530F
000D2C8D
000EFC61
000F8168
0022F629
00282782
001CCF9A
00471F40
0028D16C
0009CF5B
FFF04239
FFF65776
0009A5C2
00110C5B
00079382
001EBC79
00198772
000EC22D
0008E034
00087F80
0008215A
000406AA
00003E6A
FFF0A4AC
FFE8AC4D
FFF0E838
FFEDF1CB
0000D2C9
001D748E
001CE0F0
0024D359
00196263
0021987C
0026E33E
00059012
00298F1E
001C279C
FFF8D9B8
FFF6C661
FFF9E49B
FFFA152D
0025CBBA
0013DA76
000901EB
00023994
00018CC6
FFF9F3A1
00022A1D
00078C0F
0001ACC2
FFFC2886
FFF62380
FFEF5AD3
FFEA1853
FFEB0774
FFFCBD1B
000E9695
001EF70B
001B4E44
000C83BE
0014ED7B
00030F98
FFF4A0DF
FFFE5181
001066C2
FFF9EB7F
FFF96142
FFE78EFF
0000BBEB
001B5C5B
0016B6F0
0001FBB7
FFF9D33C
FFF47A98
FFEE79BC
0002FB5F
FFFA1254
0000EC4F
000A9DA8
FFF8303A
FFF0D41C
FFF12BB7
FFEB734E
FFF695B4
00114A08
001CC9E8
000101AE
FFE80270
FFEF8D76
FFED5DC5
FFF81668
000C3D25
0002DDC3
FFF0C0FF
FFF7EE85
FFFF0EE4
FFF2D826
000CCCD3
FFF29968
FFECF30B
FFD9DB0A
FFDE46D7
FFE60883
FFE66716
00053B52
0007F439
002D253D
00150E43
FFFBD4F5
FFF2AE83
FFEE76F3
FFF79D20
00099A7E
0012B4B0
FFFFA2B6
FFFC7AA3
FFF75EE2
FFECD6AA
000E056D
0009BDB2
0011823E
FFFE64EF
FFFEC93E
0002A4ED
FFF91C32
FFF553E6
FFDEA84A
FFDBE2A2
FFCFB6C6
FFD0F1C0
FFE89F38
FFE4E117
FFFC870E
0021429E
002BBA37
0029462D
0006C398
00015066
FFF55D7E
FFFF204E
001ACD32
0006CA07
0000EF5A
00050F5D
FFF633ED
FFF1D4DB
0003262D
000C8921
002D1892
001047C7
000ACC5B
0007A062
0001E242
FFF3C654
FFF430E0
FFE1B386
FFD1519A
FFD08F1A
FFDD1486
FFE2E88A
FFFB9C82
000E1937
001AF61E
00210B5E
001C7A94
001D59B3
000D94FA
00178B57
000BCF16
FFFBC1B1
00030BE3
FFF6B7E3
FFF32133
FFE68680
FFE976C8
00051307
0015765C
00077C83
0009621E
00039A5C
0016C8E8
000B2464
000B6E9C
FFEC3CE7
FFE0EFE5
FFDDC143
FFDBFA19
FFE569B2
FFF6D2EF
FFF69B23
0004D720
0015FD69
002288C5
0018456D
001C7C6D
0012771E
FFFB2CCB
0000E267
FFFEFD59
FFFCDEE2
FFF734E4
FFEB98D5
FFF9CBBB
00069D5E
001CD608
FFFDA5A9
FFF40B08
FFFD5294
00147E9D
0025A05C
00052C70
FFF1668E
FFF598C4
FFEA795E
FFEC341B
FFECC5DB
FFF48997
FFF2631B
000D48CA
0013A1CC
00172367
0013C092
00161B4D
0007095D
FFF9E577
FFF721BA
FFFDF6E2
00012A32
FFFF43FC
FFFC9E26
FFF3DDDA
000CAD01
00257E50
0004B033
FFFA25AA
000301E1
00182609
002F13B6
0023022E
0015E3B2
00092D67
FFF75B0D
FFF9FC6B
FFFA5946
FFE678C5
FFF931ED
0002B7DA
0014ABD8
0005C5D3
000D3F2C
000AB116
000CA5AE
FFFA5D7B
FFFE601E
0001AD64
00078409
FFFBD4DA
FFFDD4E7
FFFF82B0
0004839A
000BDD80
000C7935
FFEBE616
00047187
0021A9AB
00301FC2
001F0287
002DAB86
00204344
00114CA5
0006B9E9
000C6773
FFFDCD6C
0009E713
FFF93509
0003A8D9
0001AE1D
FFF9BA81
001176C5
000B0EFA
000D09FE
0002B5D7
000E4A83
0009280D
FFFF6F0F
000D7BBE
0011193A
FFF72514
FFEB2240
FFF89D38
FFF351BA
FFF4F18E
000290FB
001EEFDD
001FD716
002A35CB
00268B21
001071A8
000D2A9F
00087131
000469B9
FFF03B3F
FFE1E089
FFFB958F
FFF16531
FFF94AC1
000233D7
0015748A
000ADF6F
000535B4
00042366
FFFCE2D4
0003E1BF
000DE7B4
FFFE12B4
FFF85FCB
0015EE39
FFF776AE
FFF95362
FFF8358E
000D415F
0019F47D
001E5DEF
0019E368
001B6043
001653F9
0004AEC6
FFFDFBE5
FFF1E692
FFF8EF78
FFEDE23F
FFF60714
FFF5DE8F
FFF5F185
FFFD41AB
000C0948
0005F321
FFF987F0
0000BD3C
00163792
001632D1
0023C45A
00036517
FFFDA807
FFF97E9F
00012AF3
FFFB50CE
0010BE90
002C87AC
0003E914
FFFEC764
00036589
000989E3
FFFD6845
FFF793DC
0002C5D2
FFF0E1EB
FFF82C26
FFF45111
FFEFBE86
FFEF5758
FFEB45AA
FFF9D47A
00020374
FFFDABE6
0009B562
0005A226
00122EC2
00188A33
0030F5B7
FFFF73EA
0004F7A3
FFF768D8
FFF7462F
FFF2A64A
FFFE846C
001BB88B
00116C0A
FFF9E488
FFEB3449
FFFC428F
00050A1D
FFFCA201
0001856C
FFFD6B64
001A24C2
0006CC5C
0000D6D5
FFFDB658
FFF56F41
FFEB0C1F
FFFE7045
FFFBA6DD
0010EDA1
0001AD59
00152170
00152E56
0029E849
001CCB5C
0004826D
FFF33462
FFF91E04
FFFD6B54
FFF8B51A
002B8F20
001F699B
00106727
FFEE0A20
FFF1C646
FFFA24DC
000C7AB3
00137752
0011D69A
001B13F5
000C4674
0014A0E4
FFFDDBCF
00025CE9
00035D87
FFF446CE
00079BB9
000A4148
0015C85F
00121EEB
000CF2D8
0017D455
000532AF
FFFFE70B
FFF39DB1
FFF712C9
FFF82C49
000180C2
00013BF9
0001AC47
FFEA6918
FFD8966D
FFEDCC29
0001B2F3
00112648
000D9B2E
00154BF3
001D3BA7
00135060
0013CA05
0023C64A
0014400F
000D6078
0003E690
0011AF77
00177939
0004B6EB
00013493
00030261
0005F626
0014CA6A
00070F83
00035763
000368DC
FFFCC77B
000673C7
FFF74EE1
FFEA9A8B
FFDF9AD6
FFE9D472
000BFF58
0000C844
FFFBCE4E
FFFFA723
001DAD39
001FC349
00150F29
00249A91
00170CCB
00232A1E
000F3775
000C8ABC
FFFC28DA
FFF128DB
FFF0841C
FFEAA68C
FFEED0CD
000156A9
0003AD6E
FFFDBA5C
00111815
FFFE923A
FFF8CFD7
FFFF7F7E
00090835
FFF7324C
FFFE8370
FFFE20DB
FFEC1116
FFD61FAF
FFE1DE4A
FFCEB59A
FFE48BC6
FFEEF4CE
FFFACDA7
FFE24ED1
FFBBBBC4
FFD76DB4
FFEA008B
FFE49AC4
FFE0CCB4
FFDECE11
FFC010A4
FFC55B6B
FFCD1F59
FFF4E5DA
FFF7E7F8
00058BEA
00074A9E
FFFD528E
FFFB7083
FFF6ECF0
FFFEAB82
FFF8F377
00168A4A
000E3CD7
FFF086FE
FFFC9DCC
FFE9291B
FFE716D3
FFDFFFD8
FFEF8836
FFE1EC90
FFF173ED
FFE04ECE
FFE94FD0
FFE391CC
FFED3530
FFF6BF33
FFF496BD
FFEB2AB3
FFEA7AFF
FFE530F4
FFFED301
FFF7EE6A
FFF9EA91
00062B33
FFFF4E33
