00009653
00043477
0004C526
0002ED08
00030C92
FFFFAE6E
FFFF40C8
FFFA664E
00032E5B
FFFBCE2B
FFF9721F
00054631
000A78D2
00027B29
FFFD9A68
000369D0
FFF7750C
0003BB0C
00010264
FFFBE633
FFFAE04D
FFF88E42
FFF7E78F
FFFCF3D4
0001584F
FFFF8373
00062184
FFF836B3
00076D26
00053C68
FFFBBCF6
0004DA11
00002160
000350BF
0008EA17
0007F36F
0007D713
FFF7EEF6
00130992
0006E100
0011369D
000F586A
000F662A
0007FBF4
FFD44630
FFE3CB4B
0008B496
FFFE6A7E
0004F5FC
00108412
00031FB7
0006C1E7
00084205
FFFAA8B2
FFFB666D
0002BAC5
00074B37
FFF9CFB5
FFFA9BAC
FFF95ABC
00064543
FFF8DE6A
0001410A
FFF7F6D0
FFF1CF48
FFD93DAE
FFD9277A
FFDE2494
FFEBFDAF
0003FFDF
FFF43E9C
FFFC1B50
FFFC076B
0005BAF0
FFFB3C70
00156E59
FFFAD3D4
FFF3F4CF
FFF3E161
FFE6394A
FFE46128
FFE5AB60
FFFFBAFD
00044523
FFFF01E1
FFFB76D7
000E66ED
00033941
000FA0E5
FFFD1AB8
FFF4349E
FFF8D8F8
FFEAE635
FFF29FE0
FFED774D
FFF4B4E1
00004947
FFF82EC8
0001AD98
00041CD0
FFFA970C
FFFD7997
FFFAA75D
000040D8
0015B2FE
0018C8AA
000A350D
000860CB
FFEE78C5
00096EF1
FFF83B43
00030681
FFFCAEFF
FFF99ABD
000C397B
000F9C4B
FFFBBF2C
FFF1D0CE
FFF0C880
FFE40ADE
FFD90722
FFE28CC3
FFE79332
FFF3B87E
000412ED
000A97C5
000F5287
00123B6A
000625B7
FFF4444F
FFF60B59
FFF5F3E6
FFFC830D
000F91A9
0010002C
0008F968
001B2C99
001F204E
000725ED
FFF8C9A6
FFFCC406
00075C83
0006FE23
001205CB
FFFED5DF
FFF33C7A
FFE916D1
FFEB72E3
FFD0C5AD
FFECC8AA
FFECE797
0000A251
00036250
001748BC
00184D62
00058794
FFFA6BFE
FFFD360E
FFF91AD4
FFFC36B2
FFF085AE
FFFB551E
FFF212EB
FFF6AD98
000F3C32
0008259C
00120E36
FFF4A91A
00078016
FFF54EF3
FFF438EC
FFED3914
FFF6DBC9
FFF09460
FFDF0146
FFE1C594
FFE6EF5A
FFDF7109
0000B6FC
0002B339
000919FE
FFFFEE2E
000C328A
FFFF1B36
FFF3C69E
FFF4D8D1
FFF7EC28
0006C23C
0004D782
FFEF7784
FFF40778
00101FA2
00168D78
000CB2ED
0014FA5B
FFFA4A73
FFFDB212
FFEFC320
FFE4A929
FFF3A604
FFFC9F46
FFE1D568
FFD48A24
FFD0C052
FFD75AB0
FFF0EBC8
000757E0
000E94F4
0008DF84
000EB621
000B93B4
0005362C
00066B0F
FFF7CD13
FFFBB63D
00031794
FFFD355A
FFF47E06
FFFFCE81
000A0742
0005D481
001DA35E
0012AA17
0001AB6B
00040904
FFD9F6B5
FFEE7EA9
FFF44F53
FFEB9941
FFE16E48
FFCAED7A
FFE3F976
FFD9B2D7
FFF5D793
FFFC8E6A
0015D97F
001485C2
0019BC2D
0018AF1A
0019EA0F
FFFC76E7
FFF3625C
FFFE97FA
0009682A
00005EF3
00046511
000C175C
FFFAB0D5
0024743A
00356CC8
0025E892
000CAD35
FFEF16AC
FFF485BD
FFE8F97E
FFE92F8C
FFD9CC50
FFD51C54
FFD947ED
FFDBE8C1
FFDBF472
FFF97526
FFFAB8D7
00180C1D
00133845
000D2F27
0009A778
00013823
FFF20EBC
FFF2CC44
FFF889F9
0003A1FA
FFF4DCE4
000766D6
000B640D
000CFEC5
003674D6
003F50A8
0017EADC
FFEB1763
FFEDDCD3
00060BD5
FFD08C2A
FFDB8100
FFD50B90
FFBEB092
FFC72167
FFD15F10
FFD7C6E2
FFE849F5
00029960
00150A9A
0019A96E
00146C8B
000770A7
00029CEC
FFF8C15E
FFFEDC34
FFF399FB
FFF0D1E4
FFF9CA22
FFF82482
000F8189
00282892
0040ED22
00317049
0028E56E
FFFFCC7B
FFEF020B
FFF4271D
FFDB6F57
FFE4C155
FFEF5395
FFE13385
FFC76259
FFD31D85
FFDD5C65
FFECBAED
0006437C
0013EC28
0018D7B1
001B1768
0017DFF0
000AE30C
000E2F53
00182BC4
0006DF96
FFF03109
FFF67530
FFF3ED71
FFFA653B
00300B5A
003E2FE7
003CE323
003AAB3A
000A2AAD
FFFD3C8E
FFFB8761
FFF0AE86
FFE6ACCA
FFEAE03C
FFD9411C
FFD3865C
FFCA9946
FFD16A63
FFE89FA8
0001FF85
0015AC7C
0016A5F0
002B0298
00262A18
001FCE19
0012C19A
000E1A34
FFFE6D23
FFEF03D6
FFEA1ADB
FFE36DD7
FFE23B85
FFF72E95
FFF9BD71
000B9543
0020A662
FFE015B8
0005E947
FFF7C115
FFE72A67
000F2718
FFEED04C
FFC75E42
FFCBF31E
FFC05E74
FFD950CC
FFFA240D
00158F39
002AD91A
0020DB62
002073D2
0020D853
002CC133
001DB595
000A1416
0001BE8E
00000D42
FFE96298
FFD95D60
FFD36CB8
FFD49D97
FFDE5ED3
FFF34A0E
0001293E
FFF65D11
0007422B
00079E84
FFEAC8DC
000673FE
FFDC58B0
FFC776A4
FFBD5F1F
FFB5A31E
FFD47FF1
FFFA15DA
0012C154
001D4D05
002A07FA
00231279
001A7085
00288D1F
00140F7B
FFFFC9A2
FFF40CF2
FFF21301
FFF43B56
FFF45096
FFE33B92
FFD42C0A
FFDA6E10
0006FE8F
FFE9CC74
FFF4544C
000CC9EA
000FBEA2
000EC450
FFFCB1C5
FFEC0E18
FFDFD389
FFD8C9A2
FFC690DA
FFC99DC6
FFD62F01
FFF984BB
FFFDE7B3
002863FF
0017FA12
001DFDB4
000F2A48
000F6873
000CABA0
0008ECFE
FFFDEC72
000C02B4
FFE3B69A
FFD87940
FFE2EAB6
FFE192FA
FFFAC9FF
FFE5EF5C
FFECB6EC
FFFD8E23
000E38BF
000854CC
FFF64CF6
00089FEF
00001651
FFEA72BB
FFD3F879
FFC403D0
FFC593EB
FFD9110B
FFF901FD
0002CEC5
0019DB74
0013BAA8
0013FCE1
00063964
00110FED
001C0882
000475F4
FFF3C452
FFC44234
FFCA4B3C
FFD45C1E
FFE3D7A3
FFD46D14
FFF36FAE
FFEFB0D4
FFFA0D98
000CC2C2
000107D6
FFFF1B16
00161902
0000E419
FFFDF395
FFEC6699
FFCF5529
FFD7C15C
FFE204C5
FFF1686D
FFFA03A5
FFFD70EB
000A6C2E
001611D4
00180376
001AAD1F
001868A4
0001DA62
FFF4F49F
FFD9FCAF
FFD8BA6A
FFDB8902
FFE19EA2
FFDB646E
FFFB6E89
FFE25566
FFE1583D
0004455A
000C297B
FFF58F1C
000EB1EB
0006A12A
0002BE83
FFF72F2B
FFF3A910
FFE8E0D7
FFDD6CBF
FFED3E59
FFFA4CEE
FFF395F4
0009ABB4
001C085A
001AD49C
00153DAE
0017C528
00003516
FFE18610
FFB9BE77
FFC08809
FFCF0DD1
FFE804EF
00063E53
00208D02
00057E91
00035074
FFED6448
000F165E
FFF85329
00008AA2
00144910
0012BAF2
00028086
000034F5
FFFB9D4A
FFEFD5C6
FFF17DEE
FFF17C3C
FFF4013C
001346FE
00194308
0014C8A6
001CAFBF
001501BF
FFEA52FF
FFD464C0
FFBD0428
FFC4AD2A
FFCE6B78
FFE6705B
00078530
0014E264
000D50A5
00057194
000C0977
FFF82846
FFF92F75
0002B43E
00073FE8
0006E8AF
00058A58
FFFEB326
0000F4E6
FFF66DF2
FFF37FBE
FFF58412
FFFB2D6E
0009FDA5
000861DE
0011FC96
001E83D9
000987CF
FFE27F9C
FFBD96E2
FFC28900
FFCB38AC
FFD2220C
FFD87F98
FFEC0EED
001003BF
FFFD0E4F
000AEDD7
FFF22A77
FFE3AF18
FFEDC718
FFF387E5
00024FB2
0012CFE2
00101B4A
000708D4
FFF93CF9
0000D54C
FFFC3329
00025381
FFFD9122
00131DBF
000A9480
000DAAB3
FFFE7E51
FFE7C4A0
FFC4AB5C
FFC6D317
FFBFE437
FFD342B6
FFD9C78A
FFE9CEBA
FFEF78D9
00004352
FFF552AE
00098D01
00081EAD
FFEC9125
00001A2E
FFFB751C
FFFA9C5B
FFF65157
FFF7E03C
FFEE74C1
FFF1E32C
000D1A76
000C96DC
00084BF1
000D6DBD
00178AC6
0007FA53
FFFB0FAA
FFF568CF
FFCCBC7C
FFC6A85B
FFB47CE8
FFC8EB70
FFD3C2F2
FFE2FE33
FFEA5D0A
FFEF3AF1
FFFF106D
FFF53CD6
FFFF51F4
FFFDC44E
00027329
00009DC4
FFFA1D44
00054506
FFECC613
FFF52CBB
0004A80C
FFF6CC95
000C12B5
000EE7BA
0004EC16
00143F61
001B4196
000940C2
000302B3
FFDDCC87
FFC97CBB
FFC120BA
FFC07DB3
FFD44AE9
FFE198CF
FFE7B18E
FFF13640
FFF15FAE
FFF34F7C
FFFB2DD4
FFFE48DC
FFFCCAFF
00108E84
00252985
000C0733
000D9E7C
000DAA5F
001939B1
001C33E2
000E57C4
0019630B
001E18C2
002B7A3C
0024E168
00115C12
000CDF4C
0002ECD8
FFD13E4C
FFBA6746
FFC78888
FFD97687
FFD3695B
FFFD0C0A
FFFB094F
FFF298C2
FFF6EB0B
FFEFFC0A
FFFE40D8
FFFA5BA4
00019803
000FB1B8
0002F589
000466E3
00058A73
FFF2DF77
000CDCA8
0027A2E2
0035CE79
0032B1A6
0033FF79
0024BD91
0020B060
FFFFF994
FFF634E3
FFF59DDA
FFDB8F3C
FFD5EC1B
FFF2B603
FFF707C3
0000CC88
000D8C2E
000D41AD
000389AD
FFFBA413
FFF5673F
FFFBB702
0008153F
FFFD2D1C
000392EE
0015BEB2
00296300
001DFEF8
00105B3D
FFF658F5
FFF4766F
00035E26
000B0625
00180ADB
001CE7D2
0005F405
00029D46
FFF7EB55
000BBFCE
000ABBAE
FFF3DC89
FFEB49EE
00018A20
00043653
000703A2
FFEDCAFA
00092B45
FFF8030F
FFFA5E45
FFFD1908
FFF83BD8
000228FC
FFFCD8E5
00072DA0
FFFB6803
FFEC6DF9
FFEBC314
FFF3C9D2
FFEE74A8
FFF83899
FFE80B8F
000AFCDB
0012E778
FFE629D2
FFF752CD
001A47CB
00016DF9
FFED364B
00009760
FFFE7E67
FFFFF5A7
FFF70774
FFFFC1FF
FFF5CD16
FFFFAEDB
0007DBC0
00016905
00060DC8
