0008E0D9
0002252F
0007A63B
FFFD6D47
FFFBD9C5
FFFC5E6E
FFF9E0FA
FFFA220A
FFF8E3B9
FFFC8BCB
00004282
0004191F
FFFD712E
FFFD419B
FFFE4814
FFF6D1D5
FFFB7F47
FFF7901E
00089B67
FFF7BEA1
FFFC6E17
0008BFEA
FFFD40C4
00028788
FFFFF306
FFF7C303
FFFE8DF0
00051E7C
000666CF
0005E767
0006BD1C
FFF93FAB
FFF8ED94
FFFF5139
FFFE3277
FFF20981
FFEF8507
FFFECC5A
FFEB0792
FFF6F606
FFEB6C07
FFEA170A
FFE9D88A
FFE0282D
FFDCE564
FFEBFFB0
FFF7828E
FFEBA5C0
FFEB74B2
FFF4EC94
FFEAB4C7
FFEB67BB
0003E016
FFFBD700
00049A8B
FFF745B2
0005EBB1
FFFF88DF
FFF7F519
FFF3BAD8
FFED37C0
FFF606AB
FFF64E5F
FFEEEBD2
FFEBE056
FFF5DACB
FFE7C068
FFF2AE99
FFF04EC9
FFE8E3E2
FFE32A99
FFEA6D18
FFDC13F9
FFE7B34C
FFE3A3AD
FFDB7DE2
FFECF2C1
FFEF7638
FFEAD96B
FFE5E7F3
FFFF13B4
00024B94
0002AE30
0007CF80
00001DEB
00047FEA
000EDEB6
FFEEB03E
FFF3A65A
FFECE970
FFEDE753
FFE48956
FFD2D510
FFD55E45
FFBD6F36
FFC6CC79
FFC1FEAC
FFC29060
FFB95973
FFC18C1A
FFBFDB79
FFD44D5D
FFDEEBD5
FFC9A41E
FFCC662D
FFC94F2E
FFD5858F
FFF37F2C
FFF52D92
0005FFD8
0004A9B7
000828B8
0002B117
000303E9
00171822
FFF8A5A0
FFF18B6D
FFD5DAA7
FFDCE6AA
FFD010C5
FFD3A044
FFC81B33
FFCA0484
FFD97A28
FFF45BE1
FFEE1F43
FFEA2107
FFDAADEE
FFDACCD5
FFCBD01C
FFC2178A
FFC255A6
FFC26D03
FFE05ADC
FFE46F28
FFE4F6E6
FFEC5EC3
FFF219C3
FFF1C81F
FFEFFE1C
FFFCE7AB
FFFA09C6
FFF65950
000BB989
FFEEB307
FFFF055A
FFF51570
FFF089F1
00073DC0
FFFCB50C
FFF89A39
001B1E65
0011D8FE
000628AC
0000EC69
0007A02E
FFF0F06B
FFDA019E
FFD2671C
FFC8259E
FFBD8692
FFE23A51
FFDB05CA
FFEBA338
FFE1C1F7
FFEAFAEE
FFE21B1A
FFF7D857
FFFE870C
FFE94ACB
0003B108
001E7408
0004B5AC
FFFEE7A8
0000529A
0005C440
0001F1E8
00119663
0009CCE9
000EFB0A
0009FF38
001701C1
001B85CA
00107926
0021431F
0012CA9E
FFF8D663
FFE14F4E
FFE2B0DE
FFFEA477
FFE45513
FFD7391D
FFDBD4E1
FFEFAA98
FFF65053
FFF5BDF4
00007640
FFF48D7B
001244A7
002024A3
FFF6C441
FFEF8C5A
000A0CDC
FFFF80B8
000DCC66
000A3CA6
00091F88
FFFE5910
0012F988
0010EABD
000DFABA
001CEA7E
00247F71
001E39EA
FFFD8832
FFEE213B
FFF43101
FFE4B39D
FFEB0D96
FFDC0257
FFE0CC86
FFE65F5D
FFFEB382
FFFEDBE8
FFF4F3A6
0012AF65
000806C4
0004A129
00124728
000A7CAE
0015C8C3
00107066
001465A6
000FD064
FFFC8C8C
FFF17624
FFF19619
0003F210
001CB553
00177C69
000FB499
0004BA53
000175C6
FFF21008
FFDE8A97
FFDF72D2
FFD817DE
FFDDF3AD
FFE5E407
FFD5F59B
FFF5A9DE
FFEFCD24
001133AC
00114AFA
FFF868FE
001182F1
0001D52D
0005918B
0014E452
000DC0EC
000CB1A2
0006ABFB
FFFB829C
FFFFF62C
00028981
000E5357
0019717B
002A35C0
001259C0
00133306
000F07F3
FFEB4C24
FFE97421
FFD9B4E6
FFD9D62A
FFCF6481
FFE2C710
FFD8BAC9
FFE2FB6A
FFF73FEA
00145A7C
0009F542
000C3547
FFFA0808
0003816E
00050E5C
0017F189
00154E48
000D47B0
000028B9
0003E3F3
000194F5
000DFBA6
00115640
002A21DF
0039C374
00245142
0014F4DA
FFFE85DD
FFE96960
FFE12CBC
FFE33B71
FFE3A38F
FFCCF202
FFD8B88D
FFEB3034
FFEF4646
0000E59B
000FC42B
00136459
00205F99
00033425
FFF49947
00077E18
0009B7F6
00126452
0015E256
000CF253
000D4FBF
000F24B3
00152127
000C89B5
0028A2B8
0038F662
002935C1
001CFFA0
00026D9B
FFF3F657
FFF88133
FFE59AAB
FFF5E74A
FFD82410
FFBEF158
FFD93162
FFFBB7EF
000E688E
0000437B
0010B7EF
0023ACA2
00180010
000D498D
0000BEDB
00032F0A
0007393A
0010AFC6
00018801
00070466
FFFEA408
FFEEA7C1
FFF1B786
001656ED
003489C3
002E8F45
00138882
000BD712
FFFE8AF6
FFF3F794
FFF6D62B
FFF194AC
FFDB2F24
FFC2E0F0
FFED222C
FFFE4E74
00193451
FFF7BF05
000C317E
001AE502
001952EC
001B9863
FFFE7CF9
00007444
000BEF82
000A974D
00002DD1
FFF837E6
FFFB06F9
FFEE2853
FFE5B157
FFFCB990
00225A04
001932F7
0015F739
0011AAE6
00016270
FFF4D401
00019AF0
FFF943BE
FFE7F6BB
FFE26466
000969A9
001B2CA4
001966EA
FFF6911B
00070CC5
001B6E66
001E36C9
000A064F
FFF9C083
FFFCF6E6
FFFC7E87
FFF07923
FFEE57D2
FFF5422A
FFF74C4C
FFF802E1
FFE85BF8
FFFE470E
00176488
0021736C
0021A3A4
002572DE
000EE462
FFFB45B4
FFFCC0EF
FFF5A420
FFF9FD09
FFF512D8
000A24D2
000FC8A8
001E7116
FFFA87A3
FFFD3B6B
FFF95B1B
00052E9D
0010052A
FFE6B02A
FFE5E8F4
FFF7C491
FFF46AAB
FFEE5E6F
FFE9A985
FFE75E9D
FFE1B1B8
FFF6F004
FFF705B2
00168BE1
002493AC
0027FF76
001445EE
00022503
FFF50B27
FFF65636
0008063D
FFF26FCD
FFED6250
FFF13F8D
FFFB0325
001080B1
000FAAB7
FFFF31CE
FFF1D4A7
FFF541E3
0004924E
FFDFB517
FFF06EBE
0006C67B
FFFF0BB5
FFEA6634
FFF1AF70
FFE3218F
FFE52160
FFF5F343
000F733C
0010BEB8
00253939
001E5350
FFFFC5D9
FFEC9A91
FFE791D3
FFF99251
FFF725B6
FFEF6E43
FFF16E41
FFD88F31
FFFB7C03
FFE26264
00047F91
00027ADD
FFE9C00D
FFDF2322
FFE62DCB
FFE88F54
FFDFC95C
FFE7997B
FFFCE2BB
FFE4641D
FFE611D2
FFE5DEC2
FFF6B95E
000A77E6
0015222E
00139F65
FFFCA4AB
0005E803
FFF6A1E1
FFE02467
FFED5427
FFF112A2
00012C2D
FFF3B313
00028731
00069462
00016067
FFE632AC
000FA5F3
FFFC4B73
000A5A2B
FFE70F07
FFE759E6
FFE6A112
FFD2CE40
FFDECE4E
FFDBBD7A
FFDF1B4E
FFE7B64F
FFE9E646
FFE8E59F
00053009
0009843E
0003142A
FFF1AE3E
FFF53A6A
FFEC493F
FFF46605
FFECD020
FFEF413D
FFF7B12A
FFE86E9B
FFED498F
000E348F
00194F9C
000FD00F
00049F96
002006A0
000345CA
FFEC7B0E
FFEE9EAF
FFDBEC0A
FFDE43B6
FFDEA330
FFD14C13
FFD26986
FFE163EC
FFED0F39
0005E0F8
000C6784
0003339F
FFF793ED
FFF04938
FFEA7CBC
FFE22462
FFFD1537
FFF70D98
FFEAE174
FFDD2EB8
FFD90A05
FFF64605
FFF4A9F5
0013F0E5
00171E90
FFFC9B08
00040CFE
FFE64200
FFDD5710
FFDDBFC5
FFC0EAE0
FFCA166E
FFDD6D5A
FFDE49CA
FFD85D81
FFF2526A
00015ABC
0010C6DB
000C49A1
FFFF38ED
FFFDB0EF
FFF86147
FFF62452
FFD7D00F
FFF35639
FFF2FC8C
FFE7D2E1
FFDB1B12
FFE59276
00007894
000B681D
00070E58
0008C1AE
00013613
FFFD9E7F
FFD382B6
FFCB008A
FFD250E8
FFD7EE24
FFCC3739
FFCE569E
FFE2E070
FFECFF36
000986D3
00050077
00155821
0008A9BE
FFFBB83D
000A24D8
0001DB4A
FFF69435
FFEF7903
FFE7FF4C
FFF8989F
FFFA0C7B
FFDB0798
FFE7755A
FFFF5ECF
00095E19
FFE9DD4E
00038866
0007CEF9
FFF9A82D
FFE131D9
FFD9C772
FFD03650
FFD656FC
FFD5D6DE
FFD6B8B8
FFED19E3
FFEC4DA8
FFFD787A
000C7222
0008E465
FFFFF27A
00084994
000A4E57
0009E4EF
FFF469F8
FFE3642E
FFE2A56E
FFEFDEA1
FFE8EE44
FFE3AB40
FFEDF094
FFFC92F5
0012C454
FFF6C008
0009CE38
FFF7EE2F
FFF78780
FFE6317C
FFCC5802
FFDDF9F7
FFE32A88
FFEAC335
FFE87594
FFDEC635
FFDBB22D
FFFB7CB4
0003B702
0004A249
0006C7B7
0004C487
00127F30
FFFE8517
0010D587
FFEFD88A
FFF642E3
FFEBA1D3
FFF42FBF
FFF5B0B2
FFFD6E80
0009FB31
00082301
000F175D
0008CE81
FFFC5B7E
0005C6AA
0007AE94
FFF1489C
FFFA77B7
000CFD2C
FFEE1A87
FFF99806
FFE95F6E
FFE50228
FFF59664
FFFCDCEA
FFE7D618
FFE95E7F
FFE8C35F
FFFB8C97
FFF35EFB
00050EED
0004C3D4
000865FA
FFFEB0FF
FFFAA012
00001339
00070CAA
0001BB96
FFFA0AF2
FFF8FCB3
000613FC
0006AB0C
00027416
FFF83D76
000A9D50
FFFFBB5D
000D2500
FFF58754
FFF786FA
FFF9EB22
FFFA7BA3
FFFD1B0C
FFFF5F17
FFF04FAD
FFEEBB54
00084BB2
FFF8C2BD
FFEB5B64
FFF4164E
FFF72A55
FFF3B9AE
0007C51A
FFF96BA7
FFE8AB46
FFF333C3
FFF77CE6
FFF4EC72
FFF7793D
FFF898AF
00000C3F
00017CA2
FFF7CCC0
000D06CB
0001DEFC
00048C5C
00160CF9
0025F505
002E4E52
00240EAE
001B2A0C
FFFDCBB4
FFFF2F96
00049A68
00190BD7
000E36E2
000A49CE
00026B02
0014916A
000E76AE
FFFFD5EA
000F3037
00132851
001D7345
00041280
0006A692
FFFC94AE
FFF7F0D2
FFFBE81C
FFF95EA5
FFFC7616
0002EB3C
FFFE025A
00044FE4
000BD660
001A02BC
000F59D4
000E5C9A
0013BFCD
000B6C28
0004DA67
00170A22
00259699
001976DA
0013D836
0024A932
003429CD
00286B62
001E4AB8
002701DF
001E1C8F
000A721B
FFF90389
0002EF26
0005719F
FFFD46FE
