FFFD5515
FFFB3DCC
00056CFD
FFF968DB
FFFC87F6
FFFAA4B3
000607F1
00000D88
FFFCCA0C
0005242E
00056C03
0004DED0
00063687
000E504E
FFFDA3B5
FFF945AF
0008C916
00039FAB
000351DC
FFF8A866
FFFE6D86
FFFA6833
FFF8FF51
FFF7A006
FFFDCE2E
FFFECA10
0005584A
000476CB
FFFC10C2
0002643E
0001F564
FFF8845D
000DC12D
001234C9
0012BB24
0019631D
001F03BB
00056634
0011957D
FFFDFF72
000FA394
0003FCBF
FFEE98B0
FFFA74F3
000B8504
0012BF92
001B0B85
001DFEB5
002CB3D2
0015993D
0017B5F0
001B0D8E
00017458
0005DE38
FFFF5FB2
0006257C
0003A033
FFF85846
001228BB
FFFE2B39
00174DCC
0012818D
001A78F8
0028DE39
002EEC36
00346790
0036B3AB
004041B9
003493A3
00028049
0014C7AC
000C9985
00067FA4
000A8C89
00038438
00084320
000218A9
00066B18
00144956
001C5C3E
00238193
FFFDD060
00089C05
00041A28
0002A873
0006DDDA
FFE5D2E1
000EEBD2
0008BD7E
001BD541
002BAF47
00266037
001E7C18
001BDB0C
000E26C6
00169A30
001C7C56
001F4E70
0016C980
0012051A
0012EFBF
00086E0E
00094DF1
00037126
000FB6DD
0004E523
FFF1339E
FFF46F0E
FFF0DADE
FFFE28BE
00049F30
00032A90
00084A10
000A8C25
FFF24DCB
0007BA33
0006C955
000E5326
001663A1
0005E09C
0004E44F
FFFD8ABC
FFFBC5B2
FFEFDE87
FFF1B936
FFDC4211
FFE4CDC9
FFE56B7B
FFFAD6B5
FFF47F83
FFF8180D
FFDF8D7B
FFE7F0E8
FFE103DA
FFDFCF2A
FFC9BEFB
FFD12E16
00000DDE
00106C5B
FFFCD244
0008AB33
FFFCCB9C
FFE7791A
FFEFF95A
0013F321
FFFADBFB
FFFB512D
FFFB6EAA
000A80CA
0004205E
0000CDBD
FFE952F7
FFE35BE7
FFCF64BA
FFD7C4C5
FFDAF1C9
FFE70060
FFF42070
FFEC89C6
FFDF0AFF
FFDDAFA3
FFCB6545
FFC77045
FFCE00F5
FFCF18F4
FFF81FE8
FFEC2B18
0004F09E
0007403B
000B085D
0026C47A
0019DE24
0012C244
FFF12649
0008E7CF
0002121A
00056005
00024A25
FFFB7194
00027C2C
FFFF20A9
FFF52B36
FFF412C2
000541B4
000F82D5
000947DA
0002C5B8
FFECF943
FFE07E69
FFF465B0
FFE3C3F2
FFBD151C
FFCA60CA
FFCD04E2
FFE6FDDA
FFF0693E
FFFFEF8A
0018115E
0027A1E8
00206A02
00013C20
0004D007
0014CA51
FFF913FC
FFFA0215
0008A881
000019B8
000190EF
000F15B0
000759A3
00149CC0
000B7864
000F4C6F
FFFAE3BA
FFF5C7D8
FFF4A085
FFF0F974
FFF2F100
FFE8E7C8
FFD31544
FFD20A06
FFDE495E
FFEE3DB6
FFDF0F98
FFE3A774
0018C456
0007A708
000280B0
0004C80D
00026A32
0002B025
FFFB4BE4
000914CA
00039E61
001691CD
0016EB35
00106973
00170CB2
0018266B
000A1375
FFF2C607
FFE9DAD9
FFE8A366
FFFD6EA4
FFFD8EB6
00039218
FFFE33E0
FFED527C
FFD61E29
FFD8478C
FFE80229
FFE91EB2
000A0A78
0014A688
0008F796
0014D2D7
000F8696
0002EA6C
000BDA88
00052191
0016EF97
00143A8E
001D4848
001DF98C
001C944D
00162504
000DD406
FFF4C380
FFEF4AC9
FFE42A68
FFF6C3F7
0007BD59
00054E3C
00048A19
00065F5F
FFF92FD2
FFED7C33
FFDBA2B2
FFEAF272
001806E9
001941E5
00054D2F
FFFFF9ED
00208CF2
0003336D
000EA4B0
001619B4
000EA66D
00137454
00102568
001516AF
000ED52C
000D7FFB
FFFF6E9C
FFED0A53
FFDBCF44
FFE29C85
FFFDBE59
FFFB5A03
000FC7FA
0012FBA9
FFFD17E8
00087304
000241E5
FFF47266
FFFFC366
FFE8FFB4
0000A766
000F53AF
0005D357
0015A995
000F1252
000CEEBD
00007B71
0005B613
00100BDA
000E2166
0000E0C4
FFF63BF2
FFF49B90
FFEEFFFE
FFE3F692
FFD69D8B
FFE75234
00064382
0016A8EC
0021F38A
002042AF
00115A52
0013292D
000D7C8C
FFFFFAF1
FFEB00FA
FFED158E
FFCEC6FF
FFF00115
00082167
000F880F
000E0B32
FFF2B123
0002A897
FFF165C9
FFF67B43
FFF9FBA0
FFFE156F
FFE5E481
FFEEBF4E
FFD8AB4C
FFC35E2E
FFD44F41
FFF8EF79
000E690D
002EC9C2
00177EE4
001F35E8
001E9B3D
00123D86
000E81ED
000EEA87
00002F40
FFEAE10D
FFF56B4D
FFE097FE
0018039D
FFEF1536
FFF7BA2E
000743E2
FFF23641
FFF8FA97
FFF229A0
FFFD3338
FFF8B3C2
FFF77A4B
FFE335EE
FFDA92EF
FFDAC0F2
FFDD24D3
00066E93
00156E82
001CCE3A
0032D83A
0016ECCC
000FBE30
001EE7FB
0019218A
000F1791
FFFDFB06
0004A8A7
00126422
FFFC8311
0005BF5C
000A8E81
FFFAE13D
FFFC6594
000DEEB1
FFF5328E
FFFEBF72
FFEFAD67
FFF554D5
FFF987D4
FFED579E
FFE8C257
FFF11E14
FFF2B431
FFFFF7BD
00136288
0016298F
00291B16
002220A4
0016A518
001C6606
0024DFE9
00254F82
000ED1C6
000752AF
0000DD7E
FFEEEC25
001A422B
00123EF0
000AE229
FFEF6171
FFE8F52E
FFECD973
FFFEB0E4
FFF3F63D
FFF7E868
00139A1B
FFFB4CEC
FFE6916C
FFEFC126
FFF4B0F0
00026E7C
000F6AD0
001CB10E
0012830A
002054AA
000A1486
00032C77
00104FE1
001C27D6
0020F2B0
0016674F
00058858
FFFB1CC1
00089677
001974C4
00035B1C
0016646C
000D3C25
00054C04
000EEED8
FFF2345A
001FD94F
001015F3
00199EA4
00125F9E
000138AE
FFF87A62
FFFDA36A
001C9404
001AAF2F
001084B1
00086AB6
0010E06A
000CE6B9
FFFF731C
000F4A83
002024C8
000533EE
FFFFD2F4
FFF6EC01
FFF04D1E
0003D842
002B9C09
00105195
00079604
00044D10
000B76D4
00024B72
000AA48E
001A412E
0007F2D6
0015A97F
FFF60B2D
FFFA57E9
00033046
000EB574
001CD400
001FD629
001C9542
001324AC
00179EB3
0005287B
0006588C
0012CC8E
00098625
FFF93EE6
FFF57E84
FFF5C066
FFEF16F9
FFFFFD50
0050C98C
001D2D13
FFFB42C2
00123D61
000D494B
000036F3
00188525
0032DDFC
001E6995
FFFE90F8
FFFF73C8
FFF9A1C9
FFF2A8F6
0003A850
001239F9
001883FF
001DA10B
001A7EF4
0012ACF0
00125100
000D6322
000DA8C2
0007BBA2
FFDDDFB6
FFEE9D8D
FFF4FBA6
FFFC85F6
FFFFC093
003A4493
00272080
00148583
FFEF89C9
00126580
00020CA6
000F917B
002F1770
00231E20
FFFB4381
FFF242B6
FFEE1948
FFEC504B
0000E86B
00164DE6
00105EBA
0013A4F9
001AF2E5
000C2AE9
00089D75
00052A91
FFFA8DE8
FFFE2EC2
FFF0A028
FFEB69DF
FFF6B8D9
FFFB0BE9
0001EBAF
002024B2
00230EFE
FFEC0938
FFF81F72
FFEC8CE8
FFFFC449
00175B01
00274D10
000C7334
FFF4347E
FFED9BF8
FFE1DC2B
FFE11679
FFE39B9E
FFEE7DE1
FFF8A39E
0008B7FB
000C0C5D
000D2816
FFFFF5B8
FFF290F5
FFF685EB
FFE4DFA0
FFDE7194
FFEE2F35
FFED9A77
FFFE4281
0017CFC1
000E3F0C
000AB930
000018D8
FFF3F578
000C715B
001304DD
000DAEF1
FFFA6FE8
FFEDFC99
FFE3F79A
FFF1B310
FFF5D4E4
FFEB4A2E
FFDA4417
FFE22DA0
FFF27763
FFF39EE8
FFEFA1A5
FFF34CEC
FFFBA3B1
FFE6E265
FFEB035C
FFE33790
FFE04541
FFE7A957
FFE817CD
FFF4C3E6
00054284
FFE81C0D
FFF590FF
0003FF25
FFFB1101
FFFAA9DF
0018338B
FFF8C93F
0008F768
FFF6C4E0
FFDA90F2
FFE859F1
FFE66FA8
FFE6B572
FFDF5B25
FFDCDF87
FFDB4B32
FFD30136
FFD7CC71
FFECC90C
FFEC961B
FFDC64DE
FFCDBF5D
FFCF8956
FFDE5015
FFE319E0
FFE5CAFA
FFF2C2C0
FFF8AEC9
FFE99BC2
FFE0669E
0006A122
FFF7DC3A
0003C1F9
0011C237
001669D3
00015EF4
0011A74C
00183ECA
00144494
FFF4823B
FFDA5EF8
FFE641BD
FFD5F3AE
FFCBC6C4
FFCE2951
FFE0D7A2
FFCE0073
FFC7BF52
FFCA755D
FFCD6A15
FFDA1224
FFF08601
FFEEEDAA
00091299
FFFEF835
FFFAC836
FFF0CDB9
FFE7AFB8
FFFA4450
FFF90336
000256A5
000AEE11
001F57F8
003C48B0
00327D1A
002EF67A
0021904D
00100BFC
00071E0E
FFF653E3
FFF267E5
FFE4843B
FFE796B0
FFEFC6EE
FFE4EC5A
FFE53361
FFF897C6
FFF64043
FFFA3C29
000688A2
000BD5C9
001B058F
000468E6
0005311F
00164065
00075882
00067988
0005DCE3
FFF774E4
001848C1
FFFB8236
0027D77E
003AD4E4
002AD0E8
002C3C99
001E28AA
00149634
000AD9B5
0018A2B5
00197724
000FF334
001398CA
0007C0F4
0004FF6B
000017A9
000BD40A
000DC83B
00184972
001B79C8
FFEE2C56
FFECADBB
FFF36EFB
0007A056
000A5551
00056B09
FFFCF88B
0002C702
0003701C
0013EFBB
FFFF7099
000B255D
001C8767
0032CECF
001F4E2A
003227EA
00330E47
001304E6
000FFE6D
0014DB14
0034EC98
0024BAE0
003AEB39
00292C32
0027EAAF
001D1A07
0021C08E
00313972
0015118B
001DFBC1
00100D17
0004E230
0002E4C6
000305FD
FFFED40D
00007138
00070A91
FFF715CB
00086742
0004570B
00043F53
0015A95D
00156851
001C2CDE
00166111
000B8AFA
001621EC
0018FBC0
00261466
001D75EC
0022318A
0029FEEE
003172D2
001BEF6D
001E60C2
002455A4
002116ED
001572E2
0008FA60
00012879
FFFAE95B
0005285A
