0007CF6D
0000616A
FFFEA3E1
FFF9ADFB
0007ED8B
000198D3
FFFFBF53
FFFD8BCE
0007DF9E
00061BDE
0008BE56
0007C66F
0000EDDF
FFFD4ABA
FFF81CDC
FFF642B6
FFFDF471
FFFD257B
FFFD5295
0003651E
FFFDAAFF
00056F18
0002C169
0007BF5E
00057573
FFFC778F
FFFC4C73
FFFFCFEC
FFF75C25
FFFAAC3F
FFFACB39
000717F1
0000E03A
000642CA
0002F5B5
000B868A
000D9DAC
00013C5E
0020C7CA
001175AD
00264932
0018A30D
FFFCBA74
00033835
000D2A92
0013BED6
000E9127
0011B72A
001EBE2B
00191534
001A1770
000EA534
FFF9D61B
FFFA0EEE
FFFD114A
00084F62
00057988
FFF9787A
000A61F3
000E820F
001390E5
00059662
0013B7E8
001F607E
00155E52
FFFEDCB5
0013573E
00119450
FFFEC3F8
FFFB8707
000B58C3
00017370
FFEE6E18
FFFE34C5
0011DAE8
000AF39D
000DCC12
0016DBA0
00260202
0010D730
000D8561
FFEF1F06
FFF9A4F9
0000BDD1
FFFFAA66
FFFF8189
FFE34E0B
001904FA
0000E9C2
FFF61862
FFF17A2E
FFF3FDC0
FFFC3295
0007DE13
FFFE510B
FFFCC1B7
FFF817FB
00065C31
000D8D39
0008391D
FFFD76B8
FFF7C6D8
00039755
00082A48
FFF65A3C
0009CA64
0013FDEC
00218FD4
0016915A
FFF98992
0010A628
FFF9F887
0005B8F4
00065D27
FFE3ACB4
FFE0FB8E
00047158
FFF69AC3
FFF02712
FFF74BE0
FFF7FC12
FFFEB3C9
0000B2F0
FFF760EB
000697DF
0003B085
000C0D3E
000B3B43
000C48A9
00139BE7
0006B3C7
000D61D8
000F92D1
00153904
0019F3FC
00279868
0011405F
00054468
000C03F8
0009E1D6
00082304
00034B0A
FFEB5FE7
FFED0C2A
FFF44D69
FFD7CA12
FFE8802B
FFF5941F
000653D5
FFFD6172
00059DA4
00038DF2
000284D0
000567DE
000BCFB5
0003348C
0011C93D
00102608
000639ED
0014862B
000FD55D
0012ED30
00206637
0018EE43
001777F6
001C4F92
000ABC42
0017499D
0006D834
FFEBBE95
000B3343
FFEC27DB
FFFDC24A
FFEEA121
FFF3CEA4
FFFFB8C4
000799F1
FFF2FD3D
FFF1299F
FFF9283F
FFF4D74E
FFF8AD77
FFFBE3B9
FFF2D2E8
FFFD5A3A
FFFE9BB4
FFF6EEC1
FFF549D7
FFFC25E2
0009FB80
002366CE
001DAA19
001B9355
001111B5
0001F512
001367E1
FFFFF80B
FFE38169
0001479F
FFDBCE62
FFED0959
00053D2D
FFFD3E38
00006902
00051ACC
0003875D
0006AB92
0009EA02
FFF3C4E6
FFF8A926
FFEFE5E4
FFE93A0B
FFE66F96
FFED3A1C
FFFAE6E3
FFF3B80C
FFF4F99D
0005D2A8
0013D64B
00156845
0028750C
001B3718
000F9387
0004C840
000F6C01
FFE973F9
00066811
FFFA7F79
FFF2C158
FFFF9041
0002360F
FFF7AB06
000285AF
0018F798
000CC5EA
0004B067
000C0BFB
00039693
FFF0D4EB
FFE944D8
FFF876A8
FFFA60ED
FFFB6AFB
FFF0749D
00022FEC
00013AA3
FFFBB871
000BDF02
00230EE6
001635D8
000D86D4
FFF2ACF8
FFEE5AC9
FFF7E0C0
FFFBCD96
FFF4C50F
FFF166D2
FFF95B15
FFE94E67
FFF0A51D
FFF531A1
000D6E8D
000826A0
0002E9C3
000B3E8D
FFFD3AE8
FFE78B32
FFDE6A10
FFF6CA6A
00017AE9
FFFF45E3
FFF4D7FC
00076F70
000AD13C
FFF16B65
0003FD1F
00230FDE
000AED08
FFE4E9AC
FFE4ED17
FFF67105
FFF3075D
FFF3D262
FFEAD084
FFF9F1C7
FFFC81C0
FFEE82A0
00012521
FFFDF3FC
00082B32
000F2678
FFFFA28A
0003CF13
FFF86C2F
FFEB36AF
FFF2488F
FFE8E9AB
FFFDA4BD
FFFEAD18
FFF709B1
FFF75E88
000A1C11
FFFEF4E1
0003E587
001C8EAD
FFE1D270
FFD738FA
FFDDFABA
FFF7539E
0006A044
FFEBA02D
FFF026A3
FFE792AC
FFFC625F
00064A7E
00085509
FFF5933D
00080D2D
FFFEDD2C
FFFEC421
000C31CB
FFFCE4B5
FFE2721D
FFE914F7
FFF6FA1B
FFF26EFB
FFF23833
0003637A
FFF4B7CE
FFFEC18B
0000C65B
00049934
00139463
FFE158A9
FFD156EC
FFE7CBCF
FFFF5AFC
000099E9
FFEE17BE
FFEDFA25
FFD466D1
FFF27546
00040FC7
000B5BCE
FFFC292A
0002C3F0
0001692F
00116972
001135D9
00085F81
FFE7E734
FFE7BB87
FFF3D289
FFF6F1B5
FFF1CFEC
00079111
FFFA8478
000C4392
000E5306
00137CB1
0034676F
FFF318EA
FFCBD397
FFE25B82
000108C6
FFFAC1B0
FFF3DDE4
FFF37112
FFDFBA38
0005AD37
000DC18F
000178A4
000A1280
000B2DBB
001507A6
00170D3B
001F86CC
FFF36168
FFE6C0A2
FFEC2BD4
FFEE20C5
FFF5ED24
0007A685
000468B9
000936BD
000BC162
00200253
00248B11
0020D733
FFFD566B
FFE65BCC
FFF058D2
00113972
FFFCDB2B
FFF79ABE
FFF0CD9A
FFF3AC83
0017D8DD
0001AF83
000E889E
000AD39D
0009D80C
001AFA52
0028802E
00169779
0003AAB2
FFEB3945
FFEA8066
FFEB308C
FFF941B8
FFFD66F7
0001F9DD
FFF6D2E5
00063044
001132A6
000AB892
00131D7B
001ED7C6
FFE0866A
0000A941
0008E03F
FFFA9BAB
0000E213
FFFF4DC5
FFF7DAEC
FFFEF70F
FFFC5E36
00079268
001A6A8F
00219708
00263DAD
0023281C
00141133
000C4338
FFFA2ED9
00002E61
FFFA9E48
00011E72
FFFDB4AD
FFFE75B2
FFF78D7D
FFFED635
000EF882
00160F7C
001A9356
00221816
FFF9E045
FFE62BA4
FFF0BA5A
FFF4B712
FFF30BCE
FFF4B83F
FFE145AE
FFF1EB05
000799D6
0008BEF5
001676FA
001B0C6C
001800AD
002C535E
001EBF18
00023735
000BB875
000CAB53
FFFCADE3
000D7EA5
0007DE8F
00068E42
FFFE61C4
00010054
0009D901
001A1192
0009DAC9
0029F7D3
FFE1AE45
FFE9C20A
FFFF9CE0
FFF008BF
0005C0B9
FFF61C61
FFFBB066
000126B6
000365F8
0009DCB4
001B7677
00221C78
001CA2BA
00236A33
0014F1B8
000D9AE4
00063378
00075FD0
00056D03
00038466
0002B1B1
000429C2
00068D81
0007EF20
000AF74E
000E6101
000585B5
000BC318
FFDC5F72
0008B8C3
FFE715F5
FFF5D7F7
FFFBA7C1
FFF0AEA6
FFF6B64F
FFFE9003
FFF97437
0009026E
00152126
000CB6D1
0002D414
000F019B
00174C24
0007833A
0007F270
FFFAF599
0003825E
FFF27CF9
FFF4ADBB
FFF08316
000B20A0
0007649C
000044D2
0007692D
000D6F71
FFFACCF2
FFDF80A4
FFECCDA5
0000D8E0
FFE8AF8F
000A8EE8
0001F6B4
0006D364
00015C0F
000677BC
0010051A
000B4B8B
0000AB64
0009F38B
00118C8E
000EA531
000DBA57
0010B73C
0003EB1F
FFFFE810
FFF6A2B6
FFF8C21B
FFF720E6
00069B9F
00084E49
00032121
FFFCB9E0
FFF2EFDD
FFE8AFE0
FFE8F792
FFE8D2F4
FFFAB1EB
0009889B
001689CE
FFFBC6B0
000BC4C5
FFFEC5C6
FFFEECC4
0009F562
000AA3F6
000603FD
0010F458
00163450
00128C24
0010690E
000F4B59
000EDE8C
FFFDF519
FFFD81FD
FFF2AABF
00008509
000242CD
000F803C
0001CF00
FFE6B6A5
FFD01A90
FFD8F213
FFF73CCA
FFF5CE84
FFF4227D
FFFD0DC8
000043F7
FFFDE16A
000720D1
FFFD647C
FFFCF549
00087170
00074A05
001325E9
0016C37E
001A094E
000FB46E
00128E42
0017E4D4
000EA864
FFFFDF89
00098D3E
FFFC7D01
FFFACE03
FFFF4A4B
FFF806E9
000E0D9E
FFF53898
FFE441CA
FFE356CF
001FF0F2
FFFE9EC0
FFF67446
FFF93782
FFFC9AC2
0000165B
FFFFA5B5
00007FD2
0007CE6B
0000F23E
0011BCE9
000F8C1A
00142B49
001C43C8
00146183
001A411D
001A594C
00122258
0009A91A
FFFD1D02
FFF64534
00003EB3
FFF11205
FFF7C670
00015ED5
FFEB688D
FFDF2333
FFF5015A
FFF80E11
000922A7
00074DDE
00037897
FFFC9A2E
FFF381D2
FFF4C6A2
FFFEE5AF
00050703
00095AB2
0008D789
0016AFF0
00153F91
001670D8
001945DF
0010EB95
00158018
0011A5B0
000C60C0
FFFF0F85
FFF549A2
FFEBBA6E
FFE32803
FFF657D0
FFF0725A
FFE4CA31
FFD79E54
FFF42ABD
FFE9358E
FFFD01AF
00049F4D
FFF91BBE
FFFEA973
FFDB55C8
FFD8DD85
FFEBA5C2
FFF688C5
FFFBD188
FFFDCE59
00002F09
FFF9D38E
0007EDD5
000E3DC3
000DB634
001D49A0
00117307
FFFC086C
FFE10DFD
FFE50FEF
FFE7C5EE
FFE30AC9
FFD7C136
FFEFD565
FFED19C5
0000113E
00077BCB
FFFD110F
FFFCDBD4
0003EC4D
0005115E
FFF99EEB
FFF7E351
FFF43D68
FFE186F7
FFE44F7A
FFD3987F
FFC47AF8
FFDF278E
FFE3FB39
FFE8652F
FFDB9BAF
FFECDAF8
FFE48C74
FFEEE1F1
FFF2291A
FFDA2526
FFDC988C
FFD17AC2
FFBD7F4A
FFD54AEA
FFEB847B
FFF728EC
FFEFD0C3
0000B6DA
001233D6
FFFFE44E
FFF99A4F
000093AC
00031F2E
FFF2D8AB
FFFC22A0
FFEE30DE
FFEC4BAB
FFC908F5
FFC12FE1
FFBC0300
FFC63B91
FFE66805
FFED8590
FFC678FA
FFB73697
FFC8C2A8
FFCF59ED
FFCD0539
FFCF03C6
FFC2347E
FFCA3F54
FFDB70C6
FFD98FBA
FFEF0C2C
FFF20EB0
00021634
FFF9D194
0005E319
FFFB1CAE
FFFDECDF
FFFBAA65
FFF7BB62
00047820
FFFA088E
FFF2BEBE
FFE3B751
FFE0EF81
FFE3804F
FFDA841F
FFECCFCB
FFEF872B
FFDE7049
FFC9A15E
FFE45596
FFF13B3C
FFE18D0D
FFD96BBD
FFF16954
FFF1E922
FFE4588C
FFE17036
FFECBA3D
0000CFF9
0000A358
FFFE489D
000461A1
