FFFC6131
FFF9C56C
0002EAAB
FFF98896
FFFFD472
FFF9CD3D
FFFBB513
FFFB263F
FFFF13EC
FFFECA3B
00027B2C
FFFA0357
FFFC10D5
0005F492
FFFD5FCB
0000D95D
00024E1C
000261DE
FFFDA391
FFFF31C3
FFFC992C
FFF73595
0006E022
FFFE618A
FFFA8AFA
FFFB9D52
0009027B
00071322
000810D4
FFF70932
FFFC51F3
FFF7FFA7
0000BE21
FFFFD24F
FFF93706
FFFCE6DA
FFF39750
000446EC
FFFE82C5
FFF9840A
FFED462A
000064F7
FFEBA849
FFFC939C
0007B9EC
0009CEC1
00043404
FFF8782B
FFF775D8
FFF65DA4
00038C05
FFFCCC65
FFFBA30C
0000A4E8
FFFF0E78
FFFD20C3
FFFB244F
000756F3
FFFD0B7E
FFF920F9
FFF75801
000607C3
FFF25F0C
FFFB81ED
000324C4
0009212D
00079040
FFFC1C7A
000653FA
0004496E
FFFD1E07
FFEE29C6
FFE138C3
FFED3F2A
FFF1C5D1
FFE0C928
FFF61AA9
FFF5511A
FFF52980
FFFCF798
FFF9382C
FFFD6610
0006F486
0000BBB5
000576FF
FFF9E196
000D1500
FFF46A54
FFED8A16
FFFD4D70
00071663
00131E8A
0024075B
0022B9D4
0023345E
0022B34C
0033BC19
00226026
002188D0
000CD405
0002D854
0002084D
000A81D0
FFF08A6E
FFEF3C08
FFEA6126
FFF228F7
FFE4AB06
FFF6D2F7
000C2D33
0016A141
FFF9E4B8
0008F18A
00060443
001482F8
00072328
00030244
000D99EF
00326F06
002E40DC
002D508A
002A6B27
002243F8
0038D260
002A17E8
0027F440
00220468
001A7436
000E1A3A
00072ADD
000E8165
FFFCC374
FFF7A659
FFEB63DE
FFEB1E6F
FFE7CA1B
FFED05AA
00034C4A
00186CDE
FFF8FBA5
00056CDF
FFFF0A9A
FFFEADC0
000CF55B
001F5E86
00132DA6
0025AFF2
002498CE
002A4BA3
001E5AB4
00211DD6
002D174B
001CFB94
001E9053
00165993
0015D947
0011D0C2
0001DE78
0007FE3E
FFF1E072
FFF2767C
FFFCEA96
000095EF
FFE695EA
FFE32C2B
001AE08F
001B19D0
FFEF720F
00037544
0010DA7D
0016C36C
00159EBC
001918DC
002925FA
0031E8BD
00215B1C
0021EE92
002AE1C7
002C77E1
00218626
002077ED
0025025A
002277F4
001E7DFE
002F6552
0017A718
0019F446
0015508A
00080911
00179E7B
000B9A2F
FFE67BA8
FFEC8AC8
0001BAEA
000EE4D8
00020FF3
00057D2D
00195B0C
001E74F0
0035375E
000CEE85
000598D7
0010B289
0006A6FF
001C8503
001D89C0
001E9F26
00210B48
002C039C
001F50CE
002C5D66
002FBBB4
002D343B
0028405B
001DE4C0
00123A8C
001C5EBF
00160C7C
000C8466
FFF5EB3F
FFE82C53
FFEFB038
FFFC32B7
00033125
001E8308
001713F7
0013D943
00126218
FFF72349
FFF0089D
FFFAC15F
0003DE30
00099AD0
0009B248
000A45E6
00055752
000ECA0E
0016E57A
00241E2B
00269AF1
0027C096
00249384
0027B7F8
0014E25D
0017E399
0011226D
0017B9A4
0009B635
FFE939B1
FFEE80FC
FFFA82B6
FFF7C4F0
000AD60B
000DD63B
0007D074
FFFE122D
FFF0B62F
FFEE0437
FFE31611
FFF2B9F9
FFF18944
FFEE30F7
FFEB2BA8
FFEDC9A0
FFFAF320
00035A81
0010D2BE
0019E74C
0025D130
0020A9CE
0014E235
001776E7
00099508
FFFD5069
000F6027
000E9D08
FFD864A8
FFF1D4AF
FFDF3FA0
FFED2FF6
000C64C0
FFFF79B1
0018198B
0011928E
FFE5C4C9
FFEEDAE1
FFEA90A5
FFE2FF6C
FFEA8B64
FFD3F855
FFDE9B17
FFE69E0D
FFE159D9
FFECE71D
FFF99635
FFEF75EF
0005465F
0007F170
001307A1
FFF81A63
0005752C
0007433A
000AAFB9
000072A4
FFE69BBB
00011E99
FFF1B46F
FFF58B14
00108246
000D88AD
000CC392
FFFC117F
FFDEFA9C
FFDFAEB6
FFE34861
FFD65CA5
FFE06628
FFE29966
FFEBBE62
FFEEEA79
FFD8D53D
FFE65C9F
FFDA0B7E
FFD238CA
FFE1EA8A
0003A0BC
FFFF097E
000338B2
000738B6
FFFC918E
0000B84E
FFF80272
FFEEC93F
FFFB7A98
001A24CE
FFF96F33
0006C32D
FFFC60EF
FFFFFE76
FFFC78FF
FFD169F4
FFD8DA82
FFD4F560
FFE4E96A
FFF33DC6
FFF5C414
FFF5B07B
FFF45170
FFDAEB45
FFD31FCB
FFD03536
FFDD71AE
FFED2FBB
FFF04FE3
0004013B
FFF6B8E7
FFF69A7C
FFE8C88B
FFF268B3
FFD99108
FFF65705
FFEBA569
0000A5E4
FFEA3D68
FFFB2DD8
FFFCC8F0
FFF98111
FFFFC54C
FFD19B10
FFDB1F4A
FFE6AB3A
FFF849E4
FFFC5D9C
0005A73A
0003B381
FFF0230E
FFEA81DB
0000CCEB
FFECF822
FFE60121
FFF19942
FFEDCDF2
0001459D
FFFDDF16
FFF8E32E
FFE85404
FFDCB3AE
FFD1D142
FFF42EE9
FFFAA51C
FFF7A226
000806C0
0005B9BD
FFEBCC36
00154122
00011348
FFEC5DA6
FFD92067
FFF9282D
000B8E98
0004FAC4
0008BDB3
00000252
FFF79144
FFFA83AE
000239F4
00023BC4
0003073E
FFF664C8
FFF34B64
FFFB1A74
FFFBD91B
FFF015C8
FFEEC75F
FFE45806
FFE59AAB
FFFE3721
FFFA8298
000C777C
00093965
00100558
FFF7FA5D
00040BB4
00005562
00048E9E
FFF72C9C
FFF68F6F
0004A0B5
FFEBEE82
FFF7AF81
FFFFB5F5
FFF045BC
FFF1F0D1
FFFED1E5
FFF27DE8
0006DBE8
FFF4658A
FFF7A556
FFFAA21D
FFF51502
FFFBFA3F
FFF006B8
FFE96866
FFF2FC61
00059401
FFF6518D
000EBFD8
0015CFD1
FFFD4BCA
FFFC3EBB
0013164F
001269E5
0003748C
FFEBFFDF
FFEFCE96
FFED8B87
FFF3B509
FFF74212
FFF6DEC0
FFEDCBEC
FFFF5875
FFEFC659
FFEC48DF
FFEF7DDC
FFFBE4A6
FFFF41F2
FFF44F1A
FFFB5F79
FFEF89C0
FFF8A998
FFF9E940
FFF20ABB
00048BCD
001072FC
001CF4B9
001EADA1
0005ECDF
0002802F
FFFDEDA5
0006536E
000972FB
FFF07238
FFE8617E
FFE2B90E
FFE877D8
FFECC542
FFE1A040
FFF62E0F
FFE41872
FFD8D11A
FFD5522E
FFEE3FDB
0004BDA8
0007A476
FFEDE792
FFED038C
FFE7C1D8
FFE54855
FFEEE62A
FFEA9BB0
FFFCF561
001769C8
00128078
00165FE8
000EB48C
0011DFF4
FFF6239E
FFFE193D
00017D10
FFF1058C
FFE04D40
FFF1C026
FFF85280
FFE8C26C
FFF70944
FFEF5DD7
FFE057A6
FFE256F7
FFEF5213
FFFF4751
0018B807
00122F26
000841A1
FFFC1671
FFF0064A
FFEC9EC9
0003C9B1
FFFFB5A9
00030408
000AAE94
0014A6E8
000C8ADA
FFFEE1AB
0006BCC5
0001B718
0000D525
00107D8A
FFFFB66D
FFFD2AF9
FFFF4799
FFF95298
FFF939DD
00039CF9
FFF85198
0005A5C0
000D7F01
000B7C8F
0010B1AC
000C49B8
0015D92B
FFFD86B7
FFFA7C85
FFF2F45F
FFEDE9A4
FFECCC35
00003EA4
00058B3A
0008E605
0009436B
000A878A
0007876A
00101CAA
0002723B
001382AE
000C4E4C
00127A82
0009B8C5
000EE731
000B15A8
000D3F96
FFFA8D46
00113B43
0020C95D
002BD52E
0027A054
00175691
0018AAD2
0003C7C4
FFF9A112
FFFB403F
FFF46E6F
FFF8B584
FFF83373
00074CB8
FFFF828A
FFFAD280
0001FC1A
FFFB486A
FFF16D76
00184C74
0027A342
00153732
0008886F
FFFFAAB0
0004957C
FFFD5920
0006B516
FFFC5C13
000FEBB0
001F05C2
0023822E
001CC1FE
001FAF88
001011AC
001156E9
000E8CEC
0006E13C
0007C69E
FFF1296C
FFF6B0A4
000043CE
001BFE9D
000CFA15
00040AB1
001B2BEC
000780EA
FFF2CADD
FFF52054
002A55D0
001A3D2C
FFFB2F19
00030BD7
00130F8A
001BA55F
00149B93
001BFF3A
001C78CC
0010FC0B
0018B803
00106A4A
0008333B
000F31AF
0010B05B
0005F840
FFFCF38A
00070133
FFF7043B
FFFA3F2B
00115732
001F43C5
0022D2FB
00003BD0
FFF550E9
FFFC8A59
FFFA70FA
00067204
0013E055
000E7A9E
0012420F
00134748
00258A86
002A460C
001238E6
0022C9F5
001E940E
00229D56
001CD5F0
001405B7
00109A9B
000BA02E
FFFD8EAF
000ABBC0
FFFEF963
FFF569F6
000C7E08
00011D3C
00129454
001ECDCD
001EE53E
00088688
FFD68A56
FFFBD904
000670F0
0007C8A3
0007553E
00126778
00289B8A
00207E0C
00135AFC
00081D74
00100B20
00128A55
00139C2A
001EB553
001AFC36
0027C497
0018E704
000A34E2
000EA0ED
0010B349
000F269D
0001FBAA
FFEABF1E
FFF982F1
FFF85908
0002DE9F
0020D2D6
000E3D8D
FFFFFED1
FFFD3E7E
FFF7A087
FFF6F9FB
FFE97F14
000EF992
0018EB64
00071611
000374F8
00132BAA
00235CBC
0024CC7E
001DB68B
00280646
002113A4
00108E2F
000A6878
00177326
0018BF1A
0013CAC4
000BBA65
FFF6B88C
FFF744CA
FFEDCAF4
00021311
0002F8FC
001A5621
0004D630
000C7F6F
0008F28B
FFFF328A
FFFB17C1
000647E6
FFEE9742
FFDD047C
FFE87502
FFE3267C
0007E381
00172DEE
000D75AB
00191623
000A6ED1
000EA60C
00156BE2
001FE5C4
001D31EF
002E9FAC
0001C0C8
001C83E8
0014ECD4
FFFF8B59
FFF05883
0008F101
00024268
0001AB49
00090835
0001D7C0
0006ABBB
FFF9E4A1
FFFE67D4
FFFFFFFB
00019686
00046C7E
0003F3CC
0007B607
000ACB0C
00063ADC
000693D0
0012CF95
0003B2F1
FFF9D147
0012E519
000E4941
0014CC41
00187ED5
001B084D
000A22C9
00086336
FFF7F23F
FFFAD0A2
FFF7FA44
FFFE85A3
00068579
0006DAF3
FFFBF782
000888E3
