FFFE5839
00081E00
FFF87673
00055B5E
0001ED5A
FFFD3BC3
FFFA1AE5
0005EA0A
00007088
FFF721C8
0006F091
000794DC
00086575
00083A6C
0003EB01
FFF4D93B
000397AE
0008C3EF
00032CEA
0003220F
FFFDA938
FFF80AFD
0002CF4A
FFF814D4
FFF8A24E
FFF9A47F
0003DCB3
FFFCE84A
00047F96
00076E01
00001CF3
FFFDFCD3
0006E33E
FFFEE07D
FFEBF18F
FFEA3567
000A17FE
000D7058
0011F667
FFF93FA9
FFFBF505
FFFE6E0A
00008711
FFED815F
FFDB447E
FFF2852A
00157A52
001107B2
001BFF86
000C1C54
FFFC01E3
FFF00928
FFFBB58F
FFF93CAD
FFFB159D
0002FD91
0001E19F
00025B90
FFF98B3C
FFE3BB59
FFF4E8DA
00025722
00051657
000CC15E
0006A2D3
0000DC56
FFFD8471
000C6BAD
00021143
0000189D
000BC456
000DBD37
FFFE5D87
000D85B7
0017C27D
00095605
0011AE25
001B2058
00160008
0002E54F
FFF5091F
FFEA9838
FFFAEC77
00071C62
0005EE1A
FFFA35B9
FFEABDB9
FFEF77B8
001A4AA8
00026249
0008D6B9
FFF54A53
FFF4A295
FFF4F56D
FFFFD413
FFF85CD2
FFFB561D
FFEBB9A3
00008874
0008B48E
FFFDB1C2
FFF4AABE
0004E938
0013DE09
00148799
002CD2D9
0033F92A
00460DB8
001431E8
FFF8A029
000DE6CD
FFFEB0CB
FFF7C7A3
00023692
FFEFB4F5
FFFB9870
FFFAEA88
FFE453BB
FFE2598D
FFF51BE1
FFF555FE
FFFD7AF7
FFF3526F
000208EA
0005474D
FFF98672
000478ED
FFF9B816
FFF7364F
FFF7507A
FFE6BF3D
FFE623FE
FFF118DB
0004ED09
FFFEE975
0016E081
0031D246
002E9F76
00165792
00168279
FFF6F6FE
FFFBC5C5
FFE93368
FFE42EFC
FFEDC9A5
FFF00D52
FFF50855
00017E9D
001BFF29
001BC3D0
0009BA2A
00125963
0011C6A4
000DD30A
000DD7EB
FFFB5C5C
FFEDC1B5
FFFC71F1
FFE518F1
FFE3D834
FFEC8CDE
FFE93FE4
FFDF82D9
FFF8099A
00149A94
003432BA
0014CF3D
001B2938
00015957
FFEAF69E
001ADD44
FFF3CE7C
FFFBE3D3
0002D389
00044404
00100057
0013B57A
002043C9
000A4F2C
0013FA35
000F04D7
0000120F
FFFEE0E7
0003EDE0
FFF52550
0005E8DD
FFEC133D
FFF77A7A
FFF5297C
FFEFF80C
FFEE15DF
000516FF
00139963
003B9018
00178178
0014A78D
0007109C
FFF22012
001FB8A1
000E8CB3
FFF3080C
00037921
00015ED4
0010D4EE
00183946
001135F9
001025B2
000C7330
000D58F1
00027435
FFF73991
00019F9E
FFFCFE07
0007A003
0007BF25
0002F52E
0002E986
000B3EDC
000D2842
000D8454
001ABCBB
002778E1
0029AE24
000FA345
FFEE4426
00009EFB
00112885
000F307C
FFF7FA0C
000922EB
000D6015
000F9F04
00212736
0017FFE0
0000E114
00123A58
00059973
FFFB1879
FFF06D7D
FFF47EE4
FFF73DB4
FFFAE732
0005B0F8
000A94F1
0004A760
000DB052
0006E042
000BB6EC
0037E585
003A5980
001E033A
000AA3C3
00175DB7
000E467A
FFFD1942
FFFD0267
FFFD0197
0009882E
001A0CF2
001285A2
000D8FAC
00142E25
00078478
000BDB1B
FFFD04B1
FFF5902B
FFED08A5
FFEC5AAA
FFED381A
FFFC3031
FFFC5DFF
000AFA40
000BC941
001C88D0
0006BD92
00112A92
00248F18
0025D34A
002FC72B
000E5C16
0015FFFD
00009A9F
0008A591
FFEF773B
000226C5
000B5D83
00064129
00069774
00137C5E
0019B494
00147EB2
000853B3
000D7364
FFFC20CD
FFF9E04A
00002614
FFF82435
FFFA6E15
0006C99B
000B6455
000B3760
000623F4
00157B92
FFFB0CBF
00094AAA
000A1D19
0001A0DA
001C9CB9
000B2666
FFF73D76
001DED11
0008DFF3
00046338
001B75AB
000514BE
00132604
001FEA1B
0023AD3D
00201552
0012EDA3
00111368
0002ECE0
000E5725
00118862
0012A5C0
00010321
0005A358
0004618A
FFF75C50
0001009E
0005A28C
FFFFF9F0
000752E4
00007C99
00140D58
00075862
0003F33B
00063F9B
0021BC83
002021F6
0012F35A
001CFFFE
000B09C3
00141B36
0017FB44
0015796F
00205A83
001C6268
000F9B06
FFFA030C
FFF5385C
001DC58B
001E67D2
FFFD7D49
000330DF
FFF53990
0000928E
000BF814
000C83DF
0010C52A
FFF70D56
FFF60236
FFF85C58
0005F0C3
FFEF4092
00127299
0026021B
00146772
000F2060
000CD3BC
0005DEA1
00106F22
000FA6F2
0018706E
001E0BEF
0017BD16
FFFD6847
FFFBFB68
FFFF2912
001A1BA3
001209AE
FFF9F295
FFF6558C
FFFF7DF6
000BC9AF
00112252
0009D8A5
0005DCFB
FFEB5235
FFE842F4
FFECBD4C
FFF6FCA1
0001A0F1
000B51A3
0020D52C
000F5395
FFFFE633
0012354C
00024865
FFFED310
00173D90
00129B2A
0023CC70
0019D788
0004EB87
FFFBFCAE
00099AD3
00074FFE
0009A51E
0011CB7F
00121D6C
001AC5F8
FFFAF4A0
0000767E
000A6648
FFFC09F7
FFE417FC
FFEB9A94
FFDB1CCF
FFF0C0F1
0003F343
FFEF518A
000366EF
00094D47
FFF1E601
FFF4C84A
00089423
00088B7C
000E1E37
001CF381
001D70FD
0020A65E
0011D842
FFFE595A
000B63CC
0012E6A8
000BC634
00139A6F
0014DA04
000D1FDF
0001FF0D
FFFD0FBF
000F3490
00060E24
FFD1E925
FFF2C5EA
FFEDD275
FFE55DB6
00056155
FFFD7579
FFEB4175
FFE5CA8C
FFDE47BF
FFE83B75
FFFB9E77
000D5949
00212510
001A7689
0014ECE5
000C2F87
0014EE26
00007688
000AD757
0019AF0C
000C72E4
00131668
000E3EDA
00098A40
0007A27C
FFF64AD7
FFFFCA7A
FFF3898F
FFE8598E
FFF99151
FFDB2ECB
FFDF4ABA
0001EE86
FFF59017
FFFEF088
FFDA1D00
FFE0A00B
FFF76B7E
FFFCD20E
0005D3C5
000ED436
0009D313
000DE60C
00030524
000F93A3
00038BBE
001067B3
001185E2
001566EE
0015A557
00087AC6
0001AB25
FFFFDF2D
0003BC26
00010698
0005930A
00029C9F
00006F83
FFEC8072
FFE57968
0011BE90
FFF34312
0014C76B
FFDA7BC5
FFD33247
FFF02DB2
00046CF3
00047739
FFFED5E7
0004A99D
00020470
FFFB1F10
00059BD5
0009D814
000B9809
0002CAA0
0003F374
000A57E2
FFFB8F1C
0000BE9E
FFFF6622
FFF93E7F
FFF39BF0
FFF52A51
FFFEBABF
FFEEFB45
FFFED0AD
FFDC46A3
FFFDD2DD
00099B78
FFFD19A3
FFDD7B46
FFDEA282
FFE70F90
FFF2E9D4
FFEA49AA
FFF28E5C
FFF7405A
FFF47A58
FFFE4423
FFF8C65E
FFEBFB57
0001D264
0000E461
FFFA5397
FFFC3309
FFE8D2AB
0002677A
0003ED36
FFFABF43
FFF8263D
FFF1E7BC
FFF54389
FFD52BCC
FFE11978
FFE687EC
FFFF5462
FFF046FD
FFF85609
FFD79700
FFC79E66
FFE8F269
FFECD07A
FFF02901
FFF01C74
FFEF2912
FFF25098
FFF31229
FFF7555C
FFF9C877
FFFD02DA
00033D0C
FFEF083E
FFF80920
FFE8D7D1
FFF22E49
FFED7214
FFF7482E
FFF9F579
FFF39E91
FFFD0454
FFE69101
FFEC00BC
FFF5CA01
FFF5FA19
FFF7CD3D
FFDF30F7
FFC32A7C
FFDF8405
FFE9F584
FFEA37B6
FFEC1CD1
FFF176B8
0003373A
FFF21D29
00024F42
FFFBF804
FFFB6279
000AEB12
FFFE076E
FFFAE777
00084D48
FFF74972
FFF89B94
FFF7552E
FFF2DA87
FFF3E1C6
FFF22B96
FFE83425
FFEFA135
FFE4270A
FFF3923C
FFF0BE99
FFF75B18
FFE564EA
FFD57382
FFEF0F0A
FFDEC4A0
FFED6D1C
FFFB5279
FFF53930
FFF81E42
00035CB5
00034A0E
0005579F
00064D68
0006D4B5
0008C095
000B00FE
00023F15
FFEE5FBA
FFFD3769
FFE89741
FFF71688
FFDEB678
FFF8EA82
00013DAA
FFF6F74C
FFFAB94C
FFFBABF3
FFFD1151
FFFC297D
FFEE0D34
FFF11EE9
0007CAF9
FFF63F8C
FFF3EE97
FFF45432
FFF18B08
FFF680B8
FFEED2BA
FFF1A3DD
FFFD6E81
0005E566
0002127B
00007F22
000F455C
FFFFE495
FFFE63BF
FFFE6B94
00076F4E
FFFEC5BB
FFF8FCEE
0001E312
0000D0B1
FFF9AEB5
FFF202A4
0002FFDE
00010604
FFFCC5B1
00069424
0002B9E1
FFFA2F8C
0012AB78
000FAEBE
000E2930
0018D7A4
000AD460
000902F6
00163025
000E29E7
001187BE
00053F1A
0006C315
0008FFFD
FFEFF395
FFFCDCD1
00014180
000A17B0
FFF31705
FFF0F9A7
FFF206CD
FFDFF1C3
FFEBA1F1
FFF9C596
FFFBCBAB
00042BA1
0006373F
FFF2F513
001B3AA0
00190AE8
000DE802
00055763
00093537
00029DDD
00088513
0023CD45
002CDCB1
000A9FCE
0016952A
001426C0
001FE8F2
00135C4D
001598C6
001DBED1
0008FC2A
000EA50C
0012A35B
FFFCD9BE
FFF410B8
FFE6C20E
FFF037A9
FFF9B3D4
0005C554
FFFB6138
0002FEE1
00007363
FFF7B525
FFEEE385
FFEE0D2A
00009CA7
001574B6
00185AA8
00141C75
00060E84
0009C802
000F2981
00103867
0011DFE1
000DF835
000A4D38
0002CEB4
00107A1F
000CCF90
000D7FDC
001648C8
0005C9AA
0002BA26
FFF05A45
000457DA
FFFBBB3D
FFF972BD
FFFB10AD
FFFFC56A
0000975F
FFFF6E9F
FFFE86F1
000AE172
FFFD4EDD
FFF72E9A
FFFA21B3
00078870
001034CD
000514C2
00010061
001B4A4B
0000094F
FFFFD22F
00060719
00151683
001DBCAD
0024D52C
00155EFD
001AD0FE
00159AFB
001639B0
0003E30A
00034E44
FFFA7F2A
FFF88CB1
