FFFC4330
FFFF2AEC
FFFF10EC
000699F0
000347D2
FFFA3A6F
FFFDD339
00080805
FFF7B224
FFFD8CEB
FFFAD2E4
00042DBE
00067208
000BD90E
FFFA2CA1
FFF88FBF
0007D69F
0002FB2E
00091A91
FFFBC35F
0004E309
0002D3EA
00065FE0
FFF922DF
00002B25
00000C0E
FFFFE6BB
FFFC2290
FFFB77F3
FFFA9592
FFF91E0B
FFF9DF26
000A0D55
000329F4
0009785F
000027F3
0006F6F0
00067D07
00222C8C
FFFDEACE
0000E0CD
FFF77440
FFFF3FF9
FFDBAB5C
FFDE52C3
FFF3A3D0
00167E90
000DE40A
0028EBAA
0015C161
FFFCBA97
FFFBEDC0
FFFF0DBD
FFFC3570
00020F50
00083FC6
FFFF9E8E
FFF86056
0003AEC8
FFF3143A
FFEFE88F
000A10A9
000D2525
001D1302
001F2368
000C6A43
00100574
001C0A51
000E63E3
0010DC7A
0019CB8C
0017D2CC
0004DAF4
0015C048
0010AA46
00195E96
00118C75
00190124
001A9046
00142834
FFFCE2DF
FFF131DE
0003DC8C
FFFD16BD
00011D75
000574B3
FFF56584
FFEE6C3C
001A2153
00032B9E
001474BA
00037669
00013BE3
001D794B
0010D700
0001C40E
000C142C
00038BE4
000A5312
FFF4A1EF
FFFA0425
FFF1ABE9
FFFDD1F9
00091A74
0002F0E3
00263D65
00277DCE
002F9652
001D5040
FFFD9C9A
0011C826
FFFDECE1
0001347D
FFF56F7C
FFEE707A
FFEBBCA0
FFFD870D
FFF03828
FFEA9D1E
FFFC3EC8
FFF939D4
000EA9FD
000C6380
00002970
000B0114
00061234
0003EB06
FFFBA37F
00005B7A
FFFE2AB1
FFED0DF9
FFFAD175
000CC8FA
0011DDBE
0017752C
001E12CE
002975E8
001D35B5
000A1BF9
0001A402
0007856E
0006F3FA
FFF28BCC
FFF04428
FFE9FA19
FFDE67D4
FFE35CFB
00041B69
00143D44
001F28E0
001C1C3B
00081A6E
0009EB72
FFF09396
FFF10CC1
FFEC6ED9
FFF40139
FFEEDEEE
FFF111A4
FFE9005D
FFFDDF36
FFF9C274
FFFBB9F9
00104F36
002DC334
003AF0A3
001964E7
001CEA7F
00040BA9
FFFE7065
FFF92824
FFF2F82C
00061BC9
FFFEA45B
FFF87524
0005826E
0015B02B
001A2F1D
0014B634
000073D3
000B7C88
FFF2B4AB
FFED60B0
FFF82AD2
FFF05865
FFFA6AFE
FFF18238
FFF9609C
FFF923CC
FFF22F79
00055145
00103A71
001FF572
00418C32
0022CD96
0013D7D3
FFFEF519
FFF9BE07
00212BA9
FFFEF436
FFF1C4C6
FFFFA2F9
FFF7F1BC
0003D03C
00205DE6
0012EFC9
000BBEFB
FFFEBF93
FFF6E59E
FFEC0753
FFEB2A92
FFFB9273
FFFB83AC
FFF7BCE3
FFFCC41C
FFF508FE
FFFE3B2A
0007C9E3
0010CED1
FFFBF170
000F2D6B
00339544
002DDCA6
001D405F
FFEAA91C
FFFC4E61
000F09A4
FFFA65A0
FFF046C0
0003E969
001A9BAC
00112D14
00253E6A
001C2FE8
0004C170
FFF71950
FFED8663
FFD91648
FFEBCC26
FFEE7172
FFFB0F8C
FFEE66D7
FFEF610E
FFEBD55F
FFF0D12E
00096AD7
FFF87EE8
0008E6A0
001A0C8F
0048A5A7
002E9374
00192F63
FFF01EB2
FFFE6A65
FFF707D7
FFE63A59
FFE76239
0006D7A7
0019BCB3
00120A78
001CB24C
001DED6A
000A8DB1
000C033F
FFEA4EDA
FFD3B8DE
FFD8B956
FFE07A14
FFE6DB82
FFEB1368
FFEF781E
FFF79A57
FFFDB0CB
FFFC2FA6
00098EBC
0000F9F4
001D4297
002B62AF
00272D56
FFEBE708
FFFE4473
0004F8DD
FFF739AB
FFE32C68
0005AC4A
00078307
000C5A0C
001B4BAD
001F91DB
00236656
000FC0DB
00091EF8
FFE83D76
FFCEFED3
FFD21304
FFECC5B5
FFEB02A1
FFE4A2BC
FFEDC7F8
FFF8ED2F
FFFC2A64
FFF488CA
FFFB3196
FFFD07B3
001BB4A1
002375F5
0014EBA4
FFF01325
00003BAB
FFE0E72B
FFF96600
FFF4728E
0000C84B
00149926
001BDC90
00248B56
00270B28
00343511
00281EC0
000CC654
0004D6E8
FFEEBDB7
FFFF0157
FFFE4BCD
00014E82
FFFA3910
FFFA0C81
00017795
FFEE3B6F
0003F0BA
00009061
000C23D8
0003DA18
000F4C90
00206C24
FFF1D7A8
FFFF90F2
FFFF051F
0002819C
000F52D9
0014E3D1
000EF424
00118E86
00285296
00274185
00252956
001BC42C
001FDE62
000411A3
FFEB5074
FFF16CF7
00111042
0012CA60
FFFE68D1
00018162
FFFE7FB9
FFFC1E63
0013CABD
000C3A9E
0006AB35
FFFDA7C0
FFFDF478
0002F505
FFEADF13
FFF95F89
FFFE5401
FFF3C6C0
FFFAF966
0009480C
001355DD
000E7724
00164D9B
0026AE34
002613F7
0025A742
00118C02
000253EC
FFFAE4D7
FFF1F4C3
00147A78
00052477
FFFB57AE
FFF6D606
001016BB
0015FC9E
000FE532
00139065
000F9688
00048210
FFE9C6D8
FFE210C3
FFEF3FA6
000FFB89
FFF8D836
FFEF8CD8
FFFFC628
001A9E98
001DB19C
001A8359
000B7B65
001AA965
001FEA75
001EE0D6
0012A5F8
FFFF1423
00028AB8
0005A072
000819BD
00015143
00033F5F
00007179
0005198F
00053A1F
0006B0B3
00145A33
00018E42
FFF5F30D
FFEC010F
FFDCC809
FFEE1561
000FF5B8
0000827E
FFFF6539
000FC2D6
00042514
FFFBD548
001197D7
0011E84A
001437D9
0012B7DF
00155E1D
001348BA
FFFEDDC0
000466A3
000356DD
0007A352
000B1268
001718BD
000DA62E
0009C7B3
FFF77DA0
FFFBE546
00031C25
0009CB65
FFE7E1A2
00002C14
FFF3E4D2
FFEF723E
FFF7E6C9
FFF9B50D
FFED72EB
000447FC
FFF5A44C
FFF93F50
00110D37
00025567
0006DDF5
FFF8D13C
FFFA0602
FFF5C3C4
FFFE798D
FFFE9AFE
FFF8B57C
0008BBC4
001FF9BF
000D386C
00047EE8
0004D8BE
00020932
FFFD8696
000A27B3
0004CA03
FFF3BC03
000C7F6A
FFED3CDB
FFDBDF0B
0005DA00
FFEC5DA0
000616F6
FFED7FF9
FFF0387D
FFFD638A
FFFCBA4A
FFFDE35D
FFFD1079
FFF3D7A2
FFEFFC26
FFF28419
FFFDC917
0004EB6E
0007D78A
001527F5
001EE828
0005C17C
0008EA1E
FFFD718E
FFFC8B17
0000CDA5
FFF67946
FFFD9E30
000E7729
0014F8B8
0002A1C3
FFE806C4
FFF5A777
FFFC44AE
0008952B
FFEC6B25
FFE91514
0002502C
FFFDF0F2
FFFE3A69
FFED4F42
FFE74EB4
FFEA3E3E
FFE991D0
0012F57C
0025FBCA
001E075A
00094C21
000DC735
FFFE228B
FFFA4EB2
FFF4863E
FFFE7148
FFF47475
FFF43A41
FFF349B4
000C0166
00161019
0010A337
FFEDC163
FFFF7BDE
FFEED872
FFEF1CFF
FFE75BA6
FFEE6197
FFF75B5C
FFFCCD64
FFF0FF51
FFF05BE2
FFE9DBD2
FFE2E2AC
FFEE6A6D
0010443C
000A9CCC
0013790D
0012337A
FFF88900
FFF1E296
FFF7BE65
FFFAB2DC
00010B67
FFFF2189
0000220E
FFFFE8A0
000F8023
FFFF40F4
FFF7085D
FFF25B26
FFFACFD3
000241B6
FFFF6544
FFE7C200
FFDF1A70
FFEDFDCE
FFEFA9CF
FFE801E4
FFEB91A0
FFED9B7B
FFE2713E
FFF17CF1
000BAC5A
000ADA99
0010A210
00080ECB
FFF1E82F
FFED1DA7
FFEFE364
FFEBBC9A
FFFB16E1
FFFAAAE4
FFF8BEB2
FFFA44CF
0001A8A2
0009C17E
000253EA
FFFB2790
FFFDBB66
FFFB6AA6
FFF4C236
FFE7E912
FFDF88C8
FFE65864
FFEECC61
FFF403FD
FFFFD00F
0005F9C3
FFF66AFB
FFFD5A69
000A27C2
001625BC
000D0D1E
00064AC2
FFF30A74
0003869F
FFFF82D3
00011F88
0001BE6E
000D9D23
0005061B
00058B4C
000BF7CE
0002D802
FFF367AB
FFF73402
FFF3A3B6
FFFB36D2
FFF0EFA2
FFF1E403
FFFC2421
FFEB170D
FFE7E336
FFF2E748
FFF3F945
FFF4483A
00004FF3
00092C1A
0009747D
00038E47
000ACE38
0004C823
0000ACBF
00006C3A
0005E674
0008C9EB
00017413
000F06F5
FFF3EEC1
00033967
001E7599
00077ED0
000855F1
FFFCA4D6
00085DA1
00059BED
FFEF1C9E
FFF6FB25
FFF05067
FFF564DC
FFEB83F4
FFDE47D8
FFF5D989
FFFC38F6
FFF7C2CA
FFEDF8DF
FFF44B82
FFF436D2
FFFD49AE
00011C1D
0005B0E6
FFFB3FDB
FFFFB4CD
000FBFB8
0010287A
00199762
000CAB4D
00185066
0003F301
0008B029
000990AF
00029BDE
00069BF7
FFFE9202
000728F6
FFFD36C9
FFF56016
FFF281E3
FFDA8F43
FFDF99CA
FFEC24FB
FFF93502
000AB259
000D3406
FFFFF521
FFFFAA1D
000A7B08
000A4CDE
00119535
FFFB0C1D
00087A0A
001E4806
001CFE1C
0015CE5B
000A31B0
0014B1F8
FFEF94BF
FFE84EAC
FFF5EF4D
00036AC8
FFFF42AA
000885E4
FFF1CB93
000DE9F7
FFFB0969
FFEDB3A9
FFEC1305
FFDD3416
FFDF988E
FFFEA6AB
000490AB
001648B1
000C5E40
00104412
0028813E
002A67B8
0017351A
001C7CD7
00169EE0
FFFDA819
00109EDB
00252CBC
002566EE
001F3074
0000EB0B
FFF0D6D1
FFEF405F
FFFC373B
FFF7E5E6
FFF70A85
FFFA2E00
000C794D
00083532
FFF7D5CD
FFF6B677
FFFB0614
FFFEFE48
000CE1A3
FFFEDACA
000A7E64
000EA1AC
00110D3D
00063088
0006C384
00027EDB
000B61A9
000CE7B0
FFFD59BF
0005A884
00218A3E
0003DBC0
FFF8F3EC
FFF4A6D5
FFFD5AAD
000817E8
0005B2A9
00000614
00000282
0001E6D3
0005843A
FFFE9DAE
0000712F
0002443B
FFF8B9DE
FFE7DA5F
FFFAC849
00017B18
001518BC
0007E945
0008AA8D
FFFECC1E
0008A9D0
FFFDE1E6
0006F338
001381BC
0015C822
001C051B
00003794
FFFD55AB
0004A23F
FFFE0A37
00025738
00001729
FFF84935
