00001D64
FFFDC855
FFF7D353
FFF6FA8E
FFFC8B1F
FFFC4074
FFF752CA
FFFE35CA
000162B1
FFF836BF
000011C5
FFFDCB87
000A8B5B
0001E683
FFF8B908
FFFC37F5
000461F8
00075128
FFFAC5ED
0002B616
FFFF025A
FFFE3A1D
FFF8BF65
FFF90F11
00003416
FFFD615B
00057F2A
FFFE4404
FFFECB4D
FFFE8DC8
0007EEC4
0001EB4D
001359DD
0011B787
00056D74
000DE85A
000A97EB
000156B4
0004DB37
001098F5
001C6D40
002F964A
0020AB32
00395E67
002D6058
00231708
000AC8F4
0013C058
000FDB14
00080E9B
000B7A95
00073535
FFFA4D64
0007E4B4
0003EEA1
0005A17F
000471CD
FFFF33C4
00126ED4
0007A10C
00109EDC
FFFF6043
0001DE67
000EDE98
FFF73B96
FFEAED74
FFF5F65A
00086E99
00086468
001704D6
00222938
003795C1
0039B61E
005017EA
0047AF4B
0033818A
00279136
002288A1
0029949F
001A362D
0002E62E
0007DECC
0007117C
00000ACD
00018B63
FFFB5991
00143CF6
00082844
000D4013
00154D58
00104C72
FFFFF76E
FFFCC230
FFECFE21
FFF54781
0001FC91
000ADA7F
0022A580
003095C2
002FA6EB
002454E6
002476BB
001D70DE
002EFF18
0026CCDF
001A6C5F
001010BF
00061D9E
000683B5
000D526E
000939ED
00022F60
FFF80C3F
00024DA4
0016E4C6
0011622B
0006E3C5
FFFDE8DF
FFF30055
FFE7F77F
FFF58FA2
FFF780E9
FFFEC4DC
00078E06
FFF6E618
000E8C2E
001A5762
00203D82
000FD35F
0016809F
00139782
0006F8FD
00085F8D
0019BE4C
001294C9
FFFE2B1F
FFECE9C0
FFEE357F
0006DCBC
0008E94B
0008244C
00056BDD
0025AB19
0001C4BC
FFF432E0
00124A56
0009D251
0002F80D
FFFCF85E
FFFF8830
00030C48
FFF3A3A5
FFFF5CA1
000AA5E7
00071A44
000E721A
0010C9D0
000E0004
001BD765
000684A0
00097934
000B94EB
000EFD45
000A4442
000618F2
0010329A
0009A344
0012FEB7
FFF993B6
00018CD6
FFED7C40
FFEBC967
FFFECA90
0014A167
0006731C
00029F71
FFF93ACF
FFFABA99
FFFCDD13
000365AD
00041C0E
00054DF7
001BED05
0015FF1C
00251D60
001481EB
001B48EF
0010295D
00177AF7
0007E21F
000948EF
000A74E8
001B1337
0036AD66
000E3DB6
FFFDD1FE
0004CE7D
000E5600
FFE48D99
FFEB8E5C
FFF3A03F
000F58A0
FFF8BBEE
FFFA6451
FFEE5072
FFF2033A
FFFEAC38
000A5FC9
0007667D
00143D0C
00343A5B
0026937C
002D979B
001A9A04
00231309
00198341
001F370C
0014F992
FFFEB08D
FFFCCA00
0017EBA6
0028CFFC
001AC195
FFFF4AB3
FFF75751
000571C8
FFEB8611
FFF75144
FFDA62A5
FFDB2B1D
FFDEED8C
FFE13FFA
FFF16252
FFF2115F
FFFC726A
000F3084
00175FC8
00240290
002F301A
001549B6
00065FF2
FFF15A53
FFE3436F
FFEAFEE4
FFFC989B
FFFA2D8C
FFF77018
FFF837C3
FFF94520
0007EAE4
00067927
FFEAFEAF
0000C7E3
0002FA13
FFD4F24A
FFED0975
FFF7A11A
FFCA6E10
FFE1A59C
FFF9EFF1
FFF93C93
FFF642B7
000AE6ED
0010354B
00232F9E
002A1F3A
001CE6BF
FFF16C8E
FFBB7DE8
FFA2903C
FFB60A5C
FFB5C69C
FFD15128
FFC91603
FFDD53AF
FFD574C6
FFFC372B
FFFD2B0D
000B5CF8
0005B23A
00082609
FFFE9EE4
FFFBC824
FFFA9C8B
FFED0CBF
FFD77674
FFDB6FC7
FFF13021
000DEBBF
FFFDA0A9
0012A8CF
00142900
001B4628
0019D97F
FFFF3789
FFC0A706
FFB04044
FFBE759E
FFBC833C
FFB49623
FFB047EC
FFA63600
FFB3120C
FFB53888
FFD0671A
FFE4984C
0004D6BD
000032AB
FFFD5B72
FFF4A48A
FFF654D3
FFF6BB4C
FFF1D3BA
FFE4A034
FFEF1AA5
FFF356DD
FFF38DC8
FFFBDA87
000CB4BE
000744DE
0010DD24
000CAF1D
FFF05D05
FFC4FB75
FFE6017C
FFECAE15
FFF2CD9E
FFD8AC78
FFC56503
FFC00792
FFC0F327
FFC75EAE
FFCD168B
FFD9A771
FFFAF216
0005D13D
FFF5D6E1
FFF1E8D6
FFF4CBC9
0005CC9D
FFFA9229
FFF90B3B
000759F1
00028741
FFFD9503
000BAA0A
000FD546
0011EB31
000D329E
000341F3
FFE8E46A
FFDEF396
FFF70F9D
0007443B
001074E4
FFE49260
FFE0CDE3
FFD5B51F
FFE10AED
FFEFDF53
FFDD783B
FFD28A7F
FFF25888
0014E09A
FFFFB555
FFFB768E
00050C98
00025C26
000990B6
0006414B
0002BFD5
FFFD0AE5
FFF131C8
000587CF
00115DBE
0009308E
0006E41D
FFF6BFB6
FFF207A4
FFF34B74
FFF8A7F7
FFFE935B
000626AE
FFF6546B
FFFC84D9
FFF8B132
FFEB51AE
FFFA7056
00058C48
FFE352CB
FFF113EC
FFFCC2A7
000BC38D
000DBC9A
FFFEAB98
FFE8AB2E
00031F46
FFE65B20
FFF46816
FFFEBB08
FFFD4234
000BAD64
00121F7F
0002B601
FFFA2613
FFEE31EC
FFF44C8F
00054B88
FFFF52A3
FFF1C57D
FFFC1207
0007B287
001300A6
000718A1
00178E95
0016C758
0013D2E0
FFE5C8EE
FFE9A85B
FFEEE489
000C3300
000BAFC9
000664A6
FFE1F78F
FFEDD63A
FFE13F09
FFE7E66A
FFEEC2E0
FFF8982F
FFF91353
FFFF0E68
FFFBF22D
FFFD4A85
FFE75806
FFE60180
FFF7CAB0
0005916C
FFF4E410
0008B6AF
0006E926
001172A7
000EBE34
000D45D8
001AFF2E
00191C18
FFF35597
FFDDA7E3
FFE71B12
FFF90CE1
FFFF3537
00122041
FFFD769F
FFE642D8
FFEA93E0
FFC5FF75
FFD5280A
FFE42174
FFECF01D
FFFC6540
00089FCA
FFF4C035
FFE60734
FFE93487
FFE5B46E
FFE914A2
FFE60BA4
000554F6
000D1710
00066E9C
000E8BED
000877BC
0011316B
000B90C9
FFDE79BA
FFDB2A82
FFEFED0B
FFFF631A
000FED7C
00068891
00211D7F
FFE9EFB4
FFD8A12A
FFD2CA46
FFE02F4B
FFDE9574
FFD2D197
FFF0BABE
FFF0D707
FFE21507
FFDC39DE
FFE62B36
FFE1933A
FFDD3C24
FFE16AA8
000341D2
FFFD6D60
0005DC16
00075E17
00082393
00100BA1
FFF8FE44
FFD2BF34
FFD0E7B1
FFEA0EA1
000B85A2
00033DF9
0011B21A
002D2C56
FFFD0823
FFE61D38
FFFAB876
FFDFAEC5
FFE5F072
FFDEB32F
FFDDA4B4
FFE03F0B
FFD1666D
FFC4228F
FFE8623F
FFEFD65F
FFF5E0E2
FFEF0FEE
FFFF913A
00053A35
0010676E
00168833
001324F8
FFFED4BE
FFEF7D2C
FFF0E2A0
FFDDD2A7
FFE15B77
FFFE4BBC
001B70E0
0026174C
0023CBF5
00159518
FFF508E8
FFF867C2
FFF0B53D
FFF3BF7F
FFF07FF2
FFE9AB9C
FFF31541
FFE80D19
FFECCA0B
FFF12EA3
0007B95E
0008DB1D
FFF7FA3E
FFFD0AD3
000913C9
00171AEA
00132521
000F1812
0013C293
000ADFA7
FFF9D464
FFDE8679
FFEE43DA
0000E761
0005003B
000AD27E
000F3A87
00156DD4
0001E70A
FFFF464C
FFFA2EC9
00090F9B
0013FD7B
FFFD7B51
000CCBFB
00158002
000D8850
0020B93D
001A92EC
00148FA0
0005BEFF
0016F4BA
00191C0B
0010A682
000D5280
001A5153
0019F2DB
001DDED1
000F22F8
FFEEA096
00014905
00081376
000729BE
FFFA65B6
000F875C
001BC861
00133A43
0006BEC0
0008C79E
0017A7E3
000B15B2
000DBE2F
0020E432
003628D1
002FA3B4
0029B25C
001B91B6
00187659
000C3D4A
000B934C
000E4E01
001C5988
001B6520
0010110C
00081C84
000F9D0C
FFFDEAFD
FFF6A5CB
00040C8D
00056578
FFFA4C2D
FFF64584
000D2F0F
001504A8
001431A9
FFF5ADB3
FFF294E9
00067CAC
FFFA9804
00023AD8
0015AB1D
0023E955
00250F69
00225872
0028B3C6
000D204D
001373DD
0011F964
0011D6EB
0021CE58
0010BEDD
000E2EBA
000EB402
FFF0EEB1
FFF81127
FFFF2CAE
00091E47
0000C73B
00027EA8
0014A136
001A365D
0010C136
0009EE33
0006D695
FFFB474A
FFFC1E4B
000EE194
00095368
0018B3A2
001034F4
000F0752
0026596B
00186F55
000ADE5F
00147C7D
000ED234
00180BA1
0028B7E0
0009B01D
FFFB13DD
FFEF2F57
FFF2B3A9
FFF3E82E
000BA7AF
00062C9A
00034E76
0001564F
0002B22E
001A5218
001EFD59
00168F4E
0018F30A
00249F34
001F1D97
001763AD
002692A6
00124C2B
0011235B
001367F4
000CE5A8
00065A40
00036B63
00178A1B
0015CE26
FFF7870A
FFFCE0B2
0001BF37
FFFEDE9C
FFF641E7
FFF3AFFA
FFEF8C49
0010827E
0000CCC7
FFFF79DD
FFF99388
00052BD3
000CD3F9
0010F271
002AD754
002DDC0D
003B52A9
0037B8BA
00215B79
000C4410
0018A4F8
001D5B0A
001568CB
000292E6
000D0F8F
0004ACA3
00051207
FFFCD272
000DF8AC
FFFEDA58
001971FF
00257250
000E12DF
00140279
0005C3D6
FFFDDFE5
FFFF3C7C
0001F93C
FFF73EBC
FFFDCC12
000221A3
FFFD75B2
FFF1776A
FFEB1231
FFECF7E6
FFDE8E08
FFE65C9C
000CFEFF
001B2307
0016EA7F
000F4A06
00096630
0024BFB2
001CF3F2
00096E83
FFF3373D
00031E29
001172B1
0016E1C2
001C509A
0021DF27
FFFD4337
FFFBDDCC
00009604
FFFBE557
FFFE87DF
FFFE1BA1
00021E10
FFFF14E6
0004C15F
0001DC4D
000190F3
000461E1
FFF0B703
FFF1AF3B
FFF19704
00012286
0001BC56
FFFC0CC1
FFFE4231
000A2FDA
00049976
FFF5241D
FFEB5E3F
FFEF53FB
FFFF8102
000101DA
FFFE7A81
0007C1F8
00045EAC
FFFC347B
FFFEE784
FFFDCA57
