000614A5
0003E789
FFF77B8D
0006A762
00011C2B
FFFDB850
FFFD47EC
00074AF7
0006614E
FFFF2695
FFFC950E
FFFB159D
000CDECB
000209B5
FFFD3A49
FFFD75AE
0002A799
00070237
0001D3D0
00036870
FFF89DA4
FFF95B68
FFFAA527
FFFA2645
FFFBEB35
FFFA7501
FFFD022D
FFFA5719
0002B930
00003C67
0000771C
0003E05B
FFFA7E9E
0004D680
00083854
000242D0
00162746
FFFF7C39
00157422
000470A3
0002521F
FFF7375E
FFFC9B62
FFE27B3E
FFF4D81D
FFF9FD8C
000BAC40
0006C289
00135A67
0006D2A3
000269EA
000DE0E8
FFF8BE35
0000D267
FFFDD3D5
0005D056
FFFC56D5
00067F88
00022E80
FFEA1D83
FFEAB4A8
000D2223
0018C6BE
000DABB5
00244520
0031461B
002CBE2E
002BC5AA
00198A7F
000723D3
00262D2E
001546C7
0002B81A
00124179
0019134F
00072B84
0017C63E
000F2BC3
0013A7AE
001E2A5D
00188146
0004563B
FFFB2378
0004F3F4
000075AF
FFF9819E
FFF6D0B1
FFF181ED
0018C3F6
000EC1B5
001D2CB9
001412BD
000C6244
0018D95C
0005AEC7
000CEF14
0003D014
0001C5E2
0006E7A1
FFFC0385
FFF5BC89
FFEB57C6
0000F045
00055F34
FFF3BED5
0008A043
0015B62B
000BF720
000DADB7
FFF30A9D
00058142
FFF9C52D
0005E2D1
FFFEFEDF
FFE01006
FFDD4551
00034A3C
000814AA
0015046F
000858E6
000F4F26
001513D0
001F1AC7
00146ECC
00197035
000EE8ED
0004D995
FFE8CB45
FFFABEC2
FFF00BEC
FFFD4ACE
FFFBB566
FFF8124D
000164D7
FFFB41E5
001870FC
00202255
001134EC
FFF18DFD
0005FB5F
00077DAB
FFFB27B8
000448E8
0007C76E
001E47AC
000495DF
0008646C
FFF8B459
000513D2
FFFCECF2
0004D1D5
000344D3
FFF96C08
FFF46A69
FFFEF99F
FFFD1D47
000438C6
FFFF3FCC
0003080F
FFFD04D5
00026498
00002F34
00057276
000D6BCB
000FE4ED
00187510
000EB3B7
000BF7DA
0007E9FB
FFEEA256
FFF93804
FFFE0B24
0015E6DC
0007EA73
FFEBF8AD
FFF88400
FFEBA650
FFF591C7
FFF369B1
FFEFA647
FFFB0AC4
FFED240C
FFF9247D
FFF340EE
FFF99E15
00061B1A
FFF9F01E
FFFB37F9
FFF71FC8
FFDBBF81
FFEE07D8
FFFF1EA9
001B9F21
001AA8BE
000DA469
00038C24
0002BE78
FFE6A9D7
FFFCDC53
FFEA8181
FFFA4ABC
FFE692BC
FFE41F9E
FFE9AE5D
FFE217DC
FFDF87E9
FFEBED1C
00009C3F
FFE9801C
FFE81454
FFF12D4D
FFF09021
FFFA7C01
FFFD1D4E
FFF6AF1D
FFF0C1A4
FFEA1799
FFEAC324
FFED218B
FFE26CC7
0007081F
001D4128
001821B4
000C8D45
FFEBC92E
0001E412
0005B0F6
FFE8C5D5
FFEF6676
FFE24B06
FFE38004
FFC985AE
FFE47F90
FFDFA268
FFE91998
FFF79A77
FFF29B71
FFF44690
FFE8D51A
FFF314BE
FFECFEE0
FFFE7DA6
FFF2F0DF
FFFC1A32
0001013F
FFFF5972
FFEDB14E
FFE9381A
0003AA70
0021AC7C
00018D64
FFF01D84
FFF56334
FFF31BBE
FFFE2F49
FFFD214D
FFF6BF76
FFDA6362
FFDBB0F1
FFE450E2
FFE3009E
FFECABAC
FFF6BCE7
0005FC74
000715F8
FFF1F210
FFE1A0F2
FFE7708E
FFE5BD79
FFEFD9C1
FFFEE16E
00039AD3
FFFF983B
FFFBAD88
FFE2DEEB
FFE08FAB
FFF4F969
00017D4B
FFF8A1FA
FFF0CC05
FFF68B1E
FFFC2F00
FFF03116
FFF2E338
0000EB38
FFF0FA2D
FFECED3A
FFE5BBDC
FFEF533E
0004D466
00081D33
000DF474
FFFD17B3
FFE36C52
FFC87EBA
FFDDF892
FFD4A5DC
FFE27E8B
FFDA9416
FFECAFA1
FFE3F29A
FFE7709C
FFDCDA50
FFE90512
FFFE855D
0019CD0B
0000A6D4
FFF14BC9
FFF569D8
FFE808B4
FFE40EC1
FFF7A456
FFE619A4
00031AA2
FFFA1338
FFEFDB5B
FFF93E89
000B67B1
000C1F4F
FFFBD7ED
FFEA1990
FFD12692
FFCC295A
FFC9E2AA
FFDF0C24
FFD9DD4D
FFE722A6
FFED4221
FFDDD154
FFEAF776
FFDEB836
FFE8BB75
FFE02C28
00050BD7
FFE10874
FFEA0E0B
FFFAE266
FFFCDC0C
FFF3BB4C
FFE8A9DF
FFF58150
0000DF12
000A7710
00003CFC
000B2574
000ED7A9
FFFEF072
00039554
FFEE5E52
FFE3966C
FFE9BA52
FFE3FC0C
0002D559
FFEE82E2
FFEC9357
FFEF6612
FFF4D7E5
FFED53AA
FFF1E793
FFEA6065
FFE70C48
FFF46B2A
FFE790B2
FFE48BAF
FFF7A0C4
FFF82999
FFEA47A5
FFE57D6A
FFF412E6
0005A398
0003B068
000FE9B9
0019B4F5
0009F8B6
00095410
000AC27E
001142E7
001C7EDB
0012C71C
001A37C5
001E076B
0012F5E7
00076932
FFFDECB5
FFF11067
FFF7DA65
FFF17C67
FFF461A5
FFF2CB24
FFF31F3B
FFF1D61D
00187A81
000D0268
FFFC3D4E
FFE28266
000C34F5
000D247B
00155277
0021BEE1
0027148C
00192FD4
001A944F
00086AB9
00174CA7
0020224B
001C3E3C
0017EB3B
001C17D4
002B5993
002222B5
000B9B31
FFFA1B83
FFF7D641
FFF9094F
00047128
0001D34F
000114ED
00127B9E
0024CCA9
00108007
00000BFF
FFF7C487
001193C0
001FEA7F
0013DF3D
0020F425
002E6279
0023AAA0
00287E9B
001BF16E
00175223
0010B000
0014C058
0020A797
0012ABFE
001CA992
0034377E
002058D6
000E2208
FFFD4823
FFF14721
FFFAED68
FFFAC76A
0002D383
FFFE55C3
001FB618
00223C5A
0021B334
FFFA3876
FFE8B894
FFFEB2D5
0026ED63
00092FE4
0011F99E
0028FC19
0013A90D
0019AB79
001508C2
0010966C
00100846
0018EEFE
000FF13C
001840F4
00263802
002C0CB9
001FFF12
001086E2
0009361C
0002573F
000FE03C
000DCF79
FFFEA58E
0006C039
0039FBF4
0038DF54
000FCC5F
000534F7
FFE332FA
0004E267
000ADA09
FFFE91D1
0019E24A
002FA90C
0026BF38
001B6C96
0015A6BF
001245F8
0013EFF0
0004E921
000BE30D
001799D6
0023BCD4
00211B50
0019A647
000D8A75
0004DEE4
0004EBDC
000D2AF7
000A5566
FFF90842
FFEFEEE1
001CB310
000BC659
FFFB5EE0
FFF86CD5
FFF99EE9
0000273E
000C8CE2
000B8CFD
00136C91
002496CC
0023D71E
0017D726
000A0D52
000CB5E4
00007AC6
FFFCA0C6
000A00E4
001AC9E2
0011E399
0014D235
000CB576
00062FB7
000BB400
000F33EA
0008A028
FFFD9ABF
000ECB20
000B0A6B
001C1530
00076D74
0026F316
00069688
FFF64806
FFFC7524
0007A63C
FFFFB338
000D25B4
00124EAD
00135B68
000286C3
0005EC61
FFF6B13B
000A43EE
FFEE5115
0002534E
0007D8F0
000EAC74
0017B84E
0014033D
00161AE0
0017BA59
0020506F
0011D779
00197F82
00242635
00096259
001C6BEA
003D87AA
0016DFCB
FFF96E2A
FFF60103
000EA96F
000AF51D
0002C636
00003428
FFEF844E
FFF5BCDE
FFFF0E21
0004EF73
FFF9C4A6
0005BE5E
FFF6B1F0
FFF47559
000623D5
00117A02
0012498E
00136526
001A2541
001D41EB
0018595A
000D7CFD
0019216C
001B1954
0014F5D8
001F2635
0019940E
000730C1
FFFF8CCD
000A0F0E
00033066
00045DC6
0013A56A
FFF9745E
FFEB7985
FFF422C8
00034B61
0000D4F8
00018684
FFF0F8E7
FFF3E15F
FFF5F663
FFFE8F9F
FFFE6640
FFFC033F
FFFB747F
00033B61
00114A37
000D9349
00178224
00154816
00262A08
001DD339
000169C2
FFF7B1A6
FFF4CCB1
FFFCB3D7
000599D5
00082A9B
00043D95
00113194
FFF9A7AF
FFF024F9
FFF3B55B
FFF9EAFB
FFF6613D
FFF86C67
FFE8846C
FFF433CD
FFED1104
FFD79826
FFD8918E
FFDD4512
FFE4D0FD
FFFECD4F
0004DC93
00164CCC
0019CD60
00194398
001587AA
00240819
FFFE6522
FFE7F54C
FFF930E5
FFF99406
FFF74FB1
000D511A
00017368
000C8F49
0005A02E
FFE5E143
FFDE4396
FFEE3315
FFF63580
FFFDAB49
FFF2D562
FFEB5D51
FFE12BE0
FFE59844
FFDD2FF4
FFE19028
FFDB58DA
FFF2DDC8
0003675B
00172AA1
00177607
0027AE8E
0020134D
00144D0F
000130FC
FFFFF53B
00090C4C
FFFFFB89
FFFE7EF7
FFF8CD22
FFE52D14
FFF62C86
FFF49964
FFF02812
FFF289BD
FFF32D17
FFFDBD5C
FFF5701E
FFF92C7D
FFEF5EC9
FFFD36F2
FFED9DE5
FFE25BC8
FFD998DA
FFDA3890
FFFBC992
00047732
000C9D6E
0023D024
001D60DD
00197704
00224380
001804D0
000C33CC
FFF9D77D
0008F5A2
FFF74C68
00083AE1
FFF7794C
00003043
FFFEFB9A
000D9FF8
FFF58AA1
0007B74C
FFFDA565
00038EBE
FFFAFCE9
000920D1
0014407D
000A948F
FFFBC0B8
FFFB0B30
FFEDF2A1
FFF7A7CF
FFF3D247
000AECDC
001AF7A4
00213946
002E2E33
00141C27
000ED190
0011EEED
FFFFB348
FFF85CF3
FFF9AE98
FFF91997
00129E3D
001B83D6
00108E46
001551EE
00075D27
000C48CB
00030C9C
000C0F69
001588F6
001F9C28
0013B6B1
00085AC4
000E927F
FFFB92CE
FFEF39E8
FFF1020D
FFE732C6
000E1EBA
000779CC
FFFEAD51
000A3346
FFEED504
00027DE9
0005796E
FFFDC270
FFFFFAB2
FFFEF806
FFFEECEC
FFF7E2F3
FFF6D785
0005BD26
FFFEA09A
0011DA92
00042594
FFF916F7
FFFD99A3
000FD80E
000F63AB
FFFF4C88
000D22D1
0006158D
FFEEE52F
FFE21278
0000F927
000EE640
00190650
FFECB93F
FFF680F1
FFECCEBC
0004DA8F
00002906
FFFE6C72
00039574
