0006AFF7
0001DE5B
FFF76DBC
0001CC88
000384E2
FFFFD32F
00052714
0006B316
0007BFF4
FFFC86FB
FFFDA5C0
FFFBA62C
000D9F90
FFFC50F1
000583D1
00070AEC
FFF83759
0003E4CC
FFFF1636
000313DD
000460C3
FFFAC1AC
00091A79
FFF8040E
FFFBC22F
00079ED9
0000F6E6
FFFC22E9
00046347
FFFA6C09
FFF8EC62
0005672C
FFFCFE40
0007A5E5
FFFDA6AA
00018F54
0006262A
00110462
001FAE76
001ACED2
001F13C7
0019D4CF
0010173D
FFFA2D92
FFF6B891
000CD7A4
00033F02
00069145
000FA8F4
00163BED
FFE9CC70
FFF7DC2F
FFFC967A
FFF75E01
0004ADAD
FFF97E52
FFFFCBCC
0000A3FF
00035881
FFF9CC45
00063463
0003F37A
0009DF14
000032FB
000ED746
FFFB5383
00147781
00180189
00112A09
0015CAFE
00201300
000BC536
FFF931ED
0006F53A
0006A5E4
FFFAE6A1
FFFC6C4E
00060770
000F1710
FFFEA52B
0010B9E2
FFFB4703
FFFAD8CE
FFF6E9F4
0005C069
00063E14
FFF90709
00030FAF
FFFC2B8B
FFF785DD
FFFEC7DF
00059C9E
FFFCA6CF
FFFF8DE1
FFEDE005
FFF714FC
FFF0DCB5
000E2BA8
FFFD277A
000119DC
0003CA61
FFFF73A0
FFFA5B96
FFFFFFBE
FFFC23BC
00102496
0015011C
00158726
0007960D
0004D9F1
FFFD1FC6
0000546D
FFFEF1B5
FFFC4CEC
FFFB8E5E
FFFC571F
FFFFC4C3
FFFC8426
FFEE9610
0002A6E0
FFF82BDA
FFFB49EA
FFF5E4BD
FFED84F4
FFF2E1F1
00049F6C
FFF7B2AA
FFF623CB
FFF8C61C
000A9088
FFF1B006
FFF8B9CA
000E929A
0009113E
00052A5E
0010B054
FFECBC7B
FFEF7859
FFEA8069
FFF7ECB8
FFF753D9
FFFA8140
000DA01C
FFEEE770
000084C8
000379AB
000E0A2B
000674A5
00053731
0004F4B1
0006C705
0003F598
00084A01
00099B97
00008909
0009C1FA
00008CD2
00084A1D
000BAF72
FFF5C215
FFE118D2
FFF280B8
FFF38B2F
FFFCAD05
FFED7022
FFE37C04
FFE0E514
FFF92E9E
00031456
00065B22
002BFA3C
00152FC2
000E95E7
00249168
001481B0
0011600C
000D6E21
FFFEBBCC
FFFE434F
0005D14E
000C7149
FFFCB552
FFF25795
FFE0C077
FFFB3308
FFF59B11
FFF6098B
FFEDE99C
FFED5BA0
FFE0EA96
FFE836C2
FFE38B3E
FFD9EE00
FFE09AB0
FFE6B927
FFE86B03
00091EF0
FFEF9E77
0020885C
00162C55
00082378
001B4650
001C33EC
00174E98
FFFBF749
001057F5
0010312A
0011795E
0008BB23
FFF8F96B
FFE3DF2D
FFF2B16A
FFFBE0D2
00045880
00064625
FFF8A1C1
FFFE02BA
FFEBFD9D
FFEEBB50
FFEE85BE
FFF706F0
FFF09222
FFEA1A88
FFE5DBB4
00128A67
00030961
0022F6AF
0013DFDE
000F1642
001A6397
00188FCB
000E1872
0014CE1E
001DB41A
001D7AB8
00153373
00031E0A
FFE74FF0
FFE27516
FFF14D84
000014A1
00058384
0003FFE1
FFF4E5CF
0004CB43
FFFE05CF
FFF8D9C5
FFEF48B1
FFF4477D
FFF83686
FFDD2F40
FFEEA777
00162DBC
001AA218
0015A090
000395ED
000A448C
001D7E75
000724AC
0007C80A
001F405A
00198B76
001A828C
0019AFE3
FFFDEC29
FFD0DECE
FFD5CBF0
FFE2E3F1
FFFB9B8F
0014AEB6
0002EFFF
FFF7FA6C
0014521E
000C4E53
FFF15E8F
FFF8549B
FFF64B04
FFE23578
FFDC597C
FFF78FC7
0011A9A5
00285CB4
001C8C71
0008E77A
00070EA6
001DB880
000D83F9
0012F617
001E45E0
001FC76D
0012E7F1
001250D8
FFE50305
FFCFED36
FFB99505
FFCF2500
FFFFA16E
001859A4
00194230
0002D23A
000C5BE5
0010550C
0012B69B
FFF98805
FFEE80D2
FFF8C4EB
FFE5BE89
00004F03
0012FA27
003724CA
001F80DF
FFF1AAEA
FFF20433
00045C1B
0014B0AE
001F2795
00179E5C
0018C645
00198BE1
000AB890
FFEF1B71
FFD0F993
FFB9DFD6
FFDE7E2C
FFFFC6C1
001C3A57
0027B630
001A140D
0011FE4C
0020D902
000F19FF
FFF78511
FFEC8348
FFDC629F
FFD891C4
00060349
00009019
0025FD66
0031EE09
00039E32
FFED3F4B
000094AF
000DA960
001D554A
00162612
001D6885
0018F1F8
0018B68B
FFF92592
FFD520FA
FFBA7AFB
FFCD5E02
FFFE79B5
000CF135
001533E3
000F1087
001AB986
001CA116
001B2181
FFFEA576
FFF40407
FFDCF379
FFE7014A
FFEE64AF
0008CA7C
001766EE
00309188
FFFDDF4F
001BB4B2
00164868
000D0D68
000D5C76
0017C2B2
00156960
00271380
000D98E2
FFF1276D
FFCE8011
FFB823A3
FFD433D8
FFEA5B6B
0009FCB6
0010DC7A
001080F2
000DBFA3
0013D175
001319FA
000A3A69
000522EA
FFED7316
FFD8B034
FFEB6E95
0000BA50
0007F980
00328033
000B7D08
00110FDD
00188ECB
001469A6
0018BFB4
00136AB7
0015B624
001944E7
0012D2DC
FFF042DA
FFD53E5E
FFB70BEE
FFC20ECF
FFECB65B
0012AD72
00116218
001D68AE
00213056
0013F5A3
001EA1CA
0005225F
FFFB9230
FFEBC80F
FFEABE51
FFF34364
000062F2
0003BB4B
0008DAB8
000F5CF9
FFFA054C
0012EC9C
0008AF9A
00113C70
0014774F
00179A55
002303E6
000ABA6B
FFEFE1A9
FFD75FFC
FFA77A6C
FFC0EDCC
FFEF984F
001406FB
0027F60B
001DD6A1
0018A4C8
0006F745
000E59D5
FFFE0EF3
FFE88304
FFE507D9
FFF50A7B
FFF92E1A
0008BFCE
FFF433A5
FFF8F874
FFEF96E2
FFFB4153
0009B70B
0004C448
0016EE69
0017F698
001B7C42
000D828C
00013CD5
FFE1063E
FFC03296
FFB30A32
FFE0708B
00132202
002C7E4E
0022B754
001CDCA9
00205B16
00155091
00048213
FFED0B68
FFE9A5D5
FFE65309
FFEC5075
FFEE462E
FFFB80AB
FFEF393E
0005B54E
FFED7935
0000E98E
0008AFD7
00036F62
000C465E
001023DD
001CAD3B
00173942
FFF96033
FFD4A5F3
FFAD1A84
FFC5497E
0003A196
002EAE36
003C092B
002BC73D
0011DF79
000BC145
000D7480
0000E404
FFE9868E
FFFB6706
FFFB74E4
FFEBF572
FFEC616D
FFFDA247
FFEA434E
001112BD
FFF38BA0
00090A9B
FFF710B5
FFF99FDA
000C6041
000FC3B9
001B761C
0007AD76
FFF3C9A5
FFCCE2C0
FFAB7A42
FFDE6780
001567A4
0042C295
002E2CD2
002DF27A
000DB5FF
0007C69D
000B3750
FFFAD339
FFE4584E
FFEE5512
FFE7BC8A
FFDFF8DC
FFE8EA7C
FFF912CC
00166132
000B51DF
0001D746
0000C692
FFF4523A
FFFBACE3
0000F269
000924E2
FFFF033E
FFEBFD95
FFE6DFE5
FFD3AEE6
FFC19A7B
FFF58A6A
001F6B48
00248B48
002965C9
00112EF6
0003E410
FFFA00F6
FFF33BCC
FFE55347
FFDB6361
FFF777AD
FFE69E40
FFE977CB
000081D3
0004BDE3
0008679F
001461CA
0014BC42
0011B147
FFFF247D
FFEFA71F
FFED2F39
FFEA3C2F
FFEDB284
FFE0CDFF
FFE8395B
FFEB0F2A
FFE8FB7A
00028693
00204481
00168ED4
00157315
000AFCCD
000B83E4
FFEA6675
FFE817D2
FFE8C2E0
FFE89B96
00067948
FFE01897
FFF3DF6E
FFFE2E89
FFFF8D03
FFFB0CBA
000A0706
000D8505
FFF8C61B
00059D5E
FFEF9956
FFDFA3FA
FFE501EE
FFEAC00C
FFED4954
FFF1FD1F
FFFE3BF4
FFFC4190
000F70FC
00162C5A
0020BB54
FFFEBB24
0002104C
FFEF2925
FFF0A54F
FFF91DCD
FFEDEF7A
FFF03DA4
00117EBA
FFEF1D1E
000DB339
0006529F
0000574B
FFFD515E
00040EDE
FFF35B81
FFEE19B0
FFF34AB6
FFF5D411
FFECFA28
FFF2422E
FFE380CD
FFF69331
FFF304C0
00095BF6
000A81FC
00187E7F
0023BA0D
0019D87B
0015653C
FFFF6D79
FFF6F60B
FFF46E67
FFF560A0
00006AE2
FFF13367
FFFD5E98
FFF1C53E
001E5AD5
0006664C
0003D378
00047678
FFF2EB9E
FFED3FA2
FFF056DB
FFFF7892
FFFA3094
FFEB3DDC
FFEF139D
FFDFC67D
FFE616C4
FFFAD29A
0009B182
000BDDB3
002F6616
002AA3BB
001FC9C8
001D0511
FFFFA729
FFFA9B5C
FFFC826F
000038D1
FFEF4D92
FFD7C4DF
FFE57C76
FFEE56C7
FFF5CDEE
00071FF2
FFFD1C95
0003345E
00061180
0001491D
FFFBC12D
000DC0D2
FFF5B1FC
FFE35DB8
FFE0EB23
FFE7B37B
FFF0E6A4
FFE5C89A
FFF8CBCD
00011F22
0007B0E0
001B107D
001FA31B
0027F2B8
000FE9AE
000C2B48
000BD416
000423CB
FFE2C24F
FFD6D9A8
FFDD95A1
FFF4406C
FFFC952C
0000A68B
000440EE
FFFF21C0
FFF6DC02
0001A0BF
FFFD27B9
FFF0BB24
FFEB6145
FFD3CC40
FFF1B8D5
FFECA058
FFDD4D32
FFE90DBF
FFED2A5D
FFEDFFA6
FFF866CD
000F731F
000DD624
000B9E5E
000AFA8D
FFF30915
FFE43BFE
FFF27BD2
FFE05D16
FFD85A7C
FFD7953A
FFF3F716
FFFC9242
FFFD0288
000712C3
FFFFD473
0006955A
00079199
000A67AE
FFF2B65F
FFF40895
FFF80DD6
00127521
00156926
000A2BB6
FFEA5FBA
FFEB9EC8
FFF84CA3
FFE9DD52
FFFE27C0
000DA287
FFFD6C38
001284FE
00070633
FFF640A0
FFF365B9
FFF82C92
FFEB551A
FFF4A95F
FFFB437E
0004E2F6
0004489D
000575F1
00058C56
00000669
FFFDB163
000371B2
FFFFB2EF
FFFD4F04
FFEBB123
FFF9390F
0006D103
001B92F3
00015F69
FFFC41FF
002449CC
FFF8C217
FFFADBFF
001886E4
00283092
00299EEA
001B4A07
0008B37A
001A52EC
00172F02
001D42A1
FFFF7F0F
FFFB85AE
FFF97DA5
00063322
