FFF8AE52
FFFF43B3
000511AB
FFFF347F
FFF84B8A
000526F0
FFFC4678
00026D4E
0000F3FE
0002425A
0003637A
FFFC1AC8
FFFFE617
FFF3A38B
0004A778
FFF8427B
FFF72551
FFF859AE
00011381
00012E6D
FFFE4E5D
0005FC35
0001E68A
FFFEF779
FFFDB84D
FFFE7EFF
00063B3B
0007FBE1
00012B90
0001A021
FFFD5810
0008EB9D
FFFB3862
FFFAE8D3
FFEBB085
FFF0F3BE
FFEE101C
FFF58E3A
FFEDDA2E
FFF6798B
FFEAA206
FFE490A8
00181BAE
000C5D09
FFFF77FF
FFF0D6F3
FFE58888
00013319
FFF94D16
FFFA2ACB
FFFEDD66
FFFAACE8
0000F14E
00058A8B
FFF78B42
FFF810FF
FFF9B653
FFFBAF80
00063DF8
FFEE7304
FFFF72E9
FFFA2380
FFECD40F
FFEB807A
FFD82445
FFEB8452
FFE89488
FFE79252
FFF70859
FFFF5ACC
FFFAAEA5
000A7BD1
00102862
FFEF4558
FFF54CFE
0005997B
0010E888
000C8343
00096D82
0004DBB0
FFF9DB3C
00036036
FFFB2EF5
FFFBF826
00012E7A
00020FCA
001A0FF3
FFF71BAE
FFED5BD2
000A3DEC
00073F4A
FFFEDD8A
00012B5B
FFFDE120
FFFD2769
FFFD94A4
00105F93
FFFFDA28
000C6191
00161115
00051CBC
FFFD2BBB
FFF1FD92
000C8F1C
00191B94
00090ED4
00045E55
00043432
00137EA0
FFFB5081
0002170C
00035DFA
0002D8F1
FFFBB575
0013A106
001FD85D
0009136B
0008B28E
0014DE36
000EFC9A
000EB609
000194BB
000C211F
000BA678
0007DD4F
000613D4
FFFCCB66
00021A20
0004D45F
FFFC8A93
00028F66
0006939E
00086599
000C1B00
00061A6D
FFF120C6
0006AAB2
000375C1
00072D8C
0009C97E
0000BA6B
FFF9E155
00164890
000F337B
FFFD2177
00242A20
00261F9C
001A317E
000B9919
000D7A50
00005326
000609E0
00031F86
0001A9F3
FFFC7B30
FFF95BDD
FFFD2F87
FFE7000F
FFF51C03
FFF1ED9F
FFE8E636
FFE2979D
FFE9CBF8
FFF07E49
FFEE8295
FFFBF835
00033A22
FFF78471
00058081
000A4B39
0007AC20
001C9D91
000B8401
000CB37C
001419B8
000B8376
0006A560
00192BC6
0009F06A
001880F1
001CFDE8
00164E96
000D0545
00063BE5
0007F8E7
FFF8E904
FFF6A09A
FFECB4C5
FFF3162C
FFECA91B
FFDE24C5
FFDBB7F6
FFD9CAB6
FFEBCD0E
FFFE1627
00011B82
FFFFB041
00136B2E
0001E1A9
00139E56
FFFF915C
FFFA45CD
0009FCFE
00113A17
000DB108
0010D8A3
0015EECC
000D9C3E
0025D3BC
0013B09D
001E5F24
00050CD9
0005E901
000193F0
000117FC
FFF0D3A9
00006A21
FFE6723E
FFE5EE8A
FFE9C8E0
FFE4A1DF
FFEAE7D4
FFF533B6
FFFE3E89
FFF130CC
0014018C
FFF2D551
000E0227
000BA915
FFFB854D
00096610
00112C86
0014A942
0009E3E5
000F2A9B
0010EDDD
001409C6
00115583
000BBE6E
0009EE72
000A7F3B
FFF837AC
FFF9947C
FFFA2E60
FFF6CC4D
FFEA93EF
FFFADF7C
FFE23E5A
FFEC2E24
FFE9FEF4
00041683
00046A7E
0010BC07
000FDBC6
FFF5E672
00123E26
00140AEB
000C7172
000E02D4
0018B2FC
0018A7AF
000AA3B4
000FFEBE
000B7FF2
000EA4E5
000B43CB
001AC5FC
000CC404
0007A2BE
00077C0E
FFFECA2E
FFF85D5B
FFF89478
FFF049BD
00079454
FFF697AE
FFED3320
0005ADE1
000FAD8E
0012CCCD
0016CAC4
0000A762
00052466
00107134
001187A3
0007C7BB
0008E2B0
0008F07A
FFFF1E33
00084261
0005B1BE
0007670E
00065FCC
001EE6EF
001C8DC1
00150AF3
00047488
000702D7
FFFDDEF3
FFF75304
FFFAE63C
00057653
000D5416
FFF3443B
FFDF9516
0011B8C6
00136B89
000CD711
000E7591
001735A6
001963C1
001F183C
002D1A22
0011629A
000A9635
FFFD0D2E
FFFDE032
FFEF7B12
0004B83D
FFFCE815
0004A4F9
0014E15D
001A245A
00120CFD
000679F8
001306E5
0006C276
00084DE4
000939E6
FFF687DF
FFFDF74F
FFF76E23
FFD3B9FC
0006EB5B
0016E493
000FEE2E
0005A22D
00013F22
00208397
00213E4F
002300CC
000ACD3B
FFF537FC
FFF83FE3
FFF4C135
FFF6FBCE
FFF69F50
FFEE8EA1
FFF9362C
000F622C
0019E550
001CD6F3
0007A4B1
00156563
0001AC56
FFF67F7C
FFFB1D64
FFE5EA5A
FFEC1F30
FFF8E2D8
FFB4A76C
0002F59B
00002FFE
00004A62
0008E903
FFFAF905
001D06C7
00170064
0014EDB4
FFF813A5
FFE4CB15
FFF27471
FFF275C0
FFEDC83C
FFE254A8
FFE487B6
FFEA2559
0003C6A1
000DF054
000E3EFF
00087F2C
000DDECD
00009432
FFF9ACEF
FFFCB6DE
FFF4A3D0
FFDD3955
FFDB7A6F
FFCDD493
FFF1B74A
FFF0A69E
FFE4C2F9
FFEDE29E
00109FD0
0020B680
000CC1EE
FFF9047C
FFDE01C4
FFE1A305
FFE0FAFC
FFEE21CE
FFE647AC
FFDE8D7E
FFDEE34C
FFE9ADFD
FFFE7B89
00050216
0007722C
000C9337
000DB663
FFFFFAAF
0002098D
000512CE
FFFC646C
FFEC484E
FFF3BF38
FFEF771C
FFFD76E8
FFF77B6C
FFEF0B9A
FFF0B11A
00113FAE
0009DFCD
000B5876
FFFF0E73
FFDD19DA
FFE34C3A
FFD88FA5
FFDA7112
FFDCBAD6
FFE68C6A
FFEB9522
FFEBD760
FFEF8CC5
000008D8
FFF8380E
FFFDBBA4
000A32E8
00192C3C
00112DC0
000DE2A2
000C1914
FFFF45E9
FFFBB575
FFFCD3E0
FFE3AEB5
FFEAB411
FFFA8ECD
0003E135
00104B50
00197DDE
00045588
000D334A
FFF8B998
FFF14C30
FFEEFBA6
FFEF03A2
FFEC0401
FFE9D14B
FFDA7C6A
FFEEA4C2
FFF80CFB
FFF3B48F
FFF37A4C
FFF9D132
000BF9DD
001255A7
0016A45A
00063056
00070CB8
000C2336
0000E12F
FFF789EA
FFC3345C
FFE8AE63
FFFA453B
000582E6
0015754F
FFFFD473
0014A1E6
00051C70
FFF39933
FFEEBA5B
FFEFD40A
FFEFE08B
FFE445A8
FFE386AE
FFDF1D23
FFE7C82D
FFF6C3D2
FFF81F00
FFFADBCF
FFF17050
000D287D
000554D9
001BFEC0
000B6AB9
000AEFF1
FFF76D85
FFFD853F
00030144
FFCEEC56
FFFE595E
FFEA6C3A
00114789
0003EE4C
0015CBC7
000FB834
0007675B
000403A2
0008F174
FFFE6A4E
FFFD0F3F
FFECFE8C
FFF56B08
FFE6A008
FFDE1402
FFE0CC73
00001AD2
0006B1EF
FFF75E53
00097539
000A43B9
001338AF
001927A7
0012A894
000A5F24
FFEE4507
FFE7C45E
FFE561A2
00063B6C
000D2D53
0008E894
00189F57
FFFE9CBC
000F4FD5
000CA235
0011AA37
00039682
FFFE53C6
00010D71
00056E68
FFEBF26E
FFDC12EC
FFD6879C
FFF167E3
FFFE8525
00015DBC
FFFD1F73
FFFD69DB
000A231C
0011DA28
0012526D
FFFF50B0
FFF28157
FFF1B06A
FFF543CE
FFF9484B
FFEB0E60
0017B43A
0007F4E3
FFFA3C1B
FFEE812A
FFFF8374
00076079
00105D16
0018E674
000ED152
000931B4
0008E90C
FFF78805
FFE1D2DA
FFDEA0CA
FFEC0479
FFF50EFE
FFF28D44
000047D1
000089B3
0004D02B
00110AE1
001919B7
0009721C
0001A2E3
00024F4C
FFF14890
FFF84396
000581FB
00022D8D
00005674
FFF98336
FFF1EC00
00030D17
FFF9989F
0008E03F
0009E258
0010681B
00006779
0001E929
FFFF6E86
FFF325B1
FFF6B131
FFF81D44
FFF79AFC
0003967B
0000C4FD
0009AD1C
000D08A8
001A9666
00187FD5
001009A1
FFF4DD54
FFEF0CDA
FFE681E0
FFFA91AC
FFEC6649
FFFCC196
00009454
00044C0D
00071AEE
000DF887
000A4628
0006D079
FFFBCAD1
0002F802
00015C1A
FFEFB8CB
FFFD0964
FFFB77CF
FFF63AB3
FFF79781
FFF2E48D
00051BC8
0004A55D
0018C31C
00115F0A
00085C6D
000F8F32
FFF99F6F
00033C69
FFF6A6F3
FFF0EF7A
FFF6E0FE
FFFF6886
FFFB9899
0008641B
0000D6BA
000457D7
0017C3F4
002127FA
000E9849
FFFC535C
00029141
FFEBE6CE
FFE1AA9D
FFF12D1A
FFEB83E8
FFE8D35A
FFF1EB3B
FFF8F63F
0002B5C9
000C851C
0007915A
0006AFA8
000B4F56
000D0408
FFF144D0
FFFDCE7E
0006B24E
00062385
FFF1BBBF
00016A50
FFF74A56
0006A4D6
00066DD0
0003354A
001DE0D1
0039F5D0
0024A0D3
000AAD13
000B8EAE
FFECD4F0
FFF2B5E8
FFF324C3
FFEDF50C
FFECBDE2
FFE8000F
FFEBD53F
FFFF67C7
000A8A4B
000CF36D
FFF6746E
0008910E
0003C2D7
FFFC8227
FFFD215C
000CCC45
FFF457A3
FFEFE043
FFFAA603
FFF84EA5
FFFD2C96
FFF74FDC
00085117
000B2B20
0011170C
001E7F25
000C8A57
00202850
00281132
00210CB0
0010E269
001AD490
00145342
000E7EEF
0016FBEC
0012991E
0026EA2A
00190519
001742F4
003001C7
0022E0BF
0015A8A6
000A92A1
00089D96
00106E6A
FFF629C1
FFF7D22B
FFF71550
FFFB7D7F
000693C8
FFFFFF4B
00151DF5
FFFD252C
FFF8F553
000478CB
002264A5
002FCD96
003C5A72
0036AD2D
002D3D31
0028D6A1
003DBA0B
0047644C
002A2DC5
00397D03
004A5F58
00461EE6
00337084
003FC8B6
0041C184
0030CFFE
002BB4BE
0017F9BB
000484D8
0002110E
0007F2DB
0000AF9D
0003D43B
00064931
FFFD87ED
FFF9B9F2
0002F995
0011DDD2
000CAE39
001DF42F
00173B73
001D8755
00145B4C
000E3D40
001377A3
002DAEDB
0020E56E
001193CB
00205BE8
002D7A98
0015007D
00158EB9
0020B68E
001B5450
000F95DF
FFFECA89
FFF81446
00091FA5
000265A7
