0005023F
FFFB1C00
0006DA7D
00003CE9
FFF9AFDF
00091C75
00031A44
0007EA0E
FFFA614B
00019C32
0003F43F
FFFA992B
00062A23
000A8655
00095FE6
0007A4B6
FFFA9540
00026A1F
00029789
00087D3D
FFFD13C3
FFFD921E
FFFE0667
0001188E
FFF9D77A
FFFF1266
00028E4F
FFFDE801
00066B0D
00010448
FFFB9266
FFFF71CE
0009D441
0001F46D
00071414
000C1312
0017613C
00057C74
00115E30
000EE807
0023EB6B
00145D51
FFEBB02A
FFE9D8D7
002493CC
001EED3F
00042BFB
001270DC
001BB3A6
000E50EB
00070CB3
000280F9
FFFBE0BE
FFFCE971
FFFFE856
00063CED
FFFBA2A4
0008CAA6
000101FF
0007A590
0005125A
FFFDDEEF
001777BB
000F7F8D
00202AAE
0021811C
001838B8
00185250
00053B7D
FFF4EAB0
FFFAD056
FFEE0566
FFF387BF
00089072
000CBB5F
00059CFA
000DD2B0
001F8221
00220CA0
00133AB2
0009313C
FFF4F0C6
0006F1FB
FFF90B06
FFF989C3
FFFFB3C1
FFE1A204
000BC15F
00173B05
00012774
000523E5
00031672
000AF6FE
00124247
0014C7EA
00185A30
0010E322
00142876
0017DA57
0001CBCE
00036157
0002DC6D
0001E36E
00109EB4
000F7C2E
000DA0F0
00103B90
0007D5D6
001B1529
0006B55D
0012D313
FFF845F1
0006CD05
FFF92168
FFEAE420
FFE7F074
FFF9D7FC
FFF0D115
FFF8B2D2
000618C6
FFFF1A34
00130B8A
00121C37
000C60BD
00059638
0003D088
0008D9F9
000137C9
0008074B
000A4745
000EDF94
000E7591
00127F49
000F8A4D
001B0B0D
0019A2FC
001C9961
0004DE5F
FFF18FB4
000AE203
FFFD7001
FFFD337E
FFF169BE
FFFBB31E
FFFBBBD0
FFE43DBD
FFFCA666
FFFCB141
FFFE00A5
000396D7
00160C63
000D2BFC
FFF816AD
000432F5
00053B06
000B16AE
001452D5
0016851A
001056D3
001369F5
000F3806
0011A01F
000DED3A
00182A68
000BA321
0007DE58
000E38B4
0017C090
000795DD
000651EA
0011FC5B
0001F285
0002B807
000351EE
FFFA8EC0
FFFF5BC9
0006A9D8
FFF96944
FFEDB33B
FFE91A3D
FFF4778E
FFFC2C04
FFF9CA14
FFF6CF3D
FFFA322C
FFFD4C8E
FFEECDF4
FFF197F5
FFF3DC7C
00010726
001701D2
001C21D1
0018C204
000ED617
000699B3
0001737C
0008C0F2
000620FE
0009630C
FFF44F38
FFFE3935
00037F4F
FFFF9B6E
0003A4D0
0007C9AD
00015096
FFF3B6D7
00034D66
FFEE480E
FFFF2246
FFFDE11A
FFEB6637
FFF17501
FFEC5562
FFEF4BD0
FFF9A518
FFF32882
00003FC9
0000D2FB
001198D6
001A7B8F
001C7660
00182451
000B83E6
00133CB0
FFFAA2FB
0000E5A4
FFFB60E0
FFF38FF8
00094CCC
FFFE7D8B
FFFEE160
FFF716C4
FFF84CAD
FFF8B108
FFFA0DF5
FFF66C1A
FFFD3512
FFEFC8D4
FFF5CD28
FFF558C2
FFEE2665
FFEDF6C8
FFEA682D
0003F721
0008D9BC
FFF5D2EE
0008657C
001DABDF
001D1A2F
00079BB4
FFEE06CB
0003A028
FFF169EC
000A5DAF
FFFD6919
FFF1F94B
FFFCF42F
FFEF2E77
FFF103BE
FFF946F0
FFF873E0
00069075
00015450
FFFD2D8F
FFFCDB3D
FFE8A6E6
FFF0F5F3
FFF84160
FFF39AE3
00000D01
FFF804F8
FFF637FF
FFF9E332
FFF9A03C
FFFEC8C9
001AF4FA
000A89A2
FFF8010B
FFE605F7
FFF1A7FD
FFF3FD3E
FFF50024
0006964A
FFF35DCA
000358C8
FFFB6E72
FFFD3F23
00031278
FFFAA6B6
00002EA9
0002FC30
000534D0
FFF424F8
FFE5054B
FFF82B87
00025F3C
FFFE701F
FFF76363
FFF55962
FFF8C5B4
FFEF3425
FFF5EBFB
FFEF5532
0012325C
001D57CB
000C4611
FFEEF6D0
00007D2A
00038B5E
FFEAAB93
FFF2EF0C
FFEAF4E2
FFF5F2B3
FFF9FCAB
0002BE10
FFFC39DA
FFFF9901
0005230A
00061243
FFF7C1CB
FFDEC82A
FFE5A1DF
FFF6BEDC
FFFDE02E
FFF63DFD
FFEE197F
FFF6B52C
FFEC8FB7
FFFA131B
FFDFCDEA
FFF1B216
0004BF5D
000601E9
FFF41D8D
FFEA2DA0
000033FF
FFFB0556
FFF7F84E
FFE2C663
FFE54120
FFE9E23E
FFFAE251
0002B7D5
000D177D
00084DAB
FFFF56AB
FFFFCC18
FFFF7FFB
FFEADBCD
FFE7E31F
FFEF4E72
FFF37889
FFF8E558
FFF13E81
FFEE3979
FFFD32C7
FFF24793
FFFD8128
FFF1A02D
0008842B
0001D2E2
FFFB2843
FFF209C0
00064A76
00044FCC
FFF1F820
FFF00B3C
FFE750BA
0002B304
000C1199
00156DC8
000C073C
000F44A4
00085F69
00121531
0011CCB5
FFE9659E
FFE72511
FFE9E3B6
FFE08DC2
FFE779D9
FFF75005
000261EE
FFF95746
000D1A96
000D01C5
00175ACD
0012CDFA
FFFF7034
0001AA77
000AAD86
000DE3E6
FFF0A69F
FFFD1F3B
0003E3DA
FFFA805A
00094063
0006EAB3
00103ECB
0015A408
001381D2
000B9C4F
00117C5B
0011386A
FFF889B6
FFE97358
FFDFB4D3
FFE43F70
FFF1DFF6
0004FB4D
000430CC
000B29C3
0004A65C
001AD74E
0022BA26
002140A0
00195612
00040FE7
001570A5
00073F6C
FFFB8A54
0006FC45
0008997E
FFFF863C
000EEBB6
0002EACB
00138A1B
0016B665
001D70C5
001F5C0C
0019F430
0016FBE7
FFFA6E96
FFEC15FE
FFEB6BF4
00042C6E
FFFD9EF0
00026083
0009F5E0
0004517E
000B9898
000B1A93
0018CDE4
002FB4EA
002E16F1
00235810
000C5F60
FFF736DD
FFE97ACE
FFE60485
00187B5F
FFF477DE
0008F91D
000DA432
000D1E86
001195BB
00181A0C
001A412F
00207E05
00150B36
FFFB743B
FFFBE462
000CDC50
00160A13
00114461
00142BE3
0008AABC
000A0A6C
0019A146
001766E6
0015F778
0018C89F
0034E57C
00183764
000F8FE1
FFF951C6
FFEA19A2
000E70B9
00111B96
FFFBEAC9
000557AB
0004EC69
0004FE83
00109E50
0018C714
00221FA4
001BCB57
0002F018
000613F9
00045609
0002ECFB
001021BA
00141B66
001B1B80
000108BF
00049B66
00124464
000D87BC
0007702C
00086ECA
000F86FD
FFEF692B
0024B603
FFFAD6E9
FFE9DDDE
FFF78B2A
FFFAF121
0018359B
FFFFF15E
0002290E
000FF62E
000FE123
00141D70
000CEA8C
00139FA1
00066246
000A2F87
0009E6F5
0015BCDE
001C7CE6
0006FA2B
000E3BD7
000875D6
000604CE
00067485
00076C36
0002E44E
000B7853
0000F523
FFE7151A
FFFF6404
0002D83C
FFF97E69
00026856
0010D4F2
001384D0
000EF7F2
000198E0
0007DDB9
000A4646
000CA55E
000EDFCC
00233954
001B4EDC
000D51C8
000E1110
00182EE2
000B776C
FFFF2CA9
FFFE73F2
FFF5D1CD
FFFD67D2
0001CD27
000AA68B
FFF66BBE
FFF74461
FFF5A0F3
FFFFDEA9
000201E6
00045522
000967B7
0015B0E2
00181BEA
001D63EB
0008ACF3
0004E917
000322F1
000D3A34
001A873A
0017E353
00202455
0014EAC0
000C95E2
00059156
00120F5E
0005F902
000A51BE
000880F8
FFF4884C
FFF90714
000DEF8C
0003BCAB
FFFD54F1
FFFA47D6
FFEF8098
FFFA13B1
FFF5B455
FFF5602F
00040C8C
00101E49
000FE2E9
000F13C8
000092A3
FFF23B9C
FFFFC587
FFFD56C3
00133BE9
001558D6
0019520E
00123FEA
00142EC3
0007A917
00124370
00082873
0009FBE9
000319F0
FFF3F7CD
0008F332
000911DC
0012B445
001389E6
FFF9FB3C
0006C6AD
00239DEC
00057595
FFF3A0B5
FFF373DC
0013E98F
001C496F
FFFE3C50
FFEE1473
FFF351D9
FFFAE694
00062381
000517A7
00101A19
0014EC34
001841E0
001CC89A
000D6E5E
00066869
00173400
00022686
0003DA4F
0004A954
000545D5
00062463
001926F3
000C0140
0004F3CF
0006BF7B
0012F192
FFFEE271
0008C4B8
0003A802
00087AC8
000FBFFA
00110DD2
FFF962A7
00020B87
FFF956B5
0005288D
000A1ADE
0009A997
0006D779
FFFEA64C
FFFA8DC8
FFFFA57C
00074A73
FFFE1CDF
FFF50E4D
FFF571CA
FFED5CC0
00027D39
FFFED6BF
00092465
00057EEF
FFFDE232
0008CAE6
FFEFA169
00077076
000442D0
FFFF107B
FFF02D26
FFF49986
FFF37766
FFEEBD11
FFEDBDE9
FFFE191A
FFF69E7D
FFF51DD6
FFEB356A
FFE7FC68
FFF58D87
FFF1B274
FFF62C83
FFFC8B49
FFFBC80C
FFE8F6DE
FFF274C5
FFED1107
FFEB56F9
FFED352E
FFFDCFF4
FFF83020
0016B70E
000F36F8
0006CAA5
000703BB
FFFEFEEF
00065603
FFFB401D
00037CEE
000563C7
FFEA5AEC
FFDBCB4F
FFD7E248
FFD1C6E6
FFCA3D51
FFD6A23C
FFD1CCEB
FFD08941
FFE67B2B
FFD4A506
FFE7AA70
FFE883AB
FFE6D80F
FFE5A1A3
FFE47A7C
FFE1DC86
FFEB314D
000BCA1C
0009F02C
0010FE71
0007A064
000FA53D
000835C8
FFFA29A9
0007C429
000221CD
0005CCBB
000A53A2
FFFBC01A
FFEC0018
FFDAB04C
FFDFC1A8
FFD92B6D
FFDDFEE4
FFF7DB08
FFF6AE5F
FFF86487
FFDC2015
FFE2D426
FFE454A6
FFE48C37
FFDE49E2
FFD9E14B
FFDDFC21
FFDD1027
FFEA3C19
FFE48531
FFEF1D4D
FFF76A69
FFF70802
0006AB3C
FFF903CC
FFFF1A11
0003A84B
00040C32
0004CDEA
FFF5C552
FFF50020
FFECB9C1
FFEC20A4
FFEF4E42
FFFE7867
000591FB
000716B9
FFECE3F9
FFE839B4
FFE9523A
FFF70700
FFF039F4
FFF008A6
FFF30A30
FFF0E50E
FFDE11BC
FFE65CA0
FFF6C14F
FFF8F685
0008FD2D
FFF7E874
FFFDE8D2
