0007DD18
0003A7C5
FFFA8E59
0003A80B
FFFFEB9C
FFFE1CBF
FFF6FFD8
FFF9F934
FFFCE4A0
0006D114
FFF9B7C5
FFF771FE
FFF94F24
0002F0C0
FFF7D8EC
FFF6DC53
000040C5
FFF7606D
0001CF4C
FFFF004D
00085243
FFFC986D
FFF78D78
FFFAA958
FFFF8873
FFFC5634
0008F2B9
FFF8DB9B
FFF73651
0003FC9E
FFFDCCA2
0005AF2A
000ADA75
00120680
0017766B
00112748
00107A18
000D0849
001B5D2E
00173F81
0027BE94
0025CD94
00064A57
003343A6
001CEEF4
001D3CEB
0015F90B
0017A70E
0011BA80
0008C1B8
00050FDC
0008426C
00051FDD
FFF9E744
FFFDB97A
00071FFF
FFFE5E93
FFFC07B2
FFFC0C7F
0007E2FB
0024E7CC
002076B7
0013413B
001A98D7
00148D4A
00057B50
00222670
001FF879
00231E45
00380B4B
00286CD4
001D8540
0018C24B
FFFF2FC9
FFFED729
FFFE465A
FFF57DCD
FFECF749
FFFC49D0
FFF540B4
00216103
000419F0
00065DA0
0002849F
FFFBDED6
00051075
0005E4B6
00074C5F
FFF70A65
FFFBD2DC
0006F050
0014D4D2
000C189B
0014F840
0008E81F
0019C27E
0031DA5A
004940C4
0042B466
003280A1
00409382
00278727
FFF6545B
FFFFA493
FFF20852
FFE70B5C
00006EEA
0022793E
00270CC9
0021449A
FFFB22B0
0000FE54
FFF8BD65
00042A09
000A10EC
FFF22400
00196E88
00125D13
00060D49
000A0DD3
0010CB2B
0019010E
00055924
0004F81D
0023FDDC
0030363A
0025859C
0019B9BF
001E0A99
00215908
0014B434
00258AC8
00194F09
001ACACC
00196951
001CE671
FFF3FCB8
00066B32
FFE09B9C
00041251
FFFB1686
0000E844
0002BF82
FFD69F1B
FFFABBE4
000222A5
000BCB4C
000D7D8C
0015918C
0012BBDA
0007CAE6
FFF0F3F4
00024C65
FFF588C5
FFFD708B
FFE12F9C
FFE03DB0
FFE3B9B8
FFF67685
0016A3D7
001E6080
00207555
0025BA25
0008D015
FFF5F2DD
FFE699C8
FFCDF01C
FFF45253
FFF7DFF0
0005CF9F
000E8DB0
0009DA2C
00093611
000C4F2D
FFFD1C3B
FFEE1AFF
FFF09380
FFEB5172
FFF737C5
FFFBFB3B
000C0629
FFF64676
FFE8DC70
FFD68509
FFD4887F
FFE4428D
FFF44F4A
0007F810
00191CAE
001AC302
001D4C39
0002831D
FFE78C79
FFD59984
FFC8EF91
FFEA05BC
000AED71
001F7260
000C2A2E
000DF987
000B0107
FFFC00D7
000DC653
000898EB
FFEDA991
0005BE1D
001A3FFA
000943DA
000B455E
FFF6F6AD
FFD8797D
FFD9434C
FFDA8564
FFEE4908
000D690D
0013F3E5
FFFE579F
FFFC4AAE
0006CD85
0006F9FA
FFF3DA07
FFEA5C43
FFF48F02
FFFBB006
001ED401
0018FE66
0013AF07
0025C9CB
000A35E9
0008ACCC
00015513
00095F58
000888D1
001A5CFC
000FBC70
0018B571
0016FCEC
FFFA892F
FFE7A154
FFEFF912
FFDEAC39
FFF56641
001A5C22
00050C27
0015153C
0003452F
0006C0C0
001262D4
00006A8B
FFFE2BE2
FFE9932A
FFEB6DC4
001A5687
00229164
00090A89
001B5843
002439FE
0005B62C
00099965
000C8B3B
0012FD5F
0014F177
0019AE46
0021A58D
001D7685
0014C4D6
FFF65561
FFD86A03
FFE29AB7
000D8C0C
0020E341
001D0176
0018017E
001D1312
00148C34
00172C7B
0024A128
0001B6B5
FFDAF654
FFF1A51E
0010589E
001F5EA4
0023A015
00084E02
0010941A
FFFEA731
FFF31572
FFFEF37D
0007AED7
001AFD4E
0032251E
00324C2C
0029A837
0007BB70
FFD73969
FFCFB942
FFE5230C
00132D8A
0025594A
00227FC0
0018EF9A
001A8DEF
0018E101
0020CBB4
00208184
FFFE1BE4
FFDD99B9
FFEF2B54
000D55AD
002AF6FB
002DAC03
0013B24C
000D27AC
FFF390A0
0009A6AD
000C2769
00144AF8
002F3D66
0041AB72
003BDB88
001B5664
FFDE6D17
FFAFD929
FFB10138
FFF0AB58
00221FA3
002AED36
000AFC6C
00105724
00075C38
00109496
001BF48B
001C49CE
0000BE69
FFE7D19A
000D81FA
000BC7FC
002256A9
00284825
000EFF78
FFE7D233
FFFAC41C
001C3FAC
002CECD5
00340252
003F9B48
0043F69E
00301836
FFFA74F9
FFBF413A
FFA5AD14
FFCDAE06
000DEED6
00295D58
00160F84
FFF77CF8
FFF6083F
FFF8702A
000B5685
0013F92E
0045651E
00117B6B
FFEF28A7
00095327
0006CEF4
000B2841
00316607
00024DBA
FFF7D178
000CD01B
0034E890
0028AE2C
002FA937
0045CBA2
00384584
0013A1B6
FFBE4A66
FF98A331
FFB1D0D5
FFF11B15
001169D2
001102F3
FFF89DFA
FFE156EC
FFEA1487
FFEDDF14
00087D43
002D5DEF
00457827
0029B9B6
FFF90CCF
0001BB13
000A6E78
00049410
002CAFC6
000B4C4C
FFFF00D5
001F090B
0026C668
0030D515
0030F98F
0031A642
0027EBC6
FFD6D272
FF8FC485
FF8FDE6A
FFD4F7B0
000C9338
000525BA
00111857
FFF3A836
FFDD2800
FFD9358E
FFE61764
000E691D
002C69C6
00387A2B
0021BED2
00017EB6
FFF904DB
000CE32F
000F19A1
002A9EF2
000C6E48
FFFC08A9
00160A8C
001C6D27
0030B04F
00245FB6
001CE46E
FFFB09D3
FFAB6120
FF85F9DD
FF9C5599
FFE16DE6
00123010
00078345
FFFBD567
FFF05DB0
FFE20431
FFE488C6
FFF13B8E
000A6F7C
001E398A
001B71D3
00130AA1
FFE3457C
FFF1F2DF
0008596E
0011A48F
00190D14
0016B98A
000D428B
0014C09B
0020D630
0031D6BA
0016506A
FFF480B1
FFBF1C02
FF8886E2
FF7F561A
FFAA4FC6
FFE8A34F
0019B6BB
0003D617
FFFDC9C9
FFE2A0D1
FFE7D48D
FFEF84AA
0007246C
0000A231
00033213
00109E7B
00135BFC
FFE93EFF
FFF46584
FFF7D8F0
0018C3F8
0012DF1E
000CA804
001643B7
001F3E3A
0007FFE1
001C37C6
FFFE1384
FFCFA065
FFA903FE
FF91841C
FFA406A6
FFCBD266
000EE017
0014BDAF
FFFF0FC7
FFF8814C
FFF4E188
FFE63F8F
00000791
000F2E8B
0014632D
001AD164
000CB819
0019CCED
FFE9082F
FFEAE5DF
0012521A
0000F028
0022529B
FFF80002
000EC7A2
000EFB43
000483EE
000E6604
000585AC
FFDB60D6
FFB67EA0
FF9EAA6C
FFD04065
FFF15DBC
0009FF8B
00070A67
FFFCA0BE
0002F993
00085EC0
FFFC1C41
00137479
00286A9B
00275528
00152CE2
000CB026
0014498A
FFE4B6A3
FFE5B5E8
FFFDFB0F
0017202E
0003F52C
FFF40DE9
0015BAA3
000D313B
001DDBEF
0016F8DF
000AFB99
FFF1EA58
FFD4D32A
FFCBD002
FFEDAA37
FFF292AF
000F2988
FFFBE1C4
0003658C
000EA683
000261A4
001BB22C
0028C295
00105B5C
0012BC3E
FFF6B4B6
0001281D
FFFD8E2C
FFE7D752
0002E812
00028AA3
00165DAB
FFE660FE
FFE7E6F8
FFFC95D9
FFEF33AC
0005E228
00145B4B
000AD232
0000D696
000D4B7D
00043DB1
000BB3E9
FFFD0B13
0009737A
FFFBAA6B
00060A57
00144FB0
00079CBE
001C5298
001BF874
00191473
0003A78D
FFE665A3
FFE89E50
FFE84D7A
0003B88F
0002EA3A
00082563
FFFCE190
FFE28D25
0007DB04
00050DC2
00083183
000603D5
000489EE
000E3CFE
000FF888
001D3538
0022CB5A
0012B836
FFFEF592
FFF8D75A
FFFBA5B7
FFFFC6F9
00106A14
0018DD16
00169B59
002D5AB7
00201874
0013D407
FFE8B153
0006AE71
000B8BC8
000EE292
000AAE13
0005E472
FFF93239
FFE5A056
FFEB0A7A
FFF21B15
00062A4F
FFFA7E4C
FFFD48DC
FFFEA26A
000FC3EC
00233B32
000276C7
FFF935E2
00060AD3
00075AC8
0002B29B
FFFB9BC4
000A028C
00176EAA
0027BF60
00193B23
00262000
FFFC2BD9
FFDF8BB3
FFD7B057
FFFD4988
0028FE1E
000B2B1D
FFF70D5E
00046DB4
FFF58AB5
FFF02B4A
FFE1F2C6
FFECDF9F
FFF54263
FFF43FFD
FFED3DDB
000693D4
000B77FE
FFFBE1BF
FFF899C5
FFF7799E
00073EA9
0005BB25
FFF4ABBC
00045288
000665BC
00108CF5
0007ECE7
000B8F36
FFE7AB54
FFC2CEB1
FFD75CAD
FFED6343
001A9530
FFF7DF8D
00006967
0005ACCF
FFE626E9
FFF58D34
FFE4BECE
FFF21D00
FFECE802
FFF796BE
0003BCE7
0015E43D
FFFFF1C9
FFF8B59D
000936A5
00019816
00128288
00075E03
FFFFCCE1
0005AA1E
0001BE64
000586A8
FFF19B17
FFFCE4E7
FFF177D6
FFD1FE9C
FFE46C1F
FFF12E85
FFFA61E9
00082338
00001994
FFFE953A
FFE78430
FFF97D2B
00023EE7
FFE52907
FFF09B1A
FFF25898
0011D201
000FEF0C
FFFA1AE3
000AD71F
0013C126
0016C70D
000A7EC3
000777C4
001693DD
000F57AF
000974D9
FFFAA227
FFE951A9
000B6313
000F678F
FFF56316
000137E1
FFF6E652
FFFBBB96
0005C238
FFFD7A64
000217ED
FFF9B9AE
0002D456
FFE469FE
FFDA4076
FFDDC4FA
FFE82ECA
00017C71
FFF509EC
FFE4B589
FFF594F0
00003CC5
0002C73C
FFFC7C75
000AD3F9
0005AEB8
FFFC9096
00021306
00192B4E
FFF53226
FFFEBE7F
0014C287
FFF7B5A1
FFF85692
0002CE36
FFFEA189
FFF98A73
FFFE8D2C
0000F2CC
FFFBAEC3
FFFB6AD7
0019B704
0010249E
001A31C2
0016FBF1
0012B43C
0004AD6D
00059F93
FFF1DE98
FFFB8354
00298057
0001A4B4
FFFCC48F
000A6D2C
00365EBE
00161822
FFFD7AF5
0007FB22
000D181B
003000A1
00143B4E
FFFDDA9D
0000C3F8
FFF8F01A
FFF92497
