00030CD1
00091ACC
000073A6
FFF8E026
00012FD4
0001A62C
0001DDCB
00005484
FFF8DE76
00075A33
0006ABBE
FFFE1DDB
FFFF4191
000FC697
FFFAAAAE
0002B74A
FFFA9026
FFFC5929
0008187E
0002A174
00049786
FFFF34A1
FFFE3C1C
FFFC4157
FFFC22F4
00066891
FFFE857C
FFF826F6
00023055
000507C6
FFFF8FA8
FFF941F8
0005732B
0011F85E
000898B5
00031BC1
001471CF
000B406C
0013D066
0008C213
0017AEB4
001393E7
001446A0
001A94C2
FFF82D61
00110CDA
0016BEE3
0016C455
002C7AA8
0014B76F
00184E9B
0011CDEE
0007E7C7
FFFEED64
000307E0
00092246
0003DCB8
0008FC0A
000A563E
0001FAAC
001185DE
00020693
001736CF
000A0782
000885ED
001482BA
00155AA5
001E9FAA
001E443F
0023CE2F
0028CD40
002654FC
000E8B8C
0008B8A6
000FB079
000AE1A7
001C03D6
001F7393
001F980E
00125562
00084C1F
FFFAAA99
00035C3A
FFFE338A
FFFAC081
FFFF3E1B
FFF3582F
00101BF3
000400F5
FFF5E34B
0003ABB7
FFF7C5B4
FFEA4C92
FFF66E7B
FFF12242
FFF2903B
FFEE4890
00069894
00067BA4
FFF5F4C9
00053459
FFF6ED17
0000EFED
000CC5DA
FFF52415
00075B06
FFFC46DC
0000BFD1
FFFD8FE7
FFEE5FA1
FFF65B2E
00031BAF
00054BA8
00055721
FFF9F4C1
FFF64450
FFFD723B
FFFB38DE
FFFC83C0
FFFB3C9C
FFEB772F
FFE83020
FFF8846B
FFE6B0FA
FFF7EE2D
FFFCB80D
FFFCDC7C
00029C24
0012501A
001A6739
0019D43C
0010C6A2
001014F2
FFEBA43E
FFDCE0BC
FFE22998
FFD30A9B
FFDAA16C
FFFDB59E
0018FD20
FFFC5C20
0008D8F4
00302C72
FFF238D8
FFF26DAF
FFE772BE
FFE391C0
FFF576C7
FFF3902C
FFD731C8
FFE73890
FFDFA5FC
FFEB7DBC
FFF64ABE
FFF073E2
FFEB84C9
FFF00D20
0011CA4A
001C56A8
001F3692
00111186
FFFEB5BD
FFE440C0
FFE2A891
FFD6A62C
FFD2F8A4
00166514
000EA610
00017C5B
FFF1766B
FFF806EF
FFFCEBD1
FFEB9DA8
FFE157DC
FFD92976
FFE7A7D6
FFDFE256
FFD109DC
FFDD1BBE
FFE3FB19
FFE94E1D
FFE9BFDC
00022B6D
00075F91
000DB45D
00202C3A
0024AEC3
00120653
00151141
00174DC3
FFF47C30
FFD8928E
FFD8B2E6
FFD3FE10
FFFE7C25
0011DC32
FFF6E2AE
FFF0CA06
FFF89AA9
FFE246EF
FFC7B8C6
FFD35DF8
FFCCCA32
FFD43500
FFC76083
FFC3DB36
FFDFF67E
FFEDF3CA
FFFCD40C
0004BF72
000CFC1A
00191604
000E6E8C
00023364
00057058
0011C04F
001270D8
001E6B7A
00187DD9
FFFBE486
FFD7FC9C
FFD3926A
FFF88228
000E78B6
FFE68610
FFF70BE5
FFF8E262
FFE000D2
FFDC6313
FFD9203C
FFDF330C
FFCD1F2F
FFC7C582
FFD41344
FFEC72F5
000D7DFE
0006867C
0017ECF9
000C5FD2
FFFAFDB1
FFF16BCD
FFF095CD
FFE75A98
FFFE6F70
FFEE2F79
00012D05
FFFFA871
FFF7BFC4
FFE3C93B
FFE47914
FFFD1F3F
FFFB47F9
FFFA6682
FFF2E531
FFF93FA7
FFEFCF2C
FFD656A8
FFD59071
FFD01F73
FFC12560
FFD8E6A4
FFF3F235
000D5319
000AC5B1
00157BC6
000D6B19
0008507F
FFEF346C
FFDECF09
FFC93238
FFCE9FB4
FFDE3047
FFE67303
FFECFED4
FFF46E8D
FFE361DA
FFF92356
FFE43D80
FFDC95D2
FFE4679E
FFF5C6C7
FFFDBD7A
FFE2161F
FFD7E9CF
FFE02CE2
FFE42C84
FFD34CCE
FFE07B8B
FFF3926C
FFFDA937
00027152
001151DA
001B340A
00098645
00093820
FFFC851E
FFE33F73
FFD9E88C
FFDD19A7
FFECCE9C
FFE59627
FFDF1760
FFD2C361
FFEA075C
FFD94E5B
FFC4F994
FFD8D262
FFF435FB
FFF7AABF
FFDE4D01
FFF2B956
FFCF4713
FFF0EC75
FFF0971F
FFF536FC
FFFDB486
00034851
0001D6D5
000940F4
0009A649
001A4C0D
00183EA2
0008F2C0
FFF50D7E
FFF38325
FFE920B9
000489FD
00057E83
00044046
FFF3D044
FFD21085
FFC6CA0D
FFD3DC94
FFD349B2
FFDE0CE8
FFF3F76B
FFFA6BFE
FFF4FE36
FFF46FDB
FFD758FC
0004187C
000C9566
000DBD14
00000695
000BC2F8
00058A4F
FFFAE02C
0012A103
00091FE4
0010FD2A
001BFC45
00135F4C
00179E8F
00153CCA
001269B9
000C32B5
FFFA8B51
FFF95A91
FFD2C6D4
FFDB8914
FFCC78C9
FFC5B88A
FFCB785E
FFF3B317
000392B8
FFF83838
FFEC673F
FFF53844
FFF5D094
FFE4B181
FFFE756C
000DDB51
0016FC37
000B9F72
FFFC0B8F
FFFC94E4
FFF8F843
00136C85
001D78B6
00174421
00187E4D
000C2836
00091EC7
0004C9A6
FFEABFE2
FFFB1078
FFE1F84D
FFDE50C7
FFE35860
FFDCFC37
FFE1E018
000F1374
FFECBD5E
FFFA5FCF
00036A61
FFF891A9
FFE8EAE1
FFD7927B
FFEBD1CE
0005A8B3
00072AD0
FFF9A432
FFF88500
FFF238F2
FFF4BDE8
001327B4
0010FE14
0015DF67
000F2D95
FFF94554
FFF90769
FFF33A58
FFEAE626
FFE3AA83
FFE535EB
FFE5D637
FFE7A2A5
FFFA529E
0012675A
000971E4
FFF02067
0005EF92
FFF5E200
FFDD9A74
FFEB2B70
FFE01820
FFFEF7BE
000989EC
00119378
FFFBE900
FFFD63B0
FFF92E40
00009F75
001DFE4C
00175939
00140782
000A4E08
0003CC74
FFE7B3F2
FFDCC22A
FFE54E73
FFD6D284
FFD1F508
FFCFF1F2
FFF31815
0009A641
FFF48059
00129D4B
FFFD6F24
0000CA1D
FFEFC3BC
FFDF881D
FFF0D9AE
FFE3F5BF
FFF69551
0016BD71
0016C116
00004B1A
00036C3A
00173D1F
0011523B
0013FD7E
0011E7AA
00079795
0010C8BA
FFF612CA
FFEBB823
FFD33D65
FFD24CBC
FFDBA38A
FFDF32EC
FFDD42C1
FFF45FCC
000C5CBE
00122FEC
000A280B
0001C294
FFF705CA
FFE80A92
FFEF73EE
FFEF81EF
FFE25E08
FFEC6D1E
FFF503EE
FFFE3296
000C73DA
001C3136
00190014
001C6778
00117E9C
000B093F
000F2F65
FFEFB358
FFE1202A
FFE303EC
FFCCD83A
FFD9CE23
FFEF3C68
FFE8F7BE
FFEB76B6
00007EC4
001C78B3
00217826
0012BFE0
00091412
FFFFF694
FFF35311
FFF5CB5C
FFFCC2DE
FFE2CC6A
FFE40BDB
FFECB957
FFEE9406
001B9A5C
00216266
000D1532
001ED2C9
001435EF
0012B58F
FFFBE2CC
FFEED468
FFF1820C
FFEFD447
FFDC6E5B
FFEC7563
000D97F9
0013A9B2
002125D4
0017D445
003197E5
0005B67F
001C05D7
00063860
FFDFA526
FFF02596
FFFD1F80
FFF44425
FFE66AFD
FFD9FC05
FFE12B43
FFE6C3B4
0003AF72
00250EB5
002383F9
001B462E
0004726C
FFFAE773
FFF145EA
FFFBF1D2
FFFC3410
0002C80F
0003B7B9
000BFE7F
001E5DC4
00352F3F
004784E3
0039C035
0028B4C0
0018757D
0020E3B4
0001D720
FFECCCE3
FFF2E032
FFF503B4
FFF16CD6
FFE50794
FFE0B760
FFE42585
FFE6FE5B
FFFF3CCA
0019368C
001A6105
000F5CD5
0002C7CE
FFFB535A
FFFCC865
FFFF9044
000D1D5B
0005DAD5
0011954D
001C2A57
0023ED30
002C2F0B
0027AC26
00398CC4
0012D16C
001E7715
00002CC8
000EC2A1
FFF8DBC5
FFEFFD73
FFF1A14A
0001AFA8
FFF35749
FFE9EB8C
FFDEDCA3
FFF47E48
00021DFB
0008F7C4
FFFAF6C4
0002287E
FFFE7259
0000EE2A
FFF4171C
00057E9D
000CFC4B
0017642C
00107FD5
0016BCFE
001E02B8
0024DED4
00234132
0018E8F8
0003AAFE
FFDFC084
FFFEDE49
0009D7A6
001079FB
FFFE29F0
FFFB2E62
0000ECC5
0004B648
FFF25BEA
FFED4458
FFF626DE
FFF109AC
FFF65F18
FFED27DD
FFFB9042
0010E25E
000A6DF1
000A1D88
00068C81
00136B72
00140488
00066CC3
001570AB
00174236
000E4883
000BAEB7
FFF997B9
FFFACD78
FFE36D06
000751C3
FFFDD5F2
FFF72BD5
00006C00
FFF23B43
FFEE5C5E
FFF87A5D
FFF003DC
FFE90664
FFE2706D
FFD9BE80
FFD6E62D
FFEC7788
FFF53145
FFF67ED1
FFFE59AA
FFFCB6C4
001209DC
00157091
0014D37E
000B9051
00026F41
0007B79D
000DCAF0
000FF4D4
FFFA8F7A
FFEFC23F
FFFF3AA3
000056CA
000804DD
0001DAFB
0000CA66
FFE02DE8
FFF895C8
FFFEEB49
FFE7ABA4
FFE4E10D
FFE88DF1
FFE35260
FFEB27F8
FFDCA8C8
FFE3F45E
FFE3199A
FFE5EF6E
FFFB70BC
FFFFF7B0
FFF9B750
00086246
FFED187E
FFEFDB01
FFEFA626
FFF6A04B
000AFC63
FFFFBB13
0001131E
00022227
FFF9BBA6
0005B194
FFFD6268
0014ED7E
FFED0FB2
FFF294D6
FFF9B32C
FFF3E3D4
FFEAB026
FFF272D7
FFE84671
FFE9B3B7
FFF263F4
0003D252
FFF918D8
FFFFE9FB
FFFB5A2A
0009B299
000869F0
FFFD8712
FFFB63E0
000402AA
FFF47FB7
FFEBF268
FFFCF536
FFF7BE3D
00029403
00003593
FFF93FB9
0006CFE3
FFF8B615
FFFAE554
00138365
00253720
0007D768
0013EC86
0011B8B4
000B9E8E
0021BBBB
001FD243
001A2638
001DEA64
001E8C0A
00235433
00226518
00264034
001EB084
000F0FCA
FFFCE844
000852BB
FFF60F37
FFEAB4C4
00073DB3
0004904E
000114E3
0005304E
FFFDB799
FFF75C66
FFF91DA1
FFFD212B
0007FF4F
FFF1B3CC
FFEDFAE6
FFF6575B
00020AB5
0000F075
0001B2F5
000B25AE
000EA25F
000AEC11
0000FBE2
00274B6A
0023D9E1
001BD6BA
001137DD
000D473A
000F44D6
000AE7AA
FFEAD0F3
FFEAD260
FFFD0EBC
0004C5E7
FFFCE4A1
FFFFE861
FFFDAFF0
