FFFABC27
000677B8
0006FB56
0000F77D
000064DE
000287D1
FFF7C62D
0004DC35
00018B1E
FFFBEC1E
FFF80C67
FFFD99E3
FFF76739
FFFF70FF
0008AD94
00096571
00028EC1
FFFF5343
FFFC2E80
0006F424
0008ADD0
FFF84098
FFFC5AEC
0008D68A
00030D58
FFFB2429
0002E127
FFFEC413
00076344
FFF6F258
FFFE80FC
FFFA162E
FFF02781
FFE9E795
FFF30353
FFE28DF8
FFE64DF0
FFFC2A48
FFE71F14
00033744
FFFE48DC
FFF677AA
000477BE
000279EF
0017C3A9
00089DB6
FFEC068E
FFDDE25C
FFD7E3DA
FFE72C63
FFE6E9E4
FFEA63F6
FFFD1C80
00091643
FFFAB492
00005A12
FFFE381E
FFFE893F
FFEFD19C
0015958C
FFF73B66
FFF544DC
FFE1709D
FFE6A9C2
FFE8EAA8
0007AF9D
FFEF00F9
FFE9D916
FFEA1C95
FFF247AF
FFF7DE0F
FFEC400D
FFEA6B6D
FFEE6274
FFEC41F7
FFE512D9
FFF38FA6
000166F1
FFF020D5
FFF100F8
00117AB5
000A3A19
00031BBC
0003BBBA
FFF7F711
FFFC4A00
0002C39B
FFF9AC0A
FFEA4C2A
FFEAB80E
FFE35E54
FFEB12A4
FFE9A398
FFF37AA3
FFF2ECA9
FFFBBCC3
FFF844CC
00057F41
0007364A
FFFEFA6C
FFFD7DAC
FFF501A8
FFF4715F
FFE96866
FFD45696
FFF49C86
00052FAD
000A125B
0000468B
FFFF4809
00058186
FFFD4132
FFF7671A
0003EBD6
FFF9E93E
FFEB0BD3
FFF77283
FFF3AA1D
00011E81
FFFBD9BC
FFFD5E72
FFF4DBC2
FFEE2DD6
FFF0E7C4
FFF9E4C0
000485D2
0002BC9E
000AAF96
000CC9E9
001961EA
000A1612
00054E81
0009D258
FFF735C7
00009FE7
0002E8BA
0003DC87
FFFC3F75
000B49E3
002089E6
000762BF
FFF8EB11
FFFE3A14
0003F236
FFFF9703
FFE5A142
FFF9A439
FFF14A3A
FFF20FC7
FFEA47DE
FFEFB723
FFF3F5CE
FFF8E8F4
000C57D3
0014377F
0018FD5D
001C9B57
0015ED26
0020DF2D
0022404A
0018ACE4
001096D4
FFFD281D
FFF1F36E
00030EC0
000D690A
0005E34E
000DAEEF
FFF8C77D
FFEC9065
0003B65E
FFF54149
FFF7520E
FFE658AB
FFDE34BB
FFE8CF82
FFE889E8
FFE14840
FFEDE641
FFFD848B
FFF4AE12
FFF9D239
00074698
0004925B
000F705A
000B0FB5
000763B6
000739F6
0009CC45
0019FA8C
0012613B
000C9862
FFE19366
FFEACA3D
FFDEF64A
FFFD8B79
00020EB1
FFEF4232
000516E5
FFEFB43C
FFFE23C6
FFE69FCB
FFF80D51
FFE5213B
FFDB4B3B
FFF5A3DD
FFF5A87D
0004AA59
FFFBBBFE
FFFD5435
FFFD5F6B
0004F9C3
00036B53
0000478E
00041B86
000902D8
FFFDED85
001826B8
0013CFB0
0006B407
000E470E
FFF940E4
FFEC7282
00041A7A
001D6EB0
000157E6
0000ADA9
00022245
FFFDCC41
FFEE21D8
FFEF50E4
FFEF9F6A
FFEAC9B1
FFFA9312
FFFD760F
FFFD873F
FFF582BD
000408C6
0002D6A0
00036A21
00085270
0004C06B
0008C50B
00029A09
FFFFD203
000FDA1D
FFFE3B6A
000F60CD
00074B9B
0003CF84
000A1CE7
FFF9A857
00015597
FFFD4025
FFF71AC3
0001B67C
FFF24BB9
FFF63A77
FFFD1EB1
FFE8C3DD
FFE656DD
FFF82D62
FFFFB0BA
FFF76F1E
FFF5DE8E
00123454
000325A2
FFF9D79C
0001F700
FFFFD721
00065F94
000C8E9F
0004F99D
0004A636
FFF8C122
001825D0
000CC7D8
FFE991CB
FFDC7E62
FFE38043
FFF9CBDB
FFFA68F4
00055A11
001747DE
00035868
000C7304
000EBB33
FFF9E562
FFF02C12
0001BF6C
FFF8108C
FFFEF9C4
00017818
FFFADEE2
0007F844
FFEE3F2A
FFDF2CFD
00047CB7
000342CA
00009386
00078B13
00057DDB
000C8E78
00191AAE
00002469
FFE1AF46
FFD402F3
FFF43648
FFF730AC
000DC88B
FFF89D74
00121799
FFFA3437
001C6117
000F07B9
FFFFDC15
FFF503F8
00019B7F
FFF2949A
FFF4693F
00003135
FFF42FC4
FFF2A13E
FFD2A666
FFCD7E76
FFDF58A2
FFF50CD4
FFFE4D52
0004B1F9
0003B008
0007D626
0014F895
00063D24
FFE633EE
FFE70656
FFF021F7
FFFFD895
FFF5582C
0004E2A3
00126511
0009F5A8
000CA9F4
000E0B08
00099D7E
FFFE24FF
FFFBAF56
FFEBAAC9
FFE78B9E
FFF3E285
FFF9E34F
FFEE0188
FFCD291E
FFD70140
FFEDA36B
FFF4B165
000F9047
0017EFA4
0016D6A9
0020D28A
00196414
0025B6F4
FFF9A02D
FFEE222D
FFE98BD4
00046E08
00085B3D
FFF66F55
000CE8FE
00081826
0015EA45
000F7E53
0011F74F
000C4B24
00056F16
FFF98B0D
FFF48495
FFEC1A86
FFF0FE66
FFEA6124
FFD95185
FFE1B6FC
FFF07377
00026C4A
000FC4E3
00208B04
00158122
002C194F
0019CC8F
0022B027
001F4489
0030B9FC
001178CB
FFF9766B
FFEF9053
FFE91C36
000AFD28
000C7118
0016C7F8
0017A52C
001D3106
00142DF6
000F5FBA
000E4411
000FB8B5
FFFC7900
FFFC2B91
FFF10090
FFDE1265
FFEACC6F
FFFAD6AB
00036F8F
00170B61
00132076
0023379E
00158CD5
0000F742
00079A53
0031AB7B
002D7BC4
00203247
0003FA98
FFFA721D
FFEC41BC
000EA9E8
00049F92
0007EE19
00048585
0016B4E8
00254ECC
0030BA89
0024586F
001E1E7A
00106282
FFF8346E
FFE5734E
FFF479E1
FFFF6662
FFFDEC51
00096997
000FEC7F
0012DF50
00148455
0013FE6B
0002CE0D
0011825D
001AAA1A
001AEB48
0016BF77
00057972
FFF30B21
FFF7CF77
0002F1CE
00066D66
00077415
000FB41B
00179D07
002918B0
003320A4
003161FC
0025FF09
00159C91
FFFFEAE3
FFF79743
000409C3
00115AC4
00141426
000FF9E7
000D00A1
000D8AAE
000EB6A8
00159CB9
FFF8FFF6
FFFBB5B5
001D41E2
002EBC1E
00190639
00012768
FFF65DBA
0003C389
FFF9B5C9
FFFAB7A8
00009400
00119C09
001D798A
00159491
00269930
0032D518
00266D7E
00054F0E
FFFD050D
0002CA30
000F984A
00103CB2
000B5EED
FFF555B2
FFF2F5C9
000538E0
000AC334
0000E8FA
FFFE9BF3
FFF3F45A
001AA193
002212D3
001CFE49
FFFBE7C0
FFF22C94
FFF31CBE
FFF108EC
00093FAA
0003E428
00170638
00195464
0021B190
001FF5DB
001EFC0F
000411E8
FFEB4724
FFED9114
FFF9CC60
0001FBE0
00040EF3
00021D1D
FFFC98D3
FFFD149F
FFFEF555
000F1403
0008698C
0008DEAA
0000635F
FFFCD990
00086F64
0019DA90
FFFF821B
0004B426
0004F71C
FFFAA8A6
0003A02D
0006957F
000C0CBF
001B6186
001E9C66
001CB8C5
001FC4BF
000184DD
FFE8C322
FFF23419
FFF5DEF1
000A745D
FFF42DE8
000361F9
0006F563
00072D1D
0007F22B
001445FE
001CA7B2
0004C110
FFED23FB
FFEA318B
0019FC4B
001675BE
FFF7165B
00145854
000DCA98
000A2D7C
00145A44
0010D250
001303A5
001B2B95
0011ECB2
000658FA
001279AA
0002DBC4
FFE2FB51
FFE93664
FFF563B2
FFFB5004
FFF3C1C7
FFF7649F
000B63CC
0004A357
000CBB86
001FFCB2
00201D14
000905DD
FFF52A25
FFEC1CBB
FFFCA4F7
FFF7FF93
FFF87913
FFFE31D8
000A4C89
001D3AE5
00175290
00189CEB
001CF74A
000CB0F5
000FA34A
0018E747
00066C8C
000539C6
FFF6CBF8
FFF7DD17
FFF1A9A8
FFFC74EE
FFFA9664
FFFC7363
FFFA6ED4
0002913C
0002F53F
00092B98
001496CF
000FA4E2
FFFA8184
FFEA8FD9
0009CD9F
FFFCD8AC
FFFE60D4
FFF6B661
000F453A
001CEAD4
00018E21
00163792
0028A729
00195F0A
0024BD74
001D9821
001C73E4
0014077E
000EC1F3
0004C712
FFF2F400
FFFA1B87
FFF84204
FFFA7339
0001FC24
00040E60
FFFEB9E9
000E2726
0021CE55
0005F8A0
FFFD0294
FFF97A98
FFE28553
FFFCCB31
000757AC
FFFE5578
0000A38F
FFF7C30A
FFE58D91
FFF69E5C
00012A8F
000D6F00
00291978
001AC388
001519DE
0010C98D
000FFC7C
000ED505
FFF93818
FFFAC069
FFECF54E
FFF0A5B4
0001088A
FFF74B7F
FFFCA90D
000FFB4B
000C2BE8
00092B4F
FFF8BF83
FFF7E3F3
FFE66E66
FFFBFD14
FFF93F1F
0002A380
FFE806AC
FFDC9690
FFD18AB0
FFD57DE5
FFE4A97C
FFF8C4F6
000ABFF2
0012909C
00084ABA
0008C6B3
0003EEE4
FFFA29D6
FFEE70FB
FFEAEF3C
FFEF6DF6
FFDD84F6
FFEA00B4
FFE9A140
FFEA2A65
FFE6F1FB
FFF85800
0003EDA2
0002F097
0010F47A
0006C58A
FFF9D82C
0004B0A5
FFF8C4C9
000ACD95
FFE93A75
FFE53167
FFE10F16
FFE0F245
FFEE8471
FFD98A7C
FFD1CC68
FFC82140
FFD0BDEA
FFC3B156
FFD2805D
FFCE57AF
FFE2E60D
FFDE1581
FFBFE066
FFCA535B
FFE8D614
FFF2032E
FFE5DF58
FFD9857D
FFDE1CB5
FFCF0274
000B3DA6
000566A6
FFFBBCE4
FFFFD8A4
0007F978
FFFBA303
00012EFA
0014AB3A
00185106
0019430F
0000EAC7
FFF9EA83
FFDB9FFC
FFDD30F2
FFF0D5C8
00103F1F
0000C8A7
FFE2DC5A
FFE22381
FFF6AD32
FFDC43BC
FFD9DAD2
FFED8F7E
FFF3CC94
FFF3B122
FFF25505
0006536D
000817E0
FFFF66A7
000551D1
00015ABA
00080B1C
FFFB0DA1
FFFD3CE6
000615EE
FFFC60DD
0004525E
FFFFC79C
00029196
000393C4
FFF4DD53
FFEFF6E0
0001E555
00133ED0
FFF64E0C
FFF622D0
FFF0E4DD
FFF67515
FFED33C6
FFE6A8B5
FFFB4DD1
000554DD
FFF66D6E
FFF6ED05
FFE705DB
FFFB9C02
FFFC33CA
0001B9AB
0007A7FD
