00039457
0000A1F0
00082B38
FFFCD671
00080CDF
0001E801
000262AA
FFFBA7BB
00063D52
FFF7DE7F
00072E29
00068769
FFFACA55
FFF7E3F4
00068C37
FFF6614A
00064C6D
FFFB19FF
FFFBC137
FFF7D9EA
00063BA9
FFFA5508
0008F9FF
FFFDF03E
0004D247
FFF984D3
0005BE66
0003D5F6
FFFEC49C
FFFFD889
000268AF
00063DA1
FFFB6615
FFF7A86C
FFE57098
FFED1158
FFF3DA01
FFF4030A
FFEA250A
FFEF37C6
FFEAE07F
FFF136A3
FFFACDA2
FFEF0EDF
FFFA1E8B
000024DA
FFF1B043
FFEE48D2
FFD9E595
FFF110A0
FFEBC68E
FFE68018
FFFE42C3
FFF726FC
FFF7C894
FFFB34ED
FFFFCB3E
FFFDCF32
FFFE3262
00140ECC
FFF9919F
FFEBFADC
FFE7B6A0
FFE1AE11
FFE81561
FFDAE996
FFD98FDB
FFCBA53B
FFD1A380
FFD9E24C
FFEA19CA
FFD07728
FFDD58B6
FFEC0169
FFF1AC96
FFE73E6D
FFE2C879
FFCFEB70
FFD6DFF1
FFDFD689
FFE7E41B
000F73A3
00066122
FFFD544E
FFFBFF4E
FFF9D12B
FFE60DDE
0000D77E
FFFAAC2F
FFE289C7
FFDED291
FFDB3F61
FFD5EAD5
FFC88B6E
FFD3E2E4
FFE00819
FFD4BA7A
FFD72AAE
FFE8DE05
FFF1B750
FFEEFE03
FFFCF707
FFFACFD2
FFE4F133
FFFA5955
0008CC4B
0007D1E6
FFF71CD7
FFFB28A7
00143062
00025552
000493E5
00059951
FFFD928F
FFF382FF
FFE82A69
FFE36BD4
FFD63F4A
FFD16A11
FFE94620
FFD62B56
FFEAA997
FFE0858E
FFF1E0E0
FFF8D19A
FFF26434
FFF38C10
0006B2C6
FFFE6AEC
000BA055
00028D54
FFFE8DDB
00042D80
0013AB13
001347E6
00104FAA
0029DFB8
002AC02C
001C9A89
FFFB7205
0003B35A
FFF72A6A
FFDFAAF6
FFEEF576
FFD6B740
FFF136FA
FFEABFCB
FFE3B8D5
FFF302BC
FFF62D37
FFF7A0C2
000ABC53
000B4FD9
000823AB
00092564
000D08B4
FFFEC363
0011F7F6
0004C6F4
00088CA8
000737D6
000DC2BD
000AC8A3
FFF70BD3
00092218
00216DE8
FFF1E338
FFE7448E
00013D0C
FFE90152
0004A3B9
FFE565E0
FFD91F55
0001AABE
FFFF59EF
FFFCE6B8
00020827
FFF7F1F7
FFFFAE4E
000D83B1
0013ABC7
000D6D78
000DE6DC
00157FF6
0007DC54
001900F3
00144536
0010FE9E
000F5E5B
000EEF7E
00198E05
0010F11B
FFFE18EA
0002C447
FFF660BB
FFF3354D
0007B152
FFD657B2
0004A1BA
FFE946C4
FFD13A3E
FFEF6D03
0004332C
FFF5FB23
FFFB00DD
00085FFF
0008FF6D
00116662
000A39CF
00162D01
000D1D3A
001E3CC5
001B086E
0011C29D
0011CA24
000E2F07
000D4B91
0012C064
00183222
001C794F
00222010
001DDF0C
0004BA54
FFF226E2
000C6CAE
FFEA2E91
00175CED
FFF4DB1D
FFD8F724
FFF97809
0004086B
FFFAFB61
0004ECA4
00130A83
00083DBC
000A8A94
0011906C
0013E016
000ECC80
00146E67
001FD7BE
00172141
00169FDC
000A130B
FFFF64B0
000CD508
0007E3F8
001FC6D6
00403C8A
00495E76
001C1DC1
00105D52
FFFA0AFD
FFFBCC2D
FFF9EDA5
00028039
FFE2F13B
FFF4E975
000D6991
FFFD4C20
0000EE4A
00096355
0014FF16
000C45A7
00145F49
001A22B4
0005CC49
000ADB25
00075431
000FCA9D
001B860D
0013692D
0009FA05
000B7CFE
FFFF5FEF
000DA9AA
003DDB80
003748DB
00106083
FFEDB1D8
FFF09E81
FFE96E71
00057A85
FFF3BDC0
00008DA8
00041A30
000C4875
00154884
000C27AF
000E41E1
000CDBFF
0011E36E
001B2E45
FFFCA0EB
0004099A
FFF6E37B
FFFC8639
000BCCB4
000CEAE2
000466D1
0000EC44
FFFEC007
001249EF
00199FCC
001B6476
0015972C
FFFFA6C8
FFF9C4AC
FFFF50FD
FFF47465
FFE3217E
FFF2BB5D
FFF29F6E
00089C61
00194024
001FAA6F
0010E4A7
0009756E
000AF40C
0011567D
000DFA61
FFFA7233
FFF90DF1
FFF53F16
FFF4BD8B
0005445A
000A4E59
000675EF
000672DD
0002C2E1
00036AF7
0003C340
00201AB2
0014483C
00222096
000B119D
FFF8A346
FFF22A8D
FFE823BB
0004B1AC
FFF81417
0018EC8E
001FCF18
00142BBF
000F6853
0009CA94
FFFE06E5
0001813D
000089CC
000969CC
FFF13687
FFF61F7A
FFF841BC
0006C6D8
0005ED14
001D22F3
000CF08F
000BFA7F
00095491
0012E9FD
00069402
FFF6629B
00028428
FFEEE4AD
FFEF1E5A
0002381B
FFEE7387
FFFBC3AE
00173E00
000B47E1
00150E5B
0012D74E
001401EE
001565DA
000E214E
0013BCD5
00137973
FFFB140E
FFF5CF5D
FFF124D3
FFF98098
FFF8EED7
00146F9E
0012A7C3
0010A957
000E5B61
00177534
00077805
FFF9DC19
000687D4
00018F93
FFE8C0FE
0000BD88
FFFF5E20
FFEA5CB1
FFFF8D74
001FC060
00174B97
00130381
001BF852
000BFDCB
000A0C0B
0010CDE7
000DF4EC
000E828E
0002B606
FFEA547B
FFF6A0A0
FFECE5DD
000AF994
001011D4
0003F191
00023DC9
000CC676
00071087
00047D15
FFF94862
FFFBC500
FFF20821
FFEA07FD
FFFB6213
FFED5A6E
FFE80FA2
FFF54598
001585B5
000567C7
0007C5F9
000DFD8C
0014ADFA
001364B5
0020C899
00164911
00020117
FFF18D82
FFE5E6D3
FFF5719A
FFF7C966
00198EF7
000EAE81
0007EA65
0000BE7D
FFFEF803
0008EC46
00019E5A
0006DD15
FFF7DB70
00026518
FFE798E0
FFF190F8
FFEDB2E7
FFE355BF
FFF1E28A
0002336D
FFFFBE82
FFFF8A27
000778A8
00198266
0015C9C1
0016497D
00067763
0001BF83
FFEA813C
FFFD9F74
0011D938
00062F65
0016FD7D
0000D4CC
FFF25EF8
FFFD9A58
FFF74CBA
FFF7DD0D
000C0FB7
FFF9160D
FFE5A1C4
FFEBF494
FFF57DF7
000287C2
FFEC0CB6
FFEEF015
FFE3D578
0004DFA9
0001A12B
000677BA
000859C0
000CF393
0012E4D1
000DCC62
00094132
00044B29
FFF3AD49
FFF89922
0015AB87
0018DCD5
00098482
FFFB55C9
FFFBF5BD
FFFAF54F
FFF54AF8
000113BA
000B7B1A
FFF7C96A
FFD97CBC
FFE37880
00151DA6
FFF3FDAB
FFF7B38E
FFF09A0F
FFE3F24D
FFFC6CCE
0003EA81
001B6BE6
001299F7
00127B99
0009D301
0005617C
00040F61
FFF48180
FFF97221
000210B7
000778FF
00077973
FFF7EE9A
FFECB81C
FFF619E2
FFFD9AD3
000031D9
00046F54
00008B94
FFF0BD7E
FFBF2118
FFE8BF2A
FFE2D470
00022C51
FFEF8521
FFFAA57B
FFFA1F80
00042FDC
00179801
00082CDB
000DB2FC
00093665
FFF2B97B
0001B522
FFF84C3F
FFFBC5C0
FFF3D8CC
FFFDC689
0006A343
FFFB9135
00031F7A
FFFE3C7C
FFF81B7E
0002627E
FFF858C6
00020EB8
FFE8CD82
FFFEA2DF
FFBCDA08
FFE5A6B5
FFEAB4F0
00014D3E
0013431E
FFF3DE08
FFE33AB6
0000DF9D
000AB0C4
000D7674
FFFFAA82
0006F64B
FFF08DF0
FFF0EE86
FFF7C97E
FFFE7AB9
FFFF3E12
FFEE7336
FFF1F432
FFF1AD94
FFFB2934
FFF26085
FFF6BDDE
FFFCAAF6
FFF97CB3
0004D9FD
FFED2724
FFF1F8BA
FFD636F1
FFDFE4DF
FFF3FAC4
FFECB013
FFEB6B58
FFDC2AC9
FFE3C1D8
0002022F
000BCC23
000FC40A
000D1496
00020644
0005EDE2
FFF9752D
FFFE27E6
FFFC7D86
FFFA9AF1
FFF5C37C
FFFDFAE8
FFEFC8F0
FFEBD72B
FFDED2CF
FFE880C3
FFFB9160
FFFFCDC5
FFFD7958
FFF5EE0C
FFF2539F
FFEBC389
0018E9D0
000CFB93
FFF4E734
FFEE3344
FFE046C8
FFEF30BE
FFF9C8C5
FFF5BC97
000B7B42
0007DA67
0005B634
000B79B9
000CCBE5
001388D5
0008439D
000AAB54
000E3781
FFFD84B6
FFF3AF69
FFF3D911
FFF6DD51
FFFE90F0
FFE5515F
FFFD8A44
000DB2B9
000FF81F
000D608E
000285E0
0006C746
0004D4B6
FFF786E2
FFFB71F6
FFED39C3
FFFC0BD1
FFF59050
FFF4B7B2
FFF732DF
00110494
00207544
0014A914
001362C8
000C55C8
00163653
0016929C
001BC0C8
0007672D
000A78F2
FFFCBA40
FFF913F4
FFF942C0
FFF02721
000A7138
000D2030
00170809
0017C61A
000B3A2D
FFF7FD6D
0003497B
00019ECE
FFFE4EAC
0001D5F1
FFF920E4
FFF0CF60
FFF12615
FFEED0CB
FFFD7521
000775BC
0014C2E7
001942B2
00246766
001E4F6C
001FB488
00129C32
00165CAD
0005592A
FFF6B09D
0000A2F4
FFFE77D4
00118E52
FFFB2FA7
000E2029
0012A2EC
FFE42322
FFE85A7C
FFEF5A64
00077220
FFFA6C6D
FFFFE3C1
00012638
001294D9
FFF7C7C2
FFF8162B
FFDF27D6
FFE73A19
FFDF2354
FFEF007D
000207EA
00100B6E
FFE1AD7F
FFFDC13E
FFFE14B0
000F0B4E
FFFBD834
FFFEC520
0000E04E
FFF39F23
000EE199
00105DB0
000BB266
00120942
FFE4DAB0
FFF94011
FFF948D0
0003F93D
FFFCC894
0001144C
00003AD8
000B8427
0024149C
001AD116
000B9915
FFFB2C31
FFFA49CC
FFF94B7A
FFFA430F
FFFBEAED
00146870
0002CFB9
00055EC7
FFF51762
FFF4EE25
FFFEE8A1
FFF1C91B
FFE5FCAA
FFF6E79F
00049202
FFEE25F6
FFFDD728
0003D0AC
00025912
00019C5C
00075CF4
FFFA3824
FFFFD4D9
0003A38B
000235BE
FFF28666
000048AA
00014271
FFFF70FE
FFF1C639
FFFA17EA
FFF4AD3C
0003E817
0005B38D
FFF33701
FFF81E04
000B0227
FFEDB1A4
FFE24644
0000A908
0008D0F3
0007C9B8
FFEDB9CD
FFFAB2D5
FFE268B2
00082F4D
0006BC12
FFFF14FB
FFF7E779
