00082098
FFF8B8FB
FFFBD824
00004BDC
00060A41
00021EEE
FFF72FFC
00016F47
00091046
FFF77BE2
FFF747BA
FFFC310A
00072A2D
000E50D0
FFFC7622
FFFE9672
FFFCB72A
FFF717ED
0004EDA3
0003AA57
00073BB5
0002E196
00069FEA
0006C14D
FFF9F23B
00052047
FFFEA9EB
0004FDC2
00034BF5
00044ABA
0007907F
00017885
000EA0DC
00050B16
0004AFAB
0008D406
000E9455
0009CF68
000FFA81
0004811A
00156CA2
000503CB
00147FE1
FFFF2398
FFDFF068
FFFF4BF1
0012F3C1
00117D2E
0028E5BB
000D2FF1
0008CDF5
000D2958
00048EBE
000021E3
FFFEC380
0003B778
00051E18
FFF72041
0005564C
000365FD
FFFF9671
00044D96
0018A52E
000B0005
001A1AA2
000C54E8
0013860E
0023BC71
002325D0
003772CE
002E8762
0031B6FA
0016D6AF
0015C0B1
0002EF14
000C27BA
FFFD829D
000FB1C6
0008452C
00025508
0004DC6F
FFF850A4
FFFEB5B8
0008D83D
FFFB78F0
00076565
FFF2E4D3
000A14C3
000B760F
00035E07
0018190E
FFF49ADE
FFF3BC0E
00189BBB
000467F9
FFF73981
FFFC7675
000521D5
FFF4ABD3
FFF9A6C2
000BCD64
0008BA58
0007D79D
00012783
FFEEF06A
FFFA0724
FFF464DE
000EB2A8
FFFF98F1
FFEDAFC1
FFFF2BE8
00046BDB
FFFE5600
FFF98D51
FFF9F4D7
FFE282D1
FFF4F8C5
FFFE3A61
FFF19881
00019E00
00049C7F
000D2886
0001A146
FFE8E8F6
FFFE0A8E
FFF906AF
FFF830C4
FFF6645E
0008525A
0010A7FB
FFF84262
FFFA93CD
FFFA7BB6
FFF1D9C0
FFF98804
FFED82CC
FFEAFE1F
FFDCF1B8
0005B72E
0020CC4F
0007353A
FFFE68AF
0007B543
FFE54D13
FFECDA4B
FFF3BC3C
FFEF5583
0003E10A
0008FD5D
FFFE7D07
FFF12D27
FFEBB7D6
FFFB7F70
00008717
000AFB20
00028D81
00021A8D
FFF4EA62
FFF77F9B
FFF8239A
FFF6A6CC
FFF966A8
FFF8A016
00078050
000F58F3
FFFB52C7
00035AA6
001087EA
FFFA3599
0000985A
FFEF1573
FFDDD94D
FFEF5A2D
000076CB
FFF57CFB
000876C4
FFFED26A
FFF36E28
FFE896C1
FFECE159
0000539A
FFFEC7A5
0006FB0C
000D5AE5
FFFC296F
FFEDBA4D
FFD90A60
FFE7B979
FFF349CF
FFF2CA4F
00057E9F
001EB9D7
0009E21C
00133ECE
0003ED24
000D971C
0003E19D
FFFE66D4
FFE6A5B4
FFE062AE
FFE8EE75
FFFD5D86
FFFC2C76
FFF5E095
FFEB7277
FFF22D3B
FFF48B62
FFF64DF1
FFFC9206
0001AA10
00010778
FFFD138F
FFE4FFD8
FFE9FC9C
FFE73D36
FFEBA244
FFEFA6F8
FFF8F918
0005901C
0016C442
000F3932
0000D046
000D7A75
00098DCE
FFFB233A
FFEFAB1E
0002B4AC
FFF29536
FFF4AA84
FFF72D03
000E9346
00052DD5
000486A9
00071796
FFFCAF63
00041646
000602EA
001E9580
0010F296
FFFE9171
FFDF2E6B
FFDD8BBA
FFD8E2FF
FFF2B41B
FFF2F834
0001C6DB
FFFA0925
0009618E
0000AB64
00058986
0013AD84
000982E9
001A284A
FFF93B9A
00090A1A
00011F32
FFE84FFA
FFFB4ECC
FFFFC577
000AF884
FFFDFE66
FFFF1D15
FFF9AE9B
0000F4D1
000BD968
001BD469
00161A52
00046170
FFEB641A
FFDE3738
FFED3F67
FFE26DD3
FFEA700E
0009129D
000848AD
00035623
FFF3ADAD
FFF02640
FFFEAAF4
FFE600CE
00132C7B
0009E4A8
FFF66C70
FFEC5A5C
FFECC307
FFEDDF93
FFFFCDD5
000AD7F8
00024481
FFF9E696
FFFEFFE9
0004577C
000A0A82
0012E834
00199766
0013C4B6
FFF22750
FFF0280A
FFE15A86
FFE5C529
FFF21189
0002C7C0
FFFC169D
FFECAE48
FFDFF619
FFD521DC
FFE4AD48
FFF629B1
FFFDF791
FFFAE1B1
FFED8852
FFDE2030
FFDB042E
FFEACB15
0012B562
0019E4F8
00083383
000DF50F
0007BE80
00046ADB
001D3A74
001CC65D
001CBD43
0016F21B
00008C04
FFEC21D3
FFDFE3C2
FFF2CAF2
00011581
000ADBF5
000E48B7
FFEF87D8
FFD50E99
FFCFBEB8
FFE57BE9
FFFD4892
000636DF
0005051E
FFE63C8A
FFE4071D
FFD6F393
FFE3CDE8
00036C10
0002586E
000325B8
0000CB29
FFFA8190
00013460
00181406
0018401A
00221A50
002481AC
000AA7EB
FFE6933F
FFE37B22
FFEFEA65
000BF296
002AD957
0024A342
0010E9EA
0010A0BC
FFD8BE88
FFD7E124
FFEE8927
000B1300
FFFBFFA3
000047C1
FFE61225
FFC9BE2D
FFEEA277
FFF0F869
FFFD1C5F
FFF88F11
00054C41
FFF8F5C7
0006B652
0009C28D
0012F914
0012ADEA
002C97B1
0014CEC9
FFEA35C6
FFEFE210
000B425C
0021B1BE
00243850
0020E368
0022BA58
00127454
0000D17D
FFEEC039
FFFFE03A
00066B4D
FFF5252B
000B2CD4
FFF8D256
FFC87455
FFE1EB20
FFE7BA1A
FFE61AE9
FFF49019
FFF3EEB7
FFF0DD61
0001B3C2
000B92D5
000CBF9D
001E0F4E
00131660
0012F76B
FFEEA94D
FFF12DAF
000532FF
000ABC78
00074606
001B67EC
0011952C
FFFF7177
000C296A
FFFE706F
000D0768
FFFEF83D
FFF8372E
000C0DAE
0002143B
FFCF5BA5
FFDAF591
FFE4F67A
FFE0DAD0
FFE30185
FFE68AFD
FFE9BFE6
FFFE6536
0009C3EB
001A7823
00326B0A
001DF15A
0007A177
FFE57146
FFE70F7C
FFEA2147
FFEDD668
FFE5D2AA
FFF4F217
FFFE3923
FFF30CB3
00159F2E
FFF842EE
FFFD40AD
FFFA237F
00056B37
00010BDE
0001733F
FFDB8FF2
FFE424C5
FFEC0D8E
FFE62D38
FFE43F03
FFF95EED
0007FB2D
0016CF8B
001C4778
0027D438
00223FA2
00141171
FFF8EB5D
FFE52B3A
FFE94408
FFE4D4E8
FFF1C998
FFD95702
FFF10A8C
FFF76E2D
000BDF1A
00207231
FFFC0415
FFF62C96
00009356
FFFBC2E8
FFFBF24B
FFF9AE20
FFE0A048
FFC54A38
FFD1A85E
FFDBA5B6
FFEBAA77
FFF80C04
001C0F52
00242B17
0029BAC6
0025CEB0
00245D84
FFFBB30A
FFF51B44
FFEA79FB
FFF40593
FFF9AFC6
FFF5EA5E
FFEE20DC
FFEF3FD3
FFF426AD
0007170F
000DDB99
000618DB
0004DA6B
FFF0458C
FFFD42C2
FFE6F002
FFF90191
FFCF682C
FFBDAD52
FFC9D830
FFCB82B4
FFE18667
000918E6
001BABB8
0017E4EA
003144EB
00156833
0007B368
FFF435E9
FFEC77B2
FFE11045
FFFB6019
FFF36354
000636B1
FFF4701C
FFEACDD9
0003FF10
001A7814
0021BC3F
001D4864
0013BD4E
0003A54C
0009FC40
FFEADB1E
FFF6ADA4
FFCDDF5E
FFB943EB
FFC21BEB
FFDF6C0B
FFEBB043
001F0D1E
002BA564
002E5847
00165C46
0012CEAC
FFF8275F
FFFFD363
FFF2D71F
FFF17CA0
FFFC2657
FFF28469
000966F6
FFE6AA55
FFED0DD5
FFFDBDF3
0012CA20
0014818D
00176D92
00112495
00019E40
FFF83BC3
FFF13C92
FFE82E12
FFCC17D0
FFBA2A26
FFD533DF
FFDFE2AD
FFECA0AA
00053199
002307ED
001ECFD5
0018DCCC
FFFF6C39
FFFF5239
FFF6C934
FFE881A8
FFF4A7E2
FFF724FB
FFFD9063
FFF86FCC
FFF102CC
FFDDB138
FFE8CBDB
FFF93F62
FFEF43B7
000FDD01
FFFBC3CB
0006DC3B
FFF5F872
FFF2785A
FFEC63E3
FFE0EB87
FFDA0333
FFDF1E56
FFE6B462
FFF0F938
000AC580
00069C68
000C7F29
0009CA23
000EB96D
00024064
0002F993
FFF7C6C5
00003B0E
FFFB19E0
FFFE0087
FFFB4EFD
FFEE6ACD
FFE73E59
FFFA3009
FFEAE56A
0004D528
000BB407
FFF85C26
00047245
0002C317
FFF6FE55
FFF1B045
FFEBA695
FFF26FE9
FFEC6CDF
FFF8DE3C
FFFF768A
FFFF8A77
00083AD6
FFFEB412
0000855F
0005497D
000B0A13
000D1B06
FFFEEDB6
FFFC10F5
FFFBA3BF
000955CE
FFF4AB93
FFFDF97F
FFE8FF70
FFFAFEBC
FFF4AEC8
000272A4
FFFF954F
FFF8BE55
0008EF96
FFFA16EC
FFFBFDC7
FFE57372
FFEA5A4C
FFD95698
FFEB5511
FFECC99E
FFF42312
FFFF079D
00031E12
000EA2A1
0022D62D
001F666A
0013CEA3
00093A74
000BB464
0003E5BF
000D7D43
00173DCA
000581DB
FFFC88AC
0001ECCA
FFFD681D
FFF453C1
0006AC4D
FFFD315B
00060606
00052E1F
00042590
0000A418
FFE528B6
FFCA1107
FFC61C3A
FFE0F319
FFCEA6C5
FFEBECDF
FFF9166D
0001FB31
001CD652
00151D0C
00102048
00118A08
00037C52
FFF84F4E
FFDC04B5
FFF2B509
00093A6F
FFF88C79
FFF444DE
00018EA8
FFF8BDC7
FFFFF8C5
001183B5
00121C7E
FFF9365C
0001A960
0005CE2A
0002197B
00055D7E
FFE5AB72
FFCAA386
FFF67D8D
FFE67D5F
FFC85E60
FFDF7D6C
0001F404
0004ECF0
FFE0B2F1
FFEB2AC8
FFE15A64
FFD5AA2C
FFB9B5AC
FFCE50E8
FFCB3BD1
FFC64710
FFE5C1E3
FFEC7D2F
0006D9DA
000B2DA6
FFFBD0C9
00074F20
00137F62
FFFA8FB3
0003C6A9
0005B01D
FFFE8C1F
FFE59FC0
FFDEBFA1
FFDEACEC
FFEA8A4A
FFDE1928
FFE4A13E
FFC983D2
FFC79DE4
FFC4086E
FFBBCC42
FFB3ADD1
FFAC33A2
FFB1F620
FFC5293A
FFBFE7C6
FFB1D192
FFB9CC4A
FFD1D724
FFE7B529
FFE03B2B
FFFF71B9
FFFF8D13
FFF981CA
FFF919C5
FFFCE78E
0002BF93
00016B77
000593C8
0005EDBD
000A7C2D
000AA82E
0003E755
00025973
00079950
FFF01E04
FFF9CD6B
FFEC8B58
FFE1F439
FFFB84A8
FFE39C89
FFEDFBBA
0003D458
FFEA9CA6
FFE44E0F
00041C69
0003E680
FFFC2321
00042955
FFF8B193
00033786
00040449
FFF8F7FE
FFF6FFBF
