FFFE87E0
00074DD8
FFF99119
000331D8
FFFD7296
FFF76D5F
0004EF3C
FFFA84B4
000565F6
00061BB1
0008F1D1
FFF71739
0009DDA8
00063684
00082793
FFFF4084
00088122
FFF8D729
000215DF
000890FC
FFFCA226
FFFAC83E
FFF998D7
00028467
FFFC3D4F
FFFF8937
00018076
0004D565
FFFF880D
FFF6FA03
000741C1
0005EF5D
0006584B
000F65DF
00165988
000C87F6
0012C669
00114A94
000C2674
00169C3B
0021ED3C
00127DEB
FFF0583F
000B178C
00272E43
002042AB
0007499A
000DE763
0018D21F
000D446A
000AF792
000B8E7B
FFF8E5FB
FFFFE9E2
00043E4B
FFF8FD39
00060AA5
FFFD5226
FFFF9465
001497BB
000C9D2D
00048CAF
000FBC49
0017D25F
00284C12
002A7785
0032F2AE
0041C20C
00183DAE
00008091
00052D05
0001B8DD
FFF98053
FFF3010F
0003F45F
FFFE966E
000857E7
001524AD
001582F2
00182322
001563B0
00059458
FFF92483
FFFB8FF7
FFFE9B62
FFFFE31F
FFE1F393
0022B2D0
00081949
0005C2A1
0007CDD5
0003216B
00108796
001B70A5
0019E434
00176A0B
000F5ACC
001BC507
0014F87A
000487D7
000A5393
00080716
FFFDAE32
FFF3F5A7
FFF63541
000350DF
00050E5D
0017BE75
000AD649
FFF4F83D
000A45F4
FFF94476
0002DF01
0002695D
FFECC880
FFF5E352
00083CCA
0001D856
00178EEA
00129BCD
0005E60C
0005484B
000B8F7A
FFF823C4
FFFEDF5E
0001F3CB
FFFACABB
FFFD4A41
0003FFF0
00111752
00046608
FFF6FF8B
FFF93A96
FFEE93BE
FFF2BE00
FFF5783E
FFE76C10
FFF3B97A
00086A6C
0014801A
FFFC5F80
FFFD93EC
FFF57ACF
FFE9F039
0008C442
FFDD5333
FFF70FE5
FFF5A7A4
FFFC8E90
FFE9BF84
FFEECD88
FFEC6D18
FFEDAE5F
FFF19DBC
FFF55B5F
000AE06E
0009008D
001BD88F
001C15EB
0016ACF1
000B4904
0003D621
FFFEA2A3
FFED2836
FFFB27A7
FFF6888A
FFFD89EF
000F5787
FFF6FE42
FFEA76AD
00004955
FFF3E788
FFFFFCEB
FFE0BD4A
FFD93FCB
FFEA54BE
FFCE4E5D
FFD9CA04
FFE7A3AD
FFE965C7
FFE68055
FFDF010A
FFF1BC8F
FFF6068F
0011D705
001E8E8E
0021CE96
00123108
0007E7E3
000E5BDD
000B61B3
FFEAF3A1
FFF105D5
FFF4C8E5
FFE5B394
00024CA3
FFFE4E37
FFE5DD81
0004E55B
FFFAC972
000C6852
FFD3D992
FFE63160
FFD7B0D9
FFDB9308
FFF5553E
FFF40720
FFF2A458
FFE56892
FFECE2ED
FFF86D49
FFFE3940
FFFAD0C0
0012CBDF
000CD536
000F348A
00083406
000C6516
FFFFFA38
FFF80B1A
FFFFC739
FFFBFAF0
FFE796AA
000DF835
001800E5
FFF5F608
0009E39C
0000BEC6
FFF8DA1A
FFDD1E54
FFE834E0
FFDD0D1C
FFF42FD3
FFFD0023
FFF4EF79
FFEFE8A3
FFEB9806
FFFF8F82
000EAB88
000DF711
000C928A
FFFFF609
0005C9C5
001013DD
00060F02
00137444
FFFA6174
FFEFD7AF
FFE87E52
FFD96EEB
FFD44973
FFECDA63
00006982
FFF2A203
FFFBFB32
000C566E
FFFC3608
FFEFA6C5
FFEFEFA5
FFFC7A11
FFF31890
FFFC6BB1
FFF51E8E
FFEF3941
0005D584
00144E25
000A8775
FFFDE9E6
0003F909
FFF085D7
FFFA2474
0001D4CE
000BC225
00023ACB
FFEFBFA4
FFF90AA9
FFED30D2
FFBA786C
FFC21DCE
FFE79053
FFFD947D
FFF81383
00069D73
0004586D
00051238
00146FEB
001A6BEC
FFF8A010
FFEE2A8B
FFFB8405
FFF93AE9
FFF9F0B5
000E1A0E
0009EC33
FFFA2D6C
FFE7A110
FFE37AC8
FFEAB341
FFF95D12
FFFCBF24
00018236
0002C7E7
FFF66B4A
00094418
FFF13A88
FFB7CF38
FFD40F28
FFE1DA6A
FFFCBB94
FFFD0C3D
001336A3
00022EFD
FFFE7FE8
00158D06
001E0D96
0004B264
FFFA0169
00025BD9
FFF0F4FD
00030655
00017F1A
FFF433E3
FFEE730B
FFCCAEC7
FFD08A1A
FFDB399D
FFF3D255
000BB21D
0009FF45
00168989
000B32F4
001344F7
00026FAC
FFCBF561
FFC3218A
FFF0AD60
FFFA190C
FFF38C7E
0006147D
FFF8601F
000EFF5C
0014B8A6
001AE824
000BAEA2
FFFDA79C
FFFC370E
FFFB3F26
FFF69D59
FFECDA02
FFDC3E59
FFDAFDA4
FFC82DF4
FFD99445
FFDF4E01
FFF895B8
00074EEF
0018D8F0
001CC1D5
001F1FC6
00351592
00237A9A
FFE32EF5
FFD79E02
FFF06CE7
FFFA0610
FFEDF8AA
FFF391E8
FFFD3019
000FCCC8
000A91E2
00088F99
000E8830
0007239B
000B55C2
0009C4B7
FFFE89E6
FFF63A2D
FFEBCAAD
FFEDD377
FFEC8073
FFE4E5E3
FFF01692
000989AF
001308DF
001D9DA1
001E08D2
0037A3D0
002B8D1F
001B51D3
000874EA
FFF69182
001822EB
FFEFA2B9
FFEEA39D
FFD8999A
000348D5
00051AC1
0008D825
000E11A4
000FF0B5
00089C8C
00153BD0
000A1F9A
0009F795
0011C909
00104844
000780B7
0004BA71
FFEAFD3D
FFF17E86
000B8BDB
0015EA38
00225A22
001D8238
002EF440
00185F70
000F63C9
0025FA98
002825E0
0018ABDC
FFF68B65
FFF4FC92
FFDDA580
0004A108
FFF886D8
0012D361
000958EF
0012DEA7
001646F1
000C0943
0011AA17
001EA28E
001641D8
001D4E0D
001800FC
0004E5C2
FFFD2716
FFFD6367
000D787B
000E9399
001F52AE
00104FFF
0014734C
000E93D7
00170504
00258601
00021F17
000E86E2
FFFDD857
FFFB44B8
FFF956C3
FFFB3969
0005DC7A
000F739F
001193F0
0019755A
0013B8A3
00110FA9
001B0789
002CA0F5
001C6F90
000C5899
00034E87
0003B676
FFFF44AB
000A0109
000D4419
001240B1
0007FF36
0001FF76
0003ECFE
FFFE8F11
FFF8E44D
0039382A
00225F2D
001ADE95
00055C6B
FFF99703
FFFEC087
FFF61BE7
FFF6CFF7
FFFBB003
0012AC8C
001AA00A
00194DE6
0013EB0E
00226761
00225AFA
001720E0
0000BAB0
FFF4FE21
0010DF30
000289CC
0005E734
FFFD1F58
000695DB
FFF48744
00020D10
00011AED
FFF29BB6
FFF72751
002D4D69
0005B8ED
0024A5C1
FFFDE612
FFFED7CA
FFF472C5
FFF81B7C
FFF36B3E
FFEC5842
0006FBEE
001540D7
000C786F
0010C30E
001F8599
00105CC0
000ED3D5
0000EB5E
0007B668
001E299E
000C8D2F
0015769D
0011D23A
000AE863
FFFBC443
FFFFD3C0
000F0293
FFFF4C56
00051CE6
000F5BE6
FFF136A8
0025C308
0002D364
FFF4693D
FFF7FA5B
FFE8C4D0
0009BD56
0003EAEA
000777E9
00158E11
000CEF7E
00098537
00218EA2
001683A0
0007CEFD
0009CD01
000EE9F6
0017D2E2
001609DC
000DD700
0008C6C7
0006F610
00021B62
0006622D
000FFD24
0013C012
FFEAC991
00096822
0018DE73
000CFF39
FFFC014A
000704FF
000C6109
00063999
0011FC27
000CD3CA
FFFF546F
001644F6
00053FE6
0003E147
00083216
0006483E
0002D9E6
0004492D
001DC1FD
001864C0
FFFD3D6E
0004FE32
000CFE10
0008B7E5
FFFC7F57
000421B1
0004E48D
0008645C
0006F063
FFFCFABE
0006A7A0
0004F0AA
FFFA0484
FFFF781A
000E6788
00150EAF
00143706
000ACBBC
0007F8BF
00052C37
0006D5D9
000969D3
00137521
000D4BC9
000A94B6
000751E8
00120D7E
0011465F
FFFDFC4C
000A0F5D
00008DEA
FFFCC6AB
FFF4E369
FFEF1F7D
000A86FA
000B2241
FFF8B43D
FFE627DC
00008068
FFFF4298
FFFE64E1
FFF3E15D
000CE8F0
00152DE0
FFF7CD60
FFFF80E6
0018C8E2
0013B14B
00134E41
000B6442
000EEB8E
0006147C
0004DBA8
0016C6E2
FFFED606
FFFE6F5C
FFED2492
FFE55AF2
FFFED2AD
FFE885F5
FFF7B5DC
FFF36DDA
0007874A
FFF4DDF8
0000106D
FFF82C8E
FFE04EC8
000A61E2
FFFD0442
FFFCE240
FFF932CF
0000B2A1
FFE3BE51
FFF0D610
FFF13E49
0004B575
0013D793
0005DC54
000608BE
FFF43F55
FFF832AD
FFF0C119
FFF06B2A
FFD9E49A
FFDBA7DC
FFE3C8EA
FFFA7350
FFFFB702
FFF7D987
FFF03458
000E474E
0009DB89
00026420
FFEFA515
FFDC9AC5
0005480C
00026BD5
FFF8A1A2
FFEC13DB
FFCE6BBC
FFDFC028
FFDFF3C5
FFE3D3A1
FFF62CC0
0002FDB5
FFFB4D35
FFF44211
FFE4E995
FFE88CEE
FFDFD361
FFDF1AE7
FFD093E2
FFCF905D
FFDC7B39
FFF2F5C2
FFF66C7B
FFFBABB1
FFF4E493
0008095F
001E08DE
001117EF
000461C7
FFFCD370
FFFC670A
FFFC3F23
FFF9F57B
000FF022
FFE96DE8
FFE3C277
FFFED779
FFF2AE68
FFF04B48
FFE58BEB
FFE693B8
FFF0E3F6
FFEC1253
FFEC1288
FFF62734
FFE9F506
FFD76842
FFD4DBA4
FFD6EB09
FFF9D7E7
00191B0F
002CE980
00086E0E
FFF98F67
FFFC3640
FFE70BF7
00168C74
00097310
FFF85D1A
00088509
FFFC8376
0006313C
000F109C
002E6AE6
00326F68
002C90FB
00120934
000E28CF
0005C161
FFFB5E51
0006F4E0
001FCB28
001EBF70
001FB8A2
00081E9A
00049957
FFF4E2BD
0012FE9E
0015D58A
001D20FB
000F452B
FFF78932
00164E51
000E3ECA
FFFF027E
0005CD04
00044715
00068A67
FFF8F914
FFFA43AD
FFF925EF
FFF686B2
FFF99098
000B9709
001629EF
00070FBA
000E9F2A
FFFE98DA
000B1B69
0015460B
FFFFAE12
000F6861
00076BE6
FFFB5D77
000A12AA
00178083
001E549E
00091D24
FFF760DE
FFFD35F6
FFE5C178
FFF9DB47
FFFD2326
FFFE9FCF
0000881E
