000392D5
0005BC8D
00006266
FFFBD147
FFFFA65E
FFFBC65D
0004E8CC
FFFD60A9
000562E4
FFF929CA
0001EA0C
0007D481
FFEA7A25
FFF8ABC4
0007A0A4
0009A2C7
0002318F
FFFF843F
FFF89F8D
FFFFEA37
0007CFCF
FFFAC98F
FFFEF604
FFFC2C00
FFFC2ED5
FFFAA908
000562D1
0008C9A7
0000AC3E
FFFF5EEE
0005F2A4
FFFCF650
FFF2725F
FFEAAE77
FFE91187
FFE3120B
FFF0DC88
FFE5B446
FFD8C527
FFEA885D
FFDD7687
FFE28929
FFFFAD88
00045859
000CAED6
FFF38528
FFD8D1CA
FFDF208C
FFDD63BF
FFE69CAF
FFDED9A9
FFE04DE3
FFF8945D
00043574
FFFFE03A
FFFDADBA
0007B78B
FFFCEA5A
FFF8E2E7
FFFD5586
FFE7DA52
FFEA5DB2
FFD5026B
FFCFC2E5
FFF60130
00057410
FFFCA74B
FFF7C8A9
FFF8A04D
FFE92DB5
FFDFEC2C
FFDF212B
FFCE24BE
FF966DCA
FFA27BEE
FFA409A4
FFD54595
FFD337E0
FFD55AD7
FFE7838C
000147B9
00077146
00090138
0002256A
000114CA
FFF8629F
001EAD62
FFF4DC68
FFF24438
0004CCAB
FFE43002
FFF56C57
0008BB67
0008324B
FFFD679F
FFFFD199
000375C8
FFC9F7F6
FFC4623E
FFB74B6A
FFA806F6
FFA53D7E
FF876554
FF93CA34
FFBAA4B1
FFCBF764
FFD0A80E
FFDF6B0F
0009DD28
00047136
FFF98B6F
00083252
00005B06
00012D46
0017F7C4
00073E65
000582A7
0013D51C
001E3F42
000D8012
00140E37
000399A4
FFFBAAB6
00107680
FFFE86B7
FFDA3084
FFBE3882
FFBBD914
FFB16017
FFB29CD8
FFA9A1A2
FFA2752D
FF99A168
FFCCF45E
FFE01C37
FFF61C65
0004903B
00053798
FFEF3E11
FFEFF71B
FFF932B8
0005BBD4
000C384D
0022E07A
00307AAE
001EC53A
0013D9C5
001C594E
000CEF0A
000A8A99
00117446
000AF262
FFFED90B
FFF20DC6
FFD8CF5A
FFDC5D21
FFCB7FC6
FFC2CDB6
FFC04F48
FFBDE9C2
FFC387E1
FFC965DA
FFDA30B7
FFEB6530
000122A5
000998C3
FFECE5F1
FFEE82B0
FFF70425
00037545
FFE9D106
002F315C
002A4BC4
FFFD18F5
001D8548
0004EBE8
000DA35E
000B82EE
0005B9E6
0009A1C8
0006D1D7
000F5696
000A67A1
FFF1E94F
FFECF48E
FFCB651C
FFC83DF1
FFAB9A6E
FFAFC505
FFD5E3D0
FFBCBE04
FFC819DA
FFD75DE6
FFDEC740
FFEBAD68
FFF8EB9B
FFF43310
0006DA83
FFE8177D
00194925
001A406B
00022CD0
00067F54
FFEDFF72
00044357
FFFC62B4
FFF8F40C
000B1FBF
000A64C7
002BFCE4
0021969E
0008A80D
FFEF3A56
FFDABFBC
FFB669AE
FFBE4CE0
FFBE4A95
FFD79BB2
FFB23985
FFB388F7
FFAD9821
FFC456E7
FFDA8326
FFEC8FCD
FFFBE9C5
0014BA0A
FFD37520
FFFAFDB3
001949D9
FFFB7460
FFF33527
FFEE0D4E
FFFB2CDA
00018526
000D801D
0009F0DC
0011CD00
00358010
00445C3A
0029DB5C
000A9226
FFE67EC4
FFC588E0
FFDB79CC
FFCA65B7
FFD25CD2
FFCB48F0
FFAA866E
FFA0E6FB
FFB43AEC
FFE96BEA
FFEDF51D
00014F42
FFE43335
FFDB4AEB
00027D16
000B0AB5
000D2C4F
FFFBC86C
0004B2E7
0002D8E3
000ABFA6
00159EFD
00199162
002605DC
003E57A2
005238A9
004723C3
0010A8EB
FFF30F87
FFD920B8
FFD061B2
FFD3D7CD
FFC6FC3E
FFDA4FA3
FFD1505F
FFD14571
FFC5D712
000E5192
00133E91
FFF3EE72
FFDAC461
FFF2C3C8
00210F59
00027A3A
000AB9FA
FFFECCF9
0006A612
0013477C
00115BDA
000D67D9
001CD9D6
00242017
003FD36F
00470D16
002627EB
0012F517
FFF483B6
FFDAD90D
FFD3D112
FFC87EBD
FFC433BE
FFDAF4A2
FFF30581
FFE788A8
00088861
000B021F
000CFC7B
FFFB070F
FFED283D
00036786
001A7A64
0006BC0F
FFFF1973
FFFA5383
0001A990
FFFBC450
FFFD34AE
FFFBCB21
00123B7A
0011CC1B
0027D2AA
002F1CB4
001E5030
0014DDF0
00038AFA
00063380
FFEF4DF8
FFD42B0D
FFCC5717
FFEB1E47
FFEF5459
FFEF747E
FFFF0188
FFE3D583
0005C799
FFF68E4A
FFF0129D
000876F0
000A0455
FFFDBD7D
FFFB1C52
FFE3999A
FFE9A050
FFEAF22B
FFEC9FDA
FFDFF205
FFF1D4AD
FFFD035D
0015DC8B
0020913C
001BCB43
000FCEC8
001C52A3
0002DFFA
FFE7EE02
FFEEB29D
FFE2FF34
FFEEB007
FFF0E4EE
00073F8A
001FA2FF
000F450C
002301E8
FFF057B5
FFF2FFD9
000855AD
FFF6B91A
FFEDFC34
FFE1D5B3
FFD62FCE
FFD740BC
FFEA8308
FFF18114
FFF84526
FFF7E43F
00140448
0017D2DC
001E193F
00062821
00121B94
00165681
0009C733
FFEF20CB
FFE43A2B
FFE8109F
FFF69C4D
00020809
00275BD3
0034B8EF
0028B12B
00148C2D
FFF1DA67
FFFCA545
FFFDDD8D
FFF7276B
FFF8B4A3
FFC3607C
FFCF8671
FFDA2119
FFF54BA1
0000B0AF
0005EA21
0001C999
001C862B
001B095C
000FA30E
0009E330
0012CE1D
00059887
00000C26
FFEEF980
FFF471BE
FFFE4EC1
000289E1
001379EE
0022BFEC
00275E74
00322841
00170240
FFF2340D
00036AE4
00060D35
0003B4A9
FFEED2B6
FFEF29DC
FFDAEA4E
FFDC5330
FFF1EF8B
0006E633
00180AFE
00194786
001CD475
0021EBEA
0016909A
001C4D01
000F715B
0010B5C9
FFFBEEDF
FFF9E6B9
0010086B
001850B2
001945A4
001B02D4
003085B0
0012E3D0
001397B5
001B4662
FFFC9D88
0005FE75
000A757B
00059E7B
FFFB4EBE
FFF23AC4
FFF05ACA
FFFF7DED
FFF97550
000C7E04
000F5FBD
00194572
0026EF60
0027248A
001FF34B
00132623
000F8D63
000395CF
FFF97B85
000F7929
00143D94
0028DABD
0024FBDF
0020720C
001DCC98
002115B2
0037340D
00234C4C
FFFF1E71
000365E8
FFF717D2
000D3D81
FFF75808
FFEF5EFD
00001229
FFF90B67
000617BB
0004F0F3
000D2B50
000EDA5A
001BC5E6
00165953
001CE055
0014E2D1
0004372C
00036889
FFFDFE01
00088686
001A248A
001B3404
00258FF0
001E41AC
000E3032
00256C15
001D174A
0038814B
0018DBBC
00079CCE
FFEA9A48
00180C8B
00010AB3
FFFD1F71
FFFEC508
FFFF3695
0008D980
FFFCD67A
FFFEC883
FFFB76C4
FFF478B5
FFF1916C
0004F164
000417B3
FFFDD4AC
FFF96C26
000518EF
00109118
00081BA3
00250FE0
003B363A
002ACD8D
0015FEDB
00212614
0013B2D1
001F46C3
FFFA511E
000C329F
FFFEBCAB
0002AF63
000304B8
0004463D
FFF97426
0008FEED
00072C59
FFFACC32
FFED7FD0
FFE5E882
FFE32F58
FFF39103
0000725C
FFFDEBF1
FFF88903
000330AB
0007BC83
0008FB99
0012CF9B
00293E25
002D6C34
0024BF1B
000C5560
000B8554
002AD9E6
00128777
FFFAF2FE
00070F58
FFF71653
001E7F5B
0010E56F
00128F31
FFFD0D74
FFFAAD11
FFFD70D6
FFFB5296
FFDD2B5A
FFE9965B
FFE60BC8
FFF55C73
FFF1724C
FFEA8190
FFF06F32
FFEEF365
FFFC318F
FFFFE1FD
000908B2
00174002
00180C5A
000F1FAB
0011A5DA
FFFC90D7
00119B8E
FFFC4474
FFFAF3AE
0013931F
00203CFC
002C1843
FFFA501B
FFFD6EA1
FFEFE72C
FFE197A4
FFDD0E62
FFE577C8
FFEE0759
FFEAFDD7
FFFBD075
FFF7E220
FFF456D4
FFE32722
FFDDB302
FFD42E6D
FFEB7699
FFE938D6
FFF8F236
FFF39D4E
FFFDE2A8
0003E2E9
00113508
FFF2CB64
0004A864
FFF76C6C
0005C7D6
00036EE4
00121FBD
00129A63
FFFF2233
FFE2E132
FFF4DA9A
FFE19E7E
FFDD402B
FFDE1BBB
FFEB9848
FFF264DC
00079F8B
FFFF2E91
FFF8039E
FFE0F363
FFDA8136
FFDC41BC
FFE23FAC
FFE6A552
FFF1A8BB
FFE644E2
FFE792A4
FFE743A3
FFE70506
FFEE017E
FFE5C942
FFFDC3A5
FFFC6104
0004AB2E
00073BBA
FFF42E07
FFEDFAC3
FFE5ECFC
FFE6FF41
FFE77875
FFF5D4B3
FFF2D8B6
000959A8
00102570
0001E700
0007D3E5
00044DCC
FFF56A64
FFE5207B
FFDC2218
FFC99168
FFC3FF8F
FFD2D583
FFE5125A
FFEC9AF0
FFDA91A0
FFF651C3
FFE2C81D
FFFC1492
FFFEDFA3
FFFB4B61
0005641F
0002EDBE
FFF2C5BA
00064976
0002D1F5
FFFA69CB
FFF9448F
FFFA7A56
FFF21891
0006CBD7
FFF50FAD
00017C27
000DFAF7
FFFAB79C
FFF2F6C7
FFD7B869
FFF1AC2B
FFE7D372
FFDF9EEE
FFE97404
0010A882
FFF8299A
FFF2C50F
00067A2F
001AB085
000C7989
000358D0
0004C2F4
0007BC13
00091885
FFE54160
00042791
00271950
002373EE
002C8B43
00390BAC
001965BF
FFFE0577
0006599F
0010E437
001AE1DB
001FD409
0012068E
0015E7B1
00066ACC
FFFF4B3C
FFECA63D
FFF4D1A4
FFEC1AE4
FFDC4324
FFDE8FBA
FFE7188C
001181E6
00062C52
0008F1BE
00042267
FFF90286
FFF83FB3
000C7E8B
0017AD22
001F556C
00248B4A
002520D9
001C818D
001351F0
00240130
00122822
00145D9F
0011683D
0023F0C4
00184C22
0013830E
00175645
0008CC25
00079946
00075167
00000851
0005BC12
00260632
001B701D
FFFE8774
FFF91A38
FFF97D6C
FFFBE3C7
00069065
0002AF7D
00065AC8
FFF90B56
FFE6E9C0
000A776D
000D9FDC
00119C65
0014D0D0
00012ABE
FFF4BFE6
00094828
FFE8F52D
001D2329
00148C3A
00025DD6
FFFF5EA8
00042F17
0000A01F
000E5A7F
001368BB
001C4971
FFF8DBBD
FFFA2D1C
FFFC4369
FFF73AF8
00051437
