0008C3EF
FFFE8701
FFFEDD6E
00034DB9
0004F64D
0005C605
FFFF6AEE
FFFA623A
0002541D
000488E7
FFF9BE4B
0005D24A
000202BA
001160B1
FFFE4138
00031260
FFFA1D4F
000631DD
00061E9D
FFFA6E94
000625B3
FFFD0E0B
0000C440
0003ACF0
00052151
FFF7A980
FFF7468A
FFF960B1
FFFD1195
00067182
FFF78349
0000253A
000863FB
0007B81C
00186230
0016D9A7
000D271A
00039FEC
00102B9B
000C2D20
00135617
00004C82
FFE794FE
FFEEBE1B
00177D2B
0013451B
0007713A
00176F41
003265A2
000D2C43
000A5027
00128A7B
00033B45
00037320
0002BD29
00087DF8
00077D90
FFFD8DE3
00021110
00056E1F
0003A293
000603EB
0018BC26
001A996A
001EBAAA
0028F7EE
00298F04
002DB494
0022D4BD
FFF63D1E
000DC565
00016040
FFF75306
FFF8A9DD
FFF445F0
FFFBEF5C
000E3E65
00218ED8
001605C1
001DD6FA
00258683
00112579
00084E86
FFFB7ABA
FFFFC8AB
FFFA6359
FFE4F3A3
FFFC6F43
FFFA779F
001A071A
00345224
0035AE0C
0026A4FC
001D2F4E
00187D24
001F56F4
0019F246
0012FD3D
001387C3
0002F6DB
FFEF1544
FFF44378
FFED37EB
FFF0EDB9
00032D7B
00042862
FFF98714
FFF8236D
00058D5E
0000204F
000321F5
FFFA4EF5
000721B1
0003CB36
FFEAFCFC
000AE4C1
00199F86
0012264B
000CBFCC
FFFD7882
0003474B
0004A6A8
000C1C7A
FFFCAD4D
000E4C29
000C2BDD
FFF31284
FFEDA956
FFDB5BB4
FFE22D60
FFD513D2
FFDE992D
FFE36A51
FFE549F1
FFEAD7A8
FFF19EC5
00068216
000D2604
000DA15C
000FE0D7
000763E5
0007EB23
FFF2614D
00022EF2
001965ED
0003CB40
00021B01
FFF77155
FFFD4078
00003770
00053DD0
0003010B
00016FF2
FFF7BEBE
FFEF2EBC
FFF6C878
00011139
FFE9DEB0
FFE9F382
FFD84FE5
FFCFAF4A
FFDF470A
FFE45628
FFF9C992
00072092
00216739
0014538B
001285FE
00024862
0015857A
0016C103
00123E4F
0012152D
FFF70FD7
FFED8EA5
FFFEB05C
0000EA73
000F1B75
000AAA11
0005D3BA
FFFD1061
FFFA3A92
000496E8
00053035
000E8CB2
001537AD
FFFA47E3
FFE34F1B
FFE4B282
FFE3BB1F
FFF42A1E
FFE59BAA
FFF90584
000410CF
0000F815
0008581B
00051260
002275E6
0016AFB3
00236974
001F62E3
0003A493
000D2FEE
00051D1E
00092758
0010405A
00011ECC
00098208
FFF9DA3D
00050BC3
00063C78
0010DC58
000EA27B
000E1B95
FFFDEEE8
FFF0F208
FFF1D826
FFF5A0D5
FFF87694
FFDDD430
00036ECF
FFFCE430
FFFD7251
00048CFC
FFFF9206
000DB4EA
001203E6
0023F815
003573E6
000D8E8B
000455AD
000A9D93
00121EB0
000DC3FC
000CA1E2
000256A8
FFF76E8B
FFF210FD
FFFC2181
000E8FE4
00120D81
0015B97A
0004EE36
FFFE0B6B
FFF9C3F0
FFF32E20
00005361
FFDD8705
FFD48814
FFDA14AC
FFE90A08
FFEC4421
000E2092
0004B983
001AFD65
00270020
002DE345
00280D92
001B23C0
001272D8
000793EF
0004A3B1
FFF7B047
FFE13667
FFE60AE4
FFEB0A47
000122BC
0013975A
0011BE30
00181721
FFFD8777
FFFCC15F
000E662E
FFFD8CF4
FFF67615
FFEF554D
FFC983A7
FFD8986E
FFEF9826
FFFEB132
000B029C
FFFB58F1
000BEB2B
00332F6A
00176F34
00226743
000E1485
000AF2B1
FFF7ABCE
FFFCE287
FFE1E154
FFD4D61D
FFE79DFA
FFF54C70
FFF70B4D
FFFA05E0
000DF4FF
000C43A4
0017DCDD
0015C9F9
000882EB
FFF86DFC
FFF4F600
FFE0674D
FFBD0C14
FFE985F6
FFEB1619
FFF97D12
FFFFC59B
000C023F
001F7A2B
00125890
00058320
000F5B1A
FFF7C361
FFFD12D6
FFFA946A
FFF0B5A6
FFEC529B
FFF3B8E6
00031865
FFF426EA
FFF14F67
FFECE9D3
0004B373
001AF2FE
0013634C
00170D0F
0022C8F9
0014D13F
0006BD3D
FFD0F827
FFB3BB82
FFC4A232
FFCBEF13
FFFF3D91
FFFC72AE
0011B2E5
001C952E
FFF93001
FFF3595B
FFE8D1ED
FFF23699
FFF279F4
FFF00FF5
FFF42AA0
FFF61396
FFFB84E4
FFFB11BB
FFFC0790
FFFBE1C1
FFFB114F
0009D439
00163F5F
001A42E2
001F8FA4
001D71FA
001C86B0
000C416B
FFF160D5
FFD7EDE0
FFDFDDFF
FFDAC13C
001161AD
FFED9CB6
00004E8A
000B9594
FFF08549
FFDFD61E
FFE87BD3
FFEAF498
FFEE46D1
FFEFC68D
FFF401C3
FFFD67FC
FFFF9744
000697D0
00090455
FFFA5733
0005F7C0
000CCA27
0012B86D
00105F5F
001932ED
00159677
000DFF9B
00097CC4
00172FD0
000B650F
FFED1192
00032DF8
0012A423
FFF8FD8B
00079311
000DF649
FFF65D6C
FFED1947
FFEB8234
FFF2E680
FFEC153B
FFFAF12D
FFF557D1
FFFDFB39
0002DA8C
0010F6B6
FFFFB1CF
FFFA8D43
0007D46F
000B7E48
0004D00C
0008DA02
001117CC
00116BBC
0009F10C
0005E862
00049A37
FFFEEFDC
001632E0
001D51A8
000E0F50
FFF90E9B
0015EF60
FFFDAECD
FFF33AAE
FFFEA152
FFFED3D9
FFF36AE6
FFF23C58
FFF750AE
FFF4F3AE
00046D3B
001441A1
0008BC6F
000E77BD
000A335A
001D2C24
00096E23
000DA917
0009AAB0
001BAEAF
000EBD31
000619FB
000B0CCC
00014F74
000FD85C
001F3588
00109BF4
000D1A6F
000C90B0
00145A85
000B5D3F
FFF9B8AD
0000F2E4
FFEDE575
FFEF52B0
FFF9B93A
FFF7DF62
00037130
000AC786
000FA893
000B7CA4
0013E9E4
000D9880
000E70A8
00073554
0008CC6A
000FB49B
000D2275
000165BF
00021AE8
00023AEE
000356C9
000E3840
002BDA3E
00200EBA
00091289
0005C40F
000F03BA
0012A22E
00169728
00042D1D
FFE0FDD7
FFDBA07D
FFE6EA44
FFFE0F87
FFF320A2
FFF8165B
00157FDF
001457C0
000FEC99
00018826
00178F68
00082B8D
00190C8B
000D3844
000AE7BC
FFEE366E
000103C4
FFFD2932
FFEE264F
FFED6B92
002BFFDB
000B96C7
001127C4
0017B6A8
0010496C
000AE860
001859FD
000DA34B
FFE7B73A
FFE32B1A
FFF295C0
FFEC99E8
FFD8E9F0
FFF7F80C
0005DB21
00172921
000BEEC9
00116F8A
0007083B
0012ED84
0005414F
0011B7E8
FFFC3C9C
FFF4CEC5
FFF3BB04
FFF41696
FFE43DB6
FFE28DA2
0015B75D
00046668
000F8DC2
000026A0
000AF6DD
FFFAC42F
00089716
001803C4
0002A422
FFEF7885
FFF3F27F
FFF0345C
FFEAD6A5
FFFD365D
0008B0CE
00114B5E
000341A2
000CD172
000743C7
000F99A1
0007BA58
000660E3
00007095
FFE780CC
FFFC8CBD
FFF0BFCC
FFDE122B
FFDF4E08
FFFCD6A1
000FCA26
FFF5CB43
00006539
FFFC550B
00026A82
000FA0DA
0014C8BE
00049432
FFEF1E6A
FFF1C11A
FFFD5228
FFF70D41
00033517
FFFDB6E1
0008016C
0004E610
00191134
000CAAA8
FFFEB267
FFF99338
FFF24179
FFFF869C
FFF0FB8B
FFE99A62
FFDD2A90
FFE2E9BD
FFE3B56B
FFEFBDD5
FFF682FF
0005C097
FFEDFBD9
001ABE9A
00102A78
000D63D9
0002C121
FFF57A65
FFE03673
FFEF8887
FFF494AA
FFF505D9
FFF53362
FFFBBCC8
FFFEF22C
0002EDD6
00036444
FFFE4024
00078AD4
00010A25
FFEFF764
FFFFC1B4
FFF0C8CC
FFEAE475
FFED59F9
FFF00AC6
FFE986F8
FFF90D7D
FFF3C0F5
FFFD2AD4
FFF4A1BA
0001EA06
0016A2F1
000C08FD
FFF9FB8E
FFE84E25
FFE2B4A0
FFE61DCA
FFEDECC5
FFFF692C
FFF667FF
FFFE2133
00006AFB
0005D1A9
FFF2A368
000249EC
FFFBE934
FFF86328
FFF8D05C
FFEF824C
FFEEA9BE
FFEEA6C0
FFFB21F4
FFEAD263
FFFA3ED3
FFFC7FA8
FFF26F9F
FFFBFEFE
0008A752
00022167
0018CF22
00168764
FFFA801F
0000F0B2
000238D2
FFF99A16
FFEFD4F9
FFF74C0C
FFEE984D
0008B9D6
FFF63FD7
FFF7E987
FFF9F0DC
FFFAFFAF
FFEEF745
FFF14537
FFFCCC3B
00000967
FFF69955
FFFFABE1
FFF3DE8F
FFEBF6C6
FFFD3934
00003402
FFE54918
FFFAA6B4
FFFDDD82
0004F151
FFF792B9
0014E25E
00356D49
001BF82E
001056FC
0016C52D
0000DDCC
FFF9E3E2
FFF8D332
0006F485
FFFE14CF
FFFF952F
00051F56
FFFE47EC
00031DA2
0003DA58
FFFF5A2D
FFEEBB30
FFFA091C
0000929C
FFFC5EAD
FFFF46E4
00032ABF
001AD5E8
000405E2
FFFF489D
00027129
FFFCC5D8
0010C014
FFFC3D6B
001D9EC0
002FF49A
00245019
001A256B
001796DA
000A158E
0021837B
001E07DC
00174306
000EF049
001941C7
0001A38C
000D2C0A
FFFAEDF7
FFFA4469
000077AC
FFF9EBFB
FFF0BE1F
FFD61AF4
FFF3555D
FFEAAD0D
0003069A
000415D9
FFF960F9
000875AF
FFFF4F18
FFF757A8
0004D4B1
000B1031
00247FA6
002A327C
0039E78E
0031D176
002DFDC8
0030C888
00042B98
FFFEE1A0
0010AD9D
00173885
00040440
00098FFD
0013E16C
001751AC
0014BEDC
00112B66
00021F5F
FFF73064
0008B630
0000FC51
FFFF2110
00004595
00026530
FFF81F85
FFFB916F
FFF89CF6
000685BF
0008856C
0000C342
FFFD0707
00144470
001718C9
0007EAC8
000B71EC
FFFC0D58
00028A9D
00134E40
001CAA88
001BF837
000F5EC4
0011B4DE
002C44F6
001B7333
FFFA686B
00095410
FFFF0F1D
0009AD93
00063F04
FFFB2917
0005221C
FFFA5672
