FFF8A6E6
0000B347
0008D43B
0008DACF
0006FF08
FFF7D9B0
0007E03D
FFFFF38C
00083947
FFFDFBDD
FFFC3F3F
0005207E
0009FE1E
FFFF21B8
FFFD5F65
0000C275
FFFE8134
FFFA8447
FFFB6A6E
FFFEF949
FFFD4FE1
0008F5B9
FFF9AEC7
000490A0
FFF92D20
FFFDA2E3
FFFAD60F
00009666
FFF7A637
00051D5A
FFFDAADF
0004F48F
00090FE2
00087F96
0018F3BA
000A67F6
000DC8B0
00065CCD
0024C05B
0003FCEB
00120610
0013AEC8
FFFF9EA5
FFF0FD32
FFE76E60
FFFAE083
0013A4C0
0022AF71
002376FA
0019A2ED
0017D0CB
00117C59
FFFE28B1
0004CAF1
00009118
0002448C
0000D7AE
FFFCBB91
0011D11C
FFF2B620
FFF92B94
FFFFF7C6
001A5580
001A75D7
000D143B
FFFA1810
00142172
00126F9B
001046B2
00024FEF
0015AC0E
00080ED9
00031A7D
0004F194
00196CF6
0022991E
001E48A8
00283CCD
0024C19B
00207452
00063296
FFF30D6C
00063191
FFF86443
0008DA65
0002D313
FFEEC42E
FFF5719A
001E7898
FFFC0FE2
0015F755
FFFFDC4E
000B931D
000CEBA9
0018B3D5
000A27BF
000B571D
00051AE5
0002211B
000810DC
000389BE
FFFE5E2C
0013B546
001F7F40
00120D27
002B14C5
0028E637
0031A120
001323AD
FFF4030E
0013922C
FFF816C1
0004B354
FFF9FF23
FFEA775C
FFF8303E
FFFE0EAF
FFF247A3
FFE7CD27
FFF51694
FFF453EE
0004BDF9
0009F4E6
FFFA4E67
FFFED13A
FFED44BE
0000172C
FFF53ED1
FFFDC86A
00069D40
0008A3E0
00041FF4
0009A8C0
0011BF8E
0008BCF2
001A042B
002F6A0B
001BC12D
0015C44D
0005454B
FFFE05CD
FFFEB765
00009160
FFF70FB1
FFE4875D
FFD624D0
FFDF1E51
FFE32446
FFFA98A9
000C93A1
000ED29C
0010A962
0006B722
00011DB5
FFF9DEFD
FFF5B12D
FFF2DFC2
FFF8D7FC
FFECBC45
00025CAC
FFF611A2
FFF78B9F
FFFFA382
0013BBA3
00229BD2
00265FBE
001F0B55
000D35A5
FFF7F3C3
FFF95A07
00042D88
FFCDD53A
FFED867C
FFEE6C62
FFDAED5C
FFFB2CF7
0009E096
000EFEDA
0011B258
0009BDA0
0011772D
0003E2BD
FFFB3081
FFF69BFA
FFF99F6E
FFF006DD
FFEFF75D
FFF8FCA5
FFF671CF
FFF37156
FFF86585
00092E03
001F739E
0039801D
002DD1A3
001F5EF0
FFFC374A
FFEE24C2
FFFA0A59
FFDA905E
FFDC7BCA
FFECA107
FFE5CD4D
FFF5E82C
00103029
00099668
0018319D
0014BAA6
00013784
FFF99EDC
FFF7D850
00092F90
FFFC9DB8
FFFEA0DD
FFF4799F
FFFA0F3A
00027091
000614A8
0002F996
FFFE7DBB
000C146F
002225B2
00195F06
001B0CE2
FFEB866E
FFF12778
00027DA7
FFE698EE
FFE3AFC8
FFF770BC
FFFC5B92
0003536D
001CEC7B
0017EC4F
0000934D
0009EBED
FFFC4AF8
FFF1FC1A
FFE93C0E
FFE3D664
FFF7FC97
FFE5498F
FFEDF902
FFF05785
FFF7BE2B
00028C61
FFF92918
FFEB5EE7
001573F3
00317376
001EE679
001522BD
FFFA5BB8
FFF611C5
FFEB74C8
FFE313E6
FFD6BBBB
FFF04B89
0007753D
000EF34C
001C8A24
00205248
0013109D
00103C62
000453E6
FFDDF1DE
FFDB9614
FFDE235C
FFE53746
FFD94D26
FFE5547F
FFDE866E
FFE4CDF0
FFF52109
FFEF8C8C
FFFB01E6
00174926
0020366B
000BB7EE
FFEED421
FFF484C6
FFE9BDFA
FFD5EF3F
FFDBFEFA
FFE65782
FFEAEBC8
FFFB9A95
00172637
0020A52E
001F09BC
001671E4
0012F42E
0006B642
FFE025D5
FFDB20AA
FFEB4242
FFEA3893
FFE07E38
FFDC2A94
FFECB8AE
FFE68460
FFEAAFA1
FFE4B466
FFF65A2F
0014D65F
0016AB3E
000322D2
FFEAC527
FFFD9F3A
FFE3F0F7
FFDB06C0
FFD8F6F0
FFED023A
0007720B
0014A99E
001A8E81
0020AC6E
0028E769
00226FCA
000DBB28
0011F908
000383E6
FFF32F71
FFF44845
0009A4B0
00011FF1
FFF382DE
FFF4F2C1
FFFA78BF
FFFB09C5
FFFCEC15
0003BAEE
0014F73C
0015026E
001B7450
FFF49C11
FFFBE5A3
FFF2F1AA
FFE7900C
FFE20EA6
FFF7D410
00095C81
00202502
001929EF
0019860A
0022D6AE
001FC0D8
001C3CD3
0003257F
000C2AC0
FFFADA1B
001353BB
001AFE3B
001004FA
FFFF5C5A
00097F59
0005690B
0014A829
00112CF4
00193E6D
0008ED80
FFF3CDD9
FFF794A8
FFE44BFE
0005B7B7
000028BB
FFE3265B
FFDAEC44
FFF43C12
0021EFB4
001926A4
00221233
001AC30E
0022C8D4
0019CBD3
000A414F
00031F83
000BED1B
000347B8
0018AA8A
000BD115
000BF42B
FFFEB980
0009F6AF
0009D515
0019F4E1
0010143E
00139BFD
FFF71B22
FFD467E6
FFE35769
FFEAD198
0006ED7E
FFF965AA
FFEA9532
FFD9D66E
0005704E
00087465
001870F2
000FEE62
002475DA
001EF54F
0016862E
000B3507
000D89E0
00048FB2
0007AB3A
000D385E
001907DA
001620B6
000EDF5C
0006B004
00091CFC
000F35DA
000FF834
000D27DF
FFFE14C8
FFEE448D
FFD77D1F
FFE61B14
000F513E
FFF7A607
FFE2AD4A
FFE1B4F3
FFE3625B
FFF2A710
00081FC3
000FC7EB
0022B25E
00217A40
001BCF03
001DDD18
00147976
0003BD07
00064085
00043920
000D1189
0014B759
000A17AE
FFF99A17
FFFD82BE
FFFB5CFF
000A2E19
0005183A
FFF68484
FFFCF67C
FFE6D8AE
FFE6B98A
FFF4077C
0001F69C
FFE9E423
FFD37A90
FFD09AA0
FFE02B0A
FFF7A6F1
00015293
001BB2E0
000E6EC3
00148D8D
001298AB
0013A779
000E2463
FFF9C47E
FFFCC552
001309DB
00119FF9
0005CA88
00025280
FFFF0AB1
FFEC36B7
0006DB7D
000B7756
0001ACE7
0005A809
FFDE1B46
FFE37BC0
FFFBA3D8
FFF1D14F
FFF666CE
FFD70774
FFCF8258
FFED0659
FFF28C77
FFF683C6
00014469
001258DD
0009D5CD
000D6B10
0001A52D
000CE864
0001C75B
000489FD
0004104C
00103B10
000D4ECF
000550CC
0002A671
FFFDC0DE
FFF8A43B
000F93B7
FFF6CE2D
FFF4A0CF
FFD70246
FFE740D0
0002FAAA
FFF7CAF5
FFEC12C2
FFE49115
FFD6B8D4
FFF94FAC
FFF4A682
FFFF3AE8
FFF27F7A
000586F1
FFF585E7
000293DA
00038009
000679CB
0003D7BF
FFFD3F6E
00075927
0006837F
000AC232
FFFD9900
00037E90
FFF7489A
FFF5EC9F
FFF63934
FFF28785
FFF5330C
FFD9CFE3
FFE593B8
FFF9A03F
FFEF6299
FFE9E9C1
FFE837E5
FFEBA3A6
FFF7581B
FFFEDB5E
FFF112E6
FFFEC86A
FFFD60B4
FFF73F7E
FFFFE868
FFF5C703
FFFC8338
FFFF5242
FFFB7721
00044B12
FFFC5A29
0004E751
00076B32
0003EA48
FFFF7181
000242E1
FFFE8A4A
0001F4AC
FFEF70CD
FFE25E30
FFEAD07C
0005C9BC
00005DE2
FFF797EF
FFEE0911
FFF2BEEE
FFEFB1E5
FFF12CFF
FFEBF1EA
FFED09AC
0003026E
00016FD7
FFFC2F9B
FFFBF236
FFFF257C
FFFB1779
00021FB8
0000C174
000AA0A8
00061B1F
000A89E7
00070963
FFFB1947
FFFE95DE
00037BD6
FFFE2CCD
00104E12
FFE692C6
0003475B
FFF749D4
FFF7F017
FFF5C5D8
FFF83C48
FFFD4BA8
FFFF8BFE
FFEA853B
FFE4ACD8
FFFDFBF7
FFFB6CD0
00045B91
FFFCD2B3
000EA7B9
00147E21
00163A39
000C4C88
0004C56D
0015DC81
000C60CD
FFFB52CD
000873EA
FFFF5E49
FFFE3902
0007D138
0007BB98
0008B1A4
FFE80302
FFF45924
FFF7DBC0
000039A4
FFF124AE
00025F60
000B2D99
FFEE9F8C
FFD0470A
FFDC6276
FFE58DB7
FFF2405A
FFFD125C
FFFCC3D2
000ABD96
00090D87
000BC5F0
000FB559
00115342
001B14FF
00100F34
FFFE9A2F
000A716C
0008AD0B
FFF47E8D
00148DC2
00032575
000A8E32
000A009D
FFF50953
FFFEF569
FFF9D650
FFF65349
0009226C
FFF853C1
FFF80E9A
FFE40CD3
FFDCB5ED
FFF4ED76
FFF43ECC
FFEC4402
FFE187E6
FFF4380C
FFF2F9C8
0007981B
0002B509
00117F0C
000D4FD5
00130CA4
0019323B
000DD590
00146D57
000C323F
0022BFA0
0002E73F
000BBC58
000E16D5
0001EDD3
0005590B
0001E414
FFFB36C8
FFF7E984
FFEDCD60
FFF8F9E6
FFF41D0A
FFF33957
FFF2C7CF
FFFF5E09
000785D4
001455B4
000B37B2
00069F1E
FFFE0820
00043E2E
001F7284
000982A7
00179D64
0017C781
002990EB
000668F9
001C2444
002BFC93
FFF7E34D
FFE4D4C2
FFEEF208
FFFF2441
0002D043
FFF9B937
0006D688
0006FD4C
FFF522CD
0000B681
0000CDD4
FFFED584
00026674
00177204
001D5CDD
001941A7
001BEE31
0023B6B7
001998CF
001220D3
0016F423
00247103
0023FA67
00218B3C
0029F967
00236C47
002ED1ED
00386E67
0028D978
FFF493DA
FFFB0D57
FFFCD181
000275CA
FFFEE2D3
FFFB6CFA
000F49FA
000B541A
0015EA8A
00092705
0005A5F1
000D96BA
00158FD0
000B9B7B
0013C759
001E8D18
00050B51
000979BB
00040A13
000627C8
0011B009
00098CE2
FFF285BB
000C0E2F
000C7AF6
FFFB63FB
00116F3F
0004A309
00003075
00052862
FFFBD9CA
00054FEA
00031267
FFF76B2B
0001C635
FFFFEE0F
FFF75F2D
0001FD1A
000BA6B1
00009F19
0000C3C9
FFEA9A54
00100C80
000E3CCE
FFEF36F3
FFFE14F3
0002115A
FFEA0694
FFE49B18
FFFFEA19
00015DAA
FFF6A2FB
FFF1EDAB
FFD9DEFB
FFE2CAE3
FFFEE99A
0003DBCA
00081F87
00091E28
