FFFCE33A
FFFFA289
00054BB2
0003D563
FFFB7872
FFFA78D4
FFFC0894
0001EEF7
FFF8B577
FFF8812C
FFFF8289
FFF7B368
00017A33
FFFC7550
0002CA37
00058AA4
FFF7FB29
FFFD4AB4
0003B104
0006D154
0007C698
000710DD
00029A64
FFFE01B5
FFFAA1C4
FFFFEDED
0000B787
00042D63
FFFE5BAD
FFFC3FD7
FFFF6AE1
00085306
FFFE55E3
FFFC72C0
FFE7C64C
FFE86D3A
FFF17007
FFF63912
FFE898A3
FFF43864
FFE6D60A
FFDF9063
FFF9B7BC
FFF25346
FFEE6BFE
FFE98D47
FFF6A6F2
FFE06A26
FFE188B2
FFF392A6
FFF4F81D
FFEEE8CA
000696B0
FFFAA47F
FFFDA78A
FFFB4FB3
FFF7FBCE
000333E9
FFF951B2
FFE7404C
FFEDB12B
FFF7EEB3
FFE9E80A
FFE5DD0C
FFE91C98
FFDF6E43
FFD338EA
FFD7AF78
FFDBE050
FFD94B70
FFE0ED73
FFE36A0C
FFFC2927
000770FD
FFF90DD1
FFDE450C
FFE5D763
FFED458A
FFE569A3
FFE330F3
FFEC789A
FFFB1AE7
FFFDE8A6
0001E43C
FFFC956F
00087727
0008E3AF
FFEAE19D
FFE88570
FFE66E35
FFD6ADBB
FFBE4F59
FFB47679
FFCC13A8
FFCAE59C
FFD8F099
FFBABC84
FFB1B3A6
FFC42646
FFDD0F82
FFF309DE
FFF62E0A
FFFC743B
FFFF3C46
FFFD1EAB
00018FCF
FFF97355
FFEC1C1D
FFE24FC2
FFF04B64
FFF523F7
00025B20
FFFD18DC
000813F3
0007A9DD
FFF86303
FFF98F7C
FFE90618
FFE52A76
FFD8A054
FFD243F2
FFB84832
FFBFD15C
FFC4D87C
FFC2C163
FFD143C4
FFC581A9
FFCB43F8
FFDC23FB
FFDB3895
FFE5E5F3
FFFCE15A
00026BD5
000A0417
FFFE8B91
FFEE4F06
FFFFC30B
FFEA2E1A
FFF90CEB
FFEE4431
FFFBD9D1
FFFC404C
FFFAE3AF
001E6CBB
FFF3EEB7
000CD840
FFF7859A
FFF3790F
FFECC93F
FFDA9F0F
FFCDA97E
FFDF7E95
FFF19F4C
FFDCFF42
FFEA06DF
FFEC297D
FFF61BFE
FFE8A359
FFF942AB
FFF45BCF
000876F5
000E4565
00070042
0013F57E
0003D283
FFFE74DC
FFEACE7E
FFF97607
00006537
FFF8F820
0001820D
0029BBA2
0003F26C
FFF52FF3
000300DA
FFF40046
FFF46DF5
FFF685E2
FFFFC940
0000B872
FFF693DA
FFF70F59
000C2EAE
000EF95A
000A8697
0003A190
000EB740
0014C1D3
00245982
00235858
000C920D
000731F7
0000CF70
FFF472AC
00004BE5
0007B40B
0007CC08
FFFB17F7
0013AAE6
00257059
FFF79196
FFF41125
FFFBF1D3
00000803
0008365F
FFF849C8
00002550
00097B88
00138D4A
00113CCC
00078EC4
000551E5
00066CA4
FFFF2DC5
00086F32
001B30EA
002647F7
00273158
000BA410
00014171
FFF13BB7
FFFB4599
000BD8A6
FFF034DC
FFEAD70C
000308AE
000C06DE
00064806
0000F3D6
00007EF9
000C487C
000CA120
0003BBB7
FFFACD84
0013DC01
00128878
001590F4
000B5072
000E8EFC
0000B7DA
FFFB948E
FFF5F2F8
000DE5C4
000DC0DE
00151596
0011E8A4
00123EE2
000B2580
0001A9FE
FFFF36E6
000B6526
FFEDCA31
00151C2F
00130343
000114BB
FFF86B6E
FFF7F420
000365EA
00109F05
00108EF8
000FF5DD
00045CB7
000F8518
00116EC0
00239627
0011A4CB
0011B0B4
000DA3FD
FFFF553B
0000B8A6
00113C93
0011E03E
0014832C
001DF34C
00209634
FFFFC45B
FFF7B48A
FFF73D8D
0017D2D2
0016A2AF
0014D5ED
000D33F0
FFF9DDB5
FFFC3FE4
FFF6B297
000ECF43
000BEA30
000A1AAC
0011DCE9
000C278A
0011C525
0015DC37
00114AE5
0011A7F8
0006BB17
000CB66E
FFFF6F97
FFF9CC20
0008BE09
000EB8F2
001415BB
0016DBAA
000C6DC9
FFEEC402
FFE96173
00080E67
001253D8
001C3F95
000F4C6A
00003C5B
001A19E4
000DA821
0000B624
000ACDE0
00166179
000F7E92
000EB058
0018BD68
00148462
000381BE
00099C44
FFEFE7F4
000170EA
00053E81
FFFA93C8
0000C4F8
000BB278
001151D4
00131FDA
FFFE481E
FFF95C6A
FFE97137
FFDCED74
FFF248DF
000F3159
000E8F15
FFFA755D
000E0AC0
00178B35
0010AA10
0015A54E
000F0E2D
000BF2A2
00166EAB
00146ACF
000468D7
FFF4DD48
FFF1DBE9
FFE4552A
FFE963F5
FFFF0C55
000E60C8
000B199F
0007DAAC
00098E3C
0010F015
0001A745
0002FC0F
FFEBA35C
FFDDF687
FFDCC8FA
00143F4C
002BDD47
0013A6D1
FFFDF68B
000A9554
0019227A
FFFD7A13
0005B185
000563ED
0007A712
0008A8B5
000CBE78
FFFC5069
FFF30465
FFE85C95
FFDEBD2E
FFE993CB
000CAA70
000346B8
000F5408
001AC948
00091C47
00036E6C
0006F2D8
FFFFDEA4
FFEAA446
FFCF6C9A
FFEB31D6
0017BCC2
002907D3
000FE5CD
FFFB03DF
000A3BF1
001CC036
0015BD09
000FA50A
0004B667
00049E32
000CFD90
000EC0AC
FFFF180A
FFF5517A
FFEC512B
FFEF1A7F
FFF94C22
00074C5D
FFFDCEE4
00140A09
0018F232
000DB755
0014C1F9
001396EC
FFF81851
FFED4C8A
FFE6FB3E
FFE8F9BC
0002AC75
0025D71E
00061B44
FFF10282
00190BBB
000EC44E
0017F12A
000C6F13
000979C4
0017BD90
0008A88E
00087FDD
000737CC
FFFC12B0
FFFAFAE9
FFFA83CD
FFFFAF15
0000BDBE
000968E1
000ACAAB
001F2B2A
000B3DE7
000298F9
0009210D
FFF727A5
FFFAB860
FFEFF222
FFD76D74
FFD8E29F
0020B00E
00172782
FFFF4EAF
0004C82A
00073010
FFFD6CF2
FFFFBD3F
FFF98BD2
00095DBC
000ACBAA
000FE2EF
FFFFC0AB
FFF8F7C8
FFFF0692
000BB9CE
000A2944
0010C95C
00143AB9
000EB0B9
000D8CDB
001159D3
0004E1C8
FFFE0F03
0002A80C
0001A021
FFE5AF62
FFE43A99
FFE018D2
0017E7B7
000BD7F4
0005066F
0003B0F4
00076A79
FFF7A33A
FFF71169
00007782
FFFF10A0
FFFFDFF5
0004713A
FFFA0814
FFFB671E
FFFC9833
0005BF04
000EDC50
0013ECF8
000F9BEF
000F8D37
00059805
0001E5CF
FFF0F79E
FFFE4DA4
FFFF7706
FFFD292A
FFF1D0AF
FFE7CFB6
00041CA1
001FD894
FFFE77D1
000FFC01
001729B9
001C40B2
000FB4D5
0008C782
FFF5B490
FFF5B363
FFFEBB2E
FFF06B61
FFF64EEC
FFF096D1
FFF0345F
0004076C
000CB7E2
0007BDB0
000C5DE9
FFFA75F3
00051552
FFF5C308
FFF6F52F
FFF2B69E
FFFE8636
FFFF7A65
FFF0732E
FFE10477
FFF64412
00056B76
0017826A
00091C83
00050FB7
001DD240
0006D754
0003321E
FFF3F21A
FFE4E8E7
FFEC8D42
FFF6BA67
FFE566D3
FFE82337
FFDA0F2A
FFE355D7
FFFD15BF
0001EE75
00082F01
FFFE2B1E
FFFEFEFD
FFF385F8
FFF7DFA3
FFE9F1C0
FFED30E8
FFED7460
FFF56E53
FFF20C8F
00061403
00167A4E
000BF03D
0005CB5F
FFFF2B67
0012B844
000CE808
FFEE9957
FFF2DF49
FFF5B2FC
FFDD1E47
FFE5D0EC
FFE3472F
FFE41537
FFDAE8E9
FFEA2852
FFF82D14
FFFB9EC0
000107E8
0018A2A2
000B1D47
FFF1FA84
FFF519B4
FFF42D0A
0002BD34
FFF20382
FFFFB72D
00179AB8
0009B09D
000D5F6C
FFFBFDB2
FFFE7403
0003EF99
0015A351
FFFE9D13
FFFBBBE7
0009587C
FFFE6E86
FFE81574
FFF13ACD
FFE908BF
FFE63AD6
FFEA9D3E
FFE852B6
FFF34ADF
FFFBAB2F
000395D8
00081ABC
00076A76
0008653B
FFFE8336
00025BBA
0013D104
FFF3BDB7
000B518D
00146996
FFFEDCDE
FFE5C31F
FFFABED4
000DA34A
000AA528
00039899
FFF4AD6D
000278EE
0016D242
00053BA4
FFFB8C53
FFF8E6C1
FFF5D82E
FFF59F38
FFF5FAB4
FFEDF0CF
FFF4F946
FFF2FCC1
FFF101C1
00049BA1
FFFC4C2D
0003D051
000AA590
0010A9FA
000F7CBA
00020913
FFFA8A33
0016DFA0
0006F02A
FFECDD22
0004D8CB
FFF9CE97
0006E9F2
FFE48F98
FFDDA980
00010D9B
00106752
001E4247
001A05C6
0002EB77
FFE750EB
FFF85F1F
FFF42A2A
FFED035B
FFF212EE
FFEDFE71
FFFC1248
000292BD
000648E5
0011B1A6
00118211
00113DFE
000F3BB3
0009A76D
FFFD1D56
0000C445
000E2D09
000B66CF
FFFB46A2
FFFFDB09
FFFC4173
FFFD92B3
FFEF5EA2
001CEF52
0019A335
002308C6
0020D116
00119A6D
FFFDEA5F
FFF8A6E0
FFFB0886
FFF8AF76
FFEBB5E8
FFE77C2A
FFEF5B1D
FFF7AA53
FFF75CC0
00018C69
000DF86E
0013E703
001CBD96
0009B63B
00157DF0
FFFF40C2
0002C40E
0004F718
FFFF5B8C
FFF95A9F
0004057C
00003E23
000E4CE8
001F3281
00241150
000D0129
000D9CCE
000DCFF1
001003A6
00061B2C
000C5D30
00089485
000919D7
000976A7
00039649
FFF69F74
00080F88
0010BC1E
FFF9C49B
0007366B
000414A7
FFEA8CE2
FFEE0116
FFE57028
FFF91011
FFF6703D
FFFD7BF6
FFF8F809
FFF96334
FFFE65F6
00037F16
0004A739
000D3B3F
00176E8E
00262F28
001AB22A
0024A5E8
0012BAA1
0008F0D2
FFFE887A
0008FCFF
002296D4
001525BC
00056F9C
000BAE98
001B9735
00096CAE
00099685
001C9FAC
000B8ABA
001212FD
0013F6BC
FFF9C682
FFFAD008
FFFDF849
FFFCFD6D
00030209
0001B805
FFFE5486
FFFD2982
000B84A7
000C3610
001058A8
0017EF20
0016A553
001AB356
FFFF1846
000647FC
000EEB95
00169DB6
00106B95
0010CA5D
001F6489
00233622
00288C38
0013F82E
0026E278
001D7C2E
0014656A
0007F027
00006FC7
0004D72F
FFFBCBC1
