00039DAE
0008C83E
00000C30
FFFFA42A
0008A4DF
00068FF5
FFFB5557
FFF70BC8
FFFD70C6
000248CA
0005ED98
FFF9169A
FFFB8494
FFFF1AF6
FFF9B524
0005A1A8
00004DD7
0006CA28
FFF7251B
FFF70C36
FFF8414B
FFFAFD18
00065911
FFFFA60F
0004785E
00000E6D
FFF71A0D
00068FEA
0008AF0F
00047EF8
0003817C
0002518C
0000452D
FFFFD6B2
FFFAD4BE
0002702F
00025C94
000369BF
000E79DE
000B1BE5
0014C390
00106034
00166444
0009CD31
FFF13773
FFFB1A31
000DCA45
00098192
0019F3F1
0005C863
00120908
000A3C56
00022A85
FFF79F44
00000FC5
FFFBEF51
0002AA55
FFF7F380
00090EE0
00037AA5
0001D338
000C3A24
00024FBA
000BD668
0008596F
0013E439
00151FC9
00199920
002121C6
00322738
003EFD68
00321832
002B00A2
002205EB
000866DC
0009F00A
0004D71C
00170CCA
0013D611
FFFD57BD
000BBB92
FFFC2018
FFFA4900
00070EFF
0007CFF6
00039B9E
00158700
FFFFBD7C
FFFDF376
FFFAB7FE
FFF83381
FFF77377
FFE75C54
00052790
FFEFA016
FFEF082D
FFDF91BB
FFF8A9AC
0003FC26
00067B21
001EFAE9
00093C5E
0004CD72
0008ACCB
FFE7CE9F
FFF3C42F
FFEDF851
FFFDFFAF
FFED964A
FFDBCD99
FFF1477B
FFFBDCE6
FFFF3F1C
00050D42
0009FB2E
FFE82106
FFE7ECC8
FFF5B93F
FFE96D1A
FFED717D
FFF55543
FFFD7D48
FFF6D6F3
FFE0DC82
FFF68C39
000A0C56
00118875
0011ACB5
001185F7
0018AE9B
000C136F
000CEF90
0013BCE5
0001BBB1
FFF3A6B3
FFF13E51
FFE38E4A
FFDE3428
000800A8
00204FB2
000844CF
0002E474
000BF250
FFE159F0
FFE0E070
FFEB6079
FFEE412F
FFF423D1
FFFDC36A
FFFC3CBE
FFF125BB
FFF3A497
FFF76D3F
FFF54906
00049E90
FFFB4FFD
00032FF0
000DF93E
000F6D4B
00186740
0010C6A3
000DAA78
FFF1367E
FFFD50E5
00048168
FFF13874
00062344
0011A2FF
0007427E
FFF4137B
FFE7CE9E
FFDA8EE5
FFD18AEA
FFD69C82
FFE7A219
FFFC34BA
FFFC319B
FFF4AED6
FFF779DB
FFEF98C0
FFFA8302
FFFE9A7A
0002F073
00008B59
0005CA11
FFFB7B41
0003BE49
0002DB04
000B50B0
00051472
0008F47E
0007951B
FFF64CB4
0000B1E7
FFFCDC9E
001D57E8
FFFCFEBD
FFEE1EE1
FFC7D691
FFBDF0F3
FFBCA19F
FFD2844A
FFE96359
00014F12
000234DB
FFF465F0
FFF307A9
FFEE462E
FFF9D361
0007B13C
0002B9FE
000487D9
FFF4544B
FFEE7847
FFFD10F7
FFFAA6E8
000A7D34
0008E0B2
0006C8FC
FFFCF0A6
FFE594B5
FFE68305
FFFF8BB6
00103AB9
FFF21DA8
FFE542AD
FFD457A4
FFEA639A
FFD8D95E
FFEB7156
FFF71970
FFFF1D42
0004FFE1
FFF2F986
FFFC28F5
FFF5803F
0007D6B1
0016C48C
000E009D
00028F5C
FFEF528A
FFF26EF5
FFF68C91
FFF66915
FFF08987
FFFC798B
000908E9
FFFA7318
FFE549B8
FFF3309A
000900EE
000940B0
FFF73511
FFF1A7EA
FFDDDED7
FFEE7D2C
FFE1B05B
FFDD3EF0
FFEA1CF9
FFFAC4E0
FFF96D80
FFF46C67
FFF8A110
000857D0
00098E8E
001D33CC
0017E7A3
000CDF1C
FFEEDE1B
FFE0BE16
FFE60E52
FFE9BF2B
FFEBAC9A
FFF7F250
FFFDE735
0002D980
FFF85E91
FFF67943
FFF2E53D
FFF1D32E
FFF541C9
000DE55A
FFEA6E1A
FFDEDE62
FFE85791
FFEBAF9B
FFEFAE40
FFF06DF2
FFFA750E
FFF57012
000E36B2
001B0E1E
001B908A
00228966
002EE74C
0028A050
00032907
FFEF37EF
FFEFD6A4
FFF2778A
FFE8E07A
FFF146BB
FFF0D366
FFECD793
FFE37319
FFD3AEFB
FFDE4FE5
000231DD
FFFF558A
FFFB6A84
FFFB3244
FFD42338
FFE2040D
FFF90F47
0001CD3A
FFF5B843
FFECD804
00004AE7
000108D0
001EE2B2
00205EB2
00291730
002FFCBC
002CF243
001AA1A3
FFF8B918
FFE69017
FFEBECD6
FFED9031
FFEDBDCB
FFED1455
FFDCCB07
FFDA65F9
FFD64C1A
FFF4C297
FFF51B23
0001ACBB
00032BF3
FFEDA9FD
FFEB02D0
FFFBEBF2
FFF1D043
FFFB0CEA
FFEEA5C9
FFEE50DF
FFF11072
FFF99D3A
000C1B1C
001F8C08
002F6C58
00297575
0029259C
002CC938
00113776
FFE818B4
FFEE1A20
FFF3EA1D
FFF95B00
FFFC3501
00053171
FFFD61B6
FFD5B37B
FFE19A8A
FFF2AF84
000AE581
FFF88933
FFE64582
FFF17D86
FFEF1F2A
00010A15
FFEC9A01
FFE30A4A
FFF402A2
FFF6BDD8
FFE4BF9D
FFFEC8C3
0013D9A8
001B669F
002088A8
00373EBA
0032B101
000BADC7
FFE1D04D
FFE6DAA3
FFE5E09A
FFE72A90
FFF58278
FFFF6125
FFF19BDD
FFE1BF55
FFEF8BBE
001451B5
FFFEFE0E
FFF8BB73
001BCF97
0009AD1A
FFDCCAFF
FFF75734
FFE138F8
FFDD5095
FFDAADE6
FFEB956C
FFE4ED74
00016CCC
00089120
001F857B
002840CF
001D7ABB
001D3CD3
FFF155B4
FFD47455
FFD1FC78
FFCED8F1
FFD81255
FFDADD77
FFE81A75
FFF999D1
00003AFA
0013C806
000CDA55
FFFA3B77
0002212C
001A0322
FFF877A5
FFDA175F
FFD23D2E
FFCA3054
FFCE7BF6
FFE232D9
FFF86DB9
FFF066CB
00057C65
0013CDE1
0014AFA9
001EBA9C
001A35F7
0000EECB
FFD58EFE
FFC52CEC
FFC14400
FFC7ED6C
FFCF007E
FFDED20A
FFF11702
FFF74C4A
000E606C
FFF328A8
000BE464
FFFD4F88
FFFC6F12
000AF38C
0000978F
FFDC69B6
FFCF7180
FFBBB7E7
FFD02FCD
FFF36021
00085B49
0018238E
0027164E
00112259
0003FDEE
00170F0C
00035DAC
FFF28062
FFC6A96A
FFCC8CED
FFC4FECE
FFD7647E
FFD76AE2
FFD4858B
FFF2801B
FFFFE1A4
00233664
001684EC
00053249
00025551
FFFF62DB
000274E2
FFFD9DF4
FFD31ADE
FFAD70DC
FFA738C2
FFC39264
0005AAFA
0026EDC2
0039F892
001C658F
00045ADE
FFF767E1
0006C8C1
FFE5AEA9
FFD23B8E
FFC23EA5
FFDD6825
FFDA6AFC
FFF1C8E7
FFF79CF0
FFFEB9E9
FFEBE4D0
000319A8
0004A7FA
0006C4E9
0016D7C9
0000BDA8
FFFE283E
FFFEAFAB
FFF569F9
FFD07FB6
FFB43D4C
FFA7884C
FFD4ED38
00042333
003FF8B5
00243067
001539C1
000611C4
000182C7
FFF947B9
FFDE4313
FFCC84DB
FFD82635
FFE041C5
FFEC7A5A
000BB93F
000F53CA
001107A6
000C960F
00066576
0017CE3A
0013AC6A
001BCCA6
00034BB0
FFEC5BB0
FFEFFEC4
FFEE9E47
FFD58EE6
FFB2E7FB
FFB74142
FFE62C24
000EC4A1
002C240F
0030554A
000AB19E
00046D37
0000DFBD
FFEF902D
FFED68A1
FFE76F5A
FFE4EE0B
FFF9A25B
0008F2AE
001CC320
000DF541
000FBE6F
000F680D
001E0132
0021992A
00261C45
000EE3BE
FFFB8DAA
FFF754C6
FFFB4170
FFE58B8C
FFCBC03F
FFC97AF2
FFD74E52
FFEB07E0
0006DA5D
0015ABE5
00161F2A
0010ADCC
00029CBE
FFFE47FC
FFF300DA
00022EEA
FFFB7DB3
0003E0BF
FFFA949B
000CA990
00197C18
00163A93
000FD533
00063DD3
00132CBE
0017C53A
000BC7C3
0002BA17
000B50AB
FFF52918
FFF2D1DB
FFF49A96
FFE6DFB1
FFD39F9F
FFF7A826
FFFB8C2C
00039BE5
000EB7D0
000DAB10
00084C9C
0008DFCC
000261A2
000CF799
00071D40
00055ACF
000F75DB
00048A4E
000DDC89
001A016D
001AD2A8
0011A657
0007D4A7
000F9A18
00138709
000296D4
FFF50A71
000B8C9D
000367C5
FFFD4A0B
FFFB1CC1
FFEFA36B
00051C8F
FFF9B845
00047EC6
00067F0C
00093CBD
00115FDA
0000D51C
00082BED
0010F8AB
000E3541
000D8B3C
00055AD4
000E37F9
000C5414
000939BB
00196D9F
001C526C
00139F23
00131BCE
0003D41B
0007C367
FFFB8827
FFF7ACE6
000707B5
FFF80E2E
00058A18
FFDB5007
FFEB7745
FFF635B1
FFF7F597
FFFA0E66
FFF947C3
FFFF13EF
0003AC3E
00030BF9
0016DC0A
0017BE68
000D3A02
000F511E
000E58C1
00104D96
000F62C2
001C298F
001A0A95
001CD98A
0017DB55
000AEC74
FFF32FFD
FFF25DB8
00112064
FFFEB46E
0003D11C
00077BC5
FFFBA026
FFDCDBAC
FFD6C9A6
FFEBD713
FFE5962B
FFE6FBB6
FFF05C95
FFEDF36A
FFFAA1A6
FFF9F5DA
FFFDE6AF
FFF5AA58
FFECB4AF
FFF3CE6C
FFEF4CC2
FFE344D5
0014DBB3
001C78FC
000CBE87
000636DF
0002D04E
000B51BE
00191579
001B4428
000CA64B
FFF8C959
FFFD0F15
FFFC638C
0006F28C
000101E8
FFFBC620
FFDAD65C
FFEB7EDE
FFECC82A
FFE3BE4D
FFDC8EE7
FFDA7196
FFE9D96D
FFD883EF
FFE1BA87
FFEE0602
FFE80250
FFD51B17
FFF4CCD1
FFE26068
FFD53501
FFEEE261
FFFF8011
0001D6E7
00013110
FFF9069C
FFFECEDA
FFFCFA0B
FFF7B956
00076A0F
FFFD2A43
FFF75175
0004865F
000A6D0B
FFE8886A
FFDE4476
FFF1D3EB
FFF47BD0
FFFC2CD1
FFD6D560
FFDDEFFF
FFDE6B43
FFCBC58C
FFE24404
FFD22FA4
FFC96FE4
FFC8386B
FFDFE05C
FFEC8928
FFF38E5A
FFF3FB1F
FFDCFB7A
FFFE8F33
000775B4
000196FE
FFF71847
FFFF405B
00078FBB
FFF76FA1
FFFE343E
FFF90410
FFF33A91
FFF6D3AD
FFFF2E0C
FFF97BCA
FFEE7B8F
FFF415AC
FFEBFBD2
FFF3DFDC
FFFB001E
FFE75C21
0007FF16
00121BC1
001BC566
00093CB4
0001F6AE
001166A6
00095288
FFF34199
000066B7
0006BBCB
00041F04
FFFD1701
0003F62B
FFFC59AB
