FFFD9D94
00073BC5
FFFF2A46
0006852F
000071AC
0000F312
FFF84713
FFFCD721
0000755B
00042D6C
0001C625
FFFE03D3
FFF6B336
FFFE5FFF
0003AFC9
00010D61
FFF96935
FFFCED01
0005D651
00083AED
FFFBAD7E
0003E285
FFFDDBEF
0005CCC5
FFFEA04F
FFF8BB77
FFF6F331
FFFFA84E
0002B203
FFFA9C3F
00073180
00045634
0001F12C
FFF9AFCC
FFDEE584
FFE5C891
FFEA8D5D
FFEADAA0
FFE0D891
FFE1AAD9
FFE6F1EC
FFDCC135
FFFC8DAF
FFE32F20
FFEC24B8
FFEC2A77
FFE23123
FFE114D7
FFE0F59C
FFE7EB48
FFE77ADD
FFE93492
FFFE2BCF
0006A7D0
FFFB0251
0007AC03
00044235
0002F9A5
0000F644
FFE1967D
FFD8DD9B
FFF68D48
FFEB26EB
FFDCAF1E
FFD035DB
FFD1D1EC
FFC837FB
FFBB1CD0
FFB50EEE
FFD4E55A
FFDE456E
FFDA6986
FFF9130A
000D6226
FFFF401B
FFED95FE
FFF4234F
FFED84D0
FFE077B5
FFD8E0CC
FFEAFEFE
FFF2FA9C
00017BDD
00027EFE
FFFCFBB6
FFFA14A0
FFF5230B
FFDC6419
FFDC3C6E
FFE100C7
FFD8E39C
FFD717E4
FFC6FC21
FFB59A40
FFC0AA12
FFCB4B5C
FFAC46F7
FF954274
FFBCD331
FFD8D100
FFE43864
0000AF41
000FCDDC
00248394
001AC9F7
0004F95C
FFFFF628
FFF7AD1A
FFD8A2B8
FFE0C089
FFF6606E
00052D57
0007D763
0009330A
0007423A
0005610C
000B2F20
000EAC84
FFF32140
FFF1C959
FFDEC7C9
FFD8A901
FFDA9754
FFE5D54D
FFD7850A
FFC89482
FFCF7BFB
FFD28582
FFE5219C
FFEE6AAE
00088D8A
00242C0A
0033CF82
0034F142
00254A7A
001AB158
0011ABAC
FFF40E93
FFF164BA
FFE2E3EF
FFFDD967
00021A2F
FFF8E9B0
00146CD2
00020029
0015DEC1
000DA439
0016E54B
FFEFE980
FFF0763A
FFE2E564
FFDCD020
FFDF6E03
FFBE3FB7
FFCAF220
FFE52FEC
FFFA4FF2
00034A35
000F74AF
001ECF7F
002BABCC
002F9B74
002DC48E
00408F6A
001531C0
FFF0A6E5
FFD74642
FFDF04BD
FFFAA878
001E17BF
00034244
000B8301
FFFFE0F1
0006655C
0018ACB8
00129238
0003C045
00131F35
FFFD4170
FFF0E54D
FFEA159E
FFE61941
FFDCA674
FFE64374
FFEA5A4D
FFFEFCDE
000F3F02
001A8C29
002A6059
0032544F
002535AC
002FA9C4
0018E62E
FFE34793
FFF4B5EC
FFF0084E
FFF7F6B2
0020A65A
FFFE47CC
0014F425
001168B9
001AA9FB
001B30A5
0012A9CF
00086E65
000027C6
FFFB0FE5
FFFE452D
000098FC
0004735E
FFE8D074
FFD9CA61
FFE5A710
FFFBD76B
000756CE
0020F8E0
0034DDE3
002C6B21
0021131D
0028E56C
00104A6C
FFF2A2DB
00029CA1
FFE4FBBF
FFED9F50
FFF923BE
0014FC10
002569D2
001D394F
000C9A7B
000A579D
000F67AD
0002B76E
00034C2E
0009AB17
0017CFAD
00281D94
002126B8
FFF46BA2
FFD89245
FFD70374
FFF5A8B3
00175818
0022A342
002D9470
0030BB8A
002E7056
001035CE
FFF41746
FFFB148C
FFF19B15
FFEA496E
FFF864EC
FFFD1B22
001D7262
00054C88
000EE4BC
0002A92F
00112E84
000789A6
000891F4
001ADF14
0011ECBF
00201938
002B1B8C
0002F64B
FFCD42D8
FFB729F4
FFDADEF8
0004D768
001C40DB
0021E538
00300008
003FB59F
002FCCE8
000F725F
FFE11F61
FFDDB42E
FFF07FCF
FFFBC9E5
FFF3F5DA
000F7C0B
000871FE
00278161
000E1A1D
00039166
00036B71
FFFFA162
000A6BEC
000DC0E7
00033845
000F6280
00031216
FFE0CA2B
FFA13E18
FFB77756
FFDEEE44
00140277
0029DA1D
002E9E56
001E9960
00270F68
0017AFE7
FFF765CF
FFCA5A94
FFEA32C5
FFDCE471
FFFBDF09
0004A906
FFEB3E27
FFF6F200
0015EDBE
0013A8CF
0010069A
00031A8B
FFFB979D
FFFB933F
FFFE6DDA
0001BDB0
FFF19C9C
FFDF2324
FFB7A898
FFA7E89B
FFE16359
FFFD470F
001A4C88
001FDBF8
00258930
001A705A
FFFBCB6D
FFF91F31
FFD123D2
FFC5BBE1
FFDB3C9A
FFDAEF4F
00037D29
000154EA
0008E214
00021E81
FFF47135
000D6281
FFFF8F39
FFF93598
FFFF8E44
FFF3E74A
FFE79DE9
FFF56791
FFD8228E
FFE9DFBF
FFD61786
FFD40B7F
FFFACA9D
0015177D
001B387A
00238262
0011C573
0002078E
FFFD48EC
FFE797B2
FFD2DF69
FFDD20BE
FFDFDC8C
FFEC3728
FFF6B93F
FFFA94F6
0002C68B
0005310C
FFE91FBA
00085ACD
00057F37
000B5EAE
FFF335B1
FFF6FF54
FFF811B0
FFEBB04C
FFE35360
FFF1CFEB
FFEA31F3
FFF4BEF7
000395A5
000EBD87
001E3DE3
0013F5E6
0013947F
00134ED0
000B6053
FFE2B32D
FFDD7B52
FFE4D4D4
FFF926C7
FFFADBA8
FFFCDBD4
FFF972B8
001741A7
0008ACBE
000EB1A5
001E55A3
000DD411
0010C3A1
000D9DB5
000604E7
FFFA01FA
FFF247D8
FFF7FE7C
00049EEC
FFFE3AD7
00066246
00076AA6
00225B7E
002CD396
000B71F9
000F067A
001540AA
FFFAAAA2
FFEA113A
FFE3871D
FFE59144
FFFA81E6
FFEDC90B
FFFA355C
FFF98D65
001AAF0F
003448E7
001BF8B0
0016762B
0013789D
000ED93D
00132415
001CC3BC
000702BD
FFFFB3B8
000D69DA
000D61E6
000D8DFE
001F1284
0018B61C
001B78DC
0019A7B0
000B0B8B
000E1F10
000A25B6
FFFEA725
0007D1CB
FFEB1D78
FFC9F897
FFDA3D14
001ED3B5
000D5E93
0001C096
0017EE68
00180D62
000D6403
000D4ED6
0014D196
001F79B0
00114AAB
0012CF6E
00129FFB
000A2931
00089F89
001B2F3F
0021BC97
00175224
001E5C37
000D5F2A
00110BC8
0009B0E5
00179452
0008C841
0014BC82
00004832
FFFB2C1B
FFE945D8
FFEA1C7E
FFFB368C
00032CFF
FFF9AAED
001AC233
001B5356
00063F50
0016089E
00111FF9
00127DC6
001C6AF3
0006640B
FFF1D842
FFF212DB
00080EC4
0016025C
00116F6C
000FA6CF
0015D5C3
000CDDF9
000F2B08
0005686B
0008660C
00032C1E
000BDFB0
FFFE4ADC
FFF3E035
FFD63905
FFE23CF1
FFFF0E5D
FFEA49A4
FFF29A1B
000DFB74
0012574B
0024BFB2
0014768C
0018EB60
00081075
FFF53594
FFE93CC3
FFEBE0B2
FFF73651
00047787
000014BD
00027FBC
FFF7E8E8
00082B81
00083A14
FFFFF946
FFFF4B0F
FFF8F297
FFF9F155
000CA85C
FFF8E177
FFE70284
FFBE7F88
FFD72F17
FFFE6125
00031959
0004D428
FFF45E8E
000CD0EE
00289F45
0018235D
001A9670
00059DBC
FFF96087
FFF3264B
FFF2747E
FFE4877D
FFDE187A
FFDACB52
FFE75ED4
0005A03C
000D2194
00135737
001463F9
000CA1CB
FFF81B58
FFF162A8
0006BE04
FFF29438
FFE300A8
FFC355E6
FFDE8E5C
0009E7D2
001247B6
0001A362
FFFFDC74
00050A9C
00262AF3
000EE2C0
0000674F
0008274B
FFE9F922
FFF19D1C
FFE9C6CE
FFE578C3
FFE1EC8D
FFE82A20
FFEA1B5D
000C858E
00125F9F
001699FD
001FDFA2
000FA74E
FFF658D7
FFF8516C
001370C3
FFFAB8F5
FFEC66F1
FFD481A0
FFCA28EB
000BFEEE
FFF813DC
FFFCD599
000BC46D
00105B86
000A0CBB
0003E90A
0007C4A2
FFF9436C
FFF61E5D
0003CA36
FFED5A5E
FFF1B756
FFF14393
00000705
FFF98866
FFF6B4AA
0007A2C1
0016F02D
000AD7EC
000AD429
000A7C63
0006F58A
0019A3BF
0008821F
0003446C
FFF1BE69
FFD738C7
FFDACB2E
FFFDCF87
FFFE252E
0005081F
00173B83
FFECF16B
FFFE445D
FFF5FB67
FFF17827
FFF07D1F
0003C892
FFE561E0
FFE88C18
FFFE7BF2
FFF42DEF
FFF64EBF
FFF9D838
000147D9
0005EB75
000E93FF
0010EC61
001AE832
001AE7EA
001601C2
00125347
00034F9E
00034AD7
FFF3C6AA
FFF0928B
FFFB53D9
0001D8A8
FFF85F6E
002B97CD
000B3F17
000DAB84
000297B3
000104C3
00135A0B
FFF84C89
FFF015E9
FFFD25AE
FFF74D6D
FFF4BA2C
FFF5E6B7
FFF533E2
00073AC5
000DD0DB
00141BF0
001F3196
0014EEA8
001A3104
000EA143
FFF673AC
FFF5E94C
FFE59EF5
FFFC47DE
000E40CA
0005E13D
FFFE9B81
FFFAEC45
000C3CE4
001CE670
002AC2FF
0010D9FB
00160C18
000E3B60
000370CB
0005DC5B
0002EF38
000C68A2
FFF13602
FFF2132B
FFFD96B2
FFFD3588
000FB40A
0004F4F9
FFF10EBA
FFF58324
00066827
000528C3
FFF68F90
FFED464C
FFD12FE0
FFFDCE83
0006D4B9
FFF6F7DC
FFF8645D
0002C2CF
0007F7E0
FFF46494
001A5554
001E6C17
001D0E62
001394A5
00123D7C
0014517E
00261D0E
0010E920
0016A860
000C14DA
0006B374
FFEF8D0B
FFF1C1E3
FFE9E3B2
FFE5410A
FFDF5565
FFD9FED2
FFD52D3A
FFE09A23
FFE78971
FFD3C97E
FFFED464
000AEC2E
FFF732A5
FFFE46B7
00047097
FFFDC8B4
FFE50D5D
00029C08
0008D7BF
0015D802
000800EE
FFF3CB36
FFE79AE2
FFFBA3EC
FFE78052
FFD42F44
FFDEC0B9
FFD27F61
FFDFDA96
FFDAB847
FFD9DC7D
FFC88318
FFCF525F
FFC37B2E
FFCF732B
FFDDF0C8
FFF021E5
FFF4C83D
0009C112
0004F028
0003BB5B
00054B32
FFF8FA02
FFFFE412
FFFC181E
0009AE7C
FFFEB47E
FFF52D53
FFF5B32A
FFEBEB0C
FFE6DC53
FFDDC831
FFE3B668
FFDE68A8
FFF43292
FFDC5D7A
FFEFE1C8
FFE381A9
FFF65A32
FFEAF0D1
FFEC4F0E
FFF45A83
FFF4145D
FFFDD601
001323EC
0007DB9F
00089A5B
0006AE20
00038AED
