000821E7
000207C1
00078966
00080200
0002C0AF
0000C91E
FFFD8C7D
FFF96DD4
00051516
00000799
FFFC3BE6
FFFDB7D4
000432FB
000863E2
0007A526
0009BAF2
FFFA1607
000171B2
FFFC632D
FFF75E2C
00051B4B
000750EF
0007B5FE
0007D91F
FFFCC87C
0001FB93
00031819
FFF9AAF2
000823EA
FFF821FA
000052D4
FFFD17DA
000A64AE
0011286D
00160A72
00113B46
001B78BA
00046A5C
00125D50
0003D1F7
00109BAB
0011B766
FFF81C20
FFFD48CF
000BECA2
000FC252
000B7CFA
000FB4CD
002AB052
000F0DD9
0009F605
000B0037
00031BE0
FFFD2C9F
FFFB25B9
00091139
00048CCE
0006FD63
000A7251
FFF6A3F6
0000BEC2
000D237C
001A5CE5
0022B72E
00298F1B
003412E3
0039FA89
002D5E8C
001D8902
0005EEA5
000A61AD
0011A301
0006ABC3
0011BCAA
002E3180
00052B7F
001AA6B4
00255BD1
0013C11F
001ABB6B
001EB460
0004F225
0006AFCE
00048090
0007C1EB
FFFBD959
FFEB281C
0007CAC3
000C305A
FFF7A644
001BF3FD
000C55CF
00149500
001B9A65
0013454A
00118807
00045996
00090C09
000318A7
0001A22E
0001683B
FFF87A44
000AF9D8
00097CE8
FFF3E746
00144931
0011A583
001721C1
0002CE21
FFECCBC6
0010FF76
0008E4C9
FFF9989E
FFFF2BF3
FFDE432B
FFEC65BF
FFE24096
FFE6B345
000C7692
FFFEE752
0001F1E1
FFFB8ED9
00067F93
0005DA9E
0009918E
FFFD642C
0003B221
0002CA0D
0009D27D
0008408A
0011A94A
0002CD30
000546F8
00003058
FFF57463
000318BB
000456D6
0002BE81
0015E4A2
001B0466
00007C66
00021AE6
FFF5FCA4
FFFC3E5D
FFE91BF9
FFD7AB0C
FFDBEFAB
FFEA929E
FFEFB16A
FFF55A60
FFF8B49A
001787BA
0012F5F3
0015EB70
000D88F1
000922A1
FFFFAAF9
001153CD
0005A0B8
000BAF38
000E3653
FFF36ADC
FFE60F12
FFEDE754
FFFDA5A0
0017C947
00276438
00188947
FFFE7A7C
FFE4B518
FFFC4314
FFDCC51C
FFEB0CB4
FFD11A10
FFDF7D6C
FFF5E1C2
FFF11097
FFF72B1E
00007EE8
000A7784
0017B1D6
000D8D88
0015D67A
00126D1C
001CB870
00096822
000496E4
000F1D7C
FFFEE96C
FFEDAA41
FFE9F294
FFDBCD48
0001C19A
002704B8
000945B6
00102C14
FFFA7B67
FFDB03A3
000461C8
FFDCB24C
FFF24472
FFE4F1B4
FFEB10B2
FFEBF40D
0001D3F8
0002DB40
0003D47C
00172908
00171F77
0016E9DA
000CC4C5
0015F8D1
00069A82
FFF1EAD6
FFF8E0FB
FFED5B83
FFED15DF
FFFF5C08
FFE7A28C
FFCD4741
FFF251DB
001ADCAB
FFE98064
000A5D4C
FFE1E282
FFFBF5B5
FFF16D5E
FFD8E9B1
FFE905AC
FFF0A478
FFF9B693
FFEC67A7
FFFCB661
FFF1AF50
00035CDB
000CE5D7
00064BB3
00098EEA
00067618
FFF71E42
FFF4A7EF
FFE56F6E
FFEC0D46
FFEB11D3
FFE8F2D0
FFED106C
FFE4E468
FFDDB00C
FFEB244E
0005A2AB
FFEE9B0C
0018010B
FFF65AB7
FFD8B8C4
FFEF4E88
FFF2814C
FFEF5B41
FFFD9422
000D49BC
00078192
000BE82C
FFFE8A22
000CA501
0013BCF7
FFFFAC06
FFFB16DE
FFFB742A
FFE92B5F
FFE11998
FFEA1B2A
FFEA69B0
FFEBAE11
FFF16EB9
FFE7D5DF
FFE2A5D2
FFE5D112
FFFE4855
FFF95FE2
FFF04B23
FFE9CBB7
FFF18A1F
FFE1E8DB
FFE6D396
FFE7E6BD
FFF573F9
0013F1DC
0018470C
0003A509
00068F30
0007D4AC
0009590C
000193EB
FFFB4D54
FFE89337
FFE62F41
FFE2F46B
FFEA9580
FFEA0FA8
FFF6384D
000277BE
FFF8C1AD
FFF3D400
FFE7690C
000A29BA
000FCE31
FFF7B413
0008A957
FFE1E989
00011E35
FFDE6707
FFE238BC
FFF1B4A0
FFF8BA2B
00156DF8
0013A420
001276D2
000D70B8
00000116
00000912
FFF5561D
FFF3551A
FFF39954
FFFC4B71
FFF66D3F
FFFC1065
00056FED
0003F39B
000D36AD
FFFFE155
FFF9D4C2
FFFEF238
0021234E
002B107B
001A1C48
001B3DC7
FFF03770
FFFA1ED8
FFEFAD14
FFEC5CAD
00014769
000EABE0
001C5A7E
0010B585
00042369
000878C0
FFFA16CF
FFF8F26C
FFF4BAF9
FFE6B4B2
00011D2F
FFF93B75
00060977
000CC208
00163EF2
0004B136
00089670
000A84E7
000F1AA0
00123750
0022891C
002234CD
000B5EE0
00011F40
00001004
FFFCDC42
FFF6E29D
FFF40EE0
FFFCDDAA
0009C7BF
FFF96E83
FFFACAB3
FFFF1344
FFF91FD8
FFEDE666
FFFEB388
FFEF2ACE
FFFD1202
00130464
000834C1
001128DB
000A5A7E
0000BE1D
000388EF
0008F06A
000A2197
0003F376
0017BF50
001FA402
0017DF56
000173A6
00170354
0018E9C5
FFF39FB3
FFED4A4B
FFDBB0A1
00016372
FFE6E5EB
FFEABC5D
FFFB4CA3
FFF9F47C
FFF17C78
FFF65C50
FFFB1E9C
0007FF88
FFFD031C
00182D62
00128CE9
000E5D64
001A5AA9
0004F01F
FFFF9507
FFF5631A
000BA3FF
0002540E
0012214C
00011410
FFEF727E
00138A97
0025CF22
000F5623
FFF3C943
FFEDF4FF
FFD89167
FFF99273
FFFBA363
FFFF5267
0010FA75
FFFB8906
FFF70929
FFEE18D6
FFF83B13
0000279B
00100E2B
00172E69
00074678
00111F92
00119A71
000ED004
FFFEC375
FFFB9413
0005EE36
00038222
FFE9354A
FFEB312C
FFFB935D
00221AC0
FFFF324C
000E9031
FFF7FC22
FFF0C101
FFEE5C0C
FFFA3E23
FFFD1333
FFFB5B1E
00083225
FFF99F58
FFF8D1D4
FFED8B1D
00073B6D
00159F42
000F3BEE
00061875
FFFC4063
0003CCFB
0015201F
000DDAD0
0001A461
00003868
FFF2F26F
FFF51F5B
FFFEC0C6
FFF0A795
0001C5BC
003C72DC
0020921D
0016AE6D
0004F952
FFF32C5D
FFF4DBC0
0000E9BC
FFF3F0E4
000EBB7A
0011DC92
000251F4
000C200E
0005B323
FFFF33A4
000FC4D5
FFFE99F2
FFFE2872
FFFEE552
0003C498
000BB2E1
000BA061
000E29EB
FFFC18E4
000192A6
FFF5108E
FFE92543
FFF2A180
00014D0A
001BD102
0009690A
00064998
000DF6E1
FFF79313
FFF385E1
FFFD4944
0006D533
00073D4F
0021E07F
0014881E
0009D514
FFF74BFB
00076741
FFFB7106
FFF90396
FFFDAF91
000322AF
0003C5E7
000C2202
0005C99B
000C3FB0
00070105
FFF58BF7
FFF404B4
FFF5B139
0003455C
0007DAE5
0023F4DE
FFF7F588
00193264
FFFDFC9B
FFEE8E86
FFFC42DA
FFF5958C
FFF73836
00066D7C
000946B5
0009A8EA
FFFFEF4E
00080ADF
00092542
00075016
0005C104
000AE9CF
FFFB844D
00059CBE
000AD43E
0005C784
0001D870
00039FC9
FFF3C714
FFFCA34F
000B602E
000C799B
00057BB2
0002EAB3
001B9BD5
FFFCC569
FFF77371
FFF659B0
0007963D
000695A0
000398AD
0020FDA8
0009326B
000AC0E3
000488B0
000397F4
0006D7D1
FFF94835
0001F172
FFFFA878
FFFFC7DC
00062F76
FFF962FC
FFF252FA
FFF8E3F4
00009E7F
FFF6BC57
FFF45FCA
000ACAFA
001A82B3
0011A4CC
000ED831
0005F863
FFFD717B
FFF5C3D9
FFFEE4EA
00103413
FFFB8ED5
0007E03D
00129D06
000248AF
000412B9
0003D442
00176AA9
00030989
00030420
00013D87
0018C62E
00077C48
00062464
0002CABE
0000B2B0
0004D1BF
00002121
FFF49824
FFF4AB26
000F847C
000D5143
0009FF63
0004F485
FFEDAE6B
FFFA38EF
FFF74DD6
FFF34E06
00086EF2
00085144
0010D58E
FFF3D38F
0000E5CF
000D3B07
000A82D9
00076188
000B272F
0012E20B
000F8AE4
0012B32A
000B4B24
FFF64EB0
00004CDC
FFF9E978
FFF6AFBE
FFE565B8
FFF64D28
000243AD
0005C300
00142CF3
00101567
FFFA8B8B
FFDAFEF0
FFF2C9F1
0005EBF0
FFFE1DB6
FFEF2AB0
0007DA86
00048511
FFFBABBC
FFF33FBE
FFE8CF04
00072941
FFF9BE4D
FFFC5807
FFF95C70
0002746D
FFF4F9C2
FFFC93D0
FFF666E5
FFFEAE44
FFF0DD7F
FFFD4AEA
0009DD16
00020336
0013E4B2
00289536
00264BB4
002CFC2C
000BC38A
FFE52A90
00048730
00034467
0002A08C
FFF842A3
FFE26199
FFDF85B8
FFE32FD4
FFDEB2D7
FFE27D36
FFFD6EB3
FFFD1445
FFFD42EB
FFFFEDC6
FFFF5D69
FFF60EE9
FFF15E91
FFF9D0C3
00024036
FFFAAF78
0016054E
001A8296
0017E76C
00195ADB
001E7E13
002C2BCE
002C2C7F
000F3127
FFF9D9CC
FFFB9FEA
0002696F
0005CEF0
000387B8
FFF2105B
FFEB32ED
FFF1A2CF
FFEED2A6
FFF3C07E
FFF3E21A
FFF40CD8
0004AAEF
00075402
00076376
001B21A2
001FB290
00173BD0
00227349
00237204
00189DAF
0019B9C0
0020B67A
001B8BD0
000FA97F
0002EC47
0004E301
0011029A
FFFC4662
00010C74
0002D4F3
0008FCDF
FFFABE60
000C5F03
00137532
00195FB2
00221137
0020030E
00231570
002EDA55
002BD1A2
0030B2A6
00345BD7
002A6C52
003CD400
002448FB
0028AD99
002D8868
001B49F1
0008200A
00255BAC
0017F0DF
00180FA7
001B4ACE
00195614
0006D64D
000877D4
000629FC
FFF92155
0006D0A0
0007B070
000574BB
FFF33751
FFE95B4C
FFFB3FBD
000C2935
00077673
00018EFB
00059FD2
001C589E
0019238F
FFFFEE47
0019249C
0010E2FD
FFFDD934
FFEC93A2
000EF89B
0011162C
00080B75
FFFD8C1E
00075F54
FFF18278
FFFB778A
000570F1
FFFCC145
0004B2AA
