000387C8
FFFF3EBB
FFFC58BC
0000E027
000055BC
FFFB1598
0008ECC3
FFFC7F46
FFFC59E0
0000CF50
FFFAD160
00060AB1
FFFDA30A
FFF0815A
FFF8EBCC
0004C10F
FFFDCE84
000066AD
FFFC9272
00006E06
0007FDB9
00072987
000847A4
00053F17
FFFF2F2D
FFF817F5
000448F3
0007CCFF
FFFA81EB
00047B30
0000DF6C
FFFB6110
FFF91034
FFFC941F
FFF009C4
FFF033E3
FFE951D1
FFF3D7EB
FFF7375E
FFF10587
FFD88AE8
FFEA9A30
0000C615
FFE3147E
FFD64BBE
FFDD26CC
FFEB5D18
FFE4619C
FFDFDE6C
FFF9B043
FFEF01CB
FFF629D5
FFF91E8C
FFF7110E
FFFED76E
FFFCE41C
FFFA615D
00001D62
FFF3EA4E
FFDED937
FFF141F9
FFFF33A5
FFE3241E
FFE72FC6
FFE86AF3
FFDAF4D6
FFCDA8B7
FFC5DA02
FFDAF62A
FFFCE817
FFDD3F6C
FFEB67FE
0004D9CF
FFFC28B7
000625AF
0000DAA1
FFF79CAF
FFF797E7
FFF9B8C1
FFF1825A
FFEA6747
FFF47273
FFFB82F6
FFF8DAE4
FFFB255A
00011AF7
00148F6B
FFDAB1FB
0005D244
FFE11E64
FFE12D16
FFE72EF9
FFE1C40E
FFDC9141
FFF97A30
FFF9699F
000B355F
FFE91909
FFEDCE7B
00091891
000E18E9
0018C9BF
001393B6
000AFCD0
0018AE96
000863C3
FFF9E141
FFF43C85
00049D0B
0012678F
FFF26195
FFFD1720
00072A7E
00080790
001B2D27
0017AE49
0001E191
FFE8A5D8
FFE6BE05
FFF2D6D5
FFDBEEF7
FFEBF922
FFEFA7FE
00032A04
000284F2
00021FBF
000810B4
000DF74F
000A4FE5
000ABD22
000C9D2C
0000D9B4
FFFF7A54
00099EB4
FFFE72FE
FFFCFB86
000F482F
001BF716
0016718C
FFFFC4D0
00037C06
FFFD5A62
FFEC55E9
000418FE
FFE18619
000FF2DE
000EDA37
FFFE5D5E
FFFB7D0F
00052449
FFFDF7D4
000A7847
000781FF
0004132C
FFF89644
0003E7FF
0000367F
00062291
FFF20B38
FFF2692D
FFF6AE22
FFF067BF
FFF08003
FFED296F
FFF90E1C
FFFF849A
00169524
FFFDA167
FFFAFDDF
FFEE0F9D
000E291E
0003EB0E
FFFDCDCA
00068895
0000A895
00056DE5
000B8306
000B73F4
000FD8F6
000FB829
0015E25E
0006ADB8
0008BF8F
00086BB1
0005FF1A
000D39FF
000576E6
0012B3F5
000EA05D
FFFDF120
FFEB4117
FFF5D75E
00059569
000C040F
0012BCC6
00005DBC
FFFD4643
FFFBAD90
0001138F
00091838
FFE67D5A
00032403
0001F7E8
000B42D0
00084455
000B1B60
000DA875
0007D8FD
000C2AF2
000FDA95
000F6432
00119EBB
000DD4F6
00163B91
00067576
001A9F2E
000AD350
FFFB45B9
FFF2FCEB
0002D2F1
000A4267
001D0258
001D0624
FFFBF2AE
FFF06C44
000BE023
FFFF544E
0004E9CD
FFECF6B6
0001E754
FFFE1A87
0002033D
000E9F1C
0009CCC4
0006D97F
00052404
0007EBD1
000FE42C
00155F4F
001554DE
00109CC0
0005031F
0015D032
001677D8
0012E5AB
00149405
00072628
FFF55F4E
00230EBD
002B6177
001BA37A
000AA03F
00110066
001638D8
000705EC
FFF0CCCD
FFF62B35
FFF5E7B3
00140380
000C2281
00172325
00135489
000DE1EF
0005907F
0007FEE8
00118F08
000C7151
000FA92C
000FFB2B
000426A9
0019D040
00087FB0
0009883D
0002A480
000C9B0E
000360A1
0010E74E
0034E19C
002462FB
001AF363
000DD16A
00083680
FFFE5DFE
0003FF40
000B3770
FFF35357
00053DA1
0013E55C
00139556
0013EBAA
0012D240
000666E8
000AD76E
000EBFBA
001B88BA
001F9766
0017DB20
FFFDA61C
00011F7C
000C91AD
FFFFC97C
FFFCF4B3
FFF6E956
FFEBF552
0006230D
003A9B02
0019139D
001A7690
00107E48
FFF765FC
0028522D
001503E4
0011BDC1
000F0695
000D74B0
000E0916
00154981
00082BB8
0006E45A
0013AA88
0019341D
001CDE44
002852F8
002AC482
001FDF7A
001A71A4
00100579
00030BA0
00098575
FFF0D3B5
FFF47F58
FFE27F54
FFDE5BC3
0019A172
0022B55B
00101E2E
001754D9
00134132
001B921D
0023F9C5
0024799A
00132D55
000ED464
00087192
00087397
FFFCD05D
0008D2CB
FFFF9093
0008B0FD
0009E695
001B0A2D
0032240C
001C896A
0013F0DE
000C36A9
0005DFFA
FFFFEC95
FFDFB589
FFE087C2
FFE4D8F7
FFB6F98E
FFEB6E50
0019A77E
000B89BB
FFF4E9C8
000D9635
0011008E
001C6782
00245B3D
0007A6E4
0003B5EB
001007F8
0002C65D
0000B5BD
FFF8F19B
FFF92A22
FFF0C00A
FFFE3E63
001593EB
000D5954
00177B72
000FF356
001668BA
00014B78
00001E77
FFE6B9DC
FFDF08E2
FFDF0F5D
FFC4EE9D
FFE5DF6E
FFF3E7B1
FFF6B8B9
0002F6E1
0017DCF0
001C0957
000C9181
0025C4B0
0007460A
0007255F
FFFD9CC9
FFFE12A0
FFFDBA98
FFF0DB17
FFF1BA02
FFF54BD0
FFF50A64
0001A87A
0013A8DB
00107006
0010909C
000CB101
000522A8
FFF63BC4
FFEF9A78
FFE3A093
FFF6E014
FFE7F960
FFD9F820
FFE5D311
FFE00C70
FFF96775
0011C82C
0008D334
00049938
0014F8EC
FFF73148
00085EC9
FFF182BC
FFEC17A1
FFF13A4D
FFEAF64D
FFF72D18
FFF2FC6E
FFF1F9A4
FFF3065E
00074E98
FFFC171B
00099664
00031195
0006F4B3
000006AD
FFFC95F1
00047AA7
00187ACB
FFF5D302
FFE644EC
00022723
FFEDB387
00094112
000540AF
000CA8ED
FFFC3E94
00029A06
FFF7DA78
FFF1C0C0
FFF8BA00
FFF9C42B
FFE380B5
FFEC5506
FFDD9A8E
FFE98594
FFFA365E
FFF6826D
0000C3EC
0007D501
000D11B8
000AD731
0009C4AC
00063138
FFED271E
FFFA0E1C
FFFD9047
FFF987BE
FFCEB9F2
FFE24DC4
FFED6337
FFFEFD08
00148268
FFF765CE
0005D18C
FFF98860
FFF8D771
FFFE3270
FFF7DDAC
000033D7
FFF7BC4A
FFDE354D
FFE1FEF0
FFE9BBD2
FFF6E34F
FFFEE143
00132BC6
0003C322
00078C9E
000E1D49
00088A6D
0006066C
00099843
FFF7AF47
00070679
FFF83E6B
FFDE806E
FFF690D1
FFDEF772
001476A0
0006933F
00114E31
00088431
000968C2
000B76DF
000E0B22
FFFA7FC1
0002EA9D
FFF9CAD9
FFFAD012
FFF8DFA6
FFE1B71C
FFED3CD6
000EEA3E
0015DF77
00001717
00027E03
FFFDD929
000C5314
001439F5
00010745
FFF467E6
FFDD9631
FFE2A89C
FFE2614A
000ABD8C
FFD77A6C
FFFF6C86
000A2AB0
0015F862
000F4778
00054899
001036FE
FFF802D1
FFE65AD2
FFF9BE9C
FFF4B389
FFE50E91
FFE3679F
FFE1BBFF
FFEA280C
FFFE5E0A
00070DC9
FFFEFF05
0004BFB8
00089EFE
001CC0B8
00059469
FFF05FB9
FFE135A2
FFD88B4F
FFEF7746
FFF533B3
FFD3DFF9
FFE40C2A
FFF98454
FFFC2966
FFF958EC
FFF6C0DE
FFF468AE
000ABEAA
FFF2EF0F
FFE2B023
FFF158CD
FFEBFEB8
FFEC29CB
FFE21C14
FFE18402
FFF3144B
FFFBC559
FFFBFF4B
000AD636
0004448B
000582E9
0004634A
FFF694A6
FFEB5038
FFE6257D
FFE06378
FFE668A8
00024DEB
FFF8FA15
00002D18
FFF5476C
0000FA17
FFEA5554
FFE7A1F0
FFF7C7E0
0004F8AF
00015AF2
FFFF4461
FFFD559A
FFED57F8
FFE7F1A0
FFE59085
FFF80F20
FFF16B2C
FFF8191E
00083F0D
0006DA02
0007EFA2
FFFB6F50
FFFE1E40
FFFE8558
FFFF5485
FFEBD8BB
FFDE5A5E
FFE84178
FFF67B8F
FFDCCF7A
FFFDE702
FFF5CECD
FFFE101C
FFEBB4EE
FFE81494
00038C24
FFE59647
FFF3030B
FFF0293A
FFF2D061
FFEF6EB4
FFECC10F
FFFC0B6E
FFFC081B
FFEB83DD
FFFC806C
FFFCCBAA
000E51C0
00080692
00062A39
00096C50
000239A7
FFFDC109
FFF23185
00008E35
FFF2D9F5
FFF48581
FFD72FC5
0004570E
0007C4E1
FFF83770
FFF14C1D
001B7B5E
0011DBBA
0005D81C
FFFCCE83
FFFA9F78
FFEBB744
FFEE01E9
FFFBF095
FFED7762
FFEEBABE
FFEE5F9A
000283F9
0006FEAD
0000924C
0007F758
FFFC06F5
FFFCF99A
00093C33
FFF51865
FFFC584D
00020D6B
FFF9B358
FFF7E9EF
FFD8F980
00030FDB
FFFBEA6E
000174DC
000A93AC
0026CA89
002DDB9E
002ADAA2
0022D9A2
002208CD
0016AF5C
00079FAD
00132E82
00081635
00077160
0000F43A
FFF92230
000013D6
0009AB60
000A918B
FFF76046
0010EEEE
0013D8C0
000D7A34
000F2E8C
000D15DA
FFF0A934
FFE9CC7D
FFECB6C6
000488CA
FFF82BD3
00028A91
0005C969
000FB3F8
001F8B69
002AD8A9
001B8F18
00216900
002ABCEA
0032D67F
0022A264
0020B3C7
001CAEF0
00241138
00115793
00154E93
001632C2
001C334A
00272C21
00331498
001CF180
0020C6C6
001C92C7
001F01EC
001C700A
FFF18CA9
FFF25A65
00089BBC
FFFE9D77
0001FD3A
FFFB3556
0012BB6B
FFFC8D74
000E63AC
0023A3DD
002BEA7C
001F1C42
002DC67C
0038E2DD
002C44C6
00289B71
003E2F67
00483425
00343088
003C92B7
00472E88
00370903
00290C92
003DFA7D
003C1D42
002D4D0C
001D7917
00065E96
00092734
FFFF2E4D
0001DE74
FFFF4786
FFFDEB56
FFF6F1DC
FFFE2FEB
000087CD
0002687C
000BFE7A
000C1C9F
0017A23C
000E780E
0022CA04
0019271A
00130DE3
00135101
0020D7BC
001D2644
00205B46
0015F83B
00269817
001B5EF5
001AC694
001B7AD7
001F339B
0011FF05
0003663A
00067158
0004CFCF
0004813E
