0008F675
FFF7C4A2
FFFFEB8E
FFF7E62D
00087CA8
FFF7A4D5
0002EF50
00012B69
FFF7021C
00031BCE
0004D537
0006493F
FFF51BCB
FFFEA8B1
0002FACF
0002C909
000026FC
00080759
0000922F
FFFA9116
FFFE1616
FFFD0424
FFFD7A60
FFF9710B
FFFA8BA8
0003F5B7
FFFFABFA
FFFE4901
FFFB3C60
00040DEB
00023F91
0003E8B3
FFF71326
FFF51B49
FFE5A2AF
FFEEACE8
FFE99276
FFE7DF3B
FFE929FC
FFF73B62
FFE66CEF
FFEB4858
0005724B
FFD6027D
FFDD91BD
FFDAA722
FFE4D82D
FFDDB336
FFD21E05
FFF42B91
FFE5225D
FFE300CD
FFFC8B61
FFFC7DF3
FFFEF48E
FFF94C95
0001CADB
FFFE11A3
FFEE48D6
FFE41CA8
FFE01E94
FFF604F8
FFE6C6AA
FFE83BD5
FFDAD246
FFDAF395
FFD19CED
FFC6E960
FFCF1DC1
FFE674A0
FFE8BCC9
FFCF85FC
FFD21BF1
FFE29FFA
FFD5202C
FFD91370
FFDB3705
FFD4F644
FFE6C5ED
FFD03586
FFDE6C46
FFEA95D9
FFFE0524
FFF9CF59
000477C2
FFFDED71
FFF2405B
FFE8CA20
FFF3FB0A
FFF97A74
FFDA8171
FFDBDB45
FFC32D3E
FFBEDCF2
FFCCDDB9
FFC7AC09
FFB38002
FFB76D10
FFC2F54D
FFC47352
FFD74F0F
FFDBE914
FFCD28F7
FFE511A4
FFE361E1
FFFAF374
FFFAF1F2
FFEBC798
FFE81F2A
0008B325
0012C74A
FFF83A1B
FFFD5877
00065847
FFFE0978
FFF77580
FFECA88D
FFE90827
FFD45A41
FFEA5F3F
FFCAA422
FFD725F2
FFD20318
FFDC686A
FFDD4344
FFE77290
FFDE7CA4
FFE436A6
FFE3B53B
FFE8FC9E
FFEAAACD
FFDCD9BA
FFF2C0D4
FFFF1824
FFF5A0AC
0000F455
001E02F9
002EDD8E
0015D72B
FFEFEBEE
0001991B
0007757E
FFE748EA
FFFABDF4
FFE3F77E
FFEAC86B
FFD6650C
FFE1297B
FFE93696
FFF556D3
FFFCF8F7
000B4CFC
000F1341
FFFDB545
FFF76646
FFF4D9CC
FFE169A1
FFF48002
FFEE4ACE
FFE7E0AD
FFF3AF80
FFEF2F40
FFFF4152
FFF406D3
FFEFE066
0018891E
000068C9
FFF5A010
FFFD5F2A
FFEF9CAF
000C9794
FFEF8B49
FFF2810D
FFFEBB90
FFE5AF3F
FFDA35EB
FFF37441
FFFE649A
FFFD4C26
000FE623
0009AE56
FFFB66A3
00037DE8
0001ECC7
000D66CF
0003212C
FFFD77D7
0005726A
FFFA54A6
FFFCC943
00006D3E
00018C9D
FFF30611
00101D5A
00027911
FFE5D15C
FFFD3293
FFE7BE0C
0016FF86
00002382
FFE48CD6
FFE6F7E1
FFE2273D
FFE50416
FFFBAF86
FFF7F366
0005D1E0
0007B472
00087290
0019FF29
0008385B
001BCA65
0010EE66
001C07B3
0008A3CE
0014DE22
FFFF7047
0005392E
0013D85C
0019178B
0012804E
002536D8
001B3EE6
FFF61296
FFED1175
FFECDA17
0013C96F
FFF41702
FFE1031D
FFEFCBEA
FFF23F24
FFEC83F5
FFFF65FA
000E4CBD
00135B8E
000BD27E
0004F1BE
0001C4B1
000839C9
0015DE50
0012556A
00122750
0017C15C
000444E2
0000C14A
000D3A89
FFF884F3
001C531A
004754CA
00546606
002AC7F6
0000D637
FFFD0101
00067176
FFF0CB05
FFDFD76A
FFE39BBE
FFFA553B
FFF7DE6C
0000957B
0008E8BC
000E3D11
0013B79A
00049B36
FFFE7B16
000C882A
0006B19F
00082320
000B1E92
00135ADC
0017F8B8
0010453E
000D1486
0002406A
FFF1BCFD
000200F7
003CF024
0040AD6B
002E5958
FFF5DD47
FFF213F7
FFF89BAF
FFF0190D
FFE16964
FFF384F4
0006144F
00069BFB
00074E5B
0010F4B3
0022065C
0014E23E
000CF19C
001558CE
FFF7C856
FFF3A418
FFF9CFED
000473B5
00035664
0010610C
00076A1C
FFFF48A6
FFFD7F09
00043EDE
00116196
0023C7DF
00319199
00180912
0004EB3D
FFFED482
FFEC93AF
FFD99CEC
FFE12A99
FFEF91FB
00106F8B
00123DDE
001329E4
00262346
0025ABDC
001A34D8
0013BC5B
00153E0F
FFF78ABF
FFF7DE2D
00098C0D
000AA5A4
00091088
0008742F
FFFF2CD3
000140B2
000DE683
000B1727
000CAEC0
0014AD84
0013678E
002CCF3F
0010D35B
FFF6D51D
FFEC6F5F
FFF330EB
0006D74C
000AA3B0
0014D0D9
000DAE9F
0010A836
0024A08E
001188DE
0016DBB5
002093B4
000185DA
00021251
FFF3730C
00045DCC
0004C036
FFFA957D
000086E8
00097BAE
00053A48
00171D43
00267A98
00248FE2
0004BB57
000A41E3
00197E5B
FFFA83A1
FFFA5E79
00018A64
FFE8BFD3
0003C9C0
001E19A6
000B0736
001290DF
00222A66
001EEF5D
0013CEB0
0012CE85
0012183C
0011FC8A
FFFF7075
FFF5D421
0008E363
00002E6E
0002B15D
00040208
000B3A00
001CDB59
0027F2C2
002E0B77
FFFFE9C1
FFDF4207
FFF3340B
0002391C
FFF880BB
00036895
FFFEE105
FFEB8FDE
00020C86
001605DA
00127D0E
0009D7C7
00218544
0011BF64
000961CC
00149328
00119791
00120AB7
FFF5C33F
FFF70B25
FFF676B3
0005F352
000BB213
000A79A5
0012478F
0017878F
000D8EF9
0018D45A
0007E5FD
FFEE8F52
FFF56EC3
FFF0871C
FFEA954D
000752B5
FFF4A842
FFEA7D43
0005A3F4
00147A13
000C1922
0002AB54
000B84E1
000A12A9
0013622C
00155751
000C3B4B
00096CEA
FFF7ECD9
FFF1B981
FFFC7DA9
0002483D
0011CD59
000824BA
00071C2E
FFF94EC6
00080014
00085CBB
FFFF0E11
FFE75D14
FFDEC91C
FFFE5922
FFEE67A1
FFF3A5A3
FFF5359D
FFF3DC0F
FFF305B7
FFFD86D7
0004DB7F
00107AF5
000F1BEB
0013F967
000ABA46
0005DE42
FFFD7C73
0008F8DB
FFED75AE
FFFEB788
0001AFFD
000DC430
001C7FEF
FFFB5118
FFF77B7B
FFF7A090
0001DF00
FFF692EA
FFF51464
FFE2E213
FFE68A52
FFF42494
FFEB5418
FFF9DE6E
FFEF4CD3
FFFCC8CD
FFDE91AF
FFEC9A1E
000516D1
0011D118
001878E1
0012CD3D
0022C018
0004BBD8
000BA26B
0004F404
FFFFE3AA
FFFFF4E9
000B89BE
000FA619
000FCECD
00022414
FFE96E02
FFFC780C
FFFBD44A
FFF9154C
FFE6F4AD
FFEDC41C
FFD99B8A
FFFE4192
FFE6D44E
FFF12767
FFF36F87
FFF8C68E
FFEA8015
FFF5F2E3
000C9C2D
0016EA17
0016E784
00054832
000B1C33
FFF4FD1A
00019D0C
FFFA28FA
000A3F81
001265C3
FFFB4FD3
FFF3CB45
FFF7DD82
FFE98C36
FFF96977
FFF6507C
FFEF149F
FFEF0211
FFE71EB5
FFE3A70E
FFD82AE8
FFF54FB7
FFE47F4B
FFFBC705
FFECE174
FFF83FC2
FFEE284A
FFE81451
FFED911D
FFF5DE5E
FFF974DE
FFF63405
FFE64B45
FFD754DF
FFECB836
FFEC6CF3
FFEEC16A
FFF3B54D
FFF8F8F6
FFF360E0
FFE5C864
FFF634D0
FFFE53F8
FFE8C422
FFE3961F
FFE3740B
FFE0DE50
FFFB6774
FFDFB3BC
FFF8D4E2
FFE7A8FD
FFF88588
00099DF6
FFFBD75C
FFEEFCE4
FFDED290
FFED6612
FFEFC5ED
FFE40815
FFE2DA66
FFE156E2
FFD541FB
FFDB2925
FFE20D4B
FFF6E447
FFE2741D
FFEF7E12
FFF093C7
FFEE65EC
FFF6D3CB
FFF94E65
FFEEAE0E
FFE9BE1B
FFEF061A
FFEF6D6D
0001E9B3
001050AE
FFED484E
FFFD7172
FFF41B1B
00028C75
FFE0EDFD
FFE497E8
FFF22DCB
FFFFB521
FFEB7E08
FFEF16A0
FFED1F1A
FFF7EA9C
FFE4973A
FFDFE761
FFE9E718
FFEDE0D7
FFED9B84
FFE5C39E
FFF4DC73
FFF0FE4E
FFE9B2AE
FFE6FAEF
FFEB2354
FFFEF0C6
FFF79B4D
000D57C8
00127D61
FFFE4263
FFE24AD2
0009C5B8
FFF08217
FFEFC5B0
FFE74BB0
FFE28B51
FFEA03BA
FFEB7BD5
FFF1D118
FFF75EB3
FFFC739F
FFFE9865
FFFF959C
FFFDF9FC
000A1B38
FFF749CC
FFFC443C
FFE9FC5F
FFEADFD6
FFF4BDB7
FFEEBD57
FFE9C136
FFEAE100
00095F58
000A1BB0
001EAF3D
002AE77C
000913E0
0004770B
0000B364
000058D3
00039477
FFE95BBA
FFDE288E
FFE0AE96
FFEDB8A7
FFF46042
FFF4EC0D
FFFC5965
0002608E
00070AC7
00083543
000C5E02
0005A055
000D52A5
0001FCB5
00033AD6
FFFCA26A
FFF32445
FFFF8484
00001BF2
001AB2DF
001CCB56
00188B16
000DD3BA
000D79E3
FFF79F30
FFFC44DB
FFFCC787
00065008
0007BD43
FFE714DF
FFF0B67C
FFFD13F1
FFEEE33A
FFFE2956
00088F02
0003A160
0003AAF6
000AB3CA
0014CC2B
00009962
FFFC5765
00062970
FFFF7945
FFEB6EAC
00001D4E
0015B4EF
00194466
000E2D9A
001C2DCC
00182BF5
FFF7AC80
FFF01189
FFEFD057
FFFB2A7D
000570EE
FFFA2CFA
FFF9D5AF
0010D9E0
000130F7
00006148
FFFA6E05
FFF825AA
FFF3D834
FFFDB79C
000C3A73
000E7309
FFF1C37D
0003AA66
000804F6
00034D24
0001121C
000C2916
000E810B
0007DAD2
001ECD47
001D6E2E
000A51F8
001087C9
FFEE421F
FFFF59C7
FFF4271B
FFFC3F8D
FFFCE98D
FFFA47CA
0002E5E7
000FEBDE
0019069C
00203D5C
0024704E
000F669F
0013C5DA
001B8293
000A5BD2
00040627
000E24E1
0015D9DA
0020A67B
0004334E
000686FA
000A8ABF
0006A373
00090B57
00111514
00153EEF
0000E574
0012EC2D
0009733C
00028FB8
FFFC295E
FFFC597A
0006A341
00039011
FFFF1793
00036D3A
FFEC9556
FFF41745
0006DD03
00036946
0005F809
FFF9AA82
00017864
000615AE
0006C965
FFFFBCC0
00178FC7
000E77E9
FFF956CB
FFF030FE
00120AAF
000E4437
000FE6A2
FFFAE9CB
FFFBB6C2
FFE6A9FE
000756DA
FFF76DCA
FFF6F172
00017D8B
