00010720
FFFBA57C
FFFC0285
FFFCA20F
000222F9
FFFB3871
0007203F
0007F32D
FFFE9FAD
FFFFD143
00013B34
FFFCC2E6
000D2770
0001BA93
FFFD50BB
0000B4D0
000202A0
FFFDF03F
FFFB1711
FFF82607
00051B02
0008F957
FFFCA77A
000176F6
00052E33
FFF88D79
000893C1
00023F1D
000783F0
0001C4CC
0008065B
FFF80BB4
0005D730
0006984B
00113BEE
001AEAFC
00148487
000792C5
001BCBA8
000164CB
0012227C
FFFF3579
FFE44765
FFF768B9
000545F7
0014A9CB
00088EAE
001BC861
0024AAD0
001156E9
000BF80E
000F0776
FFFA6B97
FFFBF638
00068210
FFFC65F0
FFFF9847
00067836
0002B3D5
FFF8B710
FFFCAEA1
00046273
001FD040
00194C8E
0018A495
0028CCC4
0032C037
002BF6A8
00142D94
FFF704CD
FFFF948F
0006B5FC
00040CE4
0027FECF
00225ED6
000B56A5
00206E3A
0021A046
001C507E
00227940
000CF5DE
FFF6DF47
FFF7B8E0
FFFEF07B
0001572E
FFFAE762
FFDFD7CD
0004DBDC
001581BC
000B879D
001FE326
00092498
0001CDF8
0000B9D6
FFFCCA59
0002B990
FFF0F792
0008D9FE
000ED7BA
FFFE7C64
FFF7A013
00022FA4
000B2E24
001AA962
0013E128
002A5094
00193053
00120AE0
0014DF2D
001B6AC0
000BF90E
FFF80649
0006AFB7
FFFC8A1A
FFE61AFA
00024410
FFF90FD4
FFE1DE6D
FFFD0881
FFFDCD73
FFF4BBF4
FFFCAE3B
000CAB15
FFFF5B8B
00040487
FFEFB857
FFFADDC9
FFFCF59E
FFF93B6C
000A7BEE
00151968
000B43B4
000CDDA6
001BB2DF
00194F85
0029FF32
003220C2
002B4521
00111C68
000F39E1
FFFCACFF
FFFE6D69
FFE73666
FFF71F5E
FFF298C8
FFD8041C
FFD9FE32
FFEBF742
FFF42D63
FFF86131
FFFFA966
0003451D
0007CF23
00051D6B
0000F70A
0008884D
000C67BF
001DB3C2
001746B2
001CAC25
001A4F1E
0021F6EB
00187C88
001BAE65
0024D0F9
0029DEDA
001B7D0E
0014DFA9
FFFDA58E
FFE6E986
FFFDD2E4
FFDB4817
FFEF8239
FFDAB822
FFD8BCF2
FFF590A0
00025181
FFFFEB40
00037A54
FFFA9CC7
0005B8A3
000919A3
0015C1E1
00142FD8
001F1FC3
001CB768
001F4B3D
001EB337
000F5ADD
00126549
00074C87
001B6312
002D9573
0042ABB1
002073F8
FFFE0BC0
FFF66403
FFE8C3C2
000C4153
FFDA370C
FFDD4EFA
FFEB7977
FFEF4861
FFEFEEB9
0009651A
0003FD4F
00040604
FFFA2965
0001FF22
00039045
00138A3F
001346E6
0009F6AF
0004CD10
0009BC27
0005585F
000841BE
FFF8613C
FFFDC79C
FFE68761
00010400
002029A5
000BDD71
000DEEF9
FFF24971
00039F20
FFFCE90D
FFD881E6
FFE1A076
FFEAA4E8
0000F4F3
FFF18934
00017A3F
FFFE1214
FFFE7DAB
00066807
FFF50350
FFF58983
0000E25E
FFF2091F
FFF01C5D
FFF0123C
FFF12563
FFEFF10C
FFEEC8C1
FFE63B48
FFDE9598
FFE73224
FFF4E7D5
0002D5CE
0003B513
0008AAC0
FFF54F72
FFF4FFE0
FFF42482
FFF1C3C1
FFE869AF
FFFEAC7E
FFF2730E
FFFB2A74
0002BC53
FFF89E38
FFFC31CC
FFF49543
FFF7689B
FFE54DE7
FFD9684E
FFD9071A
FFCE420E
FFC785CA
FFD57C83
FFC8577F
FFBA422A
FFC8C6E0
FFCE8401
FFCE48E6
FFEDCD13
0007DEAE
FFFB6AB5
FFFE3DA1
FFF98390
FFEBDA60
FFEDC13F
FFF7D75C
FFE34AB2
FFFABC8E
000D3C79
00030A50
000A0BEC
FFF72BE3
FFF59B2D
FFF83B24
FFE34CA4
FFD868B2
FFD4717A
FFD3BAD6
FFDA1C56
FFB9F3F6
FFC057DA
FFBE526A
FFBAF4D2
FFC89304
FFCCFD7F
FFD9A44E
FFF4D671
000A5C46
FFFE3E45
FFF6B104
FFF30CE1
FFF53593
FFE61EDF
FFF13DE3
FFFAD29C
0012B036
000B73F7
FFFEC308
FFF83451
0000DB47
FFF63E97
FFF670FC
FFEBD4F8
FFD9A6A8
FFEBA90C
FFECCAE3
FFF08DAF
FFEC56F4
FFE3B43F
FFE959E4
FFE26FC7
FFE12C5A
FFDCF020
FFE2C070
FFED6E4A
000A39E7
FFE9452F
FFF76733
0000725F
FFECAA48
FFEB87CC
FFF7008C
00075596
FFFD5F52
0005D9DE
FFF61669
FFFFF6D3
FFFEE632
FFFBE56D
FFFA3AD0
FFF29BE4
FFFD4675
00026CBB
000FB597
001AA04D
001980E2
000B2234
0001C93E
FFF8A7EA
FFF07BF0
FFED8483
FFE72DEB
FFE49FED
FFF15526
FFF1C543
FFF3961C
FFF49DF7
FFFCBB00
FFEF51C6
FFFBA655
0006E378
FFFACB71
FFF98C56
00006ABF
FFF17F2A
FFFBABC6
001149A0
0014C0C7
000A1F0B
001F2775
001C7FFE
0010EC8E
00287793
0021E3B1
000E9B21
0013707F
000C7B30
00093599
FFFE74F2
FFF88D37
FFFD536D
FFF7C673
000E2817
00140668
0002342F
FFEEBAAF
FFDDE548
00174B6F
0011CC52
FFFCE2CC
000F1102
00099BA2
FFF273BB
FFF8C5B1
0019055A
00177975
00101ED0
0007B024
000F184A
001418A6
00226DCA
0004236C
00161700
00080BA0
00095179
FFFCE989
FFFC99EF
FFFD17AD
0000DC07
FFFDEC27
00250124
0020DE8E
0010773F
FFEA27A4
FFD71E75
000E6B10
0009AB7E
000EB039
000E91A3
FFFD7233
FFF66751
FFFF8B95
000DCA38
000F81A3
000A3608
00093978
000665ED
00157F41
001030D4
00032758
000C5E71
00089901
000ACE3C
001032EC
FFF5549D
0003D16C
00071FB8
00234016
00095110
001C3502
FFF3DA46
FFF4CFCB
FFE9BF97
000E85F7
FFF7A3DD
0007A09E
001C2CD6
FFFD1C79
FFFA39B4
FFF08B0E
FFF950A8
FFFCE717
FFFCF15C
0005BF8C
00068078
00117872
00143EFC
001457EA
00076C69
000507CC
001A3191
0018D4DC
FFFF3A96
00069B6A
000DED0E
003646B5
00235450
00146505
FFF9B311
FFEFF12B
FFFA832C
0025115C
FFF7FA76
001AE930
001FFD31
000D8AD2
00106911
FFFD7991
FFFC4F2A
FFF3442D
0000D194
FFFB3C8D
000F243D
000CB6E3
00114499
FFFE8A7B
00035175
000787F5
001876C3
0006B900
00051E4F
0008D7D3
0003CB57
002D8E29
00081610
00069469
FFFCF8AD
FFE77C69
FFF46ED9
00165FCD
000CADB1
001852EF
0025C6E1
00170A37
00151F70
000AC98A
0009136B
000267CA
000C3AD9
00151415
000CDABA
0008B9D1
000776E6
FFFB957D
0008B246
00090B92
000E1AE7
0001CDF8
FFF57563
000B1B42
001DEACB
001C67B5
0007BA95
00182D10
FFF1B55D
FFF91638
0000AF88
FFF4F435
00109E0C
00177444
000EAB28
00039BCE
000BD30A
000699D4
00064B07
000F120F
0017789C
000AC2D9
000FA7FF
FFFEFA40
00011C78
FFF07DC0
000930A4
FFFC81AE
0003C6EC
FFFA7BFE
0006922D
00132B56
00139E34
000C0FFA
001898F8
000A62E6
000456B7
FFFF47B6
00115ABD
0009172C
0010B928
0017F727
000A17B6
FFFD01C0
0007F731
FFFE2192
FFF982A7
FFFCFFC4
0004AA40
0005637A
00069864
000490C8
00000623
FFFDBDD7
FFFC9139
FFFB20FE
FFFED2FD
000308A1
FFFD1E4E
000981F3
0011B322
001AB99B
000D13DA
00075B1D
FFF64755
0000051B
0008CE23
00050A92
000F3EEF
000D133E
FFF48B72
00012B61
000A018E
0005426E
000490B6
FFFC39D1
000D6494
0004FCC0
0009ACC7
FFF32C57
00001568
000A28C2
FFF81EFA
FFF470B4
FFF90A2A
FFFD152B
0006062F
000D3B07
0022892A
000C6C1F
FFEA44A6
FFFA1386
FFED992C
FFF8D574
0010569F
001073A2
00101658
FFFBE177
FFFA499A
0000B44F
FFFDD289
00015A9D
FFFEC875
0002ECDD
FFFF4E61
FFFA6E56
FFF7B13B
FFEFA013
FFFEE471
FFF309BC
FFFC1FAB
FFEEC4DC
0003C538
FFFFA755
0004ECA2
001E89DE
0029A0E6
001AE2AE
0009F521
FFF38D50
00053A68
0000F208
FFFDD65C
00080A10
001BC8E2
0004EF16
FFF475A2
FFE9F462
000244B9
0005935C
0004CC36
FFF16E30
FFEEC745
FFDEEF70
FFF3618B
FFEA5A63
FFECC823
FFE45C79
FFEA5374
FFED144B
000D87D8
0016432F
00215551
002A5B15
00348DB7
001FB560
FFF2DBBA
FFFDDEC7
0006B9DF
00063966
FFF66E01
FFEAD5CE
FFEFE0BD
00038F77
0000CA8F
000B7C10
0002E286
FFFD969E
0005E2FB
FFF90BF6
FFEDA2ED
FFFEEF60
FFF75D3D
FFFFD928
FFF66926
FFF39F65
000942CD
0004C9F8
002164DD
001CDC3E
0023EA2C
001CA4B2
003EB868
00100DB4
000847CB
00038113
FFFA25E1
00051E9B
FFFE186A
0006326D
00096A03
000CC9C0
000DA673
0003DBBC
00072151
000426B9
000A6E14
000B9CE7
000DE4F9
0017DA0C
002B83B6
00226C2A
001D397A
0028EAC2
001DC90D
0014B86F
002BAC1A
00371B0B
003AED98
00378169
0032B3EB
000C44BF
0007EC4E
0000DEAF
FFFFDD6E
00054E32
FFFEDDAE
0004967C
00108FDC
001D07A3
00188BA6
00077E0E
000E2C14
0012B18E
00262068
001F6056
0019E03A
00205F94
003229F0
00227299
00227F22
001890A6
000E9F61
000FA000
002C1423
002E4AF5
001E5411
0026EBDB
00188256
FFFC6DE1
FFFF2E4A
FFFFA6BD
000755FA
FFF9E498
0001FFC9
00064D9D
00086D18
00017C15
FFFA1851
FFFC574C
FFF67A95
FFFA30DD
FFF85CD0
001439F4
000B2A56
FFFB35C9
0011E57D
00029F98
FFF88CF4
FFEB52DE
FFF6BA3B
FFFEC929
00095D61
FFFFE7D1
FFFA2828
FFF52B10
00008BFA
FFFAE9AC
FFFBA6C5
0006A81A
