FFFAE90F
FFF95191
00014585
FFFE6202
000077E8
FFFE389B
FFFDC345
FFF96D42
00088DC2
FFFA38BD
0008B75F
FFFB3392
000D1ED1
FFFB8E9A
00060288
00068533
0009170A
0007CDE7
0008F5CD
FFF9C5B3
FFFE17EC
00047785
00000DCA
FFF8B8C5
FFF855D7
00090996
0008F390
0001C851
00050396
0008C012
FFF9768C
FFF8D4D2
000D397B
00127155
00012352
000064A6
0011929F
0006ED8D
000D374D
00017FE1
0001BEAC
001085C8
FFF472DC
FFF2FF8A
FFE4DD2D
FFF4E3B3
00130A8B
001C6A74
002AF574
0013D900
0010D54D
00101578
00089AF3
000612F6
FFFC2858
00054B35
00013C29
0005E69C
000426CD
FFEEBBF8
FFF92407
FFFF65C7
00179DEC
000C2D77
00084442
FFFA12B2
001274B2
00211F3D
001FBC50
000DBA14
0003983E
FFFBFF56
000159C5
FFF95B8C
FFF49807
00100D59
00107417
00141B98
000F4CCE
000F2959
0008A3C3
FFF3878C
FFFEC48E
FFFCE7ED
0004A742
000071E1
FFE1D6E6
FFFD9985
0001CD85
00177939
0020A710
0023C904
00188EA2
0006AF2A
000DD227
0017D0C7
0013A9C1
0002C7D9
00164669
0004CD6B
0004CE53
000119CF
0001E2CB
000E7DE7
00165468
FFFE8D42
FFF344B0
00002516
000329EB
FFEA09AB
0008F4B3
FFFA51EB
FFF9F608
FFFFA3A9
FFF9EA55
00077183
001A67D9
001E7259
00086B76
000894AC
000A82BC
FFFFE386
000858CE
0001528B
00004BBD
00096D28
FFFCFBCE
000000B7
000760A0
FFFE5D98
00148611
0011CEFA
0000AD75
FFFA9226
000A1587
00048DDD
0001F18F
FFFB2455
FFE4FA8F
FFE86CD0
0000EABD
FFFD0AF8
00058DED
00092B9A
001C21F8
001C53FD
001B72BE
0013E5BE
00102AA0
00083935
000588E3
FFF9103B
00136965
0006D10A
000E88EC
001498BB
000E5021
000B76E0
0012CD1F
00110D72
0005969A
FFEEB793
00029CD4
001FCA11
00085B2F
FFF658EC
FFFC899A
FFF60836
0006443C
00006F0E
000CAF32
000E0F51
001743CA
0015228C
0015CEAA
000B6F89
0015824E
001AD078
FFF7CD85
FFFA1F01
000F79E7
0009E119
0010BA29
000A9EFA
0002C1CA
FFFCCD19
FFF37D9A
FFEC91E4
FFEFCC4A
FFFC5082
FFFC583E
00115690
002CCCAE
FFFE8D44
001D6CA3
000E65FC
FFFFA5FD
002709BB
FFFCED22
0013C3FD
000F7395
00180321
0003AD49
000240AB
FFF84861
00009B28
FFE918D0
FFFABB65
FFEF9853
FFEEBE8B
0002CDC5
FFF0EF6C
FFEC8FBF
FFEE88FD
FFE5E735
FFDC79BF
FFDC6A1B
FFE1A7F5
FFFE78A7
00025B7E
001D29A6
000E8769
001F74F5
00124AC1
0009A4D4
0017C32C
FFFA0A31
0002758A
001B97A4
0004631C
FFF3EA0C
FFEEE8B0
FFDB96F6
FFDA832E
FFC533FB
FFD0F987
FFE29594
FFE10DA1
FFF1DC09
FFEC23E4
FFE18116
FFDD5635
FFE3B8DE
FFD16260
FFE3E69F
FFF2B9FD
FFFBF194
0007EF80
0015602E
00203D42
0000C53C
FFF6BB80
000E0BA0
0018C1E3
00067212
FFFB0DB0
00162CAE
FFF09C3E
FFD2F660
FFE4D164
FFD652F3
FFC63724
FFB2B3F4
FFD39711
FFE0365C
FFF3D634
FFFDB19A
000382A5
FFFFA62C
FFF43FD6
FFE8CC8C
FFF5C51E
FFF4E6D5
0013A943
FFF6CDC3
0000D04A
000A4B1B
00175D2C
FFF123B6
FFF1CFA6
000C80E6
0008D404
001AFAF1
00119EEC
0002B7D8
FFE15970
FFD90366
FFC47CAB
FFBA3F64
FFC0F033
FFD2C8E2
FFE928E4
00026F23
00269AA2
001C5A05
000B97B0
0009A352
000356CE
FFF9D743
0004BE9C
001006A1
0004E0B0
FFF848DD
FFE389F0
FFFAEC74
001B4134
FFF608D7
FFEC45D1
0005DA1F
0027B75D
001E2F77
001EEC71
00064C52
FFF96F4C
FFD62A50
FFD64B1D
FFE5CE1E
FFFF99AA
000C1D22
00238D33
004B45CB
00474349
001A3EBD
001BE19B
000895C7
FFF96DBC
FFFEFD87
00041CBC
FFF92402
FFE67D12
FFECF33B
FFE1BE96
FFCFA82A
FFF186CA
FFE356F8
000444B7
00007C13
00125A4F
001EAE28
001AD0E8
FFFB4F3D
FFF466EC
FFF4CDD4
FFFC261E
002093A0
00274863
0045417C
00534833
004E345E
0038D169
000FEDB5
00026363
000BC9A0
FFFE047B
00041B22
FFFD36C4
FFECFD5C
FFEA892D
FFF61E0A
FFDD563B
FFD91D0A
FFF8F5E9
FFFB6254
001429DA
FFFF6679
000EC206
001F9E6E
001B04B0
000138B9
001B2341
0014642C
0020522C
002EBBF2
0039FF83
0043473D
003AD6FA
002D7A7F
FFFE948F
FFED197B
FFF0939D
FFFABD71
FFFD551D
000128A9
FFFC2298
00044293
001078CA
FFEE18E5
FFF536A2
FFF6DFAE
FFF90517
FFE6E85E
FFF2B3BF
001497CA
FFFFAA71
001A84D3
001DBD46
0019485C
002E1FC8
0018D174
00148414
002E1DF8
0029558B
0020B2C9
000CDA5E
FFFE6BB6
FFDD42AE
FFDF15D5
FFF1601C
FFF9CA5F
0001D972
00056692
000CD0DA
00104019
000C0EE3
000E7E26
00163D4C
00028D6F
FFEA9BFB
FFE0A91C
FFE95186
00072B13
001328B0
001A9036
000BF57B
0015F0DC
00101F54
00100AA4
000E5C8D
0016F70F
00170FE0
FFFAADBA
FFFD717C
FFEFC62F
FFDF4897
FFEB32D8
FFFC7243
FFF5EDED
0004CFA6
00082374
00143B72
00119B9E
0017BCAC
00257E50
0016ED33
FFED5232
FFE0571D
FFE84D59
FFFB5577
000857C2
FFFC59B9
000652DB
0004F711
FFFBFF74
FFFB6D63
FFF70325
000A4848
FFFD60E5
FFF4B63F
FFE6A7AF
FFF05430
FFE3CB16
FFE8E17D
FFF242C3
FFFE8CC1
FFF9EC34
0005695C
00090553
001BBBA2
0010808B
001D4036
001F8518
000FCFF5
00038696
FFDDD37F
FFD096BD
FFE45E82
00020E31
000DDBAD
000522E9
00105275
000446B6
FFF9A5E7
FFF18F54
FFFE2C3C
FFEC0891
FFF4C079
FFF44C69
FFED9D7E
FFF81A24
FFF3A8C6
00008A45
FFFC2DE4
FFFA3270
000CEB49
000E1276
000364F1
000B606C
00163624
00170A30
000BF2C1
FFFAEC3F
FFE9C106
FFF51DEB
FFDE8384
000C4C2E
0012C58D
00170DC1
00197F77
FFF6D128
FFEA5AF6
FFFEC640
FFF72381
00017D72
FFFCED5E
00005A05
FFFD9DC3
00164D25
0011DB7B
00030F7C
0007B277
001751A1
000A6DF5
00100558
FFFD03EB
FFF9FAF9
0014DABD
FFFDC4BF
FFFA7EBD
FFEFB9F8
FFE80A6C
00093BFB
FFF0C9F8
00021766
00175001
00004878
002040F8
FFF403B6
FFEDEDC2
FFF28A3F
FFF0B8C1
FFFC5ABB
0009EB88
0003C46C
001266BC
00115F75
001A8469
001893A2
00140C28
00143284
FFFF06DF
00081C86
FFEDD83C
FFECF98C
FFF2F728
FFE4813C
FFE9C0DE
FFE9975E
FFE1235C
FFE4DECF
FFF27BBF
FFFCE53E
FFF21439
FFFAC286
0004086C
FFD58C1D
FFE6AC32
FFEE8CE7
FFF6BA24
FFFC8210
0010CE00
000C67A8
000BDF11
00186CD8
000B76A7
001B860C
000EB6C1
00050280
FFFF3CDB
0008B592
FFF8FF4F
FFEFE90B
FFE486DF
FFE93098
FFF7E090
FFF19A98
FFEA0783
FFFC90E4
00033240
00049613
00112C71
000F2B01
FFF95DC9
FFDA57A8
FFD965F8
FFDF51F0
FFE5F539
FFF81B82
FFF38ED6
FFFD1FD8
0001069A
000A7529
FFFE0B72
FFFEC122
0001C844
0001FCBE
00085F44
00002DBB
FFF51357
FFE8E43C
FFE9961C
FFEAE502
FFF25052
FFED7545
FFE7DE87
000FFC24
0002BC58
FFF40321
0005B156
000C7828
000EC349
FFF876A3
FFD9A587
FFDFED8D
FFED11F4
FFF1863F
00059422
0009040E
0007D59D
FFFFBD21
FFFF4CF3
FFEC0294
FFF839A0
0005032A
0001BB9C
FFFA2F30
FFFF47DC
FFF588FC
FFE4AB54
FFF0D71F
FFF89A75
FFDF8196
FFE88EF4
0010E052
0001E2D8
FFF8682E
FFFC0486
0016CF08
002A999E
000C0224
000077F0
FFFEA4DC
0009FAB9
000449EE
0015504D
00210995
001AC1A6
0006CD77
FFFBD28D
FFFB5C42
FFF81260
FFF12C14
FFF94341
00040987
FFFEC054
FFF6F542
FFF435F2
FFE6CE82
FFE06D82
FFE4F726
FFF980A2
0019CB7E
00033990
FFFA8D2F
FFFA9BE2
000ADFE5
0010C069
FFFD3276
00162BD5
000FFA2D
000D72CC
000774A6
00114CA8
0010C835
00177756
0001D947
0003CBA1
00132C07
FFF3F48D
00051B54
0008F4A8
0000D2D8
FFFAB773
FFFB2DAD
FFFF507F
0001A08E
FFEBFD7D
FFF428D3
FFFF2114
000D7715
0008F4D7
0004A593
FFFEE8E7
000241A9
FFFEB2E9
00023224
0006B3F9
00108EA1
FFF61664
FFEA6E97
FFF4FB91
00096F74
00126F4A
0014B5BA
000C6B26
FFE83788
FFEBD5C0
FFEDC75E
FFE66706
FFF5D34B
FFE69BA8
FFE15D08
FFEC28AB
FFFE4C88
0002E1A0
FFF4F5BD
FFFAE94A
FFF9C324
0001D283
0005882C
0002F8D2
00048055
FFF3E614
FFE09250
FFF5A1A3
FFF25487
FFE31D55
FFF4E0D3
FFFBEDC5
FFF47D29
0001D4C3
FFF9E3C2
FFF060A8
FFC9E641
FFE265AC
FFE9DE5F
FFD3BB38
FFD9EDD1
FFF0BDCA
FFDFBD15
FFF70C6A
FFFC2453
FFFDB121
FFFA33AB
FFF85369
FFFA149C
00042302
000444CB
FFFCB72D
FFFE769E
0001F4F4
FFF9728D
0006F727
FFF8D9D0
FFEE627F
FFF2EDA4
FFEED1E4
000A4E0C
FFED8425
FFE3F240
000315D1
FFE1F154
FFE3D6DA
000433A6
0008C635
FFF9FC72
000092F6
0007DACA
0021351F
00137C06
00056629
FFFB820B
00045C28
FFF7FB2C
00071EA5
