0004B626
00019B3C
0008E4E1
0008E3AD
FFF94C38
FFFEF5F1
FFF88779
FFFA22CD
FFFFBCA4
FFF98D48
FFFB7DAF
FFFAA2FB
FFFF76BE
FFF9EA63
000522A8
FFF9CB40
FFFABFAB
FFFF4149
FFFF9652
FFFBA757
0003E217
0005293E
000473BD
FFFF2D20
FFF7ECCD
FFFDFC09
FFFEC334
FFFD0717
FFFEDDA2
000719B3
FFFAFA36
0008FA2B
FFFF7026
FFF0B5C2
FFE61B1A
FFE0F1C0
FFED0674
FFE71A51
FFE99F52
FFF68A25
FFE9D661
FFF35ACD
000AE448
FFEFA7E9
FFF96241
0000710E
FFF13612
FFEC14B2
FFEB36AF
FFF11D68
FFEB8826
FFE411D0
00071B83
00002467
FFFAFB5C
FFFEF88E
FFFB0229
0006AB30
FFFF42EE
FFF86E46
FFFA0F1C
FFF06170
FFE18663
FFE0B618
FFDD268F
FFDA5C3C
FFCE4775
FFBC8BF2
FFBC0C78
FFCCE272
FFD59FB3
FFBF9802
FFD6D10B
FFD5097D
FFC313EC
FFD52762
FFD12401
FFE7E537
FFF3873B
FFE49E22
FFED0E44
0001B069
FFF89F6B
FFFC307F
FFFC173C
00051983
0007B86C
FFED22E0
FFD93FD1
FFE5231A
FFCC96E7
FFE05B3E
FFCC1385
FFC59BF0
FFC9D63C
FFD737FC
FFDBFB60
FFD9BA4E
FFD98A8E
FFD3BD66
FFD7AA81
FFE5BCD8
FFD38858
FFD3FC00
FFED5B10
FFE49AAF
FFEE0298
FFE21CB6
FFEFF50D
00110E62
FFFA8F96
FFFA0585
0000BD2C
FFF40092
FFFB96B0
0000DF07
FFE40BDD
FFE7062F
FFE207E0
FFE88374
FFDB687C
FFDF27FF
FFDECC2F
FFF438E2
FFE70683
FFF98720
FFECC548
FFF1ACF8
FFF11A35
00027711
FFE9DEB0
00028C92
00057A6C
000251A0
000CB55E
000982A7
FFF2FC6E
FFED2C28
FFF66392
00014E41
FFF8FD74
FFF88553
FFE5531D
0004CA6F
FFE55CC0
0006553F
0004B8A3
FFFBAEDA
000A8D86
FFFE13FF
FFF9E3E8
FFFB130A
FFFDC76D
000035F5
FFF31A2B
FFF5F2AD
0004F146
000919B1
FFFB30F8
FFF453CA
FFF92EB5
FFEE4E5C
FFF47AC3
FFF3956D
FFF04957
FFE62077
FFDCF870
FFEAE6D3
FFF95991
FFF240EA
00291728
0027D94B
000571B6
0029854E
00230E43
000D1CF7
00171F9C
FFFA0D60
0005B99C
000B32EA
FFFFA128
FFFA5226
FFEEF7CA
FFF24340
00062A4C
0008BF28
FFFD3B1F
FFF7D977
FFFE7475
000B4DF5
FFF57C10
FFF0C4AC
FFE5189C
FFD8FD83
FFD94166
FFF4541F
000A3910
FFF58ADB
0024F8EC
00296B32
000A7F1C
000D6140
0029A231
0017BEED
000AAF31
000D1578
000DBB58
0006FF4B
FFFC065C
FFFA23BC
FFE8EEEA
FFEE54D7
FFFBEB33
0013EF98
001795DF
0001793C
FFFF63D3
0007A795
FFF66CAC
FFF6AB8D
FFE8D802
FFE7604E
FFE3C1B2
FFF73F70
FFE6629A
0010FCB2
000F850F
00190EE5
00113FB8
0012DEA0
001FF3ED
001972CB
00170CF8
001F54F5
0014822E
000A8AFD
00041160
FFF942C0
FFF2FB3B
00066DBD
0004353E
00101CA9
00140483
FFFFC561
000CFE7F
FFFE399A
FFEF44FC
000795E8
FFEE561D
FFE2D624
FFE3B6DA
FFEF1100
0014FAEA
0018B745
0011F699
0002803A
0012BEA6
00125D1A
0013488F
001AF7A5
0008049E
00156186
0010C036
0004DBD0
00022A36
FFFB7226
FFF22990
FFFD05FA
0009372D
000B9F2B
0018EB7D
0009C9AF
000B5CE5
0004189B
0006CAC9
0001C68C
FFF242CD
FFDDD7FA
FFD424FA
FFFE61C1
000E5B8D
00065E21
001A6318
FFFFF3E4
000CE664
0010D41F
0013823D
0009C1B1
0005A8CC
FFFF73AD
FFFE8B91
00025A17
00057491
FFF8B715
FFF00A88
00084079
001240F3
001B62F1
000C712B
000B1715
000D9230
000A7001
000E22A3
FFEEB12D
FFE22FAD
FFE1CF13
FFE25442
FFFED735
0002C5FF
00234760
001E52D1
00089C2E
000E2A45
00097D6F
000ADAA2
000FF510
0004ADDF
0001C399
0012E4B6
00156B96
0006EBEF
FFF0AC2E
FFEBCE5C
FFFC8271
000C490B
001A0030
000E4FDB
000FE1F2
00031893
001AC4AE
000A3F6F
FFEFC974
FFD5AE91
FFD26E46
FFEC41B9
0000B7D2
0006DFE3
000BBD80
001C34C4
000C6C2D
000BE83C
FFFB11F5
0000BF8D
000CA6BB
000CA73B
00012C07
00159A59
00185406
FFFF9BC2
FFE4D85C
FFDBE928
FFEA7E9B
0009AF04
000AA777
0014DFE7
00074B7D
FFFA4031
00029A96
001A76A5
FFED2159
FFDCF77A
FFC833F0
FFF525DB
FFFBC3D7
00063413
0000FA1B
00208A36
000F2A9A
000CAC46
FFFAD5FE
000288AF
FFFE82E1
0006F9DA
000A73BB
002666F5
0023D54A
FFF87D15
FFD41B87
FFCFDF86
FFE0DA14
0006905A
000D3481
FFFD60A3
00056EFC
00076D9B
0009D0CD
000CBDF1
FFEBDE1B
FFE469F1
FFE8DDEF
00045D66
FFFC0FBC
FFF50C4F
0009502B
001BD6A6
00127782
0019DBA0
0007B7FE
000A0A42
000FEDFE
000CE1CF
00133A2B
001B860D
0010A843
FFFD80FB
FFE30AAA
FFD84638
FFE91AB0
FFFC6BB5
000868E7
000567B6
000FF070
00185E67
0013822A
000DF983
0004C464
FFFCFF3A
FFF55982
00136A96
000E132E
FFF31C16
FFF780A0
00084B08
00117A20
000EA222
001156FC
0003E033
00115726
0003221C
0005C710
0010405B
00021EB8
FFE29A37
FFD3357E
FFCCCFA1
FFFBB9A3
00042122
001CC08C
0017F3AB
0028A17C
002979FE
00225270
0010FE5F
0003DBF4
FFF9724B
FFDC155C
0005EA08
00034DAA
000938A0
FFECA9B6
00039332
FFF3DC32
000E420B
00073D04
00162C38
0015DF82
001642D2
000961FA
FFEEDC9F
FFD26156
FFC9A733
FFBBE0CB
FFE410F1
0006982B
001271E0
002142B3
00255026
002D28B4
001F815B
0019E160
00060253
FFFB3F20
FFF02177
FFCD5B6B
00128B8A
0016DA80
FFFC2E29
FFE801DC
00018F02
FFEA389A
00141EBC
00054D99
00054396
00088E74
000620BD
00064334
FFF1B1D0
FFDA6041
FFC23958
FFD79CBE
0003F859
0014AB1A
0017C61E
00221C69
002A5EF3
0008D34C
000C3D31
00069F3C
000B2ACF
FFEBEB3E
FFF20F0B
FFFA141A
00047380
0003CFE1
00102281
FFEE97AB
0018B0FE
FFEC7856
0007EAC5
FFFDED3C
FFEDA8F4
FFF87C8D
FFFC2696
FFF72CC7
FFEFBBD2
FFCE8037
FFBE6A94
FFDE7CC5
0004D834
001BA059
00209038
001CB7B2
00171230
000CB69A
FFFC5CC4
FFFA9A68
FFF3674A
FFDAB015
FFEF11CC
FFE431F5
FFED1F54
000B02F9
00020962
0013C45D
000D57C6
FFF5DC21
000A652D
FFF804C2
FFF010AE
FFF27B66
FFF0D740
FFE358CD
FFD86B4E
FFDDF3E6
FFCEE52E
FFEC1164
00027D7E
0010EED7
FFFF86D5
FFFE230B
FFFA7439
FFF633B3
FFEEB735
FFD35D9E
FFCDC68C
FFCEA60E
FFEC4828
FFEF61C6
00097117
00048BE4
0003BC18
FFFFA8AD
001A297B
FFFEE582
00041A2A
FFFF39E7
FFF1044F
FFE11E50
FFEACE98
FFD8BEF4
FFE58D98
FFDE724A
FFED5100
FFF8E323
0008491F
000C68F5
FFF8307A
00001E01
FFE9051D
FFE77A62
FFD286CE
FFD02126
FFD0F318
FFD1E2D2
FFEB02B4
FFE16D34
000B48B4
FFFF9BB2
FFF49EAE
FFFBBA17
000C625D
FFF8845C
FFEED5DA
FFF5729F
FFEDD4E6
FFE04290
FFEA92B6
FFDE9BE7
FFF03E66
FFFAA05E
FFF2FE7F
0006C716
00066814
000D94E0
0006985D
FFF9AA17
FFF2E0A8
FFEA89BD
FFDBB26C
FFE19732
FFE6451B
FFF03342
000BAE9E
FFFC0552
0009A3DA
000C9C23
FFF73E2B
FFEF4961
FFF9C525
FFDE2654
FFDBFE54
FFF97FA9
FFFABA95
FFF641C7
FFF895CA
FFF7688E
FFFA0C9F
FFF88226
0004CAB4
00145B1A
001B9B50
0010F4F4
00120E31
00083F3A
FFF55642
FFE98C56
FFEE8D79
FFF022CA
FFEDAE69
FFE50A2C
0007985C
000FB38F
00194E88
FFFD1AE8
0008757D
0007F322
FFDDF3E8
FFD4645E
FFEA7569
FFF2F389
FFF762CC
000A352A
FFED2CD6
FFF5439C
FFFD3A3C
FFF89AD2
000F1066
00095D44
001A7432
0011B3FD
00064FCB
000BF7A6
FFF86DDD
FFEBA9A0
FFE50464
FFF29541
FFE47A21
FFD5ACB4
FFF6B1EA
0012F47D
FFE0C48D
00010FC8
FFFB3D27
FFFAEC7B
000B9B58
FFF5EFAD
FFF25776
000A9740
FFF9427A
FFF8715F
FFE437FD
FFF66B7C
FFF48099
FFF3C98E
FFFF3C43
0000C267
FFF83C5E
0005A4B4
0017E428
0017E4F5
FFFE72C0
00044420
FFFDBDDD
FFFF25B1
FFE2A1B8
FFD5810A
FFF28D75
00017CE7
0006E9CE
0001463A
FFF8CB77
FFF992B5
FFEE1012
0014B7B7
FFFBB0C4
FFEE889F
FFF21567
FFECC53E
FFE6C08A
FFECFC30
FFF1A1B4
FFF2BC29
000B46A7
FFFD430A
FFFDE654
0010E256
0016D8BF
000DCB36
FFFB7CE1
FFFF1E89
FFF0646A
FFF7F79C
FFFA0851
FFCC36EF
FFDC8934
FFF0F015
0003737C
FFFE63FC
00084EDD
00019E47
0008D843
FFF1C662
FFE1010C
FFE3AE2C
FFE9099A
FFFACFDF
FFF51161
00078D9B
00002164
FFF2F066
FFEF0588
0000E9B8
FFFD3605
0010FB0F
000C13B2
000B0C58
000D50F1
0017F795
0002DD6E
FFFEB2B6
0010CFA9
FFF8B4B9
FFF883CB
0008A8BF
0003ABFB
000572D1
00078924
0002D1FC
0007AEB4
00057BB3
0009DEA1
000C23E3
00061CF5
FFF9A2DB
000904E8
0010D7E3
000B78C0
FFFB9F2D
00023251
00105B37
000B4557
FFF97259
000DC261
001711A8
0012DECA
0015566A
000CB9DF
0016A252
0014B0CA
000D9BCF
0007714A
FFFA3D10
0004F249
FFFC4481
