FFF74C87
FFF748DE
FFFC502F
0007BB0F
FFF81647
FFFA65FE
000850B0
000721FE
0000C939
FFF853D7
0006E793
0004B5A2
00031D29
FFFE1632
FFF9E35D
FFF7B7F7
FFF936B1
0008F504
00023AAC
0004B0F2
FFFBBF18
0007F4E3
0002AEDD
0006D20F
0005164C
FFFAA774
00080F98
FFFBBDC2
00054E13
0000152E
FFFBB2FC
0005B874
000459A3
0000FBC0
FFF93310
0002DA62
000035A6
FFF9173A
FFF90213
FFF5D0CB
FFF95AB2
FFE7C69D
001A1D45
FFFF47BD
FFD18582
FFDC320D
FFF991D2
FFEFCF8A
FFF13640
FFF4C767
FFF77C88
FFF98505
0008B6D7
00033D0B
FFFD83AC
00068FED
0000F4E8
FFF77D1A
0001486C
FFE3CA90
FFEDE85A
FFFFDDC2
000335B9
FFF6F157
FFFD27C3
FFDFE1B3
FFCEF2E3
FFD0BAAE
FFE14F11
FFFB6371
FFD9C3AD
FFDFF902
FFF767A0
FFF851CA
000617E0
FFFEDD85
FFE72EBD
FFCC47A0
FFD8F4AA
FFE7F6D6
FFDDA657
FFFB1548
00063D94
FFFD5A85
FFF759E1
FFF7E698
00137DD4
FFF037DA
001A76DD
FFF555E4
FFF0219D
FFF08C82
FFE3354D
FFD67BCB
FFD3C5E0
FFED0376
FFFB33DE
FFE8C0FA
FFEA2B43
0003DC15
FFFB74E5
FFFB75DC
FFFCB9B7
FFEF2B74
FFFCD1AA
0008763B
FFFB4E93
FFFD27E2
FFED16E1
00039875
FFF69D2B
FFFC994E
FFFB81B0
FFFC4BE8
00181614
00015D52
FFF32541
FFF84A98
FFE8B047
FFD17B05
FFCB8181
FFCFC604
FFD0BE87
FFF44C8C
FFF57960
FFEF968A
000303DE
00050996
FFF9A098
FFEBFBF5
FFFEFF14
FFFD762B
FFFBBA74
00049FD1
FFF5C96B
0009CD57
000D621D
0015E84C
FFFEE1BA
FFE91EF1
0000E2A3
0001D7A7
FFF8A970
000B9F4B
FFEDE5E0
0006EBAC
FFF4DF48
FFF7C516
FFE21CA0
FFE6B17C
FFE93E36
FFF3287A
0003611A
000FAFFE
0000FDBC
00094ACF
FFF70C29
FFF72EFA
FFF1C4DC
FFF19856
0004C8B5
FFFC4F9D
FFFAB3B7
FFEB6BDB
0000477A
0008CDD4
FFF2F393
FFF89356
FFFF06EE
FFE75B0E
000EA8C7
0010A1DB
FFFF50B9
0006FA65
00084E81
FFF70A09
FFEBF571
FFE36688
FFF3701C
0009523D
00068420
0005EDA7
001678D0
00035040
FFFBE73B
0002B9B1
000D48EA
000C8952
001A363A
00167D23
00043877
0009D499
00060FF8
00048BF2
00093739
FFFB9BFF
FFFDD23C
FFE719D4
FFF95B0D
0014ED75
FFEC4B4A
FFF1DD27
FFEBCB70
FFEDC889
FFD944EF
FFE850B0
000242F1
000D8AAC
001308AA
0011C07A
000FCDC7
001065E5
0011AD98
0012DD47
000A9752
0019B7D1
0015B012
000FB422
00095408
000E25FD
00088787
FFFBF03E
00023283
FFF843C3
FFE34FB5
00017346
FFFE3560
0006D4AC
FFE1703E
FFEF5A93
FFED1CFF
FFF4D050
FFE7D3A0
FFED1522
00065F7F
000B5542
001B1ED5
001E1646
001E06C6
00163ABF
0003AE57
000B1C78
00165B06
0007D9DF
000FD292
001330A2
0002DA2B
FFFE2603
00250C6F
0032B2B2
00228E30
000F4D86
00099BFA
001D356C
FFEE5B42
FFDD6527
FFE3BC30
FFDB8537
FFE6D13F
FFDE0A67
FFE15B8F
FFE952AE
FFFCEBB6
0012E6A6
001B3CB5
001D5CA4
001B6C7C
000195F4
FFF78B29
0009446A
000FEE8E
000BC5A2
000D47C9
000EF9F9
000D7DFD
00092F27
002EF925
004CE1A4
0023B34C
0012A40A
000E1302
0010CFB8
FFFD9A64
FFDF95DC
FFEE794C
FFE02B31
FFD32D5B
FFD720E2
FFD7D26E
FFE5A40C
00026D6E
00001F8E
000D02B5
0010555A
000037C9
000348A9
000764D3
0003CB37
000A6722
FFFB6F58
000746EF
0004F167
0011FDA8
00165318
0045206F
00465F31
001F4503
001F0363
0013E9DA
FFFBBB17
001E1F52
0005A24A
FFFFB181
FFE1FD96
FFD48ADE
FFDC2B01
FFE1D2EB
FFF9C800
0002F78E
0011A14C
FFFF2986
000376DD
000E9236
00159808
001A8EF4
0017D5BF
0005E727
FFEC8BA3
FFF6CCE3
FFFC84A0
000EA451
00133E50
0033B04B
0042D0EE
003EB4DE
001934E3
FFFC19F1
000E8F73
001CFE3E
00167821
FFFD9965
FFE75A59
FFE4DF1B
FFDFB91A
FFF13C39
00024A1B
00029320
00004327
0004B1B7
000580B4
0020430A
002E0B31
0012181E
000828CB
000CAEE9
FFE68831
FFEECADA
FFE78273
FFF67FC0
00096EB3
00006799
00189AFA
00153FEA
0014BB2B
FFFC4D83
FFFF2CFC
001823AA
000BD332
FFFBDB9F
FFE11D8D
FFDF9577
FFED3AAC
0003A88D
0019ECD0
000D2EFA
FFFF4A16
FFF72730
00050189
0029A860
0023F867
00189FB1
0007BCF0
FFEEFD7E
FFE55955
FFEB034E
FFDC00A3
FFE4FC12
FFDD449C
FFE1D63D
0000ADD6
FFF9031E
FFF911CB
FFFDC9B4
000DDCC1
0012C669
000507B6
FFFB06E9
FFF2A438
FFF1F8E7
FFF3690B
0008445B
0016098E
000FF729
FFF6CEA2
FFFEA2F3
0009203B
0025ADE6
002237C0
00173FBD
00038514
FFEF6083
FFF6A5D6
FFFA5A75
FFEB90DF
FFDD521A
FFE646EA
FFF808E5
FFF9D50C
FFE3C702
FFF9093E
000242A2
000E6125
FFECF227
FFFDB5E0
FFF6EA60
000031C1
000447A4
FFF91E8A
FFF8A476
FFF54EEF
000E474E
FFFD149A
0001770F
00038074
002208B9
002769A1
001626D2
001C6D28
000547BB
FFEB69E9
FFEB6411
FFE6A8BE
FFEC9348
FFFC9B5D
FFE838B2
FFF2FD81
FFF65D92
FFF8064F
000BF14F
FFFF5446
FFED3E0E
FFE119DE
FFFF3A7E
FFFBCA21
FFF3E78E
FFDEE06F
FFF1BACC
FFF39017
00002902
FFF3371E
00087DFF
00088DD7
00172E00
001F684C
00204093
000F93F0
FFFF3C6D
FFE6CB4B
FFE3ABF8
FFD57485
FFD627BB
FFD281C2
FFCF1740
FFD0DD9D
FFE1F649
FFD0D222
0001EC57
000978A1
FFED6AD7
FFE913A0
FFF366B0
FFEF4AE5
FFF0C259
FFEF71C2
FFEB01AD
0002D9C5
FFF82A00
FFF3CE43
FFFD552A
000AC2E3
001CCCB8
002A169C
001EDC8C
000F688C
FFFBB28C
FFE0BE75
FFD90C6C
FFCD6373
FFD8C171
FFEB7669
FFE9752E
FFEC915E
0000536C
FFDC237B
000BAF8F
FFF01947
000D744E
FFD2F983
FFE20CFD
FFE26622
FFEACCDB
FFF27F6F
FFEC7257
FFF1232C
FFEE47D6
FFFBD910
000010E2
00176CF5
00193FDF
001413BD
000FE87A
FFFCD3D4
FFED6363
FFD22546
FFCD51E2
FFCE17F2
FFCF67E2
FFCDFD64
FFE9BB14
FFFBF72A
00189669
FFF24040
00099927
0017283B
FFFE3D2A
FFC4D41E
FFE55E52
FFE83533
FFE739AA
FFEF482B
FFF5245E
FFE5A273
FFEC6B18
FFE79D18
00028ED2
0006D2F6
001A9E9E
000A08ED
0006FD1C
FFFBC74B
FFDDB6AC
FFCCA6AA
FFC19F7A
FFD40260
FFCA8507
FFCAAB4D
FFDE623F
000334B7
000BC38E
000A9AF6
0006C7C6
001E75BB
FFE395D5
FFD6E01C
FFDD6687
FFF801B7
FFE7D63C
FFE2DD03
FFF2BED3
FFE9906C
FFEE8AF3
FFF55CB5
FFF77DA8
0006F8C6
00073723
00149EB8
0002F2A4
0000E39D
FFCD63A4
FFC820AA
FFB2220E
FFD313A0
FFD5F319
FFD327E2
FFD5DE7F
FFE4E3C2
00071567
FFFFE07E
0009331C
FFF61DDB
FFE56B96
FFEE9207
FFF7AE68
FFF61399
0000B4CB
000AD223
000328B1
FFFA4A20
FFFC2327
00025CAC
FFFC70CA
00022D34
0003148C
000B523B
FFF88304
FFE2CD5F
FFCBD5EC
FFACDEEC
FFC94EF3
FFD53378
FFE1C1C0
FFDDC10E
FFEB9F36
FFFD30B1
FFEE2907
FFFDC1DB
0004131A
FFFD7F44
FFD95B78
FFEC891A
0002D55D
00055E9E
000CB32A
00195BBD
000319E6
000926D0
000DCFB0
000764DD
0011B8AB
0001CDD8
0013A20D
000316B3
FFEFC7FE
FFDBE69F
FFBD6B86
FFB00E9C
FFBCEC5C
FFD957A4
FFD9DB11
FFF1C0DA
FFFEA443
FFFF87B3
FFE6AEDF
0001B7C8
FFFD8CF0
0001C3B1
FFDF7A3C
FFE66238
FFFABC24
00178964
0018B8C1
000B7BAE
000ECFAA
0002E589
0005544A
0009E4F4
000348BA
00105FE8
000AFAFA
FFF314D7
FFE1838E
FFCA6368
FFB0288D
FFB14B42
FFB97F03
FFD84868
FFE46D32
FFEB19BB
FFFC6626
FFF3BCF2
FFF9352D
FFFB5F1C
0003A5C0
FFF7C559
FFFA32E3
0003B041
00032F20
0020C796
0018AA1B
00179AA6
00196406
00129268
000E7D4A
001FA6CB
001AFB68
001C7CB5
0003E2F5
0000BB06
FFDDE3C2
FFD80B93
FFCC4EE0
FFC90C00
FFD40BF4
FFD444AD
FFF6B82A
00008106
FFFCA9E4
FFF95EE1
FFFB09B2
FFFFFD04
0004BB95
0002FAC7
FFFA7F18
0014BE74
0024E014
001C1069
0000DD60
0003ABB2
001C8F45
0024024D
0018FF12
0024409A
000D45D6
000F3E23
FFFBE877
FFF64B2E
FFF9E06A
0001D149
FFF2FA80
FFE831F4
FFEC48E7
FFFE1B91
00093EA7
001228E5
0005A65C
FFF446F6
FFF2901B
FFFBAB80
00025CC0
FFF709DF
FFFED661
00163635
FFFE6806
00034BE2
000A14C5
001AD7D2
0025B7E9
001DF826
0017CD5A
001F5F7D
00153826
00308689
00325922
0028BB13
002382B4
003236E4
0020D5E5
0015E521
000B616C
000E9345
001C14E0
0002F90E
FFF9F88C
FFFC7D81
FFFB80FE
FFF8B2C2
FFFC7718
FFFA305C
FFFC6A78
0003534C
0000C166
000008C0
001276B4
000C87D5
0016E621
00161775
003101BA
00221B65
0013243D
001D7F3E
00154AB2
0016B8EF
001BE9BB
001A846B
0011F135
001350D3
000931E4
00080541
00005591
00082744
0007A532
0005B625
00002D1F
0006D478
