FFFE9A44
FFFD8EE3
0004583B
FFFB10BE
FFF975E6
FFFB6731
FFFC9134
000678AB
0007AFE6
00061571
0006398F
00041830
00038FD3
000DA758
FFFDAD4F
0004185F
00064C8B
FFF724FB
00026C52
FFFF965B
00066524
00058100
FFFD7FB8
0007F432
FFFFEB92
00062AF5
00010B91
000766A1
FFF757EE
000524F8
00050D7F
00051222
0010147F
00059CD4
0015BB01
00176A06
001DAC98
0015B188
00168819
000AE4EA
001F8AAA
00131B63
000A8FFD
003535DA
0005CA86
001904C6
001BD925
002CCFEE
002E20DC
000EDCBF
00109511
00114772
000393C9
FFFB4A81
FFFFD092
FFF7D7D9
FFF90A78
0004C00D
000489EA
0004836F
00277172
00067103
0012881C
001E8018
0018D688
0009059F
002415E2
002B44E8
0036A9C9
002277AD
0022EFA0
002E3A60
0023F5FC
000F1757
00015621
00168623
000EFF9F
0023EE60
00153615
001D55CA
0009E916
FFF52132
FFF706C3
00035B3E
00076850
FFFD9577
0021C933
0016F73C
0006CBB8
0016CE07
002A43E4
00164CF9
002B74E7
001933F7
0021E982
00163B19
00173966
0012D033
000F8A9F
0019C383
0013C552
00091A08
00017830
00036BDE
FFFD0813
FFF42260
FFF45829
0000F308
0000110C
FFF31752
FFF1B745
00036955
FFFE3E02
FFFE8FF6
001FD9CA
001539B5
001FDD82
00309318
0017A1FA
000FAA10
001328AA
00027576
000BA50D
0004AB61
000C86C8
0014D898
0003C02A
FFF3035A
FFF3E76E
FFEA8E3C
FFEA2841
FFFC6140
FFFB9350
FFEE0AEF
FFF0AF0D
FFF5F7AF
FFD3D690
FFD5FD23
FFF262E7
001746B0
00003BFC
FFFA71FD
0017D40E
0004F1F8
0025C9BF
001B75AA
00072D9F
FFFAFB94
FFFA87D2
FFF5A0A2
FFFD009C
FFEF6460
FFF27701
FFF98011
000A99EA
0006981E
00071005
FFF23CF0
FFF29467
FFF491C6
FFEFFA83
FFFE3874
FFFA62F7
000C3E9A
FFFA0E88
FFE2255B
FFFE1061
00114999
00037849
000FFD14
00013CB4
001838BE
001F043E
FFF9717C
FFFD48C9
FFEBF002
FFF5336E
0001C7B6
0004609D
FFF73AF4
FFFD1F5F
FFFADF21
FFFC4CC9
00028C5C
000842C1
FFF454E4
FFF658E9
FFE6DD6C
FFF105BB
FFF0F211
FFF9C646
FFFD3F88
0001014F
FFFC4EC1
FFF7A1D6
0008633A
0002C0EE
00295445
FFE80F9D
00151A7D
002664D4
FFFE2CD4
FFEB30C6
00070995
FFEBA95A
00005FD9
00040A53
FFF5A573
0004B6C0
FFFC7B3E
0015C1BB
001075D3
000980D6
00010D26
FFF0F8EC
FFEF37E0
FFF17EA3
FFED052F
FFF7D291
FFF57D50
FFF3C3F9
FFD95257
FFF46BED
FFFC388D
00071F54
003289FC
FFEF8C8F
00036DE3
00276080
00005C79
FFF356D8
FFF5539F
FFEF2037
FFED952C
FFF97D0F
FFE9A11C
FFF3CB8B
FFF9F5D3
000D12AC
000BD74A
FFFFCB0E
00067972
FFEBE696
FFF06C4A
FFECA4AE
FFE9998A
FFFFCE0B
FFDCB7C1
FFCADFDC
FFC070CD
FFE0562F
FFF0B48F
FFF8648C
0017230E
0005554B
0006B42B
002368C1
FFFED6F5
FFE64C60
FFFB9956
FFF53B07
FFEE772A
FFE88EBF
FFD20FAE
FFDDDA76
FFF8D77B
000C92E7
0019B4B4
0012FFB5
00037D6F
FFE359B3
FFF34983
FFFB8A94
FFF61AF8
FFF80C22
FFE2AD3D
FFC39713
FFC1CFC2
FFE24192
00117E2C
00016EF4
000A0510
FFF26307
0007F0A7
000AA96E
FFE06698
FFDAD57E
FFE687B5
FFE20E50
FFDA10FC
FFDD884A
FFD89C7D
FFCD4A91
FFFF94A4
000788D7
000C9C03
0015D60D
000717CF
FFE96B67
FFF94C29
00005A3A
FFFC238E
FFFEA504
FFEFDC8F
FFC35CE5
FFC4AC79
FFE7682E
0003E54F
00002878
000E4F99
FFF2467E
001449A7
FFFD479F
FFD6E7D1
FFE60BA4
FFE2539C
FFEA2A1C
FFEE537B
FFEB147F
FFE43DD1
FFE806F9
00120D0E
00200956
000E0B3C
0002D410
FFF15C0F
FFEEA01A
000480B9
000BCD8C
0004B7AF
FFFFEDD3
FFF6DC2C
FFD57247
FFCB59F8
FFDC3984
FFFDF1E5
00071292
0005D9B2
FFFEC684
FFF87293
FFD3704B
FFE41636
FFEA0788
FFEF941F
FFF3F7BC
FFF5460F
FFFA6DD4
FFEEB9DC
0004A693
001E4BA6
001F5F47
0011A18E
000551B2
FFEC662E
FFF8C0A4
FFF980D8
00070268
FFFEAD24
00039275
0008BCD6
000C2C8A
FFF5C63F
FFD4EDAD
00126E1D
000AFEA9
FFEB076E
001083F6
FFF17FFB
FFC84136
FFEF4B73
000838B8
FFEF61C4
0004EBCC
000CCAA5
FFF5C9FC
FFF3C6B0
00038755
001C4710
00144DDA
0013F943
00023B12
FFF980FA
FFF2F221
FFFFAEDC
0003D3AA
001384D1
FFF1BC5A
000FA843
001E1D4D
FFF69BE8
FFE0DF6C
FFE922B7
00010B93
FFFDA482
0005AE3D
00072D3B
FFE1B2A0
0008E092
000E6CAB
0004B850
000F19A4
00103354
0001A469
00031F91
000C0494
00147DD9
002305FB
0009C4C4
0000283B
FFF50C9B
00055FC5
000C1E32
000C0CC4
002681C5
000E532C
001A643E
00150FD9
00022EA9
FFFC26D3
FFE82442
FFF7CD46
000BB234
001E2549
000D3D3F
0005738F
000A69FA
001D7467
000FE309
000D750F
0007BBE8
FFF4AB7D
FFFDFEF3
001C1981
0022DD1A
00194E86
00066966
FFF88F25
FFEBCC1B
00008D3B
000CA039
0007BB42
001BE59E
0015EC6C
00122F9E
0007FE35
000501AA
FFE2C66E
FFFC96C3
00057A4E
000A0C68
00142371
00177F35
001D0731
002484D8
00104BC6
0018E952
0001109F
001B949A
FFFC45D9
00136850
00118FE8
0020BB0E
001353F9
FFF3B0B8
FFECC974
FFE57C20
00019619
00122735
FFF91EF0
00069E79
000E4AEC
00143BBE
001B25A6
000A0B13
FFEA4FB4
FFFE65E2
FFF8B914
0013472E
00172525
001C3FC3
001B7E4E
00042AE0
FFF93E7E
000D3AE4
0005A63A
FFF58B4C
0009933C
00030174
000C2D2F
001F34E1
000B46BD
FFF67237
FFFDF643
FFFDD65A
0003ACFB
000E255A
FFF23648
000B0653
00092C71
00112D15
0004C58A
00090B63
FFF401DC
FFFB8E49
FFF1B4DC
0018E851
000CCFF7
001C953D
FFFE82DA
FFFB0999
FFE55525
FFE95112
FFF5B67F
00057B8A
FFFBB900
FFFD273D
0011150B
0012FA68
000AD46A
000ABFF9
001297BC
000EFF28
000C5869
000805F8
FFF8C4F5
FFFFD607
0002C9CD
000A29F0
FFF399FA
001DCB6C
000800E7
000C8E5D
00067339
00027CC2
FFFA7919
FFFB2C18
0001E505
FFF28D2E
FFF53B0E
FFFA8DA8
FFFF4D63
000F6174
0001F1BC
0004C166
000E2D1B
000BA942
000A1D38
000F386A
0014836A
000EFAF2
0009D23B
000C9594
00039389
00016223
FFFD0588
00098BEA
0002C285
0016C692
FFF0B814
00135ECC
FFFF372C
FFF16B0F
FFEDD302
0002A9C7
FFF28DED
FFE79C29
FFF6700E
00072692
000D517C
000CAFA2
0006C0BE
000A7302
000519B1
000A0270
000BCFA3
001B0AE5
00100CB6
0015DA36
00141E3C
00128BF6
000DF7AC
FFFBBB74
FFF3C2C6
FFEECE22
FFFC3835
0004CDE8
000B5562
0003A2D0
001006D9
00111618
00085AAC
000693CE
FFF67693
FFF6A703
0002C19A
FFFE52BE
FFFE5D5E
00031CAE
0000C26D
FFFDB68E
FFF5CB38
00068DB2
000B0A0D
0016D610
0016DB79
000F2008
0014A03E
0008220A
0001EC35
FFF45F03
FFE5F24C
FFD93F53
FFEB9174
0002DC3E
000C1965
FFFD4477
0001CAC9
0007FD1D
00101B72
00045A36
FFF3F5A2
00197419
FFF77F0D
FFFD1B3B
FFF67671
FFF95C7B
FFF78609
FFF0F07E
FFEC438C
FFFD79B9
00062635
00137C7B
0011135B
000A430E
FFF821F1
FFF733C2
FFFFA8B1
FFEBD49B
FFD2250B
FFCF86A2
FFDBC770
000139DC
0008E06C
0001EE4B
FFFC4E6D
00069BEB
0022DF6A
FFFFA1B6
FFFD1AC9
0000AB93
00054DEC
000A75B0
FFF3984F
FFFC89A8
0004AA34
FFFD967F
FFFC4B47
FFFD41A3
0004B8C4
0008ED92
FFF61CBF
FFF43E7D
FFEE5AE4
FFF3F38C
FFF57C72
FFDD56C4
FFD16F93
FFD356F4
FFE00754
FFF8393C
00114230
FFFB2EB2
000090AB
FFFBE11F
0008B418
0022631F
000A1182
00062172
001B8678
00042D17
FFF97F16
FFFB8994
FFFD2249
00014F83
FFF0EB91
FFF6AB58
000805D2
FFF1BDBB
FFF1FBCF
FFF92DC9
FFD219F4
FFDB5428
FFED5B3F
00066E41
FFEBA857
FFE0F6F9
0002A45A
000C05A8
000BEB98
00011328
00042C24
000886D5
00123F54
FFF2AD69
0003211A
00049DB9
000F349D
000A42DC
00156774
FFF97102
FFF4FDEA
FFF3B375
FFFDA583
FFFC1E1F
FFE48F25
FFD617D5
FFD762E4
FFE35C52
FFE766BB
FFF6B5ED
FFED7BF9
FFDABAAD
FFCF3E34
FFE378D9
000731C1
000804BA
001038A0
0007E69A
FFF7DA00
FFFF52F9
000783F9
FFE2894A
FFE3A506
FFF2CBA3
FFE708BD
FFE74531
FFE955F8
FFD54D9B
FFDEF4A4
FFDE7E89
FFC15E32
FFD387D2
FFC56AE2
FFD7E3BB
FFE7B9AA
FFE6A367
FFE4CD86
FFE55878
FFD9B92C
FFEB577C
FFEB6C45
FFF7F039
00031B94
FFFD5DFA
000035AC
FFFC3FBD
FFF9F97F
FFFB8493
0002108F
FFFA1B93
0000E28C
000040A4
FFFC6578
FFF30CC8
FFF58D9E
FFF31026
00020791
FFF63E07
FFE41719
FFE05D63
FFDD9603
FFE9F22A
FFEAB91B
FFE1E4E8
FFDFFFB8
FFEF862E
FFF34EA5
FFFEFB79
00001BE5
0007BDB7
0006DB15
0005D74E
FFFA255A
FFFC8650
