00023CDF
FFF9A783
FFFD868C
FFFB05F1
FFFA9E21
FFFA2D1B
FFFC1995
0001983E
FFFFB9D2
00041D6C
0004007E
FFFD6EB4
0008C942
FFFC0887
FFFD36FD
000B2E87
00046742
00046CC4
FFF7651F
00069FC5
FFF88365
00016201
FFFB6544
000374C6
FFFAE7EB
FFF82A5D
FFF7C35A
FFF8FD19
FFFC945C
00004CBB
FFFCC595
FFFCF560
FFFE3AED
0001AA88
FFFA6350
FFFF3A8B
FFF3B000
0001CC69
FFEDA39F
FFF86EE5
FFF8D43B
000456E5
000680A0
002359CF
00214685
001CC6E1
FFE3CEF4
FFEF3F7F
FFF2AD4A
FFF37C6C
FFFB8565
FFFE6C3C
FFFD6742
FFF7F168
FFFFA3E0
00028E94
000684F4
FFFA8E41
FFF9C075
FFFEC99C
0004CD32
FFEFF8E2
00038F2F
FFFEFB43
FFFC36DE
FFF94CFE
000520DB
FFF70D41
00051413
001D2167
00035B02
00007F66
FFF6EED5
FFEAF1F9
FFEB437F
FFEB4552
FFF420B9
FFF76427
FFEC738F
FFF2098A
00089BE6
FFFF3364
FFFCC06D
0002F9A6
000141DB
0006D2CF
001897EA
FFFF46C4
FFF8924D
FFEF5BF0
FFF0A0EE
FFF618B0
0002D98A
FFFED549
FFF0758A
FFF0C2E5
FFF7F984
000EEDED
FFE8F7FA
FFE276F9
FFD98C36
FFEE72C3
FFD713F2
FFC58670
FFD2EA81
FFD7F421
FFE1F6CA
FFF41703
FFED8EE3
FFFF6DA5
00053050
0008D603
FFFE2585
0000C738
00285174
000FAB43
000871E9
FFF1BE1C
FFF3D811
FFFCE873
0018DF53
00029A55
0006A032
0000C7D9
0013585C
001C1D52
000598CB
0002E259
FFE9A939
FFDD380B
FFCF5D87
FFC570F3
FFD4144F
FFDDBD88
FFE42CD7
FFEBA400
FFE0574D
FFF5A904
000CBB98
FFF77B0B
00070BD0
0001E576
0018DCBA
FFFB6066
FFFAC1AE
FFFB0696
000007DF
FFF22BA8
FFF48F7A
FFEF543C
FFF72997
0001F867
0011B634
0034D55B
0022A9E2
002B0FBB
000B30BE
FFEAD07D
FFEC133C
FFE0BCEA
FFE08C02
FFD8E59C
FFE461A1
FFEC3979
FFF356ED
FFEFA326
FFF4AB04
FFFD78E5
FFFDB24A
FFF94297
FFF83D4F
0013984E
000287B7
FFE888F3
FFE0660A
FFE0A813
FFF35F23
00037172
000B3947
000DC993
001AE55A
002AE557
00306460
0031A7EF
00236C3C
001F30E6
000B709C
FFE51261
FFD9FD16
FFE0862D
FFCB948A
FFD62957
FFE1C142
FFF10A79
FFEE524B
FFF33966
FFFF0D7D
000358E0
0002269C
001A0174
00019D83
FFEAC5DC
FFEAE645
FFEA923B
00010D09
0013D261
00093342
000FD790
0018B6D1
002B3B7C
0024891A
002D0AB8
00284D25
001EE2FA
000F0CE9
FFFD49EC
FFE51818
FFDADEE9
FFCCB240
FFD1DA50
FFDAFFDB
FFDE2164
FFEE5903
FFF6CCBA
00070B21
0016DB96
FFF4E00A
00024AB2
FFFA2DDD
FFE733B0
0003EA19
FFFE90E9
000B83F8
000E7424
000CFA94
00046495
0003462E
000D7A2A
001DBF5E
00220160
001F6764
00187098
0021EC5F
000CBE99
FFF5D77F
FFE17E96
FFD66FDE
FFC0C6DB
FFC94B78
FFCD064F
FFFD691D
00042140
00062120
001244C3
FFFB0AC1
00143AD4
00077ADA
0002F0DE
00047F78
001892E0
0019E022
00072B6D
000F0E00
FFEE2A09
FFF70FED
FFFB5138
000FEB47
00195D36
0021D6B6
0027A0A1
0019B796
0018BBEE
0013AE9C
FFEA8A6A
FFD05646
FFC1A317
FFCD59B8
FFDAA1EE
000063FA
0013810C
0010AF74
0015DF80
000C50C3
001270AD
FFFEE81D
00044622
00184575
000CF44F
0007B76E
FFF6C27B
FFF01856
FFEA4EFB
FFD78FA0
FFF8A48B
0016D90F
00160716
001F857D
001790C0
00217511
00233484
00153A53
FFFA87D7
FFEF4C1F
FFD50B4C
FFCDC8D0
FFE34D1A
FFF56DBC
000E1D99
0009A80B
0024EC9A
002210AB
00162416
FFFF5187
000126A5
0012FE1A
00084CFB
FFFF3B26
FFE99B8A
FFF03D51
FFE66258
FFDEB00C
FFED9EF6
000ECD25
0015FD5A
000A6692
0022CE66
001D86A9
00252532
00288254
0015E5B7
00023C29
FFE52DCE
FFC49AB5
FFE6358A
FFF115A5
FFFEA809
00080341
00097522
001AF8DC
000FF524
00101641
00057E55
0002CE68
FFFE6987
FFF67115
FFE8D9DE
FFD9C110
FFE174E9
FFD4BFF1
FFE0BBFB
00113B26
0014C440
000577F7
001452FA
00164A1E
000D2E43
0013E3E8
00038224
FFF30114
FFEA6F7E
FFD41AAF
FFE2C6A2
FFEA7CF6
0010B556
00028157
FFFB8159
001328C8
00109DD4
000C487D
FFFAD27E
0000B626
FFFF9E3F
FFFD3E9D
FFEED0C1
FFEC3B6C
FFE6FFDB
FFD14463
FFE528BE
000A3DAD
000552E4
000E2243
000A90C7
000BDDA1
000E7D91
FFF57B4A
FFF73CFF
FFF3E343
FFD1ACBC
FFD175C1
FFDF0734
FFF2CDFD
00062236
FFF4785B
000CA4C2
001560E1
000645CD
00087A2C
FFF1ADA5
FFFD62AD
FFED44CA
FFF6EC22
FFE287C0
FFEFA97D
FFF7DE70
FFE8E650
FFF8E703
FFFE4F31
00097B18
FFFDEB47
00100F86
000629EE
FFFB8642
FFF5BDD0
FFF86259
FFED7E04
FFE667C1
FFF2C58C
FFE81954
000E3474
00193588
FFF2611A
000F919D
FFEF84F7
FFF5F072
FFFEE90F
FFF89DA8
FFEC9108
FFEF6FC3
FFED65A6
FFF23AEB
FFF7048E
FFEF698F
FFF9A1C5
FFF341CF
FFF339DB
00004880
FFFA154C
000871AA
FFFDFB65
FFF1F7B3
FFF5D096
FFEA834E
FFF1A826
FFE7146E
FFF52A98
FFEEE63D
FFF69A89
000D8A0E
000CD641
00058525
00128553
FFEF6FB9
001473B9
FFEE4B2E
FFF0C7D6
FFE4E83E
FFEA03EA
FFF5EB71
FFFDAAB5
FFFF3D87
00012F7D
FFFBBE3B
FFF0787E
FFF3A548
00023F8E
000909D5
FFEE7E1C
FFEFDFE2
FFF2DB01
FFF1D8AB
FFEBA861
FFE6899E
FFEAD00B
FFE51C42
FFFC6D11
0017F6F3
FFFDEFFC
001436FF
FFFFFEB8
FFF73FD7
0003D366
FFEBFFCD
FFDF9E95
FFDF7921
FFEC72DA
00093100
001291D4
0006F8D3
000BF5B4
FFF9CD6E
FFEDE70B
FFEDA6DC
FFF74743
FFF17AC6
FFEA8777
FFEF81D0
FFEF615F
FFEE2905
FFFA097C
FFECE313
FFFD7760
0014D22A
00198375
000208B8
0010EF1C
001235A5
000C2593
000CEFC2
FFEBC9F8
FFEA6154
FFE17906
FFDE0193
FFEFDA0D
00103F0B
00212D4E
001B0D68
0000A77D
FFFF61E4
FFF67433
FFF620BA
FFF592E5
FFFFCCEE
00071953
00086739
FFFD918D
FFFA78BF
000632D6
FFF70D92
FFEF4548
00153B1E
0030DA97
00194EEE
FFFF4ED2
001980FD
00051790
FFF13CCD
FFDE43D2
FFE53A4B
FFD8D388
FFE2E9AF
FFFE66C8
0012CD0C
001E1986
000DC40C
00044F0A
FFFDB9DB
FFF3DB12
FFEEA434
FFEF7D6F
FFF8797C
FFFC8C1F
00094E95
000432AA
0000F780
0007C9DD
00090935
00125BCC
000DD46F
002EC914
00197BCF
00088CB4
0011DE44
FFF33373
FFEBB0DD
FFE7226A
FFE0F5F8
FFF4A63B
FFF1F902
FFFBF35D
000284CC
00084EA0
00031967
0005CDEE
FFF8A75A
FFF818B6
FFF81675
FFFCD7C3
FFF83039
00083443
001696B0
0001F9CB
FFF67F38
00010876
0003B903
001A9772
000D79BC
00189D61
00054620
000A3905
00168819
00193EC6
0016BC0E
FFFC6D17
FFF88FB4
0000B369
FFF7EBE7
FFF71FB3
FFFCCFB4
FFFD5898
FFF5F430
FFFA6B39
0000CBC2
0005BDBD
FFFFA2E5
FFFF1B65
FFF0B0ED
0008FE06
FFFE48BE
0001335B
FFF8FE91
FFF4B128
FFFD96D2
00074A2D
000BC475
FFF8E69C
00093385
000973B2
000EC81C
000B9F13
FFF04992
00030F61
0007624C
000BC9C8
0002A4E2
000E4619
00068856
FFFA04CE
FFFEE596
000B2D86
000BC778
001DB68A
0010439D
0005201B
FFE55F2A
FFF04456
FFEF951F
FFEDCD90
0001D2E4
000845EF
FFFC7A43
00100E0A
FFFDD12A
FFE6F5FF
FFFC504A
FFFC402C
000527AB
FFE9F766
FFEDC5AA
FFEE766C
FFF8EA0C
00011DD1
FFFBAACC
FFF7B78B
FFF2B437
FFFEC036
00092195
00182894
000D550C
0014460C
0004FFCD
0003CD71
FFF60ED2
FFEE3EFC
FFDED520
FFE3B3B8
FFF94CFD
00123BB7
000DFB37
00159AE4
FFF03239
FFEF32EE
FFF82ACA
00000101
0001486E
0006DA56
00053E32
001CD491
00243951
FFFD05FA
FFEC7345
FFE1CD88
FFE07511
FFFFC132
FFF3739B
000175B7
FFFB9D34
FFFB086C
FFFF106A
FFFE8C53
FFFB0BD4
FFE71A92
FFECC374
FFEC3415
FFFFA745
0003C04B
00177EBB
0007C24A
000B550D
FFFD7317
00045052
0006BD27
FFF9392B
00037E41
FFFF86C3
0006A863
000D29DD
00025A19
0004FAB8
000DDB6B
FFF35DA6
FFEABE13
00011C8E
000561C8
FFFA581C
00071DEE
FFFE9F5D
FFFB8F32
FFF3CA47
0004F8BC
00078EE3
00166333
0010B6AE
FFF00DCD
FFF9667E
FFFC43BD
FFF53E7F
FFFC4286
000764E4
0008828A
FFFC8C5A
00079CF3
0015650F
00014B8D
000156AB
000CC86E
001DE1F0
0031C606
0045ACF6
003B371A
00182822
001D7AB2
00177BF2
00388E16
001C1F9E
0019DC58
00223A60
002B4953
002050DC
001CE77E
001BE0B1
001809D8
002491ED
0015D2F3
FFF96115
FFF7F4ED
00002465
FFFB86A6
0002A2B2
0001D39B
FFF89F4E
FFFAB56A
0009B08B
000EEE82
00131F69
0015218A
001D1732
002494B4
00147B8A
0010054B
001F221D
0033F3BE
00257659
001E6F7E
00331462
002DC031
00259B81
00171E8A
00228C54
00100498
0008AE70
FFFF9A2B
000358E4
00040A48
0005C280
