FFFB8313
FFFEB808
00019517
0007F3F0
FFFCB6D7
FFFD30F8
00029121
FFFC8AEB
FFFDE165
FFF72AE0
FFFA9E65
FFF92C00
00004A9E
00080F6C
FFFA8332
00073135
FFF705FB
0008F30B
FFFFD979
FFF8088B
FFFF20CA
FFFB428E
FFF82D69
FFFA4123
FFFA463B
00084C01
FFFE0929
FFFBD632
00018075
FFFD9169
0007F870
0003F933
0007425C
FFFE4D62
FFED6105
FFEABE6E
FFECD767
FFEF822A
FFE41527
FFEE7456
FFE7C083
FFE042AE
FFE9CC0C
FFFAD5AF
FFFF4E93
FFF8F976
FFF7F72F
FFEF0DC0
FFE42107
FFF15C7D
FFF8F6F0
FFF1377E
FFFA6686
FFF9E7FF
00056B82
000094CC
FFF871C4
00018B50
FFFF584A
FFFFD5CC
FFE9ADE2
FFF27D93
FFE5A431
FFE0336A
FFDB52A2
FFD7DEBC
FFCCCBA0
FFD21F00
FFDA4178
FFF29312
FFF0E45C
FFFA9160
FFF82DE2
FFF597AF
FFFA5B81
FFF696C0
FFE7BAB3
FFF1C696
FFEB60A4
FFE9A05E
FFF5DE8D
FFFFE7FD
FFF7AE16
FFF7D828
FFFA6E15
FFFBA99B
001B14EF
FFF0F021
00002EFB
FFFD4594
FFFE2C9E
FFF7CBCD
FFE2E3AD
FFEC3F59
FFE36923
FFC56241
FFCD204D
FFC9C469
FFC8FC52
FFE47B56
FFFC036F
FFF4E71F
FFD65632
FFE6A15D
FFE3A516
FFD61080
FFDD595C
000187CB
FFE76B81
FFE6B3CC
FFFBD951
00088ECD
FFFA1194
FFFDB313
000AA750
FFF183F7
0007202E
FFFF3587
000B17A3
0012DC00
001518F9
001D7DE8
000DC779
FFF551AE
FFF9213E
FFFE973C
FFF8EEF7
FFED1BC5
FFFB2BCA
000F7A29
FFFB4469
0011B9DA
FFFEAAC4
FFF87CEA
FFFBDEC4
0002CA7A
FFF4821D
FFF0FB82
0005D93E
FFF05878
00054ABB
0002DD48
00016AFE
FFE5D4FA
FFEA9593
0013C53E
00125EDC
00157D8E
002940B9
00290C07
00050C6A
FFFC256C
000AB3FE
FFEA9CFE
FFE6E61B
FFF08B19
00088D8C
FFFF1347
FFF8A22E
FFFA56AC
FFFB8A06
0008F367
0016CBA0
0027BAC1
0016E4CE
0009EB85
FFED2448
FFE7DFB8
0006260F
FFFE2D7F
FFF2DB96
000432E0
00030675
002EC50E
002617CA
00205EED
002275FC
001F3CD4
0004535D
FFF2BDAE
FFE7C0C1
FFD2FF6D
FFCBC10E
FFDE6B52
FFEE4588
000757FC
00011DCE
000DCE09
FFFC7F42
FFF8E278
00164CF4
00249F8C
000E9108
FFF91BC0
FFFA6CB2
FFFC4730
0002F4AA
FFFA208A
001254E7
00088642
0016F8C4
0013FB17
000D284F
00230674
0020192C
001A2651
00109214
FFF011A7
FFDC95F3
FFC977FC
FFCFA910
FFDEC84E
FFEDBAF9
000822BF
000FE7E5
FFFC5B82
FFFEA090
000974A9
0011F7FA
001A800E
FFFEA8EF
FFF3EE75
0009519A
0005473E
0017481C
FFFE45E6
000BA6D3
001CE70C
00263505
001832BE
001964FF
0034CC4E
00244019
0018E7E4
000DFEC1
FFF792E3
FFE2813B
FFDEE2AE
FFDF2F53
FFF7F0C4
FFF8B63F
0008F9E4
FFFFB3B2
FFFEFF52
000A24B9
FFF8C5B0
FFFF1BA9
FFFAB107
FFF6A688
FFFEC3C5
0012A834
001198DE
00135118
FFFF3B72
001C3C1B
00082F1C
00081E15
0013AC6D
0005AD74
0019E646
0018F689
00235838
000BB0C5
FFFA3561
FFEB701D
FFE4EC61
FFE766D4
FFEFBF1F
00058C0B
000E12CA
FFFE2A77
FFFA979C
FFFCB200
000C787F
FFFD531F
FFFE967D
FFEB6F26
FFF666B2
FFFDDE7E
FFED5CFC
001A22C5
001E4738
001844E2
FFF2459D
0007091C
000BAAC2
000840F2
001BCF37
001EEFD2
001C9D22
001F7A35
0006A6F7
FFEE526A
FFF1AA70
FFEF1F14
000D264B
000F4638
0005FB67
FFEC9C96
FFFBCAEE
FFF9FE02
FFF5010A
FFF8E8C6
FFF4C24C
FFEB6EAB
FFDA5A4E
FFEBEB27
FFFD62F5
0008D491
00216038
0010E161
FFF382EC
00161AFB
000B69B8
0014B2F6
001E80CE
00240788
0021D452
0015B4D6
00060F25
FFF17342
FFE8E700
FFF9ADDE
00060862
00120642
FFEE7425
FFE40C87
FFFAF228
FFE71732
FFF2253F
FFEBA754
FFE2483C
FFE212C6
FFD8C007
FFF472D3
000F3426
0000CBB9
001A6D84
00175F0B
00203E2E
00068083
0019B160
0007CB09
00232EDB
001BAA0A
0009C696
FFFCAA91
FFE0F69E
FFE40776
FFE65D11
FFF9067F
000D87E4
000B36B9
FFFE7EF9
FFFB6D8A
FFF89031
00003022
00085BB1
FFFA547B
FFDD6A9C
FFFB8AA4
FFF1FD4D
FFED3DB9
FFFEF669
0000F5E0
0008359D
0022B42A
0015465A
FFF7C68C
0026AA8C
001A2692
000EFC4C
00078A00
FFFFCFEE
FFEFFA73
FFD9AA0B
FFDAD83E
FFF33710
0003BFDB
000BAD46
FFFEC7B4
FFF54F9C
0008E05C
0003E5C2
00173879
001396AC
FFFB7251
FFFCB31D
FFF6F4B6
0018025D
001F9463
001D06BE
00016056
0005BBB5
001C36C9
00123E6F
001221D6
00244988
001A2410
000A23D6
FFF12ED4
FFDE57DE
FFDAF5C6
FFDDFCEA
FFE9F576
0010911D
001FD8F7
000C9960
FFF9EEE1
000B5DFE
0005FE49
00128012
000887BE
00009A36
000804F4
00054923
FFF4476C
00109A9E
0015FF25
000CF850
000AED04
FFF36733
001B3C60
0027850E
0007F618
0010C524
FFF8B065
FFFEB718
FFDB5575
FFD2A04E
FFBD57D2
FFDD7CE7
0000C0D5
002004B4
002BFE0B
000DC956
FFFD780C
FFF74882
00066412
00037A8C
FFF03C43
FFEA872D
FFFCF2B7
FFFAD32B
FFEB0345
00010ECF
00196AB4
000B9B9A
0002C72A
0005D9A4
0009F90D
001EBF82
00017654
FFF933AE
FFF118F9
FFE1A488
FFCF0BC1
FFC3599B
FFBF0BCC
FFD73676
000AFC0F
001E89CA
002BF6D6
001A46A1
0004979A
00040FDF
FFF7AB63
FFFA36FA
FFEF8107
FFDF88C2
FFE8C882
FFFA2D7F
00016835
00081204
0027B508
001A9C76
000050BA
FFFCB7AD
FFF9BA95
000D3DFE
FFF6B4CF
FFE413B4
FFD3CB90
FFC203E3
FFA9C264
FFA7526C
FFCDED41
FFF9AA2B
00218840
002B7354
001F43AE
000F8B62
000C4ED5
FFF490B3
00058ED8
FFF86893
FFEECFC8
FFDC629C
FFE31483
00028EAC
0006A147
000C7BD9
001ABF47
FFFEBEB8
FFFDB78F
FFFCE46C
FFFA2838
FFFF280B
FFED0892
FFDEC5B5
FFC87997
FFC01E34
FFB2B8EE
FFC391F6
FFE41DD5
00087CA1
003E69B0
00305492
00277434
0019E245
00005781
FFF9EA5B
FFFCBE49
FFE1CCE3
FFEF1DC0
FFDA2698
FFEF1960
FFEDD974
00135A2F
00048CA2
00035D02
0015DA40
0005B960
FFFCED22
FFFD8637
FFE9267A
FFCE749E
FFC14042
FFBCC399
FFC17E3C
FFB8A47B
FFCC2966
0002709E
0035058E
002B97E1
0024A516
0017D313
00139550
000237E6
0002D7D5
FFF71A6F
FFE9C922
FFEC299D
FFE64C27
FFE30761
FFF319D3
0004CDC2
0000C997
001B7AE0
0009E4B3
FFFEF857
00090718
FFF29101
FFF0A671
FFCA8ECC
FFBE40E6
FFBA9C3D
FFB884E0
FFC08FFF
FFD95893
001CC31A
00401830
0036420E
001DCAAD
001A0BE1
001BF804
000A9B87
00145920
00107EB8
FFFFF779
FFFBF3F3
FFF5F266
FFE5D77B
FFED7600
FFF454FE
FFF81DC0
00118943
FFF98AC4
0008C30B
00010779
FFF94848
FFDFB8A5
FFCAE062
FFCA7BC2
FFCE342E
FFC05274
FFD426E6
FFEAD98E
000741B0
001AC870
0014B2FD
00153965
001AFE76
00178B30
000FC4DF
001F2489
0016FB8B
0006A80D
FFF53E02
FFFC2EBC
FFEFAD5B
0004E707
000608DC
FFFD87AA
0007925A
0005E57D
000C5D84
FFFB4D68
FFF54F07
FFE9F279
FFDA91B8
FFDCD17A
FFD8996E
FFD05202
FFE5A101
FFF626BB
FFF1AB85
0002BEB4
FFF7BA40
0007A2B4
00106270
00177A81
0017ED8E
00120085
000D14FB
0001FD1E
FFF40224
FFF4FEAA
FFF323D8
FFFEBCC9
000A78C9
001A6EA0
000BCF7F
FFFA73D1
FFF96F9C
FFF9E05A
00038ACD
FFDA2A6B
FFE0EC9C
FFDA9174
FFD839E2
FFD8D36E
FFDEF7A4
FFF8F5A9
FFF12307
FFFD5886
0013841B
0012543A
0014B7C9
001ECBD7
0021E7A5
000BE285
000BC8EC
00042D68
00024095
FFF9E383
0009E22A
FFF8D83D
FFFC8455
00174B8A
000E2198
FFFECE36
FFF7ABB0
0004A52E
00084D35
FFDC1764
FFD167DE
FFD047B7
FFDC24F4
FFC7D13A
FFD8DF20
FFDC695C
FFDCB869
FFF76A26
0002D19D
000BF723
000A8E60
00051293
FFFF7493
0000EC01
000BF1FF
00186DE2
0008065B
00038D06
00047C9D
FFF30CF4
00101C14
0011FBA4
000C4AF4
00052AA6
FFFBDEE5
0004D8DB
FFF45B5C
00010563
FFF66A10
FFE21E0E
FFE8ED64
FFD1C0CA
FFCEB8AC
FFDA0B22
FFD31CCF
FFD4833C
FFDE5852
FFE0DFFE
FFF65912
FFF279AB
FFF550F6
FFFBA65B
FFF6B6CC
FFEDB83D
FFF325DA
FFF380C5
FFF4863C
FFF1B676
FFED6B08
FFF47729
0006B3DF
FFFB7B54
FFFA18C5
0001A312
00049177
FFFA1A28
FFE61824
FFFABA78
0000469C
FFF0FA7E
FFE7CF74
FFD980E6
FFCE89EE
FFCDB028
FFCD34A6
FFCFBC72
FFBFD7FA
FFC87D22
FFC7BAA5
FFCA809B
FFCFB4CD
FFD687E9
FFEC18FC
FFED7897
FFE533E4
FFE2C344
FFFF2392
FFFF5645
00063727
FFFC3DB8
FFFD7016
FFFA0C93
00047AC0
FFFD86B2
0011CE1D
000DE7AA
000AB552
FFFD5DF9
00065D01
000398E4
000EA16C
0000F417
FFF1A282
001A376B
FFF6F652
FFF8D55A
00081F59
001CD852
FFEAE28B
FFFD4B48
FFFC7A76
FFFDA91F
FFECD728
000E7369
00090F69
0001B833
00010DDB
FFF85155
