0006737E
FFF7C8AB
FFF7DA67
0006BC04
00027674
0004BF08
00000788
0002554F
FFF70CAF
FFF79246
00066FB0
FFF7105B
00076236
0004D884
FFFC48D8
FFFE5B03
FFFFDDD0
00054348
000102A9
000676B9
00083205
FFF9E8E6
00028320
FFF950B7
FFF85FD3
FFFDA1AE
0007A6F3
FFFCFA21
00011C7D
FFF86643
FFFC7DFC
00091650
00127B87
000DBBB1
00118331
00162E58
00156D3E
000371DE
0013CA62
000A5B0A
001420E4
0034B79E
00225860
0027C754
001F44E1
00276C08
0012F55C
001ACDCC
00273128
000900F2
0018FB7B
000E483D
FFF7F036
FFFD7C34
00082A9E
FFFD90C5
0008F6ED
0002789F
000F0F4A
FFFF9798
000E2A51
0004BB95
001AD55B
001B1298
000EDD47
FFFD3CF6
000F877D
001BA2FB
000FC69A
00143D97
000653C0
000D04F3
0027EDBB
00318864
003AB090
003F41FB
001C8B7C
001FA2BA
001D6483
0027AF02
0003F2DC
00068F64
00023FD4
FFF83DE1
00021D36
00000270
000926E9
0014E6C8
0023D0E0
FFE837CB
00016217
0009FDA2
000168A5
00058131
00041C64
FFE70464
FFF28572
FFFFCB65
00084194
00130E09
000B191B
000C67B5
0025FE7C
00381428
0039C610
00234B9C
001E6A73
0001C96D
00106921
000C656E
00109A7A
FFFE9F36
0001585B
000299CD
FFFCD875
000ADDB0
FFDF9062
FFDA6E6F
FFE40918
FFE44F4E
FFE551CA
FFF4C7E6
FFFE7728
FFECF6C7
FFE7F9FA
FFF07F57
FFF8278A
000436A7
00031BF7
00127347
00278741
00184228
00151077
0021E62D
00178D07
00265F0A
001F15C3
001A12D6
00129F79
FFF3B3B7
0007694D
FFFBF388
000EB132
0002283C
FFD7E35E
FFDF191B
FFDED617
FFD81094
FFE04C03
FFE2FD9A
FFEC4E2D
FFDFEE71
FFEA9AF1
FFE5EBA0
FFF62D7E
FFF4BE90
000D6647
0010A75D
000FCA3D
00131E18
000DA136
001C4E88
00298DE7
00207FF7
0028609F
0028920D
002777E9
000C579F
0002927E
00020E3D
0021AA38
FFEA0807
FFF76840
FFFF4C89
FFECF816
FFF170BA
FFF021BF
FFF2B0DD
FFEA5AC7
FFDC9502
FFF300FD
FFE781D5
FFF4ACCC
FFFF5DC6
0016DBA5
002076F4
00253578
0026EFF8
002802D6
0018BC7E
0027E12D
001B7002
003E2B0A
004F362C
0023166E
0017D5D6
000BC9A4
FFFBC1B3
000FC109
FFF7593B
FFF7E742
FFF0A0CE
FFF3455F
00099C06
0009F8D4
FFFE9C88
000A840C
0000A29E
00092A30
FFFFD891
00011518
0009A1D3
00217059
00305B7A
0030CD7F
00391A64
0039C520
00288D62
001E25AC
001E43E2
0031AC36
003472BF
0024CE0D
0014929D
FFF56B2B
000CCB2D
FFFA5759
0002DAB2
FFF17611
00062C73
0002FF75
000C6C2F
00064506
000983E2
0011E486
0014360D
00179444
0011018C
0014A50D
00239FB3
000B27CE
001B9146
001393D7
0018C009
001DAC08
001627F7
0017944B
0014C33C
00144310
00075BAD
0006BB47
00067CD8
00056C7F
0008E71A
FFFA4DCC
00056BA1
000CE7FF
FFF8272D
000C5121
00161D02
00195D5A
000F0A03
0012A954
00188DA3
00164C06
001796FA
0012FF6F
FFF42F2B
FFE92F67
FFDA3B76
FFD376D0
FFD21A92
FFCD320C
FFD4CC3A
FFE76621
FFD51BD6
FFE2C44A
FFF0C5C2
000135A3
000D2935
0014BAE6
00144F28
FFFCA078
00034820
000BD1D7
FFFE67C5
000C1C1E
000DE95D
000C45F2
00145758
0012FEB6
001AE1A7
0013CCE2
0014E7DA
FFFAD8C5
FFD95C26
FFCABED1
FFBBC1C3
FFBD738E
FFB8D748
FFA6FF0C
FFA009CD
FFA1693C
FF870E56
FFB4E9D2
FFEAA9C2
000BE080
000D7C01
0006E9F1
0019C797
001520E0
000578D4
000C07CF
000A977E
000BA18C
000D5E04
FFF9D09F
000CA687
00046AF8
0006F0FF
000856B3
FFFD66E2
FFE3B7A6
FFE0B1CE
FFF2947D
FFE5EA6E
FFEB3A54
FFD33C1C
FFBCD466
FFA039D7
FF960501
FF8AB19C
FFAD6922
FFE0A71E
00019DD8
000674A5
0008073B
00141342
00184917
000314BE
000871AA
000B98B1
0005877C
000A2174
FFFF0AFB
FFFFC3BC
FFFCEE34
FFFE2128
FFFE53E9
FFF2FF80
FFF881D4
FFF5A444
000A87D8
00034FA7
00017A10
FFF2855A
FFE4781E
FFD06DDE
FFC054CD
FFA30EA0
FFAB9469
FFDC2933
FFFBB92A
000573F1
FFFA020E
000685C2
00158BD5
FFFA406E
0008CEE1
0002C11E
0002C541
000580EA
FFF0AA5A
FFF7DDFA
FFF25B5F
FFFF98CC
FFF52107
FFE27CBF
FFF64A14
0008486B
000818F4
00023614
000EE9BC
000CD023
001B4BAA
FFFA9F83
FFDFA340
FFCB97CD
FFCA7DA6
FFDE685A
FFFA234D
000362D9
000A7829
FFFD4A99
0020C6CA
000C498C
000AF738
FFF9F875
FFF9C79B
FFF20430
FFFEDB20
FFE9A67E
FFED4019
FFE58F3A
FFDEEB04
FFE47F03
FFFBA6C2
FFFE511D
000A8691
FFF8B946
0014C6CB
00108200
001EC168
001A6A0E
000D374D
000469B4
FFFBE573
FFEA587C
FFEFDAAC
FFF31FE0
00142CED
FFFD94A4
000F1D62
00025F0F
FFFB5BAE
FFF8D529
FFFAFB0F
FFF67B46
FFE9E606
FFFCF80E
FFFB0045
FFF16C83
FFEE9EB8
FFEABCDD
FFEEC554
0003C06E
FFF9CBBF
00077AD6
00175358
001C093A
001E3614
0029C4FF
0018265F
00152141
0005CBD1
FFED8968
FFEFC541
FFFBBCAC
00007E56
FFF9AC88
001DD450
0003631F
FFFC1E6C
FFFB6E73
FFEF996F
00025300
000AB10C
00074F83
000286F4
FFFB8B8F
FFF39E75
FFF41397
FFF2EDE7
FFFEBDBF
FFF78D51
00013822
000888C9
001FB12E
000FACBD
001DA341
000E5132
000B579F
0005300F
FFE67676
FFF94A26
FFEF86B9
00001D69
FFFA19CF
0002AC3E
00220A7F
FFFE09A4
FFE7242B
FFF2BBE5
FFF97CE7
00117CC6
00044CA5
0003FF7D
FFFA2E58
FFE5B0AD
FFE7FC2F
FFF69B24
FFEF285B
FFED60C7
000BB8FF
00122DDD
00174D3D
0013B001
000F910F
00161069
00050CEB
00039958
FFF0CC49
FFED85F4
FFEAAC1A
00029841
00011B5B
0001B716
0023F28F
0016A52E
0007C4C0
00036476
FFFC499D
000AC3F8
00039F27
FFF5CBAD
FFF36A52
FFE4BA7F
FFE5E706
FFFFB3F3
FFFA8340
FFF6E9E5
000501BE
00091DD4
000CA8E5
001F972C
00162E60
00085195
FFF15CF6
FFF4A046
FFF69789
0001C1E5
FFF26BBE
000767E5
00146629
001AB3C1
001F4F93
002170CA
FFFC3E5D
0011EEE2
00024434
FFFF7469
FFFC124D
FFE508CA
FFF95C11
0000E0CD
FFF822F2
FFF2C4B9
FFF92BD6
00002B41
FFFB35AC
0002B6D0
00057B0F
00101079
00020162
FFF29F0F
FFECBCA5
00114EC1
000B5CFB
FFE82D2B
00072F2F
0006F36F
00046AA4
00022C78
000B525D
000B3691
FFF9BFDD
00082D3F
00003D1D
000EB83C
0011A95A
FFFA0C63
FFFBE563
0000D283
FFF1E6B9
00095CA3
0008245A
FFFF36A1
FFFEFC7F
00006F0F
00029BB3
FFF5EB01
FFECA4AF
FFFFBF76
FFFE5529
0009331A
FFFD6C91
FFF1D81A
000BF54B
00039D5F
FFEB859C
FFDAACE8
000003CA
FFFEE217
FFF0A187
FFF2A289
00070229
FFFF7C1A
0009164C
000F3F68
0015C93C
0010F5CF
000D6812
0011C2A7
000E35B6
00091DFA
0003579F
FFFA5409
0005427A
FFFA3C5B
00011F0B
00048A89
FFF3D80C
0007F4C9
0001D0EB
FFF62756
00030E78
FFF8F9E9
0001BFDD
FFE21DD3
0009E5E1
FFFF6C70
FFEB9102
FFD45E0A
FFE8BAE6
FFF4777B
FFFD6475
FFFDEA3E
000FEF4B
0012F6F1
0005E761
000CD384
0015CE71
000D8E34
000A8FFB
FFFE8814
FFFE3DC2
0004B20C
FFF33C35
FFF8F5F2
FFFAD37E
FFE70B96
FFF40DD2
FFF2470B
FFFA8014
FFF9B65C
000087E8
FFF136D6
000E80A0
001242CD
000C8729
FFFB3B91
FFE9E12D
FFE5B2C3
FFF8544A
000A0439
0007118C
00004EE1
FFF266A1
0006496A
0016B546
0014482F
00060AF3
0001426F
00029776
000668AB
FFE57CBC
FFF5D0A0
FFDCBE98
FFEBD219
FFEC73D6
FFF552B6
FFFAB5E0
000464AA
FFFEB50D
FFFE3467
0005F1AC
FFF2ED8D
FFFA55D4
FFFFDF94
00119390
000F2820
0014FF5E
0008AFC4
00000E07
0009E5D8
00079446
00094D96
0018C30E
00157A14
00143A3D
000E726B
0006826A
FFF97145
FFF26543
FFE94FD9
FFE72032
FFEF3640
FFD9AC3D
FFF8FB67
FFF7CA85
00058884
00083994
FFEE2447
000DB9C7
000C64CD
00062517
0005D3FB
00192E3E
0024F486
002A8D86
000C8FD4
0016A582
001F2123
0019F0C0
000D4115
00233340
0024AB8E
00240996
001E9D07
00329868
0012D3EF
00105FEB
0026B9B3
000B02DE
000CF2DF
FFF88D53
FFFB4873
FFF96FE4
FFFE72AC
FFFEE966
0001B4E0
FFF7346B
FFFB4766
FFEF8A43
000A8BA9
00126305
000F53D8
000424A4
000F647F
00034349
0005A80A
001A0836
0010B478
002DF884
0018A897
000C2118
001F39A0
002C0D86
000F03F1
00071513
00045B05
FFEE3D9E
000473B0
000356D4
0002CB48
FFFE46B1
FFFC52C4
FFF95B20
FFFC4BB0
0005094C
FFFA6591
00011E9E
FFFBEEDE
FFFFC65A
0014E1FC
001921BD
0024A3BE
001845BA
00147102
001675AC
000DF696
FFF6976C
FFFB86DB
00234CC8
00112942
0008C635
FFFCC839
000B87AC
FFFE6577
FFFFE658
0001AF07
0005A694
0003529F
FFF8C0BD
