00068D9F
000540D3
0002181A
FFFB01AC
00018E2F
FFFB3A63
0000051F
0008257D
00077BB5
0007FDBC
0001F2E2
FFF98969
FFF90CE0
FFF525F7
000657F5
0000653F
FFFEAADF
FFF7E7CA
FFFAAE20
FFFDC39F
FFF8E0CD
0007724B
0008D563
FFFD7342
00062B09
FFF8AB8C
0003F3A6
FFFC4A00
0001666C
FFFEF5EC
FFFE2F12
0006B2CB
00005588
000AB673
FFFE479C
FFFF1D41
000506E6
FFF62FFB
FFFF748E
FFF3EB72
FFF20EF6
0000DF4E
00064145
FFE9E234
FFE0C684
FFECA1AD
FFF7DCFA
FFFCEF40
FFF23AE9
FFF1D45B
FFEE5B49
FFFAF04C
00024AD4
FFF7A8D3
000199A4
0008D2D6
FFF7D481
00069033
000154AE
FFEF658A
FFF9523F
00030C2F
000211DE
FFF8D354
FFFD43D5
FFED7A32
FFF0B684
FFF12323
FFF6CB4B
000025D2
FFFD844E
FFE7FEAC
FFE5AF81
FFE0A5B5
FFEEC77C
FFD851F0
FFE3FB52
FFD88845
FFDF20C7
FFE91129
FFE20D57
FFF0CFE4
0002B0FD
00016EF4
00021D69
FFFD508E
0015CC2A
FFF87D5E
0001B902
FFF99FB3
FFECF7AE
FFE5CEE1
FFE98A0E
FFF0D9AE
FFE8ED42
FFDC270B
FFE78416
FFD26B09
FFCA5EC7
FFC8B48B
FFCE9FDC
FFEBCC80
FFFB6848
FFE15A1C
FFE56C44
FFFA242A
0008E9E6
FFF4FF9C
FFF6F70E
000724FC
FFF366C9
FFFEC050
FFFD2465
00015813
0018BB6E
00023D5A
FFF86989
FFE327D2
FFE09C41
FFEAF99A
FFE29F7B
FFE0CB92
FFE21BD3
FFE29989
FFE1B495
FFDC7181
FFEA6842
FFF1AF1F
FFFF92D4
FFF68B21
FFFA612A
FFF5B7CC
00037FF6
000AF2B4
FFFF4EBC
0001DBC7
0006A877
0018A3B4
0018508F
FFFAFECD
0008C36C
000520F7
00036D90
00010AC3
FFED0C32
FFED2ED6
FFEFB3A9
FFEB09B8
FFDD627C
FFE7DAAC
FFEAF5E3
FFFCBD56
0004A6CF
FFFCF9E0
FFFF0034
FFF483F1
FFF7F05E
FFF4EAE6
FFF39F33
00061866
000E337B
000BA173
FFFD2C03
FFEC5F56
FFFA46CC
000D4D8F
FFF58651
FFE633F8
FFFEFAF6
FFEB7792
FFFA0684
FFF9F518
FFEF5E57
FFF508A5
FFEB2B66
FFF0AF8D
FFE40F86
FFE2F158
FFEEDBF3
FFFD214D
FFFCBC01
FFFF134E
FFFB633A
000717A2
00035C73
00074640
00006935
0011982A
000A467A
000EADD5
FFFF283E
FFFE1660
0004195D
00106A76
FFFE5999
FFEBB9A6
FFFDD36B
FFF441E5
FFFE5C0C
FFF384A8
FFEFBF64
FFE5143B
FFE55D94
FFE977D4
FFE2E416
FFF45658
0000CCB1
00003183
00112FB6
000A5C6D
FFFE37D1
0004D04E
00086B05
000D64B9
001D106A
000B14F6
001094C0
00082C52
0004D80A
000F861C
000C4FCB
00116F50
0002E92C
FFF6C8C2
FFE2CE39
FFEFA751
FFF97FC7
FFFAB332
FFE6E406
FFF0FD4C
FFF400AA
FFECD757
FFF72931
FFF30169
FFF0AA20
00095522
000ACE3B
000EA04C
000E827C
FFFC2534
000C496A
0007622D
001C88B1
000C4485
FFFC339E
000D4169
00037B39
0014D37B
003733CF
00209531
0016133C
000C049A
000B0F79
FFF95ACE
FFFDD015
FFEC25A4
FFE6979C
FFF13418
FFF51AA6
FFF817AA
FFFC8D92
FFE8CA10
FFFC4B68
0004469B
000E1C57
0008D091
0009BD75
FFF4B961
FFEBF634
FFF00FED
FFFAEFC5
000502A5
00061A86
FFFF7907
FFF7D811
000CC305
00351EB8
0023F325
001BD2F9
FFF0E657
FFFED6B2
FFFE20F8
FFFC6AEC
FFE749FE
FFF92A5D
0001709D
00001BE1
FFF3D042
FFF4F1CD
FFFB2996
FFFD366F
0009EAD6
001300C8
00106170
000C5446
FFF856CA
FFFA8134
FFEBC7CC
FFFA14FC
FFF5B8BC
FFFFCED6
000BB92E
0008A530
001311B6
0022943C
0010B293
0010B8A6
00090363
FFFC724E
FFEEDDE6
FFFFA3DD
FFE2C3F7
0003DE0E
0010418C
00073866
00041F4F
00022EAD
0006836B
00187DE3
001F93D2
00198572
00188A08
0022751C
000DB344
00060C8F
FFFEE7BB
FFFE6E31
FFF7A297
00030AE4
0006F25D
00190535
0027ACC5
003D9821
001AD647
001A9E34
00180E36
FFFD161A
FFF987AA
00143F1A
00012513
00097B67
00102522
000FF7A1
000691E1
0003ABB1
0003C1CE
000EFAEE
00160080
0016B5F4
0011B4D3
000FB8FB
000FB83E
FFFDC66C
00089BBD
FFEE51D0
FFFF1383
001146E0
001D41DA
0035D195
0042B40C
001D7392
FFFEAB58
00106A4C
FFFED937
FFFF2475
000904EF
FFFEA985
001017A1
0014872E
00060574
000A417C
000DE61D
0007B715
0003E9E0
0009AC16
00103E28
000040E6
000117D3
000F18FC
00178766
00121D48
FFFEB420
FFEF5E4C
00003837
0015097A
00276B6D
002C6E32
0022F87D
000462FD
FFF9BD62
FFF22219
FFF23821
0002D10A
000214E6
FFF96294
FFF89D53
0010E0E5
0004B238
0003FAAB
00087631
FFFDCC70
FFFA3B05
000157AD
FFFCA4E5
FFF54BCB
001252DE
001D4E5A
00153864
0010305A
FFF6206E
FFF2BEB2
FFF52764
0003B188
00156528
0016A993
00072936
FFEB2762
FFE4515A
FFDC8CA3
FFF5C9D2
FFFEEA93
FFF48B69
FFF0A974
FFF51F15
FFFCA16A
FFF2B69B
FFF79C2C
FFFDEF24
000116F5
FFF841F2
FFFAA292
FFFF6025
0004DCE3
00183B77
00125E63
000345C6
FFFFB2F6
FFF77E84
FFED0150
FFE978C3
FFF0071F
FFFB10BC
000689C9
0001A3E2
FFE9B769
FFEA2A8F
FFD83A56
FFF2CA58
FFFC9784
00040C45
00002363
FFF03AE0
FFEA4336
FFE909CF
FFFFCB5F
FFF66FB0
FFFC2053
0001EB82
FFFF2289
FFFB5D65
00060101
000C0A34
0011E606
FFF63F99
FFF7E3DE
FFF8BE6C
FFE6C999
FFEAFEC8
FFF569F2
FFF4804D
FFF33704
FFEFFE9C
FFF3DEAB
FFE3F757
FFD67858
FFF2A071
FFFCA479
FFF9655A
FFFC191C
FFD91412
FFE26D06
FFE0862D
FFF6BAA6
FFFAAADB
00039498
000C95B7
000C0BC9
000A4C64
000DE5C2
0007AF96
00057E22
FFF2DC35
FFEB8C0F
FFEA5E47
FFE02398
FFE4380C
FFF10443
FFF6D900
FFF7DB92
FFEE3EED
00015145
FFED05B7
FFF97007
FFF22ACF
000E5701
FFF5108B
FFF80B17
FFCAA71C
FFCEE6DC
FFE50436
FFF135B1
FFFD404A
0005B041
00110479
000CF73E
0013D58D
0003523A
0006D37A
FFFDA0F2
FFE120B7
FFD8A2C3
FFE5990D
FFE94338
FFE59EAE
FFE72BC1
FFE52773
FFE5B15C
FFEB2528
00049072
FFFCF34D
00086937
FFF862B3
000B131A
FFFDB3CE
FFF4F600
FFD82C95
FFC447C5
FFDAF6DA
FFF01EB8
FFFE6A2D
0007F62F
000580D3
0001BFC9
0007C682
000480AC
000263FC
FFEBAD8B
FFE8A283
FFEDDB21
FFEF3F2A
FFE8FA32
FFE4D833
FFDE0999
FFE57FBE
FFF3B69F
FFF95C1A
00079E74
FFF87493
0002CD75
FFFF9828
FFFB6E93
001230CE
FFF7A854
FFD82DBA
FFC71BAD
FFDE7012
FFE80711
FFF9EFDD
00089E1C
0009A2C5
000FFF41
0005163C
FFFD12EA
FFF67886
FFE56CEA
FFE72A58
FFE38054
FFED14A8
FFE45746
FFDD72F4
FFE0ADFC
FFED9B8A
FFF23BFA
FFF8D2EC
FFFA20F2
000D0E0E
00025185
FFF89D78
0005A99E
0000FDF6
FFF85D44
FFDAEF8E
FFCF4476
FFE3365B
0002EBDE
00061757
000729DB
00106BF1
0008131D
0001DC84
FFF96692
FFFB15CD
FFF34581
FFF200B5
FFEE8644
FFE9EDFC
FFE183CD
FFE29FF6
FFE8CFEC
FFEB67A5
FFF5A328
FFEF9E5D
FFFD32CB
000FD097
FFEA1F5E
FFF81B88
0000FEB3
0000F7A9
FFF3E897
FFF241A2
FFE411C0
FFEE6A53
00058022
0005D961
FFFE653A
00083E38
00057806
000B020F
000DB111
000F9544
000620D6
FFF7C7CF
FFEE3804
FFEA85CE
FFF3EFCB
FFE6BA06
FFE57BDF
FFE7A4D4
FFE9F0A8
0000CF58
FFF9E2BA
00066290
FFF990C2
0004E28D
FFFC2CDA
FFFFE0A3
FFEED835
FFD7D02D
FFF3F302
FFFD8FAA
000047F7
00103083
0015E0E2
00108394
0006F7D0
0010A10D
002327CE
001682F3
00073F6D
00025E80
FFF87DC7
FFE6D695
FFE37BC8
FFE5D3E0
FFEA3F34
FFF24D14
FFF48062
000CCCCA
0003AC0F
000587B9
FFEBA598
FFF811AD
00046059
00084A44
000322EF
FFE8EF41
FFE8DC3C
00056CB0
FFFC87C0
00017D41
0008E49F
00012CB2
0012B35D
001844A7
000DC7D5
00124388
000C1EAC
0000A8C9
FFE4755A
FFD717DE
FFEA261D
FFF56275
FFF500DE
FFF0AF9B
FFF72B4D
FFFEA4D2
FFEAA9A8
FFE8D8D4
FFF3FAC2
FFFE1D7C
FFFD014D
00021C63
FFF81C53
00121E68
0004EAB9
FFE7AD9F
FFED990A
FFEC1AF9
FFF1C186
FFF27500
FFFFD780
FFFD3A41
0005F0A8
0007D988
000FF767
FFF607AA
FFF925A4
FFF2AFD9
0001536D
00015DFD
00134C05
0001298E
0005573B
000AC74D
FFFCA924
FFF9615B
FFF35B3B
000449D2
FFFEEC36
0003B191
0002A5AB
000AB5B8
000FCF9E
0004554F
000B561A
000E8180
00187105
0026FB28
0016CE4E
0016A554
0020C843
000EAEEB
00258774
00146993
000A0993
000BA42B
001A32D2
0014E5FC
00167CAB
0010E007
0009E2D1
000CC916
0001E6BF
00026C81
00081D85
FFF8FAB4
0005D1B3
00037BCC
00044B39
FFF87DE8
FFE35605
FFEFF5FA
0005DD93
0009D9E9
0016BA02
0014F7FB
000B8EDA
001DF298
001D5060
00162E88
002F0086
002C2D52
0015A271
0017A705
000F47B7
00080FDC
0011A71C
0008BA4E
00092A68
0003E538
FFF96565
000218B0
FFF8A0F3
0004D00E
