000501F5
FFFE9DC6
0006F89E
000094BE
FFF7DEF5
FFFAD256
FFF92BA1
FFFABA87
FFFB94CD
FFFA107E
FFFAF08D
FFFCBB66
FFF63314
FFF64B5D
0003D4C9
0004C69B
FFF9749F
0003AA26
0005A89C
FFFED356
00041506
00057810
FFF7746A
FFF8CDAE
000400AE
FFFCB710
FFF70930
0001EBCE
FFFA417B
0007458C
000520E8
0008C492
FFF8B6B7
FFF98179
FFE746B0
FFE63873
FFE80ED1
FFEFAC34
FFE648A3
FFECE1DD
FFD3D4E1
FFE1A031
FFF3735C
FFD0AD60
FFF05BF8
FFEA8567
FFE4B936
FFE8F549
FFD6C2D2
FFE8EF02
FFE72014
FFEDD7B4
FFFBC16E
0003A4E3
0001E5C1
0006D88A
0001B879
FFF8080F
FFF9794E
FFEFA840
FFE3AA41
FFF63491
FFEE73DC
FFE74641
FFFE4B72
0002AA04
FFF9D3DD
FFFF486F
FFF016D8
FFE6F2E8
FFFBFCED
FFEDBE91
FFF07D23
FFF92C53
000841B4
FFE05BCE
FFF48A73
FFE93CBF
FFE8D47C
FFECE15A
FFF85BB7
0007A12E
00080E83
000515B7
0006498C
FFFF7DFD
FFE80433
FFE93550
000D341C
0002F362
FFFB7691
000874C7
FFFFC83A
000BB80E
0016076E
001A744E
000A68B8
00040A94
00067E9A
00032F67
FFFBD3D5
0004684F
001AB949
00045AAC
000CBAF2
001EC3DE
0016FB0C
0002173F
FFF738BF
0014132B
0019F86E
00028E47
0000848C
FFFE8B18
FFDF05E0
FFECAACD
FFE34DAD
FFFC5E14
00036780
001BE122
00069064
0013580A
000A8E82
0015C82B
00237860
0004E604
000E5C2E
000C161B
00081064
00123834
001C219A
0008EF88
0008C816
0007E707
000BB9B9
00151D66
0030940C
00402C91
0034E068
0015815A
FFFA03F0
0002EB80
FFDF8819
0006CE4E
FFFEC181
FFEAB3C4
FFE72899
FFFC45F0
FFFEC001
FFF9637D
000FC888
001C1CEA
00224724
0005AF67
0005AACD
0003AE29
00172345
001AF292
0015AE47
000A2956
001507BE
000D9DC2
000A91D0
0003189C
00171AEA
003F95E8
0022AC31
0018E5D1
FFFDA93E
FFE69F24
FFF467BF
FFEDC9A0
FFF9089A
FFF26AEE
FFF5D6CA
FFFEE314
0005667A
00188857
000A98B5
0003BA44
000AACE7
000D039D
00171AB3
0015A08B
001431E6
000E8337
00031EF4
0012CC80
00052B64
FFEFCED0
FFF2A5D1
000C0825
001C9E48
003C3D22
0026F158
00044B02
FFFF5B23
FFEF67BB
FFF26407
FFE4181D
00024C6C
FFFE0727
FFFF774E
0001A506
0015A6F8
00053E1C
FFF2FD9D
FFFEB566
00022209
000D659C
000B2A80
0013ABBD
00025FE9
FFF9A327
FFF6C921
0002EE79
FFF2D37B
0000BF85
000732BD
00013F43
0015F7C0
0047A538
002CF7D0
FFFA3447
FFE01A5B
FFEFE274
FFFEE71E
FFEC1F01
FFFD270D
FFFEFCEB
0005E462
FFF0D314
FFFA161A
0003B5E9
FFFB2D2C
FFFE4335
00032E18
0005FE52
FFF4E4D5
FFFCE6D4
FFF849D0
FFFA41C7
FFFFFD42
FFFF3762
FFFF1553
0005AE36
FFFC5C20
000A858D
001ED9F8
004A90B6
00371C5A
001309D2
FFF2E604
FFE47A42
00025E6E
FFFABB5F
FFF995E5
000917CA
00018B9F
FFEE5C24
FFF81D41
00062DDA
0008F8C7
00053025
FFFFACBA
00025E6D
FFFA7825
FFF2FA55
FFFBA509
FFF90158
FFFEEEB9
FFFB959C
0004CFA6
0007D4EA
0005FC04
00082734
0016C8DB
002BD7F6
001DB5FA
FFEADDE0
FFF79692
FFED11C8
FFDB976C
0000EDEA
FFFD6515
000B474F
000F096B
00093423
000A5D69
0000C0AC
000D4D8B
0004C803
0005549E
FFF4EBC4
FFF31C89
FFF6A61C
FFF084B7
FFFACFD0
FFFED3BD
0008FA28
00013E2C
FFF3CB32
FFF4C4C9
0003784E
0012FAFB
0027CD89
001B343C
FFF6F80C
FFF7B1DF
FFD9837E
FFDABE01
FFEF7B44
0004D53D
00045F3C
000F4CA0
0003DBE0
0010165A
0012F99E
FFFFC808
FFFD18D4
FFFA8C8D
FFE671F8
FFF80562
FFFA1F15
FFFB4C0F
0005E247
0004D001
00046F07
FFFB45BF
FFE9B953
FFEBA766
0001EEDC
00186698
003C7312
003A3583
FFFD60D4
FFF53AAA
FFEFF214
FFEC16CD
FFF07F34
FFF8F2E1
00120A72
FFFD5B9D
FFF76B27
FFFDA5B3
000BFBFC
000565EF
000C13F2
000D320E
000B7792
FFF5A5FA
000378B3
00011ED2
0003BEFA
0007FC6A
0015F8C4
0006B5AB
00001A69
FFFB946D
FFFB7EA3
00008B7C
0011234A
001E3640
FFEE7E98
0001CC09
FFFBD503
FFDDE4DE
FFF7B20F
FFF0DAF4
00050298
FFFA9211
FFFAC649
000F2C13
FFFEF09B
0000887A
000E7333
001B6884
001DA18C
0017294F
0015C840
0010757D
0004BE67
000B8CC2
0006AD84
000EC5F5
FFFFA191
FFF86A1E
000207C5
FFF09A7A
FFFAB340
0026AF3C
0013B89A
0008A463
FFF1F394
FFDDEAEB
FFF37FFB
FFF96EA2
FFFF4C88
00047CAC
00025675
000BAA30
0004FB6A
00042C86
0008BAFB
000F9593
001BFEA3
0012DBEC
00141CC6
000FC752
0012AFCA
00050418
000435A9
FFF868F0
FFF235F3
FFF92AA9
FFE59675
FFEB9753
000B07F9
0015A6F4
00170560
000AC7BC
FFF8D188
FFF67EEE
000797B6
000452E2
FFFF5E78
000C83A6
FFFDB690
0006E289
000A2281
00042532
0012049C
001BE9A3
00219839
001A88BB
0015FF01
00202C48
001BAD40
000DAB62
000008C3
FFFCA2E5
FFEE9A49
FFEF3D44
FFF215D5
FFEBCB6F
000BD91C
0024AFBB
000E3391
FFFB733B
FFFE80F4
FFF3B38F
0017ED3E
0004E9BF
0003D376
0010C831
FFFAD683
FFFBEE7D
000336F8
00107030
001213F3
001E8B9D
00134098
000D447C
000B180B
001956CD
00128BA3
0015D1ED
000539D6
FFFC0B68
FFFE9612
00070A7E
0006E9E3
0002282C
002CA348
002A8F64
0017788D
0006C373
FFECFCA7
000F59F1
00295B9F
0000A528
001145DB
0025383C
000A354B
0003E9A2
FFFC4109
FFFA7EA2
00028A5E
0010BCC7
000B1D9E
FFF41173
0003CE00
001B5513
0015059B
000914E3
000C7217
000756D4
00075E62
FFF76255
FFF4D61E
FFE27D22
0000A403
FFFFA78B
FFF33353
FFE790F9
FFF1846D
FFEEE75B
001E09C2
0013E9DB
00270523
0037F0C2
0026E700
00052548
FFF53F2E
FFFA607D
000C58ED
00052FEA
00079BC1
00066DB3
000DBE4D
001058EA
0008F3AF
0000724F
000B9106
FFFB9862
FFFD0181
FFFB26CC
00027046
0002A52F
FFF0E953
FFEC4506
00141083
FFFCEED3
FFEE18BE
FFF457F0
001DDB2B
0010DE6C
002AA8E4
001C2CDE
00178F93
0009BA91
FFF5E757
00047068
FFF7FB8C
FFFE066C
FFFEAB8A
00007282
00121C80
0011DD88
00076DE0
0009CE6E
000E9268
00020965
00101815
00067180
00126C06
FFF49D8D
FFF19FF9
00166039
FFF8BC35
000150DE
FFEC456A
001B954B
001781B2
0013F8CF
001A05DD
0013E531
0015931C
00095707
0005273D
FFF1455B
FFF602C3
FFF5F1D4
000393D6
FFFB6192
0012ED2F
000C9DBA
0005DB33
000521D6
00058E39
000E24F0
0016BB87
0009C654
00139379
FFFB4B68
0004B654
00013590
000400DB
FFFEEAD8
0007B430
001B980C
000A0AF1
000C7CC7
FFF3D1D9
FFFF46AE
0009E45B
FFF9427E
000A8360
FFF8BDA2
00003F42
FFFAA8F1
0002201D
00087CB9
00017CD5
0000C4C0
000CA8AD
00053A69
0007184E
0007D96C
000A881E
00144EFC
002CF7EB
000341F5
FFF9A1EB
FFE9A2DC
FFFBC0F1
FFEE7D25
00004085
0021FFCA
00118476
FFFFA888
FFDEAF15
FFED8E4D
FFF67E5C
FFFBF979
FFFCD70F
0001BA7A
000DC8FB
0011B853
000BBD87
0002B1A5
00019C02
FFFB20A4
000A2CF6
000F3294
0003F586
00037802
0010F36C
00184FE7
0032D65E
0025F53D
00076935
FFE818C2
FFFE0585
0002CD33
FFFAC046
001FA2C8
002C3500
00110FDE
FFF1853F
FFE1F84C
FFE562A1
00056BC3
00049282
00100551
000C94E0
000471C6
000E88F2
0007AED4
FFFEEAA0
000B49EA
0009101B
0013A92D
001A1748
002743EA
0030567C
00323431
004D7D4C
00268B45
00147680
FFE55700
0002891D
000913F9
FFFF58AF
FFF11936
0002B4CA
FFF0C983
FFDF1401
FFE1BDA8
FFF2CBE6
000A0147
000D0CBC
000E1650
00158EC0
000D1E6E
0017F7F9
0012F117
000DD543
002067F6
0010B25F
001CE808
002C5180
002684BF
002D08F8
0031C496
00419156
001DE9FA
000DFF45
FFE98755
FFFAFE03
FFFB84FD
FFFE1830
0010AA13
FFF01B92
FFEB964A
FFFC224E
FFFD1CA2
00043576
FFF57417
00052153
001E4D12
000AC1F3
00110948
001BA4E3
00193D56
0011F893
00139ECF
001E9E66
0016A7FB
0015A49C
001C9E9C
0012A6D5
00185E7C
00295F35
0006F025
000E69B3
00092BAE
00038CD1
00078EE4
FFFD159A
FFFBB84D
001424FF
0021947D
0022E2C7
00140B58
FFFE681A
0001B944
00008B15
00000CBC
000768F3
0013D0BA
0007F75F
000191AA
FFFF1BF4
FFFB131A
FFFE5230
00024EE3
FFE7CBAA
00094938
000925FC
FFF9D2CE
0002F651
0005CDF9
FFF4B07D
0004B3C6
00076752
0008A3BF
FFF70632
0005087F
FFFAF13A
FFF83193
FFFAC73C
000135FD
000EEA63
FFF994F2
FFF27E81
FFEDCA8D
00013720
00089AB0
FFEDFE9D
FFFE300E
0002787D
FFED5DB6
FFE45135
FFF4F403
FFF37608
FFF59F8D
FFF0639E
FFEA1B20
FFE52B0E
FFF898BD
FFFC5CDF
0002B81A
FFFF3DC2
