0006FD75
000796B1
FFFDDBAB
00086613
FFFDFF2C
0001D84E
FFFB8C7B
00055E94
00080F50
FFF94AE4
0007F26A
0001B60F
00054F9C
0002886B
0006D300
00011865
00070C50
000159F5
FFFBBB54
0002549C
FFFBC99D
FFFEED84
FFFC495C
000610AB
FFF8C86C
FFFBC8F9
FFFD6B15
FFFA80AE
0000DCE9
FFF6F844
000841CB
FFF83BC2
000144A8
FFF8C13B
FFF97D41
000024C4
FFFCC708
0002B7C0
FFF7416B
FFF841AC
FFF9F3C1
FFFD0EFD
000EEEA8
001FFDA0
00248D53
000D0534
FFF32D17
FFEE6BA7
FFF33202
FFF45695
FFF67AE2
FFFAA168
FFF8FCBA
00078088
0002A228
0003C97F
0002E43B
FFFFD749
00076C1A
00049632
000238AB
FFF658A4
FFFEEBD8
FFF80CC0
FFFA180E
FFFA73D0
0004E5D5
0001F432
000B5555
000D7E0E
001293B4
0012A427
00215658
0000337B
FFF5D533
FFEDA956
FFF695B6
FFFF1DD3
FFEE6599
FFF2C50E
FFF933ED
0000F131
0004D9DB
FFFC4DEE
00058C8C
FFFDD495
001EAAEC
0003BD6B
FFF5CE94
FFF4214C
FFFC39F9
FFFD0921
00018CD5
00085347
FFF62C08
FFF92E5A
000F9D13
0006B3B2
FFF6009E
FFF4CAEB
0004B6C9
00096C3E
FFFD3EC0
FFE59FFF
FFE54099
FFDF8388
FFDF8E14
FFE6CC78
FFF1C95A
0006881E
0001179A
0001BA13
0002D145
FFF5D8FB
000F94E2
FFF7176B
FFF2DD74
FFED9D0F
0006DC10
FFFAF167
FFFCE5CE
FFFE73AA
00034AF5
000D3FD7
000F9E21
001023F4
00124721
000B8F8E
001A15B6
00055732
000FE00B
00016283
FFEA4EA1
FFE61999
FFDC5A90
FFE2280C
FFD3CD4D
FFE23788
00008DCA
FFF1E429
00038F3D
FFF87F2E
00246316
FFFD2051
FFEC16D3
FFEE2ED8
FFF358A2
FFF28DBE
FFEAABBC
FFE20CDB
FFFD585E
000476EB
000D2D88
001441C0
0018526A
000F6409
001ABB86
001123FC
0014F88B
0007B0B8
001199E3
000B572C
00003619
FFDCE679
FFDDCBCC
FFE3CBF6
FFDFE923
FFF9DC8D
000209D4
FFED1ADC
FFE1874F
FFF87D00
FFEA9486
FFD789CF
FFE32ABE
FFDF0284
FFD9CAAF
FFF916EF
001954B7
00145900
0023EEC5
0021E010
00226846
0022A8C0
002979BB
002549B3
0029BE41
00108377
000D5903
0010B831
FFFBC64A
FFDA4C04
FFD1A674
FFE6873D
FFE6DD26
FFF1BFC0
FFFED7B1
FFF539A9
FFF08674
FFF8CEF4
FFEA5400
FFDA1851
FFE70768
FFDC04A8
FFEF3AB0
FFFA0E99
00087733
000AB793
001C74DE
0021759C
0028FF22
0022D93A
001B5EB6
001017E8
0016D54D
0019044B
00105C04
0012EBF1
0016D626
FFEDE1FE
FFC08E86
FFD3C62A
FFDB3A17
FFF040C1
FFDB8C64
0014F4AB
FFFB9BD3
FFFBDBFF
FFF21C62
FFDCB41F
FFE1C329
FFEBEE56
FFFF2102
0004BACC
000E849A
00030313
00018938
00060456
000EB4A7
00081EA0
001B12CC
00179A62
00108E92
000FC0EA
0004921D
00023C40
001703B0
000875F1
FFD686B5
FFD2EBCB
FFF9638A
FFFD4339
0004B405
FFF8FE01
FFF8E781
FFFFF43F
FFFBDE5D
FFE92AD2
FFFBBA9D
FFF90B72
000373C0
FFF88E14
00075E05
FFED0A1E
FFF8D8FD
0009B4D0
00081BD7
000C9F1B
00082539
000AFBE7
001338C1
0004BE79
000A1347
0007D61D
001F84DE
000CCB7A
FFE4B2B1
FFF35AB8
001F407C
FFF7313A
0003D94A
00027C44
FFF81E8F
FFFA1EC1
FFEC5498
FFF4D45D
FFFC1D0B
FFF941B1
FFFC9695
FFEC3763
FFE8A211
FFEA77E9
FFDCA724
FFE53F2B
00046D3A
FFF3C832
FFFB71F8
0001EE87
000AC7ED
000E11AD
000AE69E
0008B31C
001520ED
00108794
FFE46268
00011EB2
0009F6A5
0010DB15
FFFD7AC8
FFF4E59E
FFFC7932
FFF6300C
FFF19631
0001A3EC
00004FF5
FFE7FDF6
FFEDB04B
FFE64AEB
FFDC08B7
FFE78E42
FFCA9138
FFDDB901
FFF9875A
FFF9618D
FFEEFED8
FFF92D98
000C9E4B
000FDE29
0016A9D4
0016E654
00238DD2
000CD1A6
FFF4A813
00029B28
000F987F
0008EF34
FFF92A1D
FFE7462D
0000452E
FFF299FC
FFFEFD4C
FFE8A74F
FFE85E90
FFE153F7
FFE3384A
FFE63DFD
FFF00038
FFDAB13F
FFC67B39
FFDC620C
FFFF1C57
FFFF8EF0
FFFF598E
000A74AC
0003C3B7
0018C3D8
001B3661
000E2767
FFF30C1D
FFF4EF5C
FFEC5C64
FFF88F2B
FFF91F1A
001088A0
000C5910
FFEE4849
FFF9E17A
FFFC1C26
FFE34A5A
FFE32CD6
FFF5806E
FFFC8713
FFF45683
FFF3F08F
FFE6822B
FFE2C2E2
FFE6476F
00092A84
0019D630
FFFB5441
00069B7A
FFFF9710
0007ABED
000FABEB
0002B66C
FFFEF918
FFDA0BC3
FFD09F87
FFE8BBC6
FFF74C18
0000484A
00018B9B
FFFB281A
FFEDCBB2
FFE69108
FFF1B9DB
FFE0D1B8
FFEA13F7
00052180
FFFCBB2B
FFF939D5
FFF8EAAD
FFEFA7DA
FFEABA4C
FFF00C95
000D7E24
0013D64B
000C2917
FFFCD81F
FFFE3EAB
00005134
FFF4152F
FFFC08EE
FFEF1E05
FFE4DA42
FFCFFD80
FFE56EDD
FFF81DB2
000D8C70
000A695F
FFF47FD2
FFF405E4
FFDC529A
FFF81098
00062D88
00055BD7
000A6EE6
FFFF967B
FFFF8514
FFF94545
FFF46921
FFF48D98
FFF87987
00176A03
00074688
000A9D9E
FFFEE0DF
FFFBFD55
FFF6B29C
FFE8C2DD
FFE1792C
FFEB0F9A
FFE038CA
FFE2FE5F
FFFAFAC1
FFF9F63E
00097D8C
00162AB4
00072A1B
FFF35629
FFFE90F1
FFF8A444
00095D74
000EB01B
000E4540
0005240B
FFF77C5B
0001746E
FFFF7C6B
FFF7DFE7
00022961
00083B0F
0006BF22
FFF9B3D0
00089BD2
FFF92EF6
FFE2AE81
FFD30AA2
FFDA9318
FFEAAA50
FFF6F5C1
FFF0F8BF
00048D64
000EB28E
001D3894
001687D4
FFFB4328
FFF5A922
FFF3218C
00097CF1
0013DBA1
00058E13
00050DDE
FFFD63D4
FFF62476
FFF6369D
00047B88
FFF99BC6
000B71BA
000CC882
000A86C4
000F2F27
0006A7CB
FFF5F26A
FFE2BDF1
FFDB2A2C
FFDBBE95
FFEA6185
FFF0D613
FFEA7B06
00009CE9
00174CEA
00247F0C
0027F12A
001AA89C
0006DA35
FFE3029A
FFF4E232
0007F13B
00061B34
0004D756
FFF966FD
0000A18C
FFF5A314
FFFCFC6A
FFEFB472
FFF699C4
FFF3687E
0010F11A
0005D43E
FFFAD8FE
FFFFD43F
FFEFC4B3
FFF3F892
FFEC4B66
FFE7F9B4
0007E6F9
0008A306
0011E6E4
002208C7
001B590E
001C2C08
0004439B
00105AE1
FFEE2F84
FFE45ADE
FFF7D7CC
FFFE7387
FFFF3478
0015BAD3
00003D31
00034E83
FFFD48AB
FFF3E938
00001695
00088D47
0004237C
00088752
0007B4F0
FFF6E6D9
FFFDAC69
0004D9AB
FFF54600
FFFB033E
000A2537
001500F9
001E5656
002D3810
001E9B67
001DC211
00063DFC
0015048E
FFF207F0
FFF4A2C7
0003FA50
000BFB7F
001166CE
00134F4D
00046CB0
FFF360A8
FFF4D829
FFEF25CE
FFF8CA35
00041103
000A9A33
00040D14
0004764A
0004EFE0
000C15EB
0010463C
0009E4CD
FFFD053C
00133A38
002D3B05
00289E4E
00250F16
0013556B
0001B221
000A99DC
000CE414
00120F6E
002576C5
00157421
001F6752
0027E9CB
0018BE00
00090043
FFFCE78B
00080175
FFF419DC
FFF0063D
FFFEF47F
FFFD53AE
00019DF5
000A1760
FFFC7FA1
00106817
00197E81
00136DEA
001C243F
0017D14B
0023EB0B
0029B464
001ED1FC
FFFD2F84
FFFFC678
000B4BFA
FFFFE349
00026050
00198FED
001AFC8E
0039ABA0
002D9496
002442AE
00247B78
00147639
00044FBC
0001BD92
FFF0368B
FFFB870C
0001C67F
FFFCC0FA
000608AB
0005F7E1
000B424B
0009FE9A
000427E8
0003D5F1
00068DD1
001E9996
0028E574
000523B2
FFF88B55
0004F064
FFF70CB5
FFFBA211
00097C0F
FFE73782
FFF16F5B
0008B6A8
0016230E
000E7B95
001E6AA9
0013248E
000BC4EC
00129309
000F6A50
0004B4E1
000074CF
000F204D
FFFF900A
0008426F
FFFB841B
001611FF
00099574
0010199E
002ED8D1
00273107
00277581
FFFD08A8
0002C96C
00040E50
00091AC8
0004A844
FFE62BEB
FFD69FAD
FFDFE25C
FFDEA281
FFDBA7DA
FFE3E421
FFFB06FA
FFF85790
FFEB21ED
FFF2D680
FFFF6B97
0004DA27
FFF3394A
00027765
FFF41002
00021F90
0011BB1F
001A3675
000C140F
00208125
001B0277
0020DF22
0037574F
00246B70
00092B1F
000867E6
000589D6
FFFBB999
0008CF77
FFDD7E19
FFD6E5BC
FFE76E77
FFF6BC2B
FFF7E094
000905A8
0000BC9C
FFE1C744
FFEE9997
001218BA
FFFB4607
000BE5E9
00063642
000CCCCC
00014610
000744AC
000F7AFC
0018C3E4
00298A2E
000DD910
000D463C
FFFE1E6A
000F7D1C
000C0713
FFF86343
FFF72199
FFFB4181
0006423C
000CF7BA
FFED29EC
FFFFCD6E
000A6C07
002D05B2
002600F6
0032304D
0039E2A1
002DB25E
002C6984
002D1502
003E2D49
001E2537
001E467E
00218BDE
003219FC
002B95AD
00314D39
00332DC7
002E3AA6
0015C400
00019A08
FFFE74EC
00085E2B
FFFA8324
00001267
0004592D
FFF9B02C
0008E11C
FFF25690
FFF4D1B7
FFF18AD1
FFEA5C00
FFF97064
000A14DC
001821FD
000B0767
000B8FDE
001A9CA6
003213B7
0015FAD7
0002FACB
000D4C5A
001D8AEA
0018E9A4
00149391
001BFE0D
001EFE94
000E3C26
0001447A
FFFC6050
00026123
000372B9
