FFFCEBDB
FFFFD596
FFFEEA42
FFF734C5
FFFA6BE2
FFFB8220
0004B5C1
0001E2EF
FFFB39FC
0004AD7C
FFF8B755
0001F016
0010B54E
000906B6
0000E1A6
FFFCF31C
FFFE4E88
FFFB0DF4
0001C44C
FFFC49E7
FFFD77B3
FFF88279
000416AE
FFF7D6F6
FFFB3DC6
0003F108
00087561
FFF8E1B1
FFF6E212
000433AC
FFFC95D6
0003EF11
001369FF
00113785
00059157
00020B61
00075D4D
0007E980
0016784B
001795A6
002391EB
0023787B
000E26D7
002FACE4
000060D1
001BD36C
00217A3B
0027294F
002E5DA8
00141F58
001A7054
000E319E
00009C32
00060898
FFFE4E4C
00089CA9
FFFB95B7
FFFA0D94
00138F24
000A950E
0005C8C6
00008DC8
000AC8D5
0006A299
000760AC
FFEE1D22
0004D218
0009FBB6
0006C88C
000C07DA
001328BD
0013FB10
0012613D
0020A76B
00239288
0039A01A
002A0D98
003120E6
00388EBA
002DAC64
000467BE
FFF34345
000451F0
FFFFF887
0005546A
FFF72C9C
FFEE538D
001890CB
000D5327
0005D0C1
FFFD486B
FFFE2746
FFEF4590
FFEA016F
FFE8509B
FFD76B8C
FFE69180
FFEE3168
FFFA20F4
FFEFCC4F
FFF16A3D
00079941
001B29BA
002174AC
000D4894
0027047D
002A4116
0030067B
0018CB28
FFEB41E0
000E237A
00020119
FFFFF492
FFF9F2AD
FFEB0A60
FFFE302C
FFEEAA8A
FFDFBA77
FFD01164
FFDA4DF1
FFC7EE30
FFDA5055
FFD0DB86
FFD16AC5
FFD8EBD6
FFDA7FE1
FFEF81CA
FFF6E3CC
000A1F36
001A0C38
0017B155
00245651
001F39FA
00221C03
0019DED3
0021B32A
0004379C
000175FD
0000EEA6
00093B34
0000A394
FFFD3C6C
0011C3B9
FFF2E280
FFEE362C
FFE72182
FFCBEC59
FFD0489D
FFCAC3E0
FFC22F1B
FFD7E7ED
FFE8EF08
FFE59670
FFEABB80
00017B3B
FFFCBBB4
000553EC
000D909C
0017664E
002D1C3A
0028ECC4
00270448
000D0459
0007A396
001D061C
0006D959
001CBCFC
0016401E
0007AF34
FFE8370E
FFFF28D0
FFF040E0
FFE5D28A
FFDD1A94
FFD93B6A
FFC7F526
FFC07D50
FFB9E39A
FFD63175
FFF4BF8F
00050AD1
FFFB1DD0
001B1D75
000A7E8E
000B2485
0011EAEA
001C9D8F
0025178E
002EB6DA
001C1426
0011C780
000F09E0
000F0B1A
0022A4BF
000DE896
00135F09
FFFBCF6E
FFF15058
FFEE00DA
FFEDCEB4
FFDFC9BB
FFD38D66
FFCEB941
FFC5FC11
FFBBE4CE
FFD72093
FFEB6FCE
000A554B
001469B4
00143BFD
001E980C
001E62D3
0016F679
000EB7A4
000F6536
0018FF84
001F59A8
00201540
000B5709
000A3100
000971D6
001215D2
FFFCD7FB
00104448
00054595
FFF94E85
FFD9BFC0
FFED8A9E
FFDF1E4B
FFDA2C17
FFD6A589
FFCDE034
FFC5402E
FFD6F5AA
0002B48A
000CBE74
0014B72F
001EEAFE
00107C33
0000AE24
FFECB3C0
FFE7BC11
FFE555B7
FFEDC7CA
FFE90343
FFF416BA
FFF983FE
FFF40D94
FFFE1A12
FFFF7C2C
FFF844C3
0008D3C1
FFFBB78A
FFFAB5BD
FFD27255
FFDB70C6
FFE18A84
FFD17734
FFCFD946
FFC1134F
FFCF1E17
FFFB71A5
0010289E
001F577A
0014C191
0006F8B9
FFFFC923
FFE4AB24
FFCCB6B2
FFB3C5DA
FFB57A3E
FFB311B4
FFC28231
FFC9B803
FFD53CA8
FFE517EF
FFFBE031
000A9C43
FFF2E3C7
FFE5420A
FFF26D56
FFF2A10A
FFDFBE82
FFDC8AF6
FFDCDA29
FFD87784
FFBE4194
FFD0FDF8
FFF18CF7
00083C97
000F8B33
0014028C
00142ED5
0008B45E
00092E48
FFDD7530
FFC31A6E
FFB956A2
FFC54013
FFC61798
FFC12046
FFBF31BA
FFC89649
FFE6E4BF
FFFBE400
0004DEA4
000A9552
FFDFFA8E
0003C881
FFEDFA61
FFEFB53E
FFDAC13B
FFE70327
FFDCA7B1
FFC93F51
FFE17819
FFF6C9E9
00133261
000EE5DB
00165257
001D3BCD
0018DF4F
0014C331
FFFEA400
FFE1C940
FFE3026B
FFEC1727
FFDA92B6
FFE64A87
FFE56A15
FFC88CDE
FFDB27E9
FFFDA69E
FFFED178
0021B5F6
FFEA7C46
FFF71F81
FFEC6244
FFDF3163
FFEBB38E
FFEF8976
FFE608BC
FFE9154D
FFEF8D86
0003A1C5
000BE140
0007F650
0021AA47
001BF2AE
001A55F3
000FDE9B
00055FC9
FFFC5BB9
FFFB31F1
00061F7A
FFFB5F63
00039541
FFF4FB20
FFE7D47F
FFE79096
FFE133A0
FFDE349F
FFECCA0A
FFEAAF1E
000D89C8
FFFA8504
FFF01E95
FFF846DB
FFEEE5C9
FFE0FE3F
FFEE583C
00040693
00071EC4
0011868E
0008FD24
00112B3E
00062F95
00133610
000DFECC
001022D0
000C6D51
FFFFA9D9
FFF1673E
FFFF88AF
0010810F
FFF6BBAC
FFF224D3
FFDCC480
FFE3C45E
FFD3988E
FFDC852A
FFEFDB93
0003C3EA
FFF64DA9
FFF755CD
FFF0AD58
FFF10C5C
FFE33FE8
FFF26A81
FFF5B3D3
FFFDAF11
000D4F19
000E6C4B
000945B3
FFFAD72C
000C5913
0019FB06
001364D1
000B89BB
FFF0FDF8
FFF2DE73
00058CF3
0014C102
00090893
FFE656BA
FFDE8578
FFD7A341
FFEF8BAB
FFEB56C2
FFE5F965
000C061C
FFF46D67
FFE2FC47
FFEE52C4
FFF6F22D
FFF67055
FFFD952D
FFFEE062
FFFEE17A
00007E94
0007BCD8
FFF7726B
000172AD
000A7BA2
0018976E
0002F413
FFFCB5FC
FFF87562
FFFA38E4
FFF71AB1
00061F98
000AF932
FFE6A8BD
FFDD52E3
FFE4AC83
FFF24254
FFD5CE0C
FFEC3113
0000B8A0
FFF12D48
FFF8BFC4
FFEB19A2
FFF2E812
FFEBBA3F
FFF3B67E
FFF52FB5
FFF4F891
FFF71EC3
00011737
000C6DC7
00082C26
00077F06
00081B3B
FFF6CEA4
FFF17EDC
FFF2F4B0
FFF9010B
FFEA4610
FFFD914A
FFF3DD08
FFE351C8
FFDC9DAB
FFE4E4B7
FFE30A19
FFD311C5
FFE57AC0
00065C81
FFEE1E33
FFEF3402
000FCDE8
FFFBA7BE
FFFC8A3C
FFF9BB06
FFF28DC0
FFF1580C
FFF59085
00055EFE
00130485
FFFF2437
FFFCD0B5
0006560D
FFFD6D74
FFF22583
000090DA
00016D39
FFEEC6C8
0005344D
FFFE4648
FFE42314
FFE5DEEB
FFDE4405
FFCA8C16
FFE874C8
FFED23AA
FFFFB875
FFFD2DE9
FFE5BAC1
FFFE5B1A
00082007
0004EDE1
00066A0D
FFF524AF
FFE73F9E
0006AC1E
000115D5
00005B78
0010994B
FFFB4D82
000712CD
00091E5B
0003F1E8
000D18B8
000B29F9
FFF29F5C
0001EAC0
FFE8F7A9
FFD6A818
FFD9B950
FFD56E78
FFE7991C
FFF72873
FFF3F428
FFFCFFDC
FFED3F26
0001D840
FFF2BE6E
FFF8AA18
00032602
FFF74A90
FFF67FA4
FFF0EC05
FFF62958
0004870F
FFFABDE2
00053144
00010E19
0002C044
00030416
FFF71FD5
000A7120
FFFEB021
000510B6
FFF4E58A
FFEB8246
FFDF98CE
FFDA4B06
FFEA6E8C
FFF2710F
FFFA21E8
FFF35160
FFFF4656
FFF5FD5A
000C58C0
FFF0A69B
FFF2F469
FFFC246B
FFF92E2D
FFE24DD3
FFE5E2DE
FFF7FA57
00015DE4
FFF90009
FFFB81DD
0000B1B2
0002DCF4
FFFE99D1
FFF81E3E
0008A441
00009B35
0009AE94
FFF1DA9D
FFF8908F
FFE86F21
FFF2F92C
FFE9CED9
FFE6D2CB
FFF939BC
0002EB5F
000971FB
FFF264ED
FFF7ABB8
FFF2849D
FFFB5DF9
FFFD3F52
FFF76189
FFE42904
FFF2C2C6
0001E2A9
FFFA0E82
FFFA92E7
0002A41A
0006D45B
FFFCA75A
FFF9FFCC
FFFACB3B
000A05C8
000E7481
FFFCE389
FFF44778
FFE9D748
FFF8A8AA
FFF9CBF0
FFE85B97
FFF5491D
FFFC60B5
FFF62A1F
001024B2
00053737
FFD8A812
FFF68CD6
FFFD8CBB
FFEA1933
FFDFD972
FFF1EC40
FFE59AD9
FFEC7318
FFFABE63
FFFEAACD
000C509D
0012601C
000BA493
001312E4
0014BA46
000ABD2E
0005CCA8
FFFFAD87
FFF72430
FFE1734D
FFECE8B0
000B83C9
FFFA8D09
0001807D
FFFECA31
FFF94F2A
00062DA8
FFFD7DAD
FFE9A097
FFFA7764
FFE4B392
FFF16A26
FFE5BB9A
FFF07702
FFEE3888
FFF01562
FFFAE70E
0004C1B6
000A02C1
000EA048
00177B16
001B147C
001ABE5A
0013F273
000083F0
FFFF2341
00021B4B
FFF1CCA7
FFEC7E25
00006C63
FFF046E2
FFF8BBAF
FFFE9188
0006FA14
00050FD0
00063C3A
FFF2CEA6
FFEDD9BC
FFE1D7D5
FFFCA46F
FFD9F3A7
FFE75BCE
FFEDCBCF
FFE760A7
FFE4BAE2
FFE99FE8
FFFB097F
000826E8
FFFEF7B4
00217340
00178AB7
FFFD47D5
000C7D75
FFF288F8
FFFF6748
FFF0D12C
FFEFB68C
0005A46D
FFF85641
FFEC9DA6
FFFC5630
FFFE3672
0008DF30
FFFF11C3
0003EB58
FFFCD0F6
FFE25830
FFEE1F7D
FFE3B012
FFDE8A70
FFEA2C88
FFF92148
FFF9A928
FFF2274E
FFFFD058
000286DF
000A3362
0010CD11
001275A2
002AE985
002B6B91
0013AD6E
000DC9CA
00068D44
00099048
00033E94
0003A289
FFF61D84
FFF12DB6
00042D71
FFFD2DC8
FFF7E518
FFF70BB2
00165404
0004991D
0005D51F
FFFEE755
000270F9
001D099B
002F6B13
001DF08E
0027404A
0030C664
0028DB20
00357E50
0018BC75
00216362
00333271
0022E919
001462C3
001B54BE
00040C59
FFFED523
000A9A63
FFF95900
0007AD94
00047A26
000099C2
FFFD18D5
0002607D
FFFAC6FC
FFFC0141
FFF8D356
FFF9EFCA
FFFEE960
FFF81E18
FFF6584D
FFFD2564
FFF497AF
0013B812
0009FDBF
00056FBA
0020E2DA
0012839D
0003FD9E
00039AF3
0009E793
000B6ECB
FFFD72F5
FFF5B2ED
FFEFCB71
FFFB1D34
FFFA25EC
FFF81FA3
FFFD69C0
FFFDD085
