FFF724E9
0006810F
000208A6
FFF7F78F
00049A99
0000878D
FFF78077
FFF75F9A
FFFEA746
FFFC8CEF
FFF8A229
FFF8A314
FFF4D302
FFFD0B4A
FFFC70A3
FFFAF20C
FFFBA765
FFFE6BB0
FFFBDEF7
0006EF94
FFFB8586
00053470
FFFB5E41
FFFBDCA2
FFFE3D41
00071ADF
0007FDE1
FFFEF6F6
00016F5D
00025C0C
0001E938
00031637
FFFDA0FE
FFF413AC
FFF04B4B
FFF3BB6A
FFEFBF85
FFF2F502
FFF4002E
FFF7DE7F
FFEC29F8
FFE906F4
00014F59
FFCBC046
FFE69574
FFDED329
FFE7493B
FFE6A859
FFDBEEDF
FFFB03C4
FFF321C2
FFEDB765
FFFBC08C
0007C732
FFF7D388
FFFBDB1D
FFF8BE00
00051856
FFF4FB3B
FFECA697
FFEAF667
00016472
FFF0A435
FFF37177
FFE4FE12
FFF4B260
FFDAEF39
FFD5236E
FFE030E2
FFE1044E
FFF28B47
FFC99FFF
FFC7FB4D
FFE74E6C
FFF7B69C
FFDCCFE6
FFD9FE02
FFD7D181
FFDE4966
FFDDDF9D
FFE5C8EE
000D375C
FFF8ADBA
0002FA97
FFF7C7EC
00050CD2
FFE2298D
FFD9F611
00087697
FFE45510
FFDFCD00
FFC8033F
FFB13DD0
FFBD1AFC
FFCCC93F
FFCE0342
FFC031F7
FFE0D3C0
FFE43C4A
FFE136A3
FFE8BFAA
FFEFEAE5
FFF6112F
FFEFC903
FFF0857C
0011B784
00142D03
00172E09
00017C16
001C398F
FFF76211
FFFF2567
000413B1
FFFF40EC
FFEF80E0
FFE4A5F4
FFE510D6
FFE17B93
FFE4CB3F
FFE8FF5B
FFE4CD0F
FFE72191
FFE0AD4B
FFFF3A49
0001FC5D
000B73BD
000886E1
0002F862
000A14E9
00045852
0000E72A
FFF735A9
00049DF8
001081C6
00131D7E
0016EDBF
0035AD48
0027B929
001A7A96
00096BB2
FFFAEDEE
FFF8BF27
FFE8A3A2
FFF5E37F
FFE3BD4D
FFCB7868
FFD16C41
FFDFCA53
FFE45344
FFF0B390
FFFA7E12
0023BFAC
0012DD90
001A1AC8
000F88D6
0009C3A1
000DBA10
001566E7
0012CBF6
000C8715
000CF931
0001B6E0
FFF8A337
FFE29E48
000B2C16
00209C48
000AEF9B
FFFB1D50
0002F479
FFEA58EE
FFF5FC5B
FFD352CB
FFDA1328
FFC497E0
FFD230A8
FFDD28C6
FFF23846
FFF7459C
FFFB5F88
000D7F6E
000EF582
001A0251
0021278C
001A7E20
0019DB94
0016C498
0011F6C3
001C6835
0007EB87
FFFA2119
FFFC2A3B
FFF95BD0
FFEF7228
0012DA28
FFFF8670
FFFEC804
00047AA2
FFE50CC5
FFF3D63F
FFD878AC
FFDD8C07
FFCBA5AA
FFE55404
FFDBB08D
00037A6D
0005C3FC
FFFCED80
000BE994
000F7B5F
000D0F94
00133E5E
00259E24
0013B0C6
00071DD7
0003FEFA
000CCC1E
000C948E
000F6068
000789CA
00084ADA
FFFCEA9F
000BC152
FFF43214
FFFA2048
FFF08956
FFE14839
00003BE1
FFF2311A
FFE85BB8
FFED0383
FFFD5730
FFF4CEDA
00075EC9
FFF824F7
00093B2E
FFFF1CA7
FFFEA1CD
0016DC1F
0003F649
001009CF
00115A8C
000C08BE
00031C3C
000AEB52
00065104
000D4899
FFFB644D
000686DB
0020B5B9
001B6B6C
00199392
001379AC
FFEB3F23
FFEEC06E
FFF11DE3
FFEE87E9
FFE1E519
FFFB4B3C
00093697
FFFD7825
0009C09B
0011D512
0013D84F
0011F520
00070186
00066558
00050D96
FFFA4763
FFF5F7AC
FFFF87F4
00084D9F
000AC163
00084017
000A6A5C
FFF1F883
0009D0EB
001B9F11
00128E35
000B5BEB
FFEE044E
FFF4BE3E
FFF5AC15
FFD9ABCA
FFDAA04C
FFED5C4E
00099C65
000BD1C0
00038DC2
0004645C
0018F3D5
0005B7E5
0007773F
00072E36
FFFBC3BF
FFFB0081
FFF12CC7
FFED6454
FFF72052
000C67E7
000970A7
FFFBBBD5
FFFA5708
0004FA6C
001139ED
0013F6FA
FFF2D971
FFF5E6DC
FFF72284
00016933
FFDCB546
FFD48BE9
FFEACCC0
FFF01C37
0009478F
00112893
001AB71F
0012F71D
0018EBD2
00125F86
000347C8
0001780C
FFFADFF0
0006D086
FFFA40DA
0007C36C
00002F55
00036A09
00087D89
0007B448
00008687
000E675D
00157BA5
0023218B
000664D4
001D37C0
0009B424
FFF5110B
FFF4AE52
FFE3CB9F
FFF0B62F
000F57D1
001E664A
0011BF60
00114EBA
0006CB05
000DB629
000B7FC1
0008DEEA
FFF9EDF8
000FC81C
FFFE7651
000500FF
000AFEEE
0008699C
000754BD
000C5EF9
001174C9
0018813C
001FC561
00339AF2
001E6E36
FFF7C478
FFFFA31F
FFE78821
FFF8CB9F
000202B8
FFE3D337
FFFE3366
00118BDA
0009A97E
0007917C
0011FF5C
0013A495
000EEFE4
FFFC3428
000E6276
0009E0E4
000EB5D7
00146B3C
0010E9F5
001B48DB
00144DB7
000C5C99
00128672
001B5720
00119783
0021ABF0
0008A2C8
FFE8C551
FFEBF73C
FFF0D24C
FFFA7028
FFEDDB3E
0000EEEE
FFE1B04C
FFF75B81
00096CF0
FFF86052
FFFCCF67
0007E77F
0000B2CE
FFFF0635
FFFE7289
001864C4
000F84FD
001116CE
00085BEF
000D646A
0011678F
000F7880
000DC977
FFFE33F8
000830FE
0001040D
FFF7B336
FFE57112
FFC74A5A
0009FBE0
FFF0D9B0
FFFCFDA8
FFEC0ECE
FFEE3190
FFD73FCB
0000216A
000C8E17
FFF0C5F0
0002651F
FFFED410
000FD62E
0006EAC7
000D6E1A
001A8DC7
00173B9F
00095C3E
000D4BBC
00073843
001480DF
00114E41
FFFFD784
FFF88979
FFEC2FD7
FFE4198E
FFE2C99A
FFE13424
FFD4A4A1
00001D50
FFF7A62E
FFEB2B89
FFF1F946
FFF590E8
FFE4374A
FFED8B8C
FFFB5794
FFF873BA
0001A536
0000ECC3
001AB291
001591DC
00210D3C
00190C82
000D9FB4
000EA987
00058F96
00074BFD
0016542F
001429FB
FFFE3AF0
FFF38BD6
FFE94B6B
FFDFB856
FFDF0E54
FFE998AE
FFDECFFA
FFF6FC22
FFF2EBEF
FFEFE2EB
FFF78B21
FFF4A13A
FFEA2CF3
FFECC1D3
FFE4CA57
FFFA6969
00100D17
0015C462
0021C704
0022060E
0011CE82
0016A6FB
000DCF4C
FFFB708B
FFFE9649
000B1175
000F63A4
FFFDD241
FFEDAF7E
FFEE992E
FFF3A16B
FFE7BDF0
FFE15055
FFE97DCF
FFEB61C2
FFD4B254
FFDFA261
FFED23CE
FFF64750
FFEB2295
FFE0DFEC
FFDE8759
FFE4098E
FFF6208B
0023DF24
0019DAC1
001A0D8B
00111608
0013CF87
000F82D4
FFFF7F91
00009CF7
FFFBC123
000669E7
000700A7
FFF71F47
FFF4B2B3
FFF4A347
FFF70D6B
FFE7AB09
FFE4BC9F
FFF3D98C
FFFCEC11
FFCA3E90
FFDE9FA0
FFE8AAE4
FFF57D7A
FFED9C17
FFF6A339
FFECB397
FFE9C31D
FFF93117
0007F158
000D4105
000E1CA7
FFFD46D8
000DFBC3
FFFC145F
FFF77925
FFF7CCDD
FFFC0892
0003BAA0
0005570F
FFF3CCAE
0004F27B
0009D5D6
FFFF37EC
FFF58CD5
FFFB048E
000A92F4
00028975
FFCD4FC6
FFF448C0
FFE73825
00005E1B
FFF5C64A
FFFAB7B7
FFE28869
FFE89FDC
0006611F
000A9A78
0005461B
0002DAD5
FFF61AA9
FFFC49E5
FFE61041
FFF022A6
FFFD8708
FFECCC32
FFFE886B
00075A2B
FFF8E66B
0004F32A
0006F183
FFFB1434
FFFC4510
000B2B56
FFFE148F
00027BFB
FFFA8C7C
FFEBC7BE
FFF62CE2
FFEE07C2
FFEDCC17
FFFF5370
FFE87723
FFFC7023
0009DBAE
00137134
001253BB
0006C417
000F156E
0005060A
FFF4BAD4
FFFF7BC7
00040C87
FFF7C8E4
0004FA10
FFF87925
FFFD61A3
FFFD344C
0000926E
000B8EAE
FFF8297C
0005A63D
00039AE2
000234B4
FFEF4BA7
FFE40176
00048765
FFFD0DCC
FFEED73B
FFFEDB75
FFFA6F80
00015D75
FFF3DB45
00121484
000EF9CF
000A592A
0010DF9B
000CCED8
000765C4
000F92F9
000EEE67
00093C65
FFF891FB
000A1570
FFF79385
0000A2A5
FFF309D9
FFFE873A
FFFD57F7
FFFB6646
000E4838
0012721D
FFFE8F6D
FFD98AD8
FFF74134
000403E7
FFF70580
FFF02EA0
FFFBC808
FFEC6592
FFE7D0B7
FFF0EEE8
FFF8558B
001192BC
000BE45D
00051070
0005000C
0010875D
000D7AB5
000F11A8
000B026A
0000A79D
FFFDBBFD
000CA9CA
000E2863
00061AB2
000EFE58
001197A4
002CA2FC
0019DC54
000A93C6
FFDD1BE3
00026F36
00058976
00089AAD
FFF744C1
FFE120CF
FFE670E2
FFEB09F9
FFE61A23
FFF602AF
0007BAB7
00066637
000AE568
000D7574
001545D3
00093687
FFFBDCC3
0000EE9E
0011D752
FFF92E57
0006AF6B
0017F251
000E9481
0000F553
000D78AB
00265D7E
FFFA9623
FFF22888
FFFAF60D
00076E39
00048F2A
0006952C
001112AC
FFF38313
FFE3B359
0001DBA5
FFF8E25E
FFF83312
FFF49301
FFF472D9
00065F53
00053C8E
FFFF34E9
FFFDD7D7
00097D81
000D07A2
FFFF23E3
00032D49
001468FD
0013AACF
0015F573
000C02BC
FFF41D1D
000678D9
FFE51330
FFF7DD17
FFEE2165
FFFC2CBC
0006ED28
FFFBB67E
FFFFA2AB
0017A259
001C8D3C
001855BB
00123456
0010779C
0007FB14
00150FB5
00070B8E
0012CEC3
000B306D
000E0142
00168158
00099D8C
000C61CD
0013DE3C
000594C2
FFFB9A41
0015D128
0017B4EF
00013542
00198732
00198152
00076DCC
FFFC1DD6
000250F2
FFFEA88F
FFF7AC48
FFF8D9B5
00031664
FFFF9892
FFEEEB54
FFFE2C64
000B7BEE
00098F5C
0002FAC3
FFEB63EB
000E8833
000474F4
FFE9710E
00080D2A
00027889
FFFF5E26
FFE98D41
000A83F5
000E21C6
00001086
FFF4F8E1
FFF69AEC
FFF112EE
0008F969
0002F3F0
FFFE5F5C
FFFC51F6
