FFFC275A
FFFBBA51
FFFF4BA7
FFFE36CB
00062E9C
00044358
00070B03
000729F9
0007CEC2
FFF7507A
FFFDEDB2
FFFF2036
000C315D
00053456
00057E82
00012811
FFF70796
0000BADF
FFFFCDE7
FFFA5B75
0008E7C6
FFF8AA78
FFF8408B
FFF96F43
FFF7B297
FFFE2846
FFFB1D61
00077F5D
0004E512
00045820
0007DAD4
FFF87332
FFF9D909
000A04F3
000D364E
000891AB
000FD418
000BF55C
00097D84
000CEE2E
001E3541
000FD1DC
000DB745
0001AB0C
0004D4B4
00129AA2
0003B9B7
00040DD9
000B68DA
FFFB33F4
00047536
0001C124
FFFE2AEC
FFFFF4F8
FFF9DBDB
FFFE6A32
FFFEE936
FFF6F501
FFFD268A
000E1126
FFFEBA15
0000221C
FFFF7800
001320FA
001F2B07
00285084
0019C142
0010EB61
00199E1B
001BEF2E
000C6A21
0000D702
FFFE141F
000ED332
0005773B
0000B740
FFF37BB4
0006C9A0
000FB14F
FFFF85E2
0009BB2B
0000EA80
FFFB8150
FFFF1261
00047AAD
FFFCD3D8
0006D556
0010EAC1
FFF1B000
FFEA1395
FFFC999B
00018AEC
000BA746
FFF70713
FFFA9D0E
FFFB0E6E
0000DB34
00145A8E
000FE305
001648F3
00097625
0008D35E
00143E78
FFFF1BEC
FFE6ED3F
FFDBF064
FFF1EABE
FFF1261E
0002EF8D
00014652
FFF45915
0008AC9C
FFFC2748
0005F2FF
FFF20CCC
00000AA5
FFF0C36E
FFF070CA
FFFBE13F
000DA950
FFFD87D1
FFFE5823
FFF8D494
00022BD2
FFF1438E
000C9645
0002552B
0008CA02
FFFA05FE
000BEF21
000B08EC
00050760
FFFA009D
FFF55C48
FFF8D82F
FFEBFE35
FFD36371
FFF047A8
FFF2552A
FFFEC210
00009482
00082BDD
000E0152
FFFF1986
FFF33DDA
FFF70908
00041A8F
0002C358
000E5AD4
000196BC
000E344B
00066A52
0005B159
0011CA28
0011CB4F
000BBA01
0005A7E7
000C03D2
00105103
0009AA07
FFFC3679
FFFC7B33
0001A46C
0003300B
FFDE4E6C
FFD3C7A8
FFED9F4B
FFFB10D4
0006D019
FFF4956C
0016F147
FFF35347
FFF6B916
00022A65
0009E3EA
00133535
0012D864
00051A2E
000C0E62
000BCE1F
00149C10
001A0C02
001A60B2
001AE24C
00131052
0019A060
0012111E
0012183E
FFFECBCD
00107331
000C6199
FFFD5719
0000D356
FFD57427
FFE25034
FFF820A7
00054D8F
FFE50960
000B3C71
FFFE9391
FFFCC298
FFFF09A0
0008C542
0010CF77
00139F2D
000E2474
000F4A79
001D19C6
001C5EA1
00226301
001C4456
001A9CDD
00184ADC
0016682B
00107432
00137BEF
000ECA16
0007EC0D
FFFCA580
FFF4403A
FFFD6034
FFD63BDC
FFEFAD26
FFEAC1E1
000A5C16
000D6472
000560BE
FFFC040C
FFFA41FF
00079274
FFF9CEE4
FFFD3BF8
0015D648
0016DF55
0014633C
00168D9C
0006E63D
000594F1
001243C1
002048B1
001F5011
000AD810
FFFCE5E0
FFFFCFB9
0003E07B
000359C6
00032C6B
0000B007
FFF5C074
FFE91E85
FFE54EFC
FFEC0C45
000B1DD2
0009BA23
0000A900
FFFE32BA
00015DFB
0002FEDF
0006F9EE
FFFEAD8E
000F40D5
0012B7C7
00111C4F
00041009
00087F78
FFF301C6
FFF9629F
000ABBE4
000AF708
0007A5DF
00165293
001002A4
0007FCCD
FFF88AD1
FFF7B8D8
FFF9B3DC
FFFA428C
FFF9453D
FFEF84DC
00093883
FFFFB75F
0005868F
000651AB
FFF4C490
FFF23B5A
000BC7B4
000431DF
000852E1
0008ACB8
001634C1
0002A750
FFFD8BDA
FFF8D4E4
FFE29DE0
FFE5CDBC
FFE7623F
000541AB
000B4A6A
001234F6
000252EA
FFFEAA3F
0008A470
FFFD553F
FFF3DD6C
FFFECFFE
FFEAAFAA
FFFC87E2
000299AE
00089179
0009228F
0002C50F
FFF758BF
FFF63DD3
FFF80D30
0006CCB5
FFFF4CE7
0004877F
000CAEB9
00053445
FFF9407B
FFDE7882
FFBB55EE
FFB14EE2
FFC897EB
FFF023BE
FFFE1AA8
FFFC9E8D
000000AF
FFF77DDB
FFFB9BFE
FFFCF14D
00049798
FFFB9A9C
FFF14405
FFF31F95
FFF5678F
0003A499
00000D91
000E5FB2
FFF5D487
FFFA0069
FFF2D219
00063A26
00059656
0003CBBD
00079448
FFFD8B8A
FFDFD798
FFC06326
FFC26D58
FFB85D7C
FFD6387C
FFF4BFA9
FFEEA874
FFF08985
FFED2ED1
FFF95153
FFF1DACE
000620C6
00097F8E
0003EA31
FFF1E5C6
FFEF133A
FFF508AA
00099D20
000A5FBB
000FDEE8
00057BD5
FFF53C91
FFF0384F
FFFC83D2
000380E4
0001DC88
FFF8AF2F
FFF03384
FFD5DBA4
FFCC532E
FFD125DF
FFDD29AD
FFEF464F
FFE40987
FFE359CC
FFD5D206
FFE33391
FFE700BF
FFFFF6D9
0007917B
FFFCD735
00075119
00025548
FFEA32EA
0009A8B3
0007262C
FFF3348C
000F9CCA
FFF15D04
FFF56E91
0006E006
FFF48CED
0001DC39
FFF96632
FFEE2F8D
FFE0EB19
FFD68700
FFE55078
FFE225ED
FFEB1B48
FFF148D0
FFE7DDB8
FFDC17E8
FFD80040
FFEAC3B6
FFFA444D
FFF9F97E
0002090A
FFF7EA70
0007C7D1
000B5E63
001342F7
00193ADD
FFFEF2FB
FFEE10B7
FFF735C5
FFE81C00
FFF88256
FFFAB7EE
FFF4301A
00084DF7
FFFB3301
FFF67D9E
FFF3607A
FFE013E0
FFE3D02C
FFE79AD5
FFE71E03
FFEE6FD9
FFE95216
FFE1A561
FFE1FF64
FFECFA41
FFFB33E8
0000FE66
FFE91765
FFF62C14
0008CB8B
0000D69C
0019254E
00079D85
00032DF8
FFF5774E
FFF3B74E
FFF06456
FFE9AA34
0007CECD
FFF8DA63
FFF9C56C
FFF42C21
FFFAA7EE
FFFB0539
FFEDCF57
FFEEE9C0
FFD79FA2
FFDDC719
FFE3C105
FFE01447
FFE27FBC
FFDF2BC0
FFEB8822
FFF418C8
FFFC19B1
FFFDE2D2
FFEE4860
FFFFF5ED
000916CB
00138B95
001E4CB5
00067041
FFEF51F4
FFE3E09D
FFE9146D
FFEAA583
FFF5C4C5
FFE29FB8
FFEA3680
FFEC887B
FFFAD705
00100BCA
FFF3659F
FFE08A16
FFD966EA
FFDC7F81
FFDF62F0
FFDF93DE
FFE8F970
FFFAB2C9
FFF6BC81
00018624
FFF82AD0
00069E9F
FFFA6D30
FFF8D604
0029FF11
001E514D
00047464
FFFBA2FF
FFFF7863
FFEBAD73
FFDA395B
FFDF505E
FFEB1635
FFE1EB21
FFF92A50
FFF6D1F2
FFF8C204
000DAC96
FFFA635A
FFE26BB8
FFD6F853
FFD64986
FFDF1AD5
FFEA4F2A
0003C4C5
000A2DC7
FFF9D78B
0006B1B0
0005515C
0007E799
FFFC6CCE
FFFF4347
00268066
001CB76D
0017100A
FFF71C72
FFF99496
FFF99025
FFD5AD91
FFD3B4E8
FFDCBD49
FFEADDAB
00021C6F
FFFDB8B8
FFF9A428
FFFED29C
00044A93
0000CFCC
FFE7A5FC
FFDF7390
FFEE85BE
0009986F
00083380
FFFDE6F9
00090799
000B6C1A
00157C3D
000B113A
FFFE8E7A
000334A1
0022FAAF
001CB454
000CE501
00024A32
FFFDE51F
FFFAD3A3
FFE882F7
FFF3763F
00007BD6
FFF4E48F
FFF73CD0
FFFE2424
00077ABC
00010E00
0011D3C0
001433D4
00055C73
000B26B3
000A5B09
001847EF
000D35FA
FFFAFE54
0009926B
000D0BB4
001AAC49
0008B3DD
0003DD37
000D9485
0020978C
000DB69D
0010482C
FFF4BF88
0005F588
001147D0
000778B5
FFFA4857
00081CBF
000182C9
FFF9E6E3
000E9394
00172C50
001DD476
001E7754
002DC1B2
0026B391
00276201
0029D82B
002AF789
000CB73E
000538CA
000B34BE
0012F87F
0015ACD4
00103D3C
000E0050
00298620
0010A298
00052B93
000CFD8A
0000ECF5
FFF92A68
FFFE9D8F
FFFDC6A9
FFF47129
0011AF01
000E67F9
0011BE52
0019F80D
00267D18
0026985F
001F1F55
0018EC99
001F96E4
0023BF44
0016C9E3
001A681B
0018F1D8
000C1797
000ABDA3
000B2D5C
000AD52F
0015CCBB
0001FE78
000304F2
0003F408
FFEE1DC4
000B0946
00008D9E
0001108A
FFE86B5D
FFD782DF
FFEAE136
FFFA7040
0011DEE2
000B5867
0007D126
0017926C
00117160
001D9EF9
00232846
001DB9BC
00112318
0011B104
0006444E
0013B859
00017FB0
FFFEE908
00062B2F
0007A237
0015A9B1
000287BC
00030B3C
000A0160
FFFB8A49
0001B4F5
FFFBDCA7
FFF9F660
00079644
FFE2A3B8
FFED348E
000E6B5A
0003CD5A
000CC346
0008A41F
000B6520
FFFB6E4F
FFF99A87
000FA997
FFFC1542
000C72AF
0006AB40
00096412
001B36E9
0019CF35
FFF4E154
FFF5A3D5
0008D5FE
00080195
FFFF390B
00304938
001E6956
00106920
0005BD42
FFF8E96E
FFFBF9A3
FFEF4059
000BD3D3
00077511
FFEDB862
FFF0727F
FFF94AE0
0013F60E
000112E2
FFE683A4
FFF19733
FFFC4DD2
FFEE823F
FFEF94EF
FFF01C12
0004B909
FFF9DA58
000BDB90
00039A90
00124681
00185B50
0013FD02
0009CDB8
000C1DA2
000CCAAC
00087385
FFF83793
0004FF3A
FFFBF976
FFFCB258
FFFCA295
FFF81560
FFE60825
FFF341D2
00158528
00213947
00195280
0000B0D1
FFFE84CD
0002A682
0002DCEE
0016C62E
0023C7C5
002480F1
001ED206
002CA19C
003D108C
001DBB27
000D84C8
0019E010
00083868
0002E8C8
0008CDE0
000676EB
FFFCA509
FFF8836C
0002687C
FFF9C167
FFF6E836
0008082B
FFFB5398
000F4DF2
FFFFC7A9
0002CBEC
00168D4E
0012238C
0004A514
000EDA9C
00125A8C
0015F221
0013EB27
001AF7B6
001B140A
00171FCA
000A6929
00131E13
000695C2
0003F9E6
001A37BC
0001DC59
00046A12
0002FCC5
FFF88C63
