00013AB4
FFFB9745
00000437
00014D6D
FFF87564
FFF91BE7
000165C7
FFF96C74
FFFEE76B
00065398
FFFE4624
FFF9F83A
FFF7C3F5
FFF7D156
FFFD44EA
FFFF7F89
00089DBA
FFFDBB8E
FFF7DBC8
0008396C
FFFCB831
FFFF46A2
000178F8
000263CC
000646CD
0008E339
FFF8BBFC
FFF97599
FFFBC342
FFF81F78
0000D3A6
FFF91105
FFF843EB
FFF08EED
FFFD1AFE
FFF98E71
00017DD6
0001D7F3
FFFBA49C
FFF5D60D
FFEDE545
FFE90D7F
FFFD724F
0014D128
00162238
FFFF0AE1
FFEFC9E5
000410BA
FFEF79E2
FFFD4297
FFFDBE90
00062B96
00030113
00083E31
00011371
0002F479
FFF7E58E
00029FDB
0004FA05
FFF90EE0
0002A911
00045FD4
00051205
0004E9FE
FFFF1E3E
00054A70
FFF30859
FFECF66C
0004587B
FFF7E0D6
FFFBE9A7
FFFAC0B6
FFF719E9
FFFD7817
FFFAB39E
FFE5B52D
FFEB101F
FFD6739A
FFE79596
FFEF8FB1
FFF95D1A
00082CA1
FFF77F9B
FFFCF0EE
00046CAF
0003005E
00117B42
FFF2F425
FFF43CF9
FFF11048
FFFB00AE
FFEB5465
FFFD3DCD
0009ACC7
FFF7CCA1
FFF3CB09
0009D50D
000FD46E
FFEB5CBA
FFEB3731
FFEE06DA
FFEA0476
FFEF48FC
FFEB7DBD
FFE5DDD1
FFF116D7
FFF17A1E
FFDBD73D
FFF02C94
001434FC
00043E75
FFFD1031
FFF920BA
FFF610C7
0005436A
FFECFD40
FFF210D1
FFF5B56C
FFEC270E
FFEA3584
FFE67F5E
FFFABDC2
FFEFA36D
FFF7B1A3
00062C8F
FFFC899C
FFF90AA7
FFF0CDFF
FFED42A2
FFF2B790
0001A9E8
FFF4DBD5
FFFF4FC6
FFECB948
FFFB8EBD
00081098
000796E7
0021438A
00129419
FFFB9D74
FFFCB866
0007B0AD
00078828
FFFB16AD
FFE49640
FFEDCBE8
FFE22BA7
FFE17516
FFE6B84D
FFF20D8B
FFEEF4A6
FFFB212C
00023D32
FFECAB12
FFE78F07
FFE56992
FFEA18AE
FFF84C10
0005E69C
0012EFA6
00270AF4
00263C5B
001206F9
00090B4F
000BD0AE
000FEDC6
0009A33F
FFF0C993
000297EE
FFEFCD39
0009FA04
FFF0E90E
FFED51BD
FFCD015F
FFC50707
FFDD995C
FFE47BB4
FFE3E4A9
FFF00116
FFF57BBC
FFF598C3
FFEF389B
FFF27BDF
FFF902BF
FFFF2AE6
001180ED
000F9723
001D5CC4
002E5E3C
0018E00A
0014F9EA
000BCBB6
00135A28
0030B60A
001A793B
FFFD728A
FFF89EE9
FFE894D1
000B6ACA
FFE6BE26
FFD78270
FFC94D8D
FFCCC0AD
FFCE98AC
FFE7EF80
FFE29DFA
FFFA0D87
FFF909A9
FFF539D7
FFF51620
0009426F
0010D9CC
0019F362
0015D214
0019D68C
0021C5BC
00234D79
00357638
0027FA5A
000D6966
FFFD9AB6
0023FA11
FFFA434C
FFF7C4DC
FFF0DE15
FFF65A12
FFFFD6E1
FFEBEAA6
FFD3C15E
FFCA3C18
FFD31F6F
FFCD9DB8
FFE36630
FFDF8BDA
FFF1747D
000C057D
0003A93F
000B6F8B
0001EA09
00073315
00179C24
001877D0
0011C2AD
001FA3DD
001A7205
0025FD1A
000E7EC5
00151A35
002A655F
001AD820
000CF1CE
00142AEB
0002F798
FFF25F3B
FFFE6713
FFF4DC0D
FFDAE53F
FFD96034
FFD34B65
FFD6F88B
FFD79274
FFF7FCC7
00064B63
0018414A
0018CF8A
001310AF
FFFC5407
0000EAE4
0004D9AF
FFFC499B
FFF84C9E
00079DC5
FFF96271
00143DDC
00031FC2
0003D5C9
0036A725
00251DF0
0013EB4F
FFF60A0E
FFF8F2D7
0001BC7E
FFFCE531
FFD858C8
FFE0E229
FFE23E7E
FFE6BF12
FFE05354
FFECA50B
FFFA6743
001A49C2
002CB9B7
0027164E
0014F0F7
0001DA88
FFF171F0
FFF18E6A
FFEB91A8
FFE27D7A
FFE37D5E
FFE51275
0006E9CF
FFFBD684
001A85E1
002D3617
0026786D
002CB16C
FFFB0774
FFF5FD2B
FFE55674
FFF398CA
FFDE8F5A
FFED2FEA
00027F7D
0009D0D3
FFF6F42A
FFF8C343
FFFD968A
FFFC200E
000EFF32
001BC658
0010FF7E
00047E20
FFF9A337
FFF90C8A
FFDA7618
FFEBD881
FFDE183D
FFEDFD74
FFF545CE
FFF18FDC
0025CE7E
0029C66C
004816B8
003D6C05
FFFA95A5
FFFC5A51
FFF49B8F
FFF71023
FFFFEA46
0011A629
000FEDA6
001DF32F
000E1778
FFFA4701
FFFFC02A
FFF83F8A
00039043
FFFBA82B
0005802F
00170116
00028397
FFEDED3F
FFEB4C47
FFE943E6
FFEAB4D3
FFEA1948
FFF85F56
FFDE6F17
FFDBD3B9
FFF041C6
0016CDCA
002CF78A
FFFFA19B
00106B7B
FFF0212B
FFF3CB18
00001ADE
FFFF68EF
00113D57
000A100F
0017FB22
0011B7AA
0000ABD1
FFF4BD43
00045324
000AEECA
00146E08
001F4C2A
00181931
000A8450
FFFCEB5F
FFE931FF
FFF3A809
FFE57418
FFD64ADC
FFD431B7
FFB7433C
FFDA8FFA
FFE7A437
0029838B
00168259
00034961
FFF586EE
FFFD6960
000DF9C1
0015D651
00119713
00204921
0009424E
FFFFE928
00021E10
FFF9A0CE
FFF7B897
00096422
001CF91D
00154B7B
000CA058
00093902
FFFDC0C9
FFEE36D1
FFEC4F8E
FFEC2777
FFD12270
FFC0AD6E
FFCA352A
FFED4061
FFFAF1BE
00375075
00188942
0008725D
0004E09C
FFEA3DA6
000906EE
00083F60
0013EC24
001C8351
000BEC32
000CBA96
000E093B
0000145C
00094405
00090277
0024ABFF
00149160
FFFCD1A6
000B9E56
FFF64D6E
FFF374C0
FFE61695
FFD81E62
FFCF5C04
FFC77AD9
FFCC9417
FFEFE863
00098425
001C8280
0023D453
0003FF92
000372D7
FFEE9FA8
00101453
0002DA1D
00079D36
000C909E
000966CE
000EA37B
00095580
000E7216
001E1B9A
00114FF8
000DA16C
00098DCA
FFF6B316
FFFC634D
FFEDBFAE
FFE7ACBA
FFD6770D
FFE353A1
FFE7E3CB
FFE91C95
FFDABF24
FFF653B7
0028A87C
00453EFE
00164097
00030322
FFFF6109
FFDE4980
00167373
00050555
0005DFF2
0011BD57
0008AF8E
00152C00
001F183B
00219BAE
00284D99
0018CC76
0008B1DF
0000CD64
FFFFF651
FFE8B725
FFEA88B3
FFD81F7A
FFD86802
FFE5DE37
FFE5DEAF
FFEE6BC6
FFE41719
FFF2C9C1
001A6037
0020554A
0034CDBA
00086EA1
FFFCC21D
FFDC2BE0
000559CB
0009C081
FFFCB46D
000B3B68
001599B3
001B9800
002B309F
002ACB18
0021DE7E
000CAB80
00016854
0004022D
FFED945F
FFEA76C1
FFEC5EBC
FFE9CAB7
FFE75617
000472E9
FFEDB7C8
FFF8B0BB
FFF48FB7
000C1A55
00232788
FFF71FE5
002A4FAC
000493D7
FFF8931F
FFE7BA09
FFF2F180
FFF7D59D
FFED7F20
000B6EBD
0003FA8D
000C1754
001264C6
0016F88E
0009CE5C
FFF94398
FFFCBEBA
FFEB2C31
FFF06CC9
FFF067C9
FFF93AD4
FFFAD9F4
0004041B
000943CF
00055D49
000A73BF
001222C4
001BAAA1
0043BF70
00290EBA
001FDB53
00046388
FFE804D1
FFE5382C
FFEC8244
FFF073D5
FFF78CB7
000D2A49
000E5EFC
0002A330
FFFFA54B
0012AFCD
00082B1E
FFF136E4
FFE1C5DE
FFEA965B
FFF44EC7
FFFC330D
0012FFE7
00177DCD
001D96B5
00103C91
0011AA5E
001E58A0
0016565C
00269621
0046DEFB
00132230
00043E0D
0002EB6D
FFFC0808
FFF18E4E
0001A597
000CB7CE
000C7A2E
00068FBB
0006B30C
0000762E
FFFF937B
FFFC53AC
FFEFD4E4
FFF216DD
FFF576C0
FFF15A6F
FFF9AF1E
000DB74C
001C5C38
001CF918
00150666
0017BECD
0021E2D7
00131DF5
0021A561
0026CAE4
0026FAD2
000250EC
000125CA
000783D5
000D3262
FFF7D6BD
000F2559
0015DB1D
000A8DCE
0003B6CF
00027D11
FFFD3E90
000645E2
FFFA9197
0004E609
FFFAE71E
000637D6
FFFD5C53
FFFC3B37
00128C88
000C132B
001F3033
000B397E
001297CD
000FDB97
0014F0C6
002C1C72
002A2357
002D346C
00154E2C
0002665C
0005EF0F
FFFB8369
FFF46764
000222E7
0000023E
FFF9DE2E
FFF85E79
FFEBB2A0
FFFC6620
0004E449
FFFAF366
0005C17B
001349F8
00063DBC
FFFE6384
00085DA7
0007529A
00096E58
0002B895
000F91C5
000A6E97
00164171
002387CC
002ED55A
0034DC8C
001DD932
0005790F
FFF8DB5D
FFFF3454
FFF9EA3B
FFFA8E5C
FFE37855
FFE1793B
FFD1F76D
FFD543E8
FFE38922
FFFD305C
00048F82
FFFF3093
00086078
00166087
000DFFF0
00114230
000F5D93
00073ACC
FFFCDA39
0015B22B
00049FEC
000A8BF3
0013B71C
0016DCC2
002048F2
003037CE
0009BC3A
00083754
FFFB7760
FFFE4A78
0001AE46
000B3086
FFFC2AD1
FFDBA4E0
FFCDD035
FFD94667
FFEA5244
FFEFEFEF
FFF38C58
FFDE97BD
FFF9CED8
FFFFE6C6
000E755C
001CC5E3
0016A93F
0014F1DA
0015741E
0014387B
00075000
000EF122
0016F66C
00245F2E
001ABE53
00266085
00085E7D
00054CED
0005E0FE
0000CF48
00058C18
FFF77D4E
001B6DE2
00139B5B
FFFEEA07
FFFDE9E2
0001CA2D
000759DE
FFFCD96E
00060C36
00192868
0025F444
00188158
001C4ED8
0004BB38
00203712
0021CBAE
00097B28
000B8B2B
0014BB82
FFFE15FF
0000DF04
00240E86
001C465A
0005D113
00045E3D
0003C4A6
FFF75CBE
000890A1
FFFF6829
FFFB5474
FFF96CFE
FFF50BBC
FFFCA5E4
000B339D
0009C189
000A9C18
000029E1
0008DAB5
000A5B40
FFFC0D43
0020D279
001E7FDA
0016BD0F
0007DECC
001039FF
000751A8
0007F120
FFF0E598
FFE526AA
FFE886C5
FFFF10F1
000438FF
FFFBDD6C
FFFF8BA4
