FFFD41E8
0005A608
FFFBF75B
FFFA1FCC
FFFC0014
FFFA213A
FFF90AB7
0002680D
FFF9A2E9
0000140C
FFFD4528
0005DC72
0014C48B
FFFC0777
0002C3AF
FFF79E99
FFF78D8C
00061D08
FFFFF9C4
FFFA50EE
0004D24B
0007C83D
000498E2
00068B80
FFFD6BC6
0000FC87
FFF867DA
000364DE
0004595D
0006B06A
00064E68
FFFB9903
000A4D31
0008D397
FFF855AC
FFF3E1DA
001452DB
0007B259
00305FE2
001090B4
0012815C
000EAAD8
00001B8C
FFE95275
FFDE1723
FFF38012
001AFB1D
00173ED1
002299AC
0014261A
FFF4EBF7
FFE64834
0004334E
00033A52
00001D7E
FFFC7F14
FFF7DAFA
FFFE9C34
00032693
FFE60766
000624C2
0003D684
0010F06A
000FC25F
0000AF28
FFF7A2BD
FFFAAEEE
00091DCA
000E8A7B
00104F4A
001096A8
FFFFE39C
FFFD82DE
00158F3E
0008E367
001B3C68
0012C279
00184018
0019ED85
0005444F
FFF94113
FFF318D2
FFF7570F
FFF70B4D
FFFBE228
FFF73F9E
FFFCD531
FFF397B6
001FC360
00178970
00119A25
001AF8BE
000F41BD
0001EFAB
000D7A59
0015B0A4
00089CB8
0002ED09
0009C18C
0002448C
00033DFA
000775F2
00098614
000DFB92
002DA5E1
0024BFA4
00092767
000D7D63
000D0DE0
00013181
0007137F
00086E4F
FFFED166
00035D38
000B7E1D
001F9036
001A3C98
0011AFB4
FFEE21A0
000DBEAB
0007AAD1
001203DE
000E46AA
0004331E
00070F3A
0001716A
FFFB9290
FFFA6D29
00014B10
FFFC5F68
FFF97180
00023FAC
00098D26
002F941D
001D02A3
002CE55C
0019D4D3
0016A4C5
FFEBA59C
FFF5CFDA
FFF94928
00025441
FFFE73C2
FFF9629F
0004D95D
00079892
00167ACC
0017A62A
000844DC
001B9769
0013FF00
FFFC86E5
FFFA80C4
FFF55338
0000ADFB
FFFC57B2
FFF568B3
FFFAF9DF
0002E2BB
FFFB010A
0007866D
FFF86720
000F7076
001C3757
002653BB
0005E416
0001F8E3
000ACA12
000708F5
00010186
FFF483E9
FFDF2D14
FFFFE14F
00220D37
0016F1F8
00119601
0014B2A4
00144571
000CA363
FFFEEEBA
FFF36F60
FFFA3804
FFF28276
00003CF6
FFF867FA
FFF4F91B
FFF8942A
00081D54
FFFDF370
FFF9F542
00020A29
001038DA
001E40FF
0010FC06
00174ECA
00083A0A
FFFC20A8
00084E6D
FFEBBC70
FFE79307
0006CABD
00290896
FFFFD034
000FE727
00020FF8
000C2823
0001D9D7
000078AD
FFEA563D
FFEC8871
FFEF1F98
FFFCC784
FFFEDD71
000F788D
000A3201
00044013
FFFABB2E
FFFC4558
FFFC7B7B
FFFDB2B1
000EFA8D
00126B79
0022596B
000706F6
FFFFE69D
FFF9D188
00074026
FFFF0150
0007C14C
0009D171
FFF8AFFF
FFF70BAE
FFFFC850
0013F258
00029D79
000241C2
FFF519F9
0001A4D8
FFEF49B8
FFEE9073
FFF3D834
0004FFBA
000B1369
FFFD7660
FFFD7C71
FFFA707E
FFFFEF82
FFF5D8DC
00109454
0020506A
000C0925
000214CA
FFF2825D
FFF371FC
0001DDC7
FFFA4BEC
FFFB74E8
FFE7DD84
FFFB4707
000B32FD
000B1520
0007A995
00000F5B
FFFD1894
0000BA59
00005853
FFF1CE87
FFE894C4
FFFFF043
FFF690B2
FFEF46BE
FFF8FA42
FFFEB677
FFFFB4C4
FFEB6870
FFF514D1
000DAE1A
00186DB7
00106A9A
000A1BA0
FFEE384C
FFEE8911
FFF111AE
0000AB27
00025490
FFEBD556
FFEBCA48
000751D2
000D4C63
0015F7F6
FFFC2E6C
FFFEB3D3
000BB490
00022997
FFE8F258
FFF7914C
FFF41781
00070872
FFFA76F7
FFED2416
FFF0F15D
FFE5722A
FFE0802C
FFDA6C67
0010A237
0021A714
0006B59E
FFF36BD9
FFF7D5C0
FFF7A7A4
FFE10BAB
000710D8
FFEBD324
FFF862B0
FFFFECAA
000C1380
00071532
0014B2C5
0019F711
0011C147
00117261
FFFB7060
FFE261D8
FFF690F2
0008BAED
0008F5E5
FFFE83D4
FFF12BD5
FFE566DA
FFDDE9DF
FFC99669
FFE0D407
FFF2B9AE
FFFECCA8
FFF45B6F
FFF726B4
000144BA
FFFD99EB
FFF45C21
FFE9BC4A
FFE61EFA
FFFE5A5C
000D391C
00151203
000CEC8F
0004CE00
0019321B
000AD883
000F5F89
FFF1A5C0
FFEF5BE1
0005C246
000FAAA8
00044715
000546BD
FFF3C65C
FFF68518
FFE6E161
FFE44CF2
FFF66D66
FFE1E5ED
FFD5B1AE
FFE8B064
FFE2E25E
FFF7916F
00065223
FFEE41BE
FFEEB3C2
FFF88E62
000EC3EE
001CC9FB
001C51F1
0013B8A2
0014054E
FFFEEED7
FFFB329B
FFF42948
FFE506BE
FFDDD0D1
0001AA9F
000AB5FB
0008DA43
000F2342
00086D66
FFFC4321
000CF87B
000C0624
000EFE1F
FFDFAF35
FFCFD3E5
FFCB4768
FFF44CB7
000225FC
000BA786
FFF2EEC3
FFEAD98A
0008FB35
001488E6
0010C19F
001C3F41
001873D8
0016621C
FFFD8C45
FFF94C10
FFFEA7E9
FFE30821
FFE29DCF
000532DF
00111C27
00144DE6
0005DAB9
000557DE
0006AA60
0013AE50
00127DEA
000F976E
FFF5A51B
FFD9FD59
FFE0DA5C
FFED5254
001117F7
00071036
001DBD3C
000002B3
0001D31F
FFF9E295
000256BF
0017F15F
001CB7F3
00206D68
000DF52A
000B2778
FFFE1AC4
FFEF77D2
FFEF290F
FFF71FD7
0002E7F8
00007EDF
0001BF61
000149A7
0012E9AC
001D7278
001C98F4
001CF057
FFF4B905
FFF83220
FFECC7A4
FFDE4336
FFF774A3
0008F186
000C9D02
FFF36CEA
FFF1107A
FFFF813A
FFF7EB3E
0015BBAB
001BAF6A
001D644D
0014A56C
00140F83
FFFBB879
FFFA1B57
FFF70CC6
FFF77E48
FFF3D71A
FFFE1149
0011C02E
00165FD7
0023A544
001AC5DA
0019BD81
0010C4A9
FFFFED22
FFF0BFA5
FFD7CDCF
FFE503B8
FFFEAD20
0006753C
00000C9E
00008952
FFF338A3
00064377
000668F7
000A67DC
00110430
0016D226
000EB337
00097C93
FFF86D14
FFF596E6
FFF3D978
FFF43F78
FFF5DE9E
00032EA5
0015BAF0
00178013
001D1255
0019C48C
00191341
00136A36
FFED46F3
FFD711CD
FFD8B00B
FFD1A20E
FFEB7DD2
0006CD97
000FE46D
00119F1F
FFFB99E0
FFFC1375
0009FE1E
00065247
000C4159
0004C802
FFFAB0B5
FFF73C5B
FFFAA716
FFFDC9F7
000170BA
0001D5F4
00064713
00024641
000D1FCB
001E2472
00236851
001D8B5C
FFFBDB12
FFF7A9C7
FFEED7CC
FFD90D79
FFDF3F26
FFE81A52
FFFAC82C
FFEF07EC
00049309
001F2104
000A09CF
000BFB5D
00082F51
0000ED2C
0009D0DE
FFFFEA31
FFFFD642
FFFC478E
FFEC7203
FFF599C1
FFF64072
FFF96A14
00071537
000F687E
001D4AD1
0024256D
0025E6B4
001D1FB6
FFEA1DB5
FFE5CCCD
FFFB8C9E
FFE98483
FFDDED22
FFECAEC5
00023656
00073C3C
00073429
0013792E
FFF99B60
FFF48FED
FFEECB9E
FFF75EEF
000795C4
000C26B9
FFFD9865
FFF9D649
FFFA84BB
FFF8B25B
FFF941CE
0000837A
001038F6
0020F1D8
002704BC
001D7090
00127E54
000FED2F
0001EF39
FFF47289
FFEBB7C0
FFF43C6A
FFF0F613
0005CBB5
0001BF0D
FFFE76AF
FFF9A0A1
00060FD4
FFFE7A1A
FFEB26DE
FFEA5AB3
FFE3134F
FFF75C91
FFFAD886
0002EAED
FFF5591D
000021AC
00017771
001151EA
0010EC55
0010DD46
001E75D0
0023F3E8
00152419
001125C4
000C7B03
0002F542
FFF48739
FFEAE30D
FFFA8A19
FFFF1945
0009D4DA
00008F06
0004996D
FFF5837D
FFF27ADD
0001C3F7
FFE6A115
FFD18A2A
FFC93A42
FFDA553C
FFD4D966
FFE30781
FFE78B09
FFF995D6
00034256
0009387F
00257A70
00235F68
0027CD5E
00211E10
0028FD2F
001269AE
000FAC07
FFFFCBE6
FFF83E23
FFF3715B
FFF7CB0D
001A7BAE
FFFA2180
FFF97B4E
0003D3D6
001AC04A
0016343A
0003D8C6
0008A66A
FFFBBA6D
FFEC173F
FFDC33AF
FFDF29C7
FFEE4626
FFEF17DD
FFEAA973
000E9F51
0019D6B6
00171DA4
00251C54
0013B30E
0017FAD9
001E3134
00157B4B
FFFA77E6
FFDD73AC
FFEC0DAF
FFEDDFC0
FFFD8504
0022485A
000372C7
FFFA51A2
FFF77958
00027058
00274CF4
0020870F
00132FF8
002471F7
00220C6C
001086E0
000C02ED
0012F8DC
000BF07D
00047A21
001EA79C
00170492
000DEB8C
00199E1C
00160F29
0010F7CA
000302F9
FFFE4130
FFF3FA70
FFF7A4A0
FFF763E1
FFDC91DF
FFE32298
FFFCCCAD
FFFBB67A
FFFB3EAE
000502C4
00130C71
000C8FB3
0017ADA7
00142BF5
00191AA3
002679CC
00218554
001F4C59
00198605
0008141A
000F404B
001386E0
00095305
00038696
FFFB8945
FFF87D77
0004CA5F
FFF0E96C
FFE67D1E
FFEFF066
00093A9F
001876E3
0009193C
FFF2C8E9
FFF7D7B0
FFF8AF18
FFFB0D36
00059842
000339D4
FFFF8C78
FFF96CEC
FFF4CCB8
FFF696BA
FFED9A5C
FFE25D1A
FFE4E992
FFE9A6BB
FFF8BA16
FFF2D74A
FFDD60EC
FFCE8951
FFE1289C
FFE95BA3
FFD2C4AB
FFD610BD
FFC8C270
FFD94098
FFD7AEF5
FFE2F012
FFE6F382
FFE7B032
0003E9EF
FFFC5141
FFF783FB
0004A598
FFF791D3
0003ECC8
000027CD
FFF62D1A
FFF5DE0C
FFF6D50A
FFF13264
FFEDB189
FFF12F71
FFF51E76
00017265
FFEE1649
FFE02EEE
FFDC2087
FFEF1BC6
FFE12D85
FFCE8743
FFDB0666
FFE3C53C
FFEA6912
FFE6F3C5
FFE3378C
FFF61DFA
FFF7CFFA
FFFCE9A9
000113C9
000821DB
