0004650E
FFFED875
00083974
FFF841AB
FFF8EDA8
00021D71
FFFA3B79
00037FDC
FFFA498A
000149A0
0000C384
0000A442
00035C9D
000A4314
00001F87
00070252
00073449
0003F5EE
FFFC7274
00083E5F
00081E26
0000E14F
0000DF34
FFFD8D0C
FFFE9BDA
00001C18
0003ABAE
FFFE199A
0003EE07
FFFF891D
000878E5
FFFFB06D
00067131
0008CF08
FFFAC9DF
0007DE59
FFF5DA52
FFFAD7BE
FFF2CF0B
FFF5FC27
FFEEEF60
FFFF115D
000CC56F
0012777C
00201D63
00151416
FFFA019F
FFF0B23B
FFF8D470
FFF602CA
0000C22C
FFFBC645
0003BC71
00015AB6
FFF97B5C
00059814
0001B59B
FFF9FCEE
FFF7A0B6
0004813E
FFFF13A7
0006FE9B
FFF703E6
FFFABEB6
00018641
00065E22
000D8CE3
000B6A6C
00114040
0025099F
002BA11E
002627EF
002FDA62
0011B21D
FFF49DDC
FFE27556
FFE47850
FFED5C59
FFEC0754
0000C419
0017FD6B
00108731
00030077
FFFBCD41
00064B43
FFFB42F9
0021ECA6
000BCB6A
FFFA99AD
0007A500
000D079E
000D396B
00036DC0
0013F346
000B8F22
000C8479
00172101
000495C9
FFFD5CC5
000DE81D
0019F016
00041937
FFFD9E30
FFFE028B
FFF5868C
FFDECD30
FFDEA6AB
FFD3C388
FFD3F690
FFE997DF
FFF4B521
0004C9C7
FFFA3E2C
FFFFAC1F
0019FD7D
000AC769
0005AA53
000627A9
00127B6E
FFF5D853
FFFB6AEA
FFE3BBAA
FFE5D3BD
FFFB9CF7
FFF70777
00008779
00081C99
FFFDD355
FFFE3DED
FFF7F85E
FFF74C9C
00089C10
0001ADE4
FFFF9453
FFF1B5CE
FFE170F2
FFD0EF1B
FFD919B8
FFF27C00
FFF4B5A5
00092352
00081671
0021DC0C
0004D811
000C48F3
0024F712
001C13D2
000C05F2
00057CE2
FFFDD66D
FFF7EC8B
FFFBFBCB
FFF3FAA2
FFF757DF
000C9C3C
00050FF7
00055BA1
FFEDCD5E
FFFABD20
FFEA207D
FFF4A474
00079140
0015008A
00030F15
FFE56B7E
FFD2E219
FFD9148F
FFEE1185
FFFF6C13
001154BB
000241FC
000DC590
00224E7C
0027C00F
00159D8E
000A0031
0009B33A
001417B2
002014F4
0019A399
000D1809
000B2F4D
000BD272
000E4836
0012150B
000D2129
00091ED6
000650BD
000BD406
000CD389
00174BF5
FFFFA053
FFEB31A8
FFB2FB98
FFD9CFCE
FFE46CF2
0007D894
001E4035
001D3E0A
00285245
0013E1C2
0001A80D
0002E8F5
001A27CD
0011DAEE
00253DDE
002F01E6
001ED1AF
0026CF87
001F9D4B
0020ED50
00152F9A
0015A065
00298A5A
0022844C
0023E49C
001C8147
001BBA12
0026657A
00194170
FFDD57FA
FFB2452F
FFE00F40
FFDD0CB1
FFEF94AA
000E150B
00072ED8
000822D0
00074B60
000B38CA
FFFD694F
001ABEC7
002284F5
001DFD39
001F73AA
0027AE57
001F09F9
002086B8
003365AE
002FAC45
0025C7B4
002CDEB5
001C6EC4
00165DD0
0014C06B
FFFE42AB
0025FD28
00135ABE
FFD134CE
FFB160DC
FFE564A9
FFF87D55
00027B7A
000C18A4
000066A9
000B9F4C
0002F9EE
FFFC5472
FFFC8C4F
001589E1
00154900
00243AAF
00166F51
00127F6E
000DD703
FFFEAE8A
FFFCAE3A
00138296
0003C84F
00168BD4
000F1B7B
FFFD8A8B
000358B5
FFFFCFEA
001EDDA7
000F256A
FFCABB62
FFAF4A2E
FFDA8D16
FFEF64C1
000A41F6
00089383
00055258
FFF22C1F
FFF1E5DB
FFE86017
FFFD1E76
000248AD
0012D689
FFFD0324
FFEFD760
FFDDFA58
FFB08FC9
FFA6D660
FFCC4822
0004111B
000E2DAC
0006142C
FFF75C62
FFEC5A0D
FFE98526
FFEBDD6E
0008DD62
FFFAB55B
FFE1A2E0
FFCDEDBC
FFE42613
000574FA
0003AEE6
001FF4EF
FFFB7F1C
FFE86ABD
FFE46092
FFED1D3E
FFF61395
FFEADD70
FFD9838B
FFC8E422
FFC16C63
FFAE37DA
FF73A229
FF844A86
FFC936B2
FFF9EEEC
FFF6F893
FFFB741A
FFFAB56C
FFF525DB
FFEA8049
FFF02C2D
0007C9F8
FFFD62C6
FFF8F0FE
0000FC85
FFDEC2E8
000E206E
00085A40
001147DA
FFFD0782
FFD22098
FFD9B426
FFD72A1C
FFC41D02
FFB41EB0
FFA4E13A
FF900940
FF966E2C
FF971130
FF916F54
FF9DB83B
FFE6C637
00093C32
FFF8FA04
FFEBB1A3
FFEA5C4B
FFE19568
FFEFA43F
FFF40A9A
FFED6F8E
FFE0D5E2
FFF12B6F
000F3280
FFF0F1C1
000F2D3E
000097BB
000CAC30
000A575E
FFCFC0EC
FFB3E2A9
FFA712E3
FF9DDFA2
FF967867
FF8EB49C
FF913B16
FFA8E24A
FFBD3EB6
FFDC96EA
FFEFB10F
0012CE59
0006BEC8
FFF78A1D
FFFB4B32
FFF159B4
FFE71ADC
FFE58FC8
FFF05378
FFE1D9A5
FFE8E6B6
FFFF5E50
000748B0
0002AFAD
00050615
0004C5E9
00097817
000BB9A0
FFD61E20
FFCD4BEE
FFA7C7D6
FFA553FF
FFA5C066
FFAA43E2
FFCC4658
FFE22C82
0009B465
00138FC0
0019BE3B
0018E4B0
00046EAC
00074C96
FFFCA30A
FFFC4C18
FFFAD105
FFF33383
FFF115FE
FFDF89A9
FFE61AC3
FFFBFAF0
0000E8D3
00080305
0006BED3
0008818B
00047384
FFED7F71
FFDBD94B
FFD430A4
FFC038D3
FFD678A1
FFE1E859
FFE8D899
FFF81AA4
0009EA5B
0020DDAF
0019BF5F
001DAFAA
001448DE
0007A162
0002FD42
FFFF44E3
FFFD0B43
FFEB67A5
FFE83B94
FFF884E3
FFF4F186
FFE14661
0005C73D
FFF7D571
FFFFEC29
000FC243
000359DD
FFF91C87
FFF1B558
FFED7B0C
FFD84A78
FFE9393A
0006FE94
000DCB91
00002192
00167F37
00174579
00218BA2
001B64E9
002A788A
0012DA7F
FFF54ED7
FFFD953A
FFF7C281
000201D7
000BB79E
FFF95FC2
FFF7B198
FFF6B045
FFE891AE
00048ECA
000A7F97
00051E5B
001504EF
FFF85253
0000AD6D
FFF3744F
0000039B
FFFBC66D
0008095F
0007564E
000986EB
00240E88
001B56CF
00199412
001FD7CF
001D25CE
0018E54F
000AF60F
FFFB24E2
FFFD06DC
FFF4B9C9
FFF98A89
0005531C
FFF75800
FFF807CA
FFF39B2D
FFFD084C
002065B8
001B0119
0022D412
00033938
FFFC9414
000A622D
FFFB7090
00179CC0
00170296
002242EE
0008481E
001D9BDA
001D03C8
001DC7C3
00164090
001D2DF6
001C8526
0014179B
0009D855
FFFDA7FB
FFF63DCB
FFF76401
0007DE51
001390CC
00028825
FFF6A67A
00099841
000673FD
0019CE6C
002D50F1
002B43A9
001A5441
FFF8FEEA
0009BD66
FFEF3C99
00112D08
00296996
00177B32
00155A89
0022677A
002137E6
001C1CF5
00073E51
000BDA04
0011F7D4
001594EE
0006A653
FFFEFF21
FFF716EE
FFFCCBA1
FFF69473
00194C47
FFFCBE0C
000BEF3C
FFFC8BC8
00059FD0
00151FA1
00203BEA
002D2561
00192024
0005D85D
FFF7CA13
FFFE6828
0020F762
00209825
0008062F
000F7EA0
00181D63
0018AAA1
00036E91
000076AB
00021731
000A88FD
FFFC67DC
FFFEA0A8
FFF868F1
FFEC4699
FFED9050
FFEE00B1
00021E7B
00090204
000EF200
0002857A
00096250
000E1316
0010F52B
00266B8A
FFFBF966
000B56DC
001D9268
00191FDA
0023A276
001F36DF
0017927F
00148577
000CFE69
0003AA19
FFEF6B51
0009A52D
FFF34093
FFF65270
000A2E75
00035AE1
FFFE9B6F
FFF8CC28
FFF3A040
00011289
000579C2
00003821
000CDA87
0007140E
0004796D
00035F03
0001DCB3
00019B72
00040BCC
0001B888
0004BE21
000E8C65
0008D828
001B3EE5
003298A4
0022B7BA
000EC51C
000812EF
FFF998C4
FFFA0E27
FFF8C21A
FFF8844B
0007327C
00077BE5
FFFB1529
0009D7D3
0008F33E
FFF4F2A4
00051A63
FFFE3373
0003FCD4
0011008B
FFF11FB4
FFFBB162
0004FC20
FFFF527B
FFFD6E00
FFFF8140
FFFDEF04
FFFC4A01
FFE61E0E
001F149C
001B3E03
003034D8
0018DAD5
000090D5
000492FC
FFF5B7F2
0006F1C4
000B29C2
000E932C
000B3162
FFFFAE88
0003C1B7
FFF8CFB3
FFF11835
FFF60D13
FFF66B7A
FFF38B6F
FFF58D48
FFEFC3DA
FFEFEFD5
FFF3A005
000F6A4B
FFF9FB32
0002066C
FFFF90A6
000450A1
FFF01450
001E41C2
000B18AE
00172431
0007D495
000867A0
000E851C
FFFADEE0
000D8042
000D0320
00171B7D
0016CE08
000AF081
FFFDCF5F
FFF2D49D
FFE544F9
FFDCD9A1
FFE07C5C
FFD7DB93
FFE2584B
FFE5B0A4
001575B5
0019B666
0012A51A
0000B651
FFFC078B
0006E8F9
FFDEC9A4
001A8123
000C61F7
FFF3D115
0008F662
00087502
001B458B
001E74E6
00106258
001326A1
00118974
000AA7E5
001BC5BD
00159955
FFFFBDB6
FFEFA03E
FFDB3254
FFD625C6
FFD91D62
FFD8F3CB
FFE5744A
FFECF97B
FFF7D200
000157A9
000BAC24
FFFE4E94
FFF8DCE4
FFF9EA64
FFF9B02F
FFF923E8
FFE42998
FFE669C8
FFEB1C0F
000F23EE
0014B219
000A785C
FFF811AA
FFF391BE
FFF2E0C4
000393E5
00174FA4
00189172
FFF503F7
00048C0B
0003FDF4
FFEFA027
FFD698F9
FFDE77EC
FFEE63B3
FFFB16EF
FFFCD066
0003B084
00069217
0004D6D1
FFFB94A8
FFF6F11C
000134E2
0005F5EC
00178F6B
00173B08
000EA74F
0002C23D
0010664C
00094535
002770E8
001EA9D5
000B7611
0015FE52
0012B6CE
000A3732
00110005
0010FF1A
000DF920
00103A61
FFFEA650
FFF90AC5
FFF070ED
FFFF5D84
FFF9AF3E
0004DD3A
0001F6A0
FFFD12DA
