FFFF492E
FFFD2199
FFF897AC
FFF715EC
0004D794
FFFF6583
00059BFF
FFF77765
00042E46
000625CB
0008E1DA
00030782
0006088E
FFFA50AA
000A0B92
000807F3
FFFB6366
FFF83F1C
FFF9C030
0003BF3A
FFFCF428
00074617
FFFF3608
0003BBE3
00045EFD
FFFC8142
00005A6E
00010F47
FFFC0053
00015C3F
FFFC98C4
0003F68D
FFF95515
0005A22D
0006BB08
000A8294
00050D49
FFF5317E
0001B085
0008D6DE
00150094
00057769
FFFD048C
0006F915
0012F740
00052952
FFFE0EB2
FFF1ACFD
FFF57AC0
FFF9B900
0003AF77
FFFAEC94
FFF8179A
000313DB
0007F71B
FFF8DB4F
FFF85D14
00017B77
FFFA1745
000007CB
FFFCA733
FFFA5CF8
FFFA342F
FFFEA1FD
FFF10F18
FFFD230A
000B05D2
0009A1E1
FFF7D705
FFFB8F1F
FFFA9662
FFF69864
FFFD7ECD
FFF0B0DF
FFF6B584
FFF1DA35
FFF3CC80
00043A92
000ABF1E
000F0ECD
001C76C4
000B9A00
0002B56C
FFFBDC38
FFF88974
0007CA63
FFFEF831
00015723
FFE5E0ED
FFF44F76
FFFA5C7D
FFF6697F
FFEAAC39
FFED03F6
FFF575D2
000A83F5
FFF6F6CB
FFFCDE24
00081C40
00000941
000B0B18
000C4F55
FFFC6D2B
FFF9B37B
FFE04D00
FFD602A3
FFEAE990
FFF68CC2
FFFC314F
FFFF1810
0008FDFF
0004639B
FFF73607
FFF5D50B
000A1359
FFFB80AB
FFF50568
FFF5B7E6
0010860C
000B2AD0
000379CC
FFF607A4
FFEE9B76
FFF63617
00042F31
0006D1F1
000D048D
000042EA
00019098
00091476
000FE00C
00088B1D
000193A7
FFFEEBDD
FFFFC004
FFF026AE
FFD5B6D1
FFE6B08B
FFF90660
0001FD32
0003119A
00067562
0007BEA6
000C0307
0016BD19
000E6A4B
00152C75
00074A2A
000AA444
0006700D
000A151A
00031627
000AAE65
001C5C23
001B5661
00059ACD
001336ED
00094E75
000A6604
00093D44
00022D0B
000C7E1A
000158E9
00056DE9
FFD5FAE1
FFD6F998
FFEAA53A
FFF7A043
FFF6E9AC
00149AE5
000F8F8B
00199C17
000FB0E2
00070DC2
00091FF6
000E9848
0004115A
000660AF
00179AA3
0001AC3E
0010472A
00011480
0012DBB4
00012553
000C6D2D
000E48BE
00163F35
000A4D64
00015821
000DFCA1
000022B4
00005C00
FFEEE221
FFD4DAAF
FFE61353
FFFDAD8B
00095B11
000A099D
0013E3F3
001D8D93
0011982F
0004A317
000B148F
000C37E6
00109D04
001BB01A
0019F75D
001F9965
000FF14E
0018EDBA
000E1708
00125EEF
0016ACB8
0013FC0A
001898A8
0013632F
000E4F9E
00098953
00099984
FFF9ADA5
FFED101D
FFCB5E30
FFE6E0CB
FFF1AEAD
000D927A
000B0EB5
00086CA0
000D8FC8
0004E9EB
0007724B
00067D3B
000A7AB0
0010CF37
0015AB53
001E13E1
0018AF39
001DF3F3
0010930D
001F4417
00245A54
0023A744
001D882E
0012958C
00108610
001913E3
0001D617
00047212
FFFE9C7E
FFEF945E
FFEB15F6
FFE89999
FFFD8262
00061967
0011DB58
00084CFF
FFFD129E
FFFC345B
000CDE4E
0004D3D3
00043625
0010FC01
0018216F
0016CF0B
000AE602
001E8BC2
FFFB92C1
FFF4A8AF
FFF4FDF8
0016124E
00246400
0012A981
000F4F88
000FFDC8
00060B15
0008DE26
00025393
FFE0342E
FFFC84C5
FFE1089C
FFF70A43
000564A8
000DE991
0012CF4B
000E7B7D
000439CD
00138E68
000DE434
00028A13
00063599
00159474
000A713C
000BB96E
FFF05B0C
FFDE432F
FFC99D2E
FFDF1986
000A7B9E
00291B50
000F2E3F
00076ECE
0012E3B9
0010861D
0013BA8C
FFF54121
FFE3EDCC
FFF07CD9
FFF0F9D0
0001ACBD
00002904
0015F898
0010808E
FFFFDE65
FFFA401A
00046CE1
FFFDD617
FFFBD520
0003B784
000F1AB6
0001C1F3
FFFC0767
FFD768F6
FFB660DE
FFA1314D
FFD3D458
FFFCB149
00079067
000595D4
FFFD6C56
FFFB1CE0
FFFE9009
FFFDCCA6
FFF01CE7
FFF66914
FFEAAFC4
FFEE068F
FFFB32FE
00026930
000CB9DC
00095E94
FFF40F5A
FFEF6F13
FFEAF693
0000E8A9
FFF81179
0006AF87
0006B462
FFEEC6CA
FFD99B2B
FFB3F707
FFA6A4B5
FFB40C88
FFDE169E
FFF1C90E
FFF379FB
FFE8BD0D
FFEB40C0
FFF7AF48
FFF8A63F
FFF047F4
FFE45064
FFFD29A9
FFFB308F
FFF07B30
000171DF
FFF97B64
00049AF1
0011880D
FFF3B767
FFEEE86C
FFE09F23
FFF712E8
FFF1AB60
FFF4075D
FFF751C5
FFD35065
FFC4539A
FFC88E26
FFD03D41
FFE089F5
FFF254C3
FFF826DA
FFF4C85A
FFE5BEF4
FFDCD5CB
FFE7C136
FFF52F3A
FFF40497
FFDBC7E4
FFF315E8
000B0670
FFFD3A58
00033295
0000DE4E
FFF573FD
00175296
FFE932CE
FFF62087
FFEC81ED
FFFA5D8D
000007BB
FFF0E063
FFD94773
FFC78106
FFC30DEA
FFD0D34B
FFE1A640
FFECDB65
FFF69999
FFED1FC3
FFF7A7C2
FFDE4BD4
FFE4C331
FFE93799
FFF8FD40
FFEED424
FFDBA98A
FFF630C1
000FD937
000EE773
00115C42
FFFC4612
FFF2A9BE
000F10DD
FFED80A6
FFE84F97
FFF6812A
FFF54AEF
FFFB731A
FFE3AB4D
FFE1C1FE
FFC87C0D
FFC72078
FFD4E4A7
FFD7DE3E
FFF13E79
FFF52393
FFF32783
FFEF9E32
FFDEE8C4
FFDB6161
FFF6CA78
00100F63
FFF724AA
FFE0D5EB
FFF91C3C
0005677B
001F363C
00043CBB
0000E05B
FFF54DD3
FFFB54E5
FFE9F6E5
FFF62EDE
FFF40350
FFE7300C
FFF8E895
FFF3F19C
FFE6E62E
FFDED7DC
FFCF8C40
FFD78110
FFD7659C
FFE93072
FFF67597
FFF45ACB
FFF0DF97
FFF5A220
FFECFC64
00016AC9
00085E91
FFFAC242
FFE9B845
FFEE851E
00078AE9
000E4039
0006E704
FFF90EAD
FFFA7549
FFF37F49
FFE56F94
FFF39D5C
000020C1
FFDCBEB2
FFE178CC
FFE779C9
FFEBE1D1
FFFC5F9A
FFE9D7CD
FFDBAE98
FFD7ECA7
FFF11962
FFE8EF63
FFE90820
FFEF5154
FFF77299
FFF99FA0
00059783
FFFA5F3E
FFF10CED
FFEF277E
FFEBF7C0
0011D3FE
001FE36B
000E353F
0000833E
000D010B
FFF4FDA8
FFD9139D
FFEC3B83
FFFD4573
FFE1C4FD
0001BF55
0009D91A
0002ADE4
0000BBCE
FFECD5BA
FFE7932F
FFE8CBB6
FFE58EB0
FFED8AC0
FFF673D8
FFFDB32A
000D1C83
0009B3D7
00037B91
FFF8F1BA
000145B9
FFF97502
FFF74196
00150B76
0027D8E7
000F2228
00021656
000BDCB5
FFF3DD5F
FFE599D7
FFEF1699
FFF13A5C
000275BB
0000FB62
00051A52
0009F7BC
0007AD19
00080913
FFF50BDB
FFEDFBDC
FFE66DA5
FFF68231
FFFF4345
0006FAF4
0000A358
0004EECC
000D5150
0010FA20
000BF5B6
00005610
FFFB8A94
002365F4
001EDC0B
000E5E07
0003C4BA
FFFF08B5
000861FB
00096743
0005FD43
FFFE7010
0000DA93
0009A99B
000F3E94
00128F67
001ACE02
00166345
0007F039
000185DC
00078646
000FA588
00089628
0011D01C
FFEE962D
000BE213
001B2F5C
0014BCB7
000DB8DC
0017425F
000B6D6E
00127E10
0015B3B1
FFF8E332
00008D9F
00079CA8
001038AE
0018A19E
00009B7C
0001FD80
000A910C
FFFD5E42
000D141C
001046AA
001CB8EC
002725C7
001BF056
00139405
001AD6BF
0019050A
001CB30C
00114E71
00057B87
000D622C
0007FDF3
000A6678
000F42CF
0018EC80
001E028B
000FDEF8
000C7B13
FFFC6A72
FFF52215
000008E2
000C0E46
FFF67238
FFFEF64F
001671FD
00051EEF
000E05ED
0027A90D
001DB79F
001FD1F8
0020AAB3
00113F36
0019768D
0016A44E
001E87D2
001C8567
0011A31C
00034265
00040323
000DDFFD
0014E941
00238654
00069BD4
0013F1C8
000C4521
FFF3B5DA
FFFF441F
000255ED
00009A2B
FFDC4B66
FFDCA589
FFF744C7
0001FB63
001BF545
002B2594
000E064E
0019B95D
001A0D71
00183719
0017788C
00098F4D
00089342
0013C796
0003E432
000C199F
00123D73
000344BB
0000AC64
0004A895
00183EF0
000D761A
00089B77
000EA376
FFFD8255
FFFD633D
00001391
FFF740F8
FFFCFAAD
FFEAAF2F
001B14C6
00251924
0022F8D9
0024302C
00172D1A
000938A6
FFFCBF07
FFFF2980
000610B0
FFF7B860
FFFF0CAB
000250F5
0007E096
000E4FE8
00017FA9
FFE6EAE4
FFE52C45
FFE8BC93
FFEF9FF3
00069D1D
001C0725
000EA054
0000E5E4
00063B28
FFF8B4F3
FFF744A6
FFED3B4C
00159D85
0014F9A8
00096A12
000638BE
00136858
001328CC
000313E5
FFF1B26E
FFF43A76
FFF67F12
FFED3205
FFEEA0D1
0003F4F8
0004C94F
FFFB2D55
FFF77D9C
FFDCCB63
FFEBFCB5
FFED8E39
FFF745D4
FFF059CD
000C9EBD
0005F3FB
0000C90A
FFFCB66C
0000F0BB
0000A726
0006A5F5
FFF53C93
FFECC046
FFDE111C
FFEE9A8F
000DF76E
0028FD8B
001C7748
00044682
0002CCB0
000885D4
00119CF8
00262A8B
002EE234
002D8DE3
000EC71C
0024DEB8
00128EBB
FFF504CF
FFF747D9
FFF6B4FA
0004D6EF
00052FB7
00040ADD
0002D482
FFFC90D8
FFFAA998
FFF903A3
FFFE0590
FFFECEE1
000D7F16
000063DF
000753E5
000BCA8E
00117B4B
0006FF4A
00170724
00106C05
000A4168
001C760B
001BB7F7
0015548E
0022CF24
0020D14A
000CDA81
00078181
FFFB5634
FFFA516E
FFF7EDAE
000594EA
FFFB9EE4
FFFEF0E1
000561E9
FFFB0958
