0007DFD3
FFF94CB2
0006ED82
FFFD4F1C
FFFE9A5F
FFFFC8D2
000421D5
00067812
00014BFA
FFFC0F5A
0005C192
00056CC3
000A8A57
00027E91
0001A327
0002A727
00004315
00030011
0008B482
FFFB92F6
FFF70113
0000A652
FFFDFB18
FFFBF21F
0002FDA5
0008B6B6
00065997
FFFE54B1
0007037B
FFFD4CFC
FFF799ED
FFFBF72D
FFF55823
000676EE
001682A6
001325B9
0005A8F3
00076E2F
00058BFB
00054DA1
002096D8
000A75E5
FFEB55A8
0008616C
0034D989
00250A65
FFF86B88
FFFF4F38
0007B822
FFFD5AA2
000D05CD
00050BC8
FFFB7B9A
000790B9
0001DA5E
FFFDDC1E
000195C4
FFFE40C1
0005E52C
000AE9E4
001546BA
FFFD7C9B
0011F2D6
000B105A
0020D636
001E1A81
0026ADFC
002101EB
000AE532
FFF7213A
0004E705
FFF6A892
FFFF8188
000461BC
FFF3AAA9
FFF6A793
0003B0EC
000D1FB2
000DD4E4
00196DBA
001BF81A
0008AE8F
FFFE2EAA
FFFA3A26
00046F4E
FFF8148E
FFEBFD77
000C7D6C
FFF9FD2A
000822D0
00035AA7
0004A4D7
000F05A8
000D75A5
00158352
00204D54
000E397C
000F1EFA
000EA523
00172339
000AC7C5
0007EAB3
FFFB78E5
FFF92795
FFE6FE52
FFFBD742
000856B8
00024D2A
0009B8F1
00012E2E
000C8EA1
FFFD46BC
00031856
FFF96C3B
FFDAE885
FFDF72D7
FFEEE72F
000894F1
000B1D05
0013839C
000CFA1E
000E754C
000D676B
000E4371
000A01BC
0007C3AD
0001CB92
0004A9AC
00072D9C
0004EEFC
FFFE66F4
FFFC4A72
00084D99
FFFBF70D
00013622
FFECA9AD
FFF6F00E
FFFC85C4
0010CDA6
00135CC8
00047C32
FFF922B8
FFF8D74C
FFF65E81
0002AB02
FFF1F192
FFF05CCF
FFFFDCFA
000321DC
FFF0CA71
FFFF95AF
FFF8715C
FFF34890
FFF999B4
000112F6
FFFF887A
0001B78E
FFFD0ED4
00094D60
00037251
0009CF68
0009680D
000D3600
FFF85F35
FFF68935
00118E00
000D3E0C
000B2AC9
FFFB0BCC
000F29C2
FFF5D2D3
FFFAA7B6
00045201
FFF8128E
FFF5C91F
FFFF985E
FFF97046
FFEEFB32
FFF77A2C
FFFCA1F3
00031627
0009D4DD
FFFF1691
FFF65F96
FFEA8C96
FFE3CFBC
FFE3DF47
FFED0334
FFE7D808
0003B9EE
0018B488
000819B0
FFF83005
00036E5D
FFE8C7B6
000C4592
FFFC2E10
001D95B3
FFFB8A67
FFFC04C9
00204B47
0013B8DB
000DA2F0
0006C602
FFFCA90C
000214E7
FFFB9B8F
00124483
00069532
0013D6E6
FFFE76F1
FFFB5D2E
FFEB6856
FFD6EE4A
FFEEAFBB
FFF1F250
FFEE3672
00084958
000FED0D
FFFD2EE1
0013806C
000E6F37
FFF2D5D3
000D54CC
001C5C2A
000672C5
FFFE8782
000C48DB
001B43CA
0007570A
00084BA1
FFFF540D
FFF64C70
FFFDD3C0
00132BDE
0010B842
0012E0B1
000D5672
000A7E48
FFF76DC7
FFF35E06
FFF00576
FFF45CEB
FFFABFF1
00048C39
00021F96
0009C8BE
001C5D34
FFF698F8
FFF20A1D
FFF190F7
FFF01D55
FFF3DD7B
FFF18308
FFF8B6D2
00126697
000686FA
000A7C96
FFFDA589
FFEA30E4
FFEDC53A
FFFB94D4
FFF8055B
FFF3680B
FFF87464
00050DB0
000BB953
FFF098BF
FFF49ABE
FFF89B34
00025121
0010A91C
00165325
000F274B
0011A929
000B22AC
FFF5D84F
FFDDE8F7
FFEBEAB8
FFE74A80
FFFB5E31
FFFBF4A0
FFF7A45F
0003EDF6
FFF29F30
000692FD
FFFB82AB
FFF1AEF0
FFED5A3C
FFEAEA79
FFF5AC8F
FFED31D0
FFF9DAD8
0007F468
FFF6B202
FFF7D5D9
FFF4C8A3
000D2688
0013C9EA
001B3F76
00127002
000653A4
001E1C5C
000DFE0C
FFF99754
FFC7DD88
FFD8A03B
FFE102B7
00043667
00220D6D
FFE2AE71
00011E55
FFF22BE8
FFE8FDCC
FFF1E70F
FFF91CB4
FFEC8178
FFEEA2DE
FFE1FA77
FFF737AD
FFFF21D9
0001CF6C
FFF61DEA
FFECB2EB
FFF3B01F
00036115
0003FED3
00140B84
FFFDB783
0002BAF4
0007839B
000A6A81
000B2146
FFEA14BC
FFCD9DF9
FFE0BBC3
FFF4E0A5
FFF547F1
FFD35105
FFDA75F5
FFE54365
FFDE4B5A
FFEB40B0
FFED2FC9
FFEB7181
FFED1110
FFED2490
000944F1
001EFE90
001D15A7
FFF83F56
FFEC9BCA
FFF5DF5D
FFF8BCE0
FFFEE9C8
00010572
FFFD6975
FFFC51FA
00086E8F
000CFD7F
00328C72
00093598
FFF32CA3
FFFC0F12
00030242
FFFB389B
FFEDCC44
FFECD48D
FFCD1A5D
FFE23D78
FFEB5C7C
FFEE570B
FFE70252
FFEE28DE
0002E85B
001B801E
0027947A
00137C68
FFF443D8
FFE45965
FFF27453
FFF46EA8
FFF758DD
FFF469A6
FFF91F24
FFFDFFC5
000DFFDB
0019B0FD
003367FA
002ED7E6
0028E792
000E215F
0007E5A0
FFEEC479
FFF1CD0E
FFF5B0F0
FFDA30CD
FFEF4BAE
FFF751C8
FFF97C89
FFF33BB7
FFFAA234
000C6792
002E5029
0026ABA9
000C0FF1
FFFB379F
FFEB7C40
FFEDE3B6
FFF43E24
00075AC7
FFFA93FF
FFF8BC54
FFF69642
0006F751
0005E864
00207418
00302841
002FBAE5
0020DF5F
FFF6B0C4
FFF84EE6
FFEA03CB
00035726
FFF4B07A
00077177
FFFF443C
FFF4690A
FFFAEFEF
0012DBFE
001DFC4B
001D63DC
001A1025
0005BDEB
FFF8BDD0
FFFBFF9B
00025111
00000D8B
0000A8FB
0003ABA4
FFF25F0C
0005FBA7
FFFACC71
000597B6
0022C8B0
002890AF
00107A43
0016C469
00090DC9
FFEF7B69
00031D1C
000E59B2
00057F19
0007372F
FFFDD359
000CF9EC
0015517C
00203FB8
002A5D9C
002BF5DA
000FDD12
0006A3D8
0009C7D6
000C824A
00063B08
001F81A7
000ED956
00088490
FFFD6AA4
00070A65
000A0661
0011302D
000D2881
0024E0F2
001FA346
001719A3
00031C66
FFEB4173
00062EDB
000B9173
0010BFD8
000D78E6
FFFC42BE
0011E668
000F04D0
0014DEC0
00213C57
001A233C
00144018
FFFCBAC9
FFF6BC8A
FFFE6F6D
000B9B02
0008F6A5
000BF29B
000CBD6D
FFF740F4
0007B73C
0001A321
0003A2CE
000576F7
0016C06D
0009CCB6
0027DAE9
FFE2D3BA
FFFC7DA7
FFFECC0B
000D10C9
000EA84A
000F4E67
000A17FD
000CF4E2
00094EDF
000CE2CB
00093DE1
00056F76
000E709C
FFF49C23
FFF45B90
FFFE8B50
000CF6B9
FFFD0BD4
000646A9
00002E12
FFF000FA
FFF9D578
0003C472
0007B21C
000686B6
000D1920
0001C48B
000DE8AE
FFF48C29
00040C61
FFF945A2
FFFDD26E
000D7D0C
00087ED2
000BF5CE
001225AA
000A51DE
000F05C9
0011ED0A
0017CC79
0004D597
0005F2A4
000651BB
000CB127
00073E77
0006CA59
00005A7E
FFFB4D6F
FFF53723
00013149
0008C09B
FFFCE86B
FFEA70D6
00058630
0010FC83
000C96C3
0003C906
000E40A8
00046FA9
0017986E
00156338
0000C88A
0006493D
001022F3
00054A79
00076D1A
0012FF35
000ED2C5
0014B98E
00065D48
000592A4
000721F2
FFF972C0
FFEC7ECB
FFF8DCA4
FFF870C1
00025075
00122648
000950B7
FFFC5271
FFF8D30F
FFF02A47
00023347
0002F616
FFF75DF0
00117DB1
001342F9
00204055
00064944
FFF6B1DD
FFFB0744
0005378F
0006EAAE
0013194B
001707CF
001DD428
000CB25C
000834DD
00005C06
FFF1881C
FFF189C5
FFF5AB3F
FFFCCB93
FFFEF581
0003809E
00017B59
00148AC8
0010A437
FFF6E33C
FFF60834
00165217
0009DE58
FFFC1E62
FFFE6502
0012B264
000B4463
FFFEE9B1
0005CD89
000AF65F
00147F6F
0014BCDF
0021008E
00163F6F
002B6BD0
00212574
000FEF38
0003E7DD
FFFC5BA4
FFF92F1E
FFF92C9A
FFF5DE7B
FFFC26F1
00027C12
0003C120
0007EC75
FFFA5591
FFEA80BD
FFF9B485
FFE9D774
FFFD021E
00040DD8
0007B6FA
0022FDE1
000D3E60
FFF93FBB
FFEAA79D
00017CA8
0007E779
001352D8
000F924F
0018EF3C
0016652D
00128DBB
000DDB52
00012148
00062F64
00032936
FFF3293F
FFFC966C
000703CD
FFFC2E92
00009649
000F7157
0006A8BF
FFF192EE
FFF6D7BF
FFE5F5B9
0005E30E
FFFEF5DD
00047832
FFE83229
FFEE24EE
FFDE5D64
FFCA68A8
FFE31B6E
FFD9ABDE
FFF243C1
FFE9091E
FFED5C14
0001AADF
0000A0FD
00021E2D
00169441
00159E88
00193FB7
FFFEACEE
00080064
FFF8B6F9
FFF638AB
FFFC9026
000002D9
FFF63DDC
000FB01E
0011CE81
0010E444
0004B949
FFF7323A
00041EAE
FFF14CD9
FFF174BF
FFDECAC0
FFD859CE
FFD09012
FFCA6D80
FFB7E0F3
FFC54FE1
FFE7A5DE
FFE4248C
FFDACB71
FFE42D32
FFF8B752
000AA9A3
0011E527
FFFDA182
FFD78973
FFE6D145
FFDE70E0
FFE3D67D
FFEBD790
FFE1EE5C
FFE50486
FFFFCB84
00104AF1
0004054C
FFF9C0B3
FFFDFFE2
00087A59
FFE7CD28
FFFE8AA6
FFEB27FD
FFD5D0E9
FFBDD568
FFDFBE54
FFDDD1B0
FFED040D
FFED32E7
FFECB993
FFE56E89
FFD0A27E
FFDED2B5
FFEB7368
FFF17408
FFDE5348
FFDC608A
FFDF191C
FFDD06F7
FFE9F57D
FFFD8B65
FFF5CFD0
FFFF2B27
00073B29
000862FF
000726BE
FFFBAC17
FFFF33C9
FFFB02FD
FFFB517D
000691AF
FFE4FFD4
FFE9448E
FFF1C6B4
FFF30C7E
FFDDA000
FFDB018E
FFD775B5
FFDBA27C
FFF2A739
FFEFD671
FFF154AD
0003FA6A
FFF88B52
FFF56ADB
FFF16B46
FFF67F7C
FFF1F4FD
FFFDC360
FFF8C059
0007995C
FFFEE900
00038F1E
