000536C3
FFFA2CF4
FFF9685C
FFFB3F38
FFFA45DB
FFFCBA6D
000784BE
FFF96142
0007184E
00067EE1
000473E6
0008C46D
FFFEB678
FFFEAF4B
FFFD3A1F
0005C9A3
FFFD60E3
00003E08
FFF8C217
00089EE4
00008591
FFFE6971
00071AD5
00091775
FFF70032
00005784
FFF7C3C6
FFF8FC6A
00011C7E
0003F543
FFFB47FE
000330F7
FFFF588D
FFFD16C3
FFF319FF
FFF51AC8
FFED55B9
FFEC7555
FFEF8A8F
FFF9C3DF
FFEE6C15
FFF27F70
0003BC12
FFFA0336
000432EC
FFF4B246
FFE255D6
FFE78C41
FFD778D0
FFF51E0E
FFF51B04
FFEC2CF0
0005AF0D
FFF9232F
FFFAE3F4
FFFC4487
0005778A
FFFAB0B8
FFFEADC3
00091A3F
FFF7FBB7
FFEEFB42
FFF0B73C
FFEA8991
FFE42182
FFDDBEF2
FFD7C8E6
FFCE885C
FFD8A119
FFED0050
FFE8B78C
FFD8A4F2
FFE1C5BC
FFE5D2FD
FFE2514F
FFDCCFCF
FFD77008
FFDDE587
FFDB8414
FFE305D8
FFF62B00
000B50AE
FFFB6D69
000360AD
0004D8DF
00075BF5
FFFEC5D0
FFEFBDBB
FFFD8AB8
FFFA03F7
FFE99E4D
FFE3438A
FFDB6116
FFDAA7E1
FFD78C90
FFC92790
FFC3036C
FFBD8CCE
FFD310B0
FFD2FBB5
FFE51728
FFE10364
FFD7DE34
FFE18A9E
FFF57CD3
FFF89F38
FFF26E29
FFF29821
FFF23A43
0008A193
00015182
000539AC
0000A7F4
FFFDB177
FFFE460D
FFF49A8D
FFE82F42
FFE9AAB4
FFE6E8F6
FFE76D9C
FFDA2E58
FFD1483B
FFC40FB7
FFD64F13
FFDA5478
FFDE1AD1
FFDE2D82
FFDD78B5
FFEC586B
FFFE555E
FFF30CC3
FFF15FB5
FFFDD26C
00059506
FFFE9F81
FFFAFEA1
001860D6
00239157
001534DF
FFE2A772
0002B7EE
0003AC1E
FFE8BD45
FFE3D424
FFE2E980
FFEBD04C
FFE8B109
FFECB40F
FFE8DC7E
FFEF7035
FFF1207C
FFF49616
FFF270F4
FFFC211F
FFEBBE2F
FFECBDFE
FFE73B2D
FFF1DFEE
FFF00E08
FFED8F48
00066E6A
0009301C
000ABD7A
FFF78674
0006C8B8
001920AA
FFF67F73
FFF2EC98
FFFA732D
FFEEB988
001587C4
FFF91CD0
FFFCE646
000C8B9F
FFF8CED1
FFF0DCEF
FFFBC7BF
FFF650FD
000B9175
000CC16C
0007C6A9
FFF082EC
FFF22720
FFF56F78
FFECBD5A
FFFFA475
00021C79
0013E302
00083B82
0006E65A
0015FAF2
0011F018
000A41F6
0007A708
000BCCAD
FFEB7E57
0003B417
FFF2B112
0014DF30
00127896
FFF177BD
FFFC0F92
00040D97
FFFD29BD
0000BEF7
00131FA9
00149CC3
00197913
000669DD
0002E557
FFF4234E
FFF1A7A5
000A92E7
00076876
00135030
00132ACD
000A8628
00081D27
0018CEB4
0027B2FA
0019F4A0
002EBDCD
0010109E
FFF00056
001373CF
0016FB7E
001CBB28
00162EB4
FFEF115D
0004E40A
00083419
FFFC65A4
00007D2A
00260950
00127AF0
001833EB
0018EE92
000B39AE
0001428E
0006E376
000D51BF
00087738
00102B90
000B23C7
001354C8
00016ACD
001769F5
003D0385
005155B7
0055C5AC
002C0B42
000DCA56
000A09B1
00141BC2
0006A05C
00037F81
FFF3F37A
00090465
FFFF6D7C
FFFE607C
00074C53
000B681C
0008C444
00122C3D
00111C13
000EBE1C
0007931F
FFFAA654
0010E4D1
000D7F81
000CC03B
00113D43
000E5D39
00145676
000C55E0
002DEF34
00473F31
0057C03C
003CD657
0025FBCF
0011F3A8
00065A15
001E5FE6
0009ABF0
0008F3FF
FFFF99EB
FFFDF12A
00052F2A
FFFE806A
00150256
00145BE5
001FA270
001C4595
0017DFDC
00078F84
FFFFF3C3
0004A1F7
0005EFA6
00049A8D
00076610
000A631D
001A45B1
0023755E
000DFE29
002EFB54
00414CD0
0039B24B
00213B92
FFFF3EF5
002D8FBC
001DE8F2
00038F45
FFF656ED
0001DDCA
000C7B98
000D183E
00101C55
0018C3C6
001EE246
001BE18D
001401AC
000B8E1A
0002D29B
FFFD8C13
FFF6B5AB
FFFF3592
FFF449BD
0002446D
0001F367
000CF266
00132EFD
0002C17B
000F5054
001B86FA
002A73B1
000E2129
FFFE6C93
0016DFDD
001C8C23
001C4E30
FFF385F6
FFF4EE5E
00086A1A
000428CB
0010B608
000726F8
0018BB12
0027C683
0023FB3B
0002FA34
FFE6F051
FFF07827
FFE90FC7
FFE6DDFD
FFF72D42
0013CB93
00057697
000D0387
0010A9D3
FFF56046
FFFF2BEC
001031D8
003B19A5
00095F56
FFF788A7
000761DB
001E328A
000CF5A9
00099562
00048CA6
00011EA3
00078391
FFFC50E1
00021B3A
00194B9A
00240B1C
0010F1C8
FFFA8E81
FFEED73A
FFF87539
FFDCE5C6
FFE9F309
0005BD5C
0009E2E3
00101100
00093A76
000D17A0
FFFBA831
000A15C8
00252C96
0022CCA6
000608EA
00066B9A
0009936A
0027AD13
FFFB622C
000753F1
0009EB79
FFFF021A
0008FD95
FFFC4D12
FFFACD4F
000BB883
000C99CA
00048A5F
FFF3EC98
FFF64FEC
FFF405C5
FFDDA8B3
00005CB0
0000186A
0011B92A
000179E4
0003D781
00150D62
000E79AC
0021FB9A
001361B7
000B5C02
FFFED176
0005699B
FFF1B1CF
0008DF7A
0010A743
000D820F
FFFEB6C5
FFFC4500
000892F9
0006FA21
000A8E8B
0008D33A
00087C95
FFFA2B8C
FFF3B0F9
FFFA19B7
FFF68C29
FFEA72DA
0007F948
000E9C54
00043BDE
00058AA4
00015AC9
00080472
0011D827
00164940
FFF4F757
00111990
0000ABD1
000B4893
FFF9F2DB
FFEC3EC4
00062A29
00100736
FFF82C4B
0009B512
000EEEA7
0002C668
FFF53326
FFF389FB
FFF9B4F6
FFFCD833
00029A11
00000F31
00073F37
FFFC10B0
001E2E40
FFFA3804
0002F3C4
FFFF56B6
000C66AB
FFFED6E2
000504A4
FFFCDD54
FFEBFF18
0004852F
00151FB0
FFFC038A
FFF9EDCD
0008884A
FFEE4A2B
00107221
001862D3
000AEFF2
0002AA68
0006EE2B
FFF9322C
FFF9AB74
FFF98824
FFF71262
0000EC90
0015B941
00177E01
00056E3A
00096AC0
FFF3B830
FFF6A8A5
FFFFB3DD
0009ADDA
FFFF127C
00002C83
0010DCAA
FFF2FECF
001EE57E
001940B2
000367D5
FFFF5772
0007797A
FFE7DC3C
00059679
0017A6FD
0004FC30
FFFE762A
00013259
FFED06EA
FFEF612E
FFFB5A76
FFFAD1CF
0008AB8F
0011E2A5
FFFC8536
FFEE5B61
FFF7A9E8
FFE543B0
FFE06CC1
FFECAA3C
FFE2D496
FFF5C556
FFFC2BDB
0017CBF7
FFDE4E5B
0013FC7A
FFFD3E47
FFFFA232
001A738A
000CAB2E
FFFC5A53
000768EE
00157A74
0009472A
FFF437E2
0005EE49
FFF25D55
FFEA7D30
FFEE0E61
FFFDBDAC
FFF78F14
0009EB78
FFEA9A9D
FFE5EC23
FFE3B84A
FFF32381
FFE9FDC0
FFEBFB02
FFE79636
FFE8D767
FFEEE255
00018330
FFE2D70E
0006C2C6
FFF307B3
0005415E
000473E5
0003578C
FFED11C3
FFFBF63C
00092BA1
0005F921
FFEF046E
FFF6DBE3
FFF3E253
FFE9658D
FFF6F1EC
FFFB4D5E
00009577
FFE96E87
FFE4BCCE
FFDF6F9B
FFE8281C
FFE2CFC2
FFE8D0E6
FFE7F00C
FFE7E25F
FFE524C5
FFDD4CAB
FFF3036A
FFDF6940
FFFD0155
000110F4
FFEFEB6C
FFF13C34
FFF99E68
FFF33658
FFFF6DAB
0009DAE5
0007936A
0000FDEB
FFF6C211
FFF9C524
FFFC2FCE
FFF9EA7A
FFFA5178
FFF5DB99
FFEC6FD0
FFEA24A8
FFE7A0FA
FFE5904B
FFE3E1F3
FFEB943C
FFEC78C9
FFE38F30
FFF3A6A5
FFF23800
FFEE3027
FFF50C3D
001FA5C0
FFFFE35D
FFF6D3F6
FFF0CDA8
FFE374B8
FFE5610A
FFEDB9FE
FFFDB747
0014B10B
0017CB71
000F9E72
00049A8A
00062EC8
0009BA08
000ADEA2
FFFD91C2
FFFF4CEE
FFED8E26
FFEB18DE
FFE05B0E
FFE32B03
FFF49353
FFDD0525
FFEC1281
FFF9B9BC
FFFF7A78
FFFC5C1F
FFFC230E
000DC09D
00057B61
FFFEA044
FFFA1149
FFD68CCE
FFDAF98E
00003827
000147CB
00197212
001CE19A
00117912
00113A22
001812B6
0013A723
001B46B6
000BC92D
0012C2E5
00078ED5
000CC676
FFF8073A
FFE84A3B
FFEB888D
FFE2A5B7
FFF1356E
FFE60168
FFF826E2
FFFA6258
FFFB07D6
FFFAE895
00031E42
000042B1
FFFE6FF4
000AA694
FFF39088
FFFABE5D
0017A77B
00094D30
00009975
00056637
000D25D7
0007BCA9
0011B085
00168552
0019C62F
00161FD7
001895F9
000B9A56
FFF62EE6
FFFA2B4E
FFEFAB42
FFF37C42
FFF31C7A
FFEC81CE
FFEC6DBB
FFECA5F8
FFE6A7C4
FFEF632A
0003B982
00031F8A
00060FB2
FFE20A73
00197C4A
000E3F39
FFF9FAB8
FFE9D0D6
FFE4425F
FFE7ED32
FFE6D0EE
000562AF
0009719E
00008426
FFF9706C
0011D542
001B9A7A
001AD305
000CA57E
FFF47C9E
FFF27179
FFDF9D18
FFF391AB
FFFEAC80
FFF72267
FFFF46A1
FFF776A6
FFFF25A0
FFF89DF6
00004931
FFFEDD0D
FFFE408D
FFE3D808
FFDA8247
FFDACAB4
FFDDC68C
FFF35EA1
FFF33041
FFECFDB6
FFF4C06E
FFEEA340
FFFD303D
FFF6ABBC
FFE22803
FFF2B986
FFEE203F
FFE0914C
FFEE39E2
FFF6D466
FFEEB0CC
FFECE51C
00010767
FFEBCF11
FFF98816
00098831
FFFD8384
FFFDBD75
FFFC1531
0003B5D5
00090559
00057CB8
FFFF0164
00045200
FFF72A0D
FFF78826
FFF18E07
FFF79359
0011C327
FFF88227
FFFB0C86
0010489B
FFFD153A
FFF389A0
00027EAB
0023A568
00095692
FFFFB010
FFFAB50C
00025DCB
FFFE0E8B
00182240
FFF83568
0006ADC7
FFFAB164
00081777
