FFFCE2F6
0001F3E5
00046EF0
0008D55A
FFFC70A6
00028990
00091FEC
00076EEC
0000607B
0004CD7A
0008E119
FFF81A61
00075A90
FFFA1946
FFF6D357
000442B7
FFF9A90F
FFFE9B0F
0008B51B
0001D73E
FFFECCB0
00079874
FFFC99B3
00030028
FFFA7146
FFFBEDA4
FFF755C4
00074F6C
FFFFFF60
FFF9811D
FFFE6053
0003DBCF
0006159A
00054BE0
0006700B
FFF61E8B
FFF4E4D4
FFF828A4
FFFA083B
00047E3D
000991C7
0002F938
0018818A
00191A6D
FFFB82F4
0005132D
000272BF
FFF2A64A
FFE53C99
FFF4341B
FFFCADF2
FFFFBAFA
0000DFE7
0005C924
FFF8A386
0003D3A1
0005C4E6
0001CDDB
FFFCDEE4
00052B1F
FFF97B72
FFE804B5
FFF8A122
FFFCE553
FFEAF6DE
FFEAB9DC
FFE46EA0
FFDB93D7
FFECCDDD
00083630
FFF8C011
0001AAA9
000B5C61
0008BCF4
000C46FC
0007DF87
FFF98A8D
FFF0FDD1
FFF732DE
FFF58785
FFE6B295
0004B1C8
00056599
0002B9FD
FFFE4B2F
FFFC2D65
001A7734
0004E891
FFFE45AB
FFFD0CB2
FFFE26C1
FFF97ADB
FFFF2EC7
FFF984F2
0001DF48
0003B4B8
0013709A
001293A0
FFFE2017
000BBAFF
00155442
0014210B
001263B4
00062719
0013EAAA
FFFD9AB7
FFF1556C
FFF26843
FFF3D4B4
000AE17B
FFFF132C
FFF9D94A
00018164
00077C2A
00125AC1
002199A9
FFFD2F6F
000A3C54
FFFD02CC
FFFE77A6
00026886
0013A9AA
00146D00
00112430
000C486E
000A3777
0011A21A
002747A7
00176473
0011A106
0019DE70
000D146E
00016E61
FFFF4E6C
FFFCC829
0003D309
FFFCCC34
0000E076
000947CF
FFF169A0
0005AF48
FFF94652
001ADF5B
00095A15
0002BD2F
000B5D68
000DCF7E
000CDAA4
0001D95B
0005000E
000799DA
00007A6F
0000ECD2
00018D45
000E9FBB
0013BB24
0005EF62
00155394
000569E9
000DD48B
000ECA28
001C4FE6
00129C8C
FFF80303
FFF74773
0008AD06
FFF90DEC
FFF58414
000825AD
000FF2B0
FFF653CE
0003567F
FFFBDC1E
00012FEB
00094667
00001B31
000D2051
00060E27
00092BA4
00068197
0007ECEF
0001BFAE
0002BD0C
FFF8AF50
FFFAEDAF
0005C54E
000AB1EE
0009A6C1
0004E6A3
0003054E
00097781
0003CDCF
0006D586
0004AFF7
0007F46E
FFFFFEB7
00007089
0015DFBA
FFD731CC
FFEE8C7E
0006BC95
00057C50
0000AF23
0014A09E
FFFDEA10
000DE196
00085187
00004F98
FFF78A66
FFF49133
FFFF59F1
FFFDB473
00074562
FFFAB9D6
000BA8A2
000AE99B
FFFA630A
FFF6101A
FFF94B4C
00190F38
0006319F
000DEB60
FFF55630
FFFD9A92
FFFF8735
FFFF8443
FFED9904
0007A71F
FFF4229D
FFF9569C
FFF9B40D
00055972
0001AE55
00013B09
0003DF28
0003CB7F
0016014F
00079827
000AEC6F
00024646
00092E65
0012F2BA
0012634C
FFFE310E
00017ED8
0000E3FC
000E4D1E
00103AFD
001C7D8E
00169AF9
000F61D1
001AC48C
FFF8F51C
000109D9
FFF8791C
0007D2BF
000E96B4
FFF7B876
000181BA
00029A96
001148B2
000561AC
000F515A
000BDD81
000AEDB3
00156E0D
000FE787
0005F878
000F04B1
001C07E2
00027339
00031BEC
00014ABE
000FFB02
0008FDF5
000F0E0E
002B1139
00286282
001B9AE1
FFEE0765
FFFC79C4
FFFB4D4C
00037A6F
00104005
001415CC
FFFEFFB6
0005D237
000CFAE6
0006E9FF
000DCF51
0011906E
FFFF3215
00105E92
001B19F1
00186A5F
0018363B
000BB260
000D25A2
0008B47E
FFF8703B
000EBD72
000CB2E6
001B59FA
001BB294
001F0E2E
00235CD4
0021ECFC
FFFBBD6F
FFEDF32B
FFF50FB0
000B113A
0011F872
0011BD7B
FFFCC3CC
FFF7AD50
FFF946DC
FFF2A44F
FFFBD9B7
FFFDAF0D
FFF90C64
00082F93
000E54CC
000EB555
00091890
FFFF4E59
FFFA8049
FFFEF939
00032F23
FFFE5014
0001D36C
00037CF6
000B52FA
00295BF6
0029CB7A
002C3CFA
00092C8C
FFFE7695
FFF27E59
FFFBEEE0
0014CD59
FFFE76E7
00093384
000D7FC2
FFFD4108
FFEBE112
FFFC3822
FFF13F1A
FFF7AF04
0017768C
000BC627
001134DD
FFFDDAA2
FFF2CC2A
00013B17
FFFF45F3
000233F1
FFF86ADB
FFF1BD46
FFF6E279
00032966
0010E790
0010D804
001FEDE0
FFFD6065
00044AA5
FFF5F8F8
FFFFE938
000C1D69
FFFBE23E
00096D23
0013A973
000E3BE9
FFF45095
FFFC59D6
FFEF2988
FFF7143D
000B4785
000B5982
0001958F
0005C906
FFE820F6
0002DE77
FFF7D7CA
FFF2FCDA
FFFA9BF7
FFE727D0
FFF19BB5
FFEE01A8
FFFA7DC2
0001DC9C
FFF73ECA
FFF325CC
0007379A
0001424D
00180618
FFF9B074
FFEA17FF
00074B66
0000BC8A
FFFA6343
000737AE
FFF790E7
FFFDEDBE
FFED6E46
00031CA4
000BCC8C
0012136A
00083220
FFF984A2
FFFEA296
FFEEDA49
FFF2CE53
FFE52D2C
FFEEC949
FFEB26A0
00005DD5
001A97B8
FFEDA44F
FFEBB6FD
FFECF813
00020564
0012EC52
001D7E1A
FFE1BDBE
FFFBB21C
00002C62
0004B0AD
FFF88F26
FFFE30D3
0009B939
FFFDEF6A
FFF09D64
000B1024
0010894E
0006250C
FFF9B7ED
FFF16BB9
FFE330B8
FFF0D772
FFEA835E
FFEBCE96
FFF727E5
FFF0F348
000D9D5C
001E91E6
FFF42AC1
FFE16340
FFF73AE3
FFF0EE23
000EBB60
0013B921
0003D8EC
00018EA3
FFF78337
FFF29959
FFEBE51D
FFF7AEFB
FFF8DEDE
FFFB0043
FFF7B394
000AAF83
0003DEA6
000072D7
FFE78C2A
FFF346E6
FFE0F492
FFF54EF7
FFFEA9A1
FFF61AC1
FFFDF8A4
FFF601C5
0018BE0B
0019CBA6
FFE3F995
FFE4D664
FFF5BA2D
FFFC63E2
0011C7E7
000942EC
0011ACC8
0019DD22
FFFAC1A2
FFF03FE2
FFE3D1B9
FFE1C8DA
FFFDF67E
00001187
FFFC35EB
00006148
00002CF5
FFF201AD
FFEF1EB8
FFFA17FB
FFEE4F74
FFF351AD
FFFB3085
000BD57E
FFFBA143
0008A5CA
00078220
000DBF35
FFD0985C
FFE20EBA
FFE79AEE
00065D40
0011286E
000374D5
0013FCF2
000BEEF4
00042216
FFFBBF89
FFEC40E6
FFED6FF8
FFF49D82
FFF3B278
FFF650B7
FFF7B70E
FFF242E4
FFF8F5CB
0000DAEC
FFF6E305
FFFBACA9
FFEE014D
00018072
0002B1FF
FFFBDEC2
0010CD29
0007F699
FFF7527D
FFE8178A
FFE92E32
FFF0293A
000EC61C
001A390E
FFF8D43A
0008AAFC
0007B9D9
000A188F
000919C7
00009904
FFFEBB82
0002E1F6
FFFBF8F4
FFE61517
FFF9FD91
FFFCCF37
FFF2C994
FFFB887B
FFFE70DD
FFFE377F
00026F19
0010CB3A
001635E5
0004E18A
0017BA12
000B2C3A
00060ADE
FFEE0115
FFE6A14D
FFFC4BFC
00046E5E
000C2E2E
FFF4F1D7
FFF560C9
FFFF84E6
000B448C
0004CCE2
000BF4D5
000DC1D9
0001EDE4
00047DA7
000838E0
000A7ECE
000C27D0
FFFF8F24
000BFE99
0010298B
00188C53
000A4D27
000F2C7B
00210F99
001C969B
00186D32
FFFDE162
FFF7CDC3
FFDDD3B9
000084E6
0005CCB9
000B93B1
FFFAFCC7
FFFACB4E
000655B1
00076551
0001770D
001AC3A6
00153DE8
FFFB1982
FFF94EDB
00018AA8
000ADEAE
FFFC8475
000B7F54
0010FD62
000EA54C
0002DF9E
0010135D
001A456A
0012D4A0
001C7B6A
0014B02C
00000838
FFF4D4C6
FFF1AE3D
FFE74D0B
FFF42E4A
FFFD42AC
00071501
00065D13
FFFF1A7A
000CDC37
000517D9
00084EDE
000EA29D
00065AED
FFF82132
0005BE99
00003431
000747E0
00079BBA
0003E152
00172FDD
000A9C80
0010A106
00184778
00134131
001148AA
0008E74C
FFFC6407
00036289
FFFBA7F0
FFE33A5A
FFE33216
00027762
FFFBBB13
FFFAD456
00062C38
001DBF45
00106856
0009FE40
000C8589
FFFA2F9C
FFF61516
00067103
00031927
000A4D39
0002002A
000EBC95
00124ED3
0001EDC4
001356E9
000E8241
0017BEA6
00083144
0002F63E
0007A7E0
FFEB4FA8
FFEE2ED4
FFF22154
FFE8D44D
FFDED126
00179173
0001EA70
FFFCDA2C
FFFE2EE6
00060992
001976A2
FFF87FB6
FFF4958B
FFF6F738
FFFB596B
0001456B
001EF7B0
0013C33A
0016D561
0026B52C
002077DB
00192D06
00173D77
000AE86B
000A564D
000B3216
00081E26
FFEDA0FA
FFE93A0F
FFE810EC
FFF58C72
0007753A
FFE7729D
00113755
00052CE6
FFFA1129
FFF8FF49
FFF800A0
FFE6A0A2
FFEF5DCE
FFE37283
FFFB03A9
FFFB8957
0007DB25
00074B99
FFF4A210
FFF60038
0012709F
000BF727
0003B2CB
000610C5
000CA1CC
0006D05C
000CFD73
0023A93C
FFF564E5
FFF887A0
000D9C12
000A8A8A
0019B0BC
000323FF
0008B025
FFFF8B08
FFFA1C9B
0007D993
FFFAA332
FFF67059
FFEFEDF2
FFE8EE03
FFE2568A
FFEAE5C4
FFEFB332
FFDEEC64
FFF0F0ED
0000CE88
FFFE18B5
FFFF16AB
FFD850F1
FFF8477A
FFFCDF06
00052C48
FFFC035A
0007B2E8
FFF46A63
FFF5119D
FFFAAE07
FFFD98E2
FFEFF752
00064D89
0008CF67
0006A7C8
FFFF7EB6
0006DD68
FFFB7419
00089FC1
FFFE3352
FFFECBE5
FFFC5FB5
FFF795A5
0003D05F
FFFB3901
FFE54E56
00019525
FFEF704D
FFF89472
FFE04814
FFD35BE6
FFE453D4
FFEEC708
FFE76AEE
FFD95590
FFE78B7F
FFE5F733
FFED0620
FFF8FCDB
FFFED23B
00062CCD
FFFBD245
0003B64E
