FFF7BCE8
FFFDDEA0
FFFF8D80
FFFC18F9
FFFD5930
FFFA1574
0006C005
FFFC0ACE
FFFD4D43
FFF6F066
FFF9F88D
FFFDC9DC
FFF4BDCB
FFF2CA9F
0007483B
00097DC1
FFF702C5
FFFAAF4F
FFF99BCF
FFF934AA
0003E2EA
00009AB5
FFFE437E
0006C57B
FFF6F299
FFF96E43
0005B08C
0000D18B
0004E844
000111A2
FFFF34B3
FFFA74E9
000018BA
FFFAA164
FFFAC0E0
FFF223CC
FFEFF7F3
FFF6C5A2
FFE559AA
FFD90682
FFDE8441
FFEF5A2A
00183217
00261AF6
001CBD08
FFFEB3C7
FFE992A8
FFE2B258
FFD257DA
FFE045F2
FFED28C3
FFF8AEF7
FFFB7CA9
00023EE5
FFFDAE9A
0001153B
FFFB790A
FFF87BBF
00084DBE
00066A29
FFE9D07D
0000799A
FFF7817E
FFF5DAC5
FFEFB6A9
FFFB9FED
FFE2E514
FFFC10A5
0017E22F
0016B340
0022F761
0032C60A
003E00E2
00164DD9
FFEED3FE
FFFEC836
FFFEAC28
FFEA00A2
FFDC61AB
FFFFD38A
000CD648
FFFEADB1
FFFA6B09
00055636
FFFB251F
000465F5
001C0E74
FFF29E62
FFEA75A7
0007EF63
FFF9AB98
FFE577C7
FFE5A541
FFEF3BB5
FFF36080
FFFC5800
0018E850
001B1157
002697BC
003D02DD
0032D683
002BF0A3
0015AEDE
00134878
FFFBAD77
FFE61DAD
FFDD5EE0
FFDBBE0A
FFF3B01D
FFF8552B
FFF5114C
0002E09C
000874D9
FFFFF7D2
0022200A
00086A95
00005A66
FFE7360D
FFF77FB9
00054280
0006BE12
FFF64F20
FFF6A733
FFFB4091
FFF3426A
FFF95246
000E57D0
00217A34
002BFA6E
0028D6B6
002B9EA4
0020E817
001163C4
FFFE2216
0006D23C
FFDCC46E
FFD53022
FFD7AEEB
FFEBCBAD
FFEE2420
000795F5
00006DAB
001B46AC
FFEBDE34
FFE3E4D4
FFEFB635
FFF0C54D
FFE9D444
FFECAB4E
FFEDD331
FFDE4A3E
FFDCA3E0
FFD8EB48
FFDA5AFF
FFEAC407
00031E23
000C3B02
00197F7C
001FA650
00215A28
000A8840
0012BD55
00120FEF
000124BB
FFE3B77F
FFE1C82E
FFECDBD7
FFF49D76
FFFBAD35
001AA39E
00122186
0011BE7E
00003C98
FFF3A551
FFFA3337
FFF5A349
FFF5E965
FFFD5E7B
FFFD9DA2
FFECAF2C
FFE9DFB3
FFE7EA16
FFE62F6A
FFF69507
00180A9B
001825BE
002D3CB2
002585AA
001CF3B0
000F630D
0003EB5D
FFED9A0C
FFE19968
FFDE26E8
FFFBA1CD
00087210
FFFC4390
0029B2C8
000F1163
001363D7
000FE8A5
00055E3E
00092311
0008C95B
00036EAE
001558E3
000ABAF8
00119E9B
FFF9AD1A
FFE42DB5
FFEE99CA
FFEDE28F
000A7CE4
00211A0D
002547D5
0034C272
00281315
000A7F00
0006C50F
FFE24DE0
FFD4D8C1
FFBE0A22
FFEDBBCC
FFF835EF
00055AC7
0023AC57
00083D75
0014C545
00156C7B
00122F51
00108450
00139D69
00157D19
0017098E
0012BA43
000F05D0
00022893
FFD8790E
FFCCD36B
FFEAD00C
001BAE40
0036C8A6
003B1CC3
0036932C
0012DF09
FFFD2E9A
00011FEC
FFDD5BC2
FFB75C2E
FFBFFB09
FFF54A80
FFFEBBE1
FFF9CC47
0016DE68
000AAC1B
000C95D8
00052D32
0001ABC8
00148ECD
00151DFB
000FF5B0
00143490
FFF9B6E6
FFF5BC69
FFD47EA3
FF93B09A
FF90894C
FFF0BD66
003A346A
00433FBC
00348C0C
0025EF38
0007D5CF
FFF560CD
FFEC1CF0
FFEC3ED0
FFB946D8
FFD3C08E
FFFF769A
FFF9DE69
0001E40E
0014A028
00063549
0006F3D7
FFEEA9B4
FFF3D432
00057959
FFF9067B
FFFE0889
FFEA0553
FFD73237
FFCD3072
FFA4D178
FF7E1977
FFA76C03
00116E2B
003E154B
00411662
002514FA
00126A8C
0006818A
FFE31F49
FFD91164
FFDA43D5
FFB36946
FFD65AB5
FFE67366
0006C440
FFFC6AA1
0013E567
FFF047E3
FFF64A69
FFD58F69
FFCBFDFE
FFD5D369
FFBEDEA0
FFBF36B7
FFC0E502
FFCC8F2A
FFBCBEEA
FFB9111E
FFB69ABE
FFECA5D4
00214F59
002F6D83
0022C184
00109110
00092692
FFFC5764
FFE617CC
FFDF82EA
FFC795B3
FFC3CDEC
FFE9CE65
FFEA7D98
0010509C
000035D9
FFF3956A
FFE4D03F
FFE11663
FFBD6504
FFB1D912
FFB060F6
FFA57DF4
FFABA2DF
FFB6CDB2
FFCFE25F
FFE7403E
FFEB3BEF
FFED739F
00153F21
0023A7CF
001D92F4
00103D7F
FFFDE9A4
FFE844FB
FFF0003C
FFE4B88F
FFE006DC
FFE697FD
000AD3E6
001FA9A1
000FEDFA
FFE67406
FFFEFA8E
FFEBAD05
FFF040CD
FFDD9DFB
FFC091DA
FFB5E214
FFB42FE2
FFB88880
FFE5140E
FFEC7DFE
FFF65869
000680D4
000041B5
0006DAAB
00175A00
000678AF
0003B406
000118DF
FFF4DDED
FFF896F7
00077513
00173BE2
FFF7F3C9
FFDF4BF1
000B557E
0033B79D
00269E4F
0002A2BE
FFFCAB02
0010AAB2
FFFF438D
FFF574E2
FFFB919E
FFF015AA
FFECC9F5
FFFCADC6
00128931
00142423
0007693B
0021EB36
001B9480
00144DCE
00169BEF
000C38CF
0006C590
FFFFC705
0008BA2D
0000E75F
0016CC61
0023E522
0008B2DE
FFF3B2A7
FFFBD333
00144E13
0016B713
00004CC3
FFFAD92F
001D2228
00227CDC
0000301D
00116238
0019FD5F
001D1DE4
0017E6ED
0026445B
0012FBF2
001556B3
001FF392
0017E476
001521D3
0010764A
000F41E8
FFF88EAA
00043DF0
00063342
00050DB7
FFF7BFB6
000BBB37
0008C0E1
0011E027
FFF6FA29
FFFD80C4
000CB90F
000D70F2
00037869
000AEE90
002A9D0E
001FF4FD
002A1C93
001DEE29
00164355
001CA7C1
00104EF6
00229290
0018707C
002077B0
001C8077
00162900
00072EC2
FFF5A80A
FFF38DDE
00056B53
001385FE
00168EA5
FFF1E9E6
0004F913
FFF18617
00006E05
0010428A
000226E2
001D6B47
0010492B
0006F69C
001171E4
002ECFF8
001B299B
00297F08
000F63E5
FFFDF082
FFFF40D3
000F17C8
00040CF3
000477F7
001732E6
001EE042
0008D559
FFF1AC6C
FFEFF08F
FFF86A8C
000DFB53
0018A5D0
0011502D
FFEA321B
FFF63839
FFF32A08
FFF6255F
000FFE00
000E8C42
0020F728
000093E9
00014FBE
00192E38
001EC202
00235B6E
000151AA
FFFA586C
FFED1175
0001DC10
00070D50
000E53DA
00016AC6
00069EE0
00001013
00032AB0
FFEF2686
FFF8DC62
000E8CCC
000B02E4
0017D646
00048FFB
FFF9CCC0
000591BA
FFFFA2CB
FFF603B3
0006C909
000FC258
001596EB
00139D13
000DDF43
000DDF1A
FFF97702
0015A233
000CDA8B
000148C8
FFFDE07E
00152142
000902E5
000F876B
FFF46CDA
FFFE9098
FFED739D
00094E0C
FFEDCED8
0002A714
000ADDE3
00095A9C
FFF6A874
FFF872F5
FFFFED4A
FFFDDF05
FFF57D0E
FFFC25B0
000C963F
001BDD7E
0025E330
000EA74E
FFF9125F
FFF6CB6F
0001FEC4
001FC5FF
00128B11
0000B277
00048C97
001C3224
0012A11C
000CC209
00009F2A
0007A714
FFF9E6D4
FFF1E08D
FFF99556
FFF2ED55
FFF8BD23
00090969
00050AF6
0009D5C3
000AE064
000B2B82
FFF2EF46
0001724D
00172466
000A4EF0
002DEC80
0001EDB6
000B5B65
001DF9E0
0024D10C
00256340
000230F5
00098828
001022E3
000CE311
00015779
00003206
00024103
FFF45D5A
FFF81D13
FFFA9D17
FFFD7D26
FFF11605
FFF7E994
FFF9F5C8
FFFE8DAE
0013FF0B
000B537C
000A90FD
FFF69196
001A3C63
00202D8E
FFF73FBA
0025FF48
FFFEC7F4
00136AB6
001E1A13
0020DF6E
001844C0
FFF99628
00173396
0014AE71
0007E3B7
0005166A
FFFAC26F
FFF18861
FFF8B42A
FFF588A5
FFF5755E
0000E9AC
00019295
FFFB2C67
FFFF3465
FFFB2B10
0009DCCD
00158AAA
000518FA
0011230F
0012DF43
0007D25B
FFFA58F2
FFFFA5B1
FFFD12A5
FFF8D7B5
0002C5E4
0027DF98
0009CE75
0002310D
0006A3A7
00179059
0016E553
FFFAE24B
FFF01F2F
FFFA27D1
0003461C
00066262
000F7563
FFF7055C
FFFF7E6B
FFF4A063
FFF1FE1E
000754FE
FFF25A06
FFED49E6
FFF521BA
00042351
FFFABC5E
FFF2DE38
FFFD5587
0013F9B5
FFFBD661
FFFE0EF2
00054DB2
000264BB
001B751A
00188F9A
0006032B
000E67B9
0001004E
000394A7
FFF9CFE4
FFFC5095
0004360A
00078D79
000E5A6E
0000511A
FFEF5AB8
FFFA0FA8
00061ED5
FFE1DDD0
FFC7B203
FFEFD509
FFF17951
FFFFC1F0
FFF51CFB
FFFD1EC8
000538EA
00051C5B
0001B5BC
FFFE28A4
0003E157
FFF5C397
FFF0C96A
0012F6B9
FFFEE51C
00018394
FFFA1A0E
0011204B
0016767B
0016902E
00180984
0026C0FB
00185F64
0004E59F
FFFE015B
FFFAD238
FFE8C9C6
FFCD90FD
FFDF615F
FFDE4CFF
FFD2B952
FFC98D0C
0006CC8C
FFEE6D5B
FFFC936F
0007565F
FFFF4F84
0000580A
FFF6DF1F
FFFC7554
FFF8EDB1
FFE6E156
FFF01F9A
FFD5820F
FFDD3792
FFE3A6D9
FFE53EE3
FFFBB668
FFEF0540
FFDF3958
FFF66056
FFF83C50
FFE6C576
FFE52711
FFD9967A
FFB4DBE0
FFB9B80C
FFAFD564
FFD6E663
FFF37A42
FFF29C92
FFF8AEBD
FFFE74C5
FFF726E5
FFF9BA23
0004207D
0000F0CC
00009D7A
00084653
FFFB5F01
00017259
0002E45F
FFF67B70
0004CFD3
FFF764AD
0006DFC2
00079F73
FFF41807
FFEF7ABC
FFF69FDD
0003D3DC
FFF99A4C
FFE66B31
FFED5AFC
FFEC201B
000144BE
FFE7C95A
FFED8885
FFF77A83
FFFA8DA8
00081B7F
FFF71858
0007CB43
