FFF721E7
FFFBFA27
FFFDF863
00039948
FFFB800C
00032964
00004741
FFFD3EB3
0007847A
FFF94AE4
FFFCE138
FFF7BA1A
FFF51315
FFF60A79
0004CD2A
00001E5B
FFFA22D2
0000DF67
FFFCE48C
00014460
FFF88013
00083339
0004B73C
FFF8DCE4
00088BD9
FFFCC382
FFFB7E50
000817B2
FFFEAC70
00060DF2
00021AE4
FFFFFB94
FFFB52B1
FFFC0F78
FFF43BD8
FFF43EB8
FFF5BA64
FFFEF24F
FFF274F9
FFF18551
FFDF2C62
FFE68FC7
0015CA66
FFF275EE
FFE46CB2
FFD99144
FFEDC381
FFDF782B
FFDB019C
FFF4D70A
FFFEE007
FFF1668B
FFFBAFEA
0005DEC8
0000C44D
FFFD0153
FFF9192C
0002D505
FFFA090E
FFE56C99
FFEBAD14
00057556
0000A045
FFECE062
FFF247D7
FFEC3C6E
FFEA7406
FFE355F7
FFE8282B
0010042E
00169031
00248993
000B97C6
000AC28C
000FC837
001B529B
FFFD0AFF
FFF73EDD
FFF05EA7
FFEEE0BF
FFF565E3
0008730D
FFFE776C
0001504E
0005DFF0
00000029
0013754A
FFED35EF
000B22BC
FFF05460
FFE70F37
FFFF495B
FFF5740B
FFEF7596
FFD8838C
FFCDE032
FFE3ED42
FFE7C48F
FFE9C285
FFF26CFE
FFEE48A2
FFE03ADE
FFEB34A5
FFFB5AC4
FFFEE2A5
0005E496
0004CBDF
FFFC650F
FFF53D11
000601E3
FFFA4CD2
FFFC1D3F
000923E7
0005104C
FFFFCFAD
FFF08BA6
FFEAEF80
FFF67A7D
FFE3C094
FFDDDA65
FFD776DE
FFDF786D
FFD537D7
FFE9C92E
0002C551
0006E40E
000A541E
FFFBB353
000101E5
000B9478
FFFA3D05
000C172D
00058886
000D09F4
00016072
000A8B27
0004C2D1
000998C3
FFF774DA
FFE8475D
0005CF1E
FFF9729A
FFFA3EF8
FFF9A220
FFE675E7
FFF0D6C6
FFDB92B8
FFD13030
FFCFA457
FFD8F7C3
FFE822F4
FFF11A35
0003DFEE
000339DC
000B1E6B
001173D2
000763D7
000DBCC6
0004D0DF
000794C5
000FCA38
000BA4EE
000B3EFB
000462A0
001301DF
0002C75E
0002F65C
FFF9F45A
0005CBF0
FFF088D7
00036D23
FFE6F95A
FFE27A0B
FFE89926
FFD3A645
FFCDF1A6
FFBC8F06
FFB953D1
FFD73DE2
FFEDB9F6
000814FF
FFFC83B4
000F1B14
0001342C
FFF7B7C4
FFFD78E0
FFF52C9C
00009B0B
000A4FA9
FFF156E0
FFFAC7BC
FFFD158D
00089249
001871F6
001E0B03
0008FB8A
00078A58
FFF4173D
FFF5B6D6
FFE73F5D
FFDE1F11
FFDD40B6
FFE18A44
FFE29994
FFCAD0BF
FFD3AC0A
FFE61EBA
FFFCC0F7
00017224
00002F6A
000E137F
000C8177
FFF90C88
0001D789
FFFC1431
FFF4B9F8
FFFB997D
FFF89B48
FFF48A55
FFE7E8A2
FFFA8013
001435D6
0024352A
0003C655
FFFCECD6
FFF66F0F
FFF8C29B
FFD7A6A7
FFDE884A
FFE422D0
FFEE41CA
FFDB18CF
FFD6EF05
FFDDD9DE
FFEA610D
00006D7A
000A8552
0016868F
00127CEE
00080B29
00001A7A
FFF7E6E7
FFF31F87
FFFE8ACB
000EC60A
00052283
FFF5699E
FFFD8ED5
000A8AB0
002563FE
0012BE9A
00028E66
FFFCB99E
FFFE980B
FFED46E5
FFDEFB5C
FFE42F58
FFE8C44C
FFE197F6
FFEA8D7C
FFDFA204
FFDDB942
FFE8ED53
0008F1F5
000E190F
001E4EB4
0012D6A2
000B0663
0001DD77
0000C10C
FFF4073C
FFF9B7C7
00032919
000C8450
FFF3EC98
FFF3EC76
0016C017
00330F50
0026405A
00062C39
FFF4DF1B
000BDEF7
FFF6B713
FFD0C9B8
FFDE4EDB
FFE7BC22
FFEE12E3
FFFD9971
FFEC6CC3
FFEA5743
FFFF614A
0001E01F
00192124
00056C25
FFFFF375
0006BB30
FFE529C4
FFDCF2AD
FFDB7E64
FFF70565
FFF5EA2A
FFF1A9A2
FFE37927
FFDE0E8A
FFFC0E42
0021CE72
0019B677
0000AC48
FFFCAFD9
FFEF4776
FFF672D9
FFE6A214
FFE070E4
000ABA60
00074BEB
FFF66ABF
FFEE33AB
FFE4BE8F
FFFDE598
FFF78F6D
000380B3
FFFFBF79
FFEF414C
FFEF8412
FFE70F31
FFC669F7
FFC0862E
FFDD8757
FFDAE9A5
FFCDBAF3
FFC7A509
FFC817EB
FFD9541E
00109341
0001D053
0005DC29
FFFE1A9D
FFFEA3D4
FFF090F2
000DD8D2
FFF7D3AC
0007E380
0005D74E
FFFA1AC9
FFF37FE7
FFF1F4A1
000A9F56
0010B889
000E9E56
00064CFE
FFEF73FD
FFF10F20
FFE8D43C
FFDAA2E3
FFC9DA68
FFD1F723
FFD33FEA
FFC1632E
FFBE5F74
FFADDCB0
FFB49772
FFF592FC
FFF69C73
FFF17BA0
000B1FBA
000849B8
FFF37F8D
0019C882
FFFE7CCF
001F456D
000CAD50
0005E227
FFF68939
FFF53B90
000045A6
000EE06F
001C774B
FFFEB74B
FFFD82F3
00116ED2
0005BFE9
FFFC4455
FFE710B8
FFEC779B
FFF0CD89
FFE8BF37
FFD0787A
FFC9F1E7
FFCB0509
FFDF9570
FFEE48C1
FFF7B3F5
00055859
FFF1FFD4
FFFD3F22
0017CC0B
0015206F
0027FD80
001D9710
00096E63
00071256
000666B3
FFFFE105
00002FDC
000242E4
FFFFCD2F
0004F77A
00132CE4
00155C1F
FFFA88C0
FFFE45F4
FFE50115
FFEB4E62
FFE59220
FFE16730
FFEF7824
FFEF832C
FFFC8DED
00020D05
00041172
00059CA8
FFF0BDE2
000CDADE
00233380
0016BDFE
002B1BA4
0024657A
0014FB4F
0022EE2A
000FF40C
00010DEA
FFFB04C5
FFF2DF36
0000C92C
000775CD
00127BE3
000D6429
0004B14F
FFFC949F
FFF7F5DD
FFE81745
FFE8AD4D
FFF21C1F
FFF65636
0002CC0E
0019AF42
0017CD29
000B42FC
FFF4BAFD
FFF05FBF
FFF287D4
002A9F91
001DDCBD
0019FC3B
00221A9E
0022C0AC
001AB60E
000DF3CF
FFF54B1C
FFF17239
FFECCF39
00041571
00226F68
001D29C4
00178A93
0001B3C3
0003135B
00075EF2
00093906
00051280
000B3011
0003DA8F
0001F749
0032A3DE
001E21CD
00120C9A
00011E77
FFEB3B84
0009AA9F
001BA6A0
00237814
001EB2EF
0029E52B
00164AF2
00173D6A
0001940A
FFF46EB7
FFDE52F9
FFF35B6C
000461D6
002D96E0
0025557B
0007ECBD
FFF390B3
00058458
FFF9642D
000B1067
FFF9C802
FFFF8723
0002CE03
000AE632
001726BA
002382E3
0016F3A4
FFED88EA
FFEFC00F
00117082
001D41F2
00247FF0
00279DDE
00249F4A
001C43EC
0012DE33
00006E21
FFDB69D4
FFE2F37E
00079CB1
002150F6
00231196
001FCDE0
000B1076
FFFE9EED
0000ADEC
000EFBE1
0005E4CF
FFEC8864
FFE68F3C
000412FF
002B6333
0016D2DD
00069124
00269954
FFFB7222
FFE3351A
FFFD9167
001232BA
0016D782
001A3028
000EB527
0003D599
000162FF
FFEA828B
FFD92F7E
FFE96983
00031CB5
00152186
0017957E
00195682
001F371F
0011AC3E
001DE147
000EECC5
0012A046
0003CF82
FFF8CAE9
FFFF200E
00307A56
003BDE46
0025EF20
001AFFE6
0007D96A
FFFE5F15
000058A8
FFEACFC2
000DBAAC
FFFD98D7
00069A0D
FFF43DCA
FFF8D0DF
FFE6C865
FFE40417
000694B3
0007CBB7
0001FB92
000E2864
0017999F
001BA0C5
001C56D1
0025FD2C
0015CDD2
00114B5D
000530D6
000A5180
000269D5
00237A13
002011CB
00199FD8
00026FC1
0005D661
FFFF02E0
FFF5AC5D
FFFD69B2
00235C4E
0008FFEF
FFF98CEF
000547BF
FFF5998C
FFFCA40E
FFF3D1F4
00056F67
FFFB73EC
FFFD224E
0001494D
0006A4B6
001588DE
0016943F
001D48B5
000FB254
001476CA
0018221B
0017EBD5
000F29C0
001BECD0
0022CA3A
000908F0
0005442B
0006760E
0004BC64
FFFB00D4
FFF438A7
001C1CFF
0013DB6E
FFF55712
FFF0FA84
FFFA9140
0005F0D9
FFF94EB0
FFFF1D21
FFF9C7B0
FFF85C30
000318F5
000432FE
000D6406
0018B66A
0014B470
0023BEBB
00282FDE
001E19FF
00101CBB
0009303E
0011EA60
000B71E4
00193BBC
0004393E
0000F0B8
FFF84973
FFFFE92E
FFFDF246
00120942
0006DE4A
FFF3D476
FFE5563A
FFF478F9
FFF5467C
FFFED6B1
00038A49
000B84CC
FFF6D7A2
FFF6514C
FFFD46A6
000A7716
0002E63E
000E8C0E
001411B2
001CA964
0013EB67
000FCBAD
0009971A
0004B115
0011A4A1
0019D3EE
00089277
FFFD2D88
FFFC0B6F
000106A1
FFE4F401
FFF1E50C
00052DC7
FFF81231
FFE7B8F5
FFE9CA15
FFFDFA93
FFF40F0C
FFF525CE
FFF501D6
FFF022EE
FFF7208B
FFF50F6A
FFEFA161
0002DC23
0001F045
000B8FDA
00147B5B
0014AC3C
0015A1DD
FFF78D8E
001AD60A
001BF7FC
000801D8
00076BBA
00067828
0004ED09
FFFFB7EB
FFF8D655
FFFFB8F8
FFE114FB
FFDBB5B6
FFD5E575
FFC9FC9A
FFCFDE22
FFD4AE1A
FFD9A2EC
FFDC09D5
FFD71DB8
FFDAF54C
FFD8A678
FFC474AF
FFCEF706
FFDE24BD
FFEC8240
0009853C
001AA325
001876CC
0013979C
001102AD
000E1347
000F7EF4
FFFA8838
FFFF73FC
00004B6B
FFF91DB6
FFFD4F4D
FFF9BFEE
FFEFE7E2
FFE2D7D9
FFE1E08A
FFDCA10A
FFD35C3A
FFD869BE
FFCFD551
FFC6EF24
FFCD03CC
FFBE2FDE
FFD20E61
FFE7C14E
FFE38EA4
FFEF73CB
FFE67273
FFF9B50D
FFFF3219
0000B8ED
FFE374EE
FFFD3AE3
0002B240
FFFF938B
FFFED9CB
0001D223
FFFF7B1D
FFFF246F
FFF818FC
FFFCFAE4
0001B055
FFF3D201
FFFD3012
FFFC092B
FFEBCD1B
FFFC2DE0
0005674F
FFF91E21
FFF4DA1F
FFCFB188
FFE434B3
FFFBA604
FFD8A8B7
FFD7EAE3
FFEAF2E5
FFE868DC
FFF0EEF3
0001DE29
FFF81385
FFFFC0B4
FFF7E3ED
FFFC5CF1
0000C149
