FFFA1129
FFFADDD9
00066CA9
00051A23
00046BCC
FFFEE17D
0005B60B
FFF6DCE1
00032D18
00009F82
00076F35
000193E0
000183DC
000D8272
00023431
FFFD2FDD
FFFE64A5
FFFFD7AD
FFFC4383
FFFC5049
0002F6E2
00009BF7
FFFBE387
FFFDCCF1
FFFB47B7
00021AB0
FFFA1C56
FFF7BBC0
00016D5C
000175EB
00023B64
0002F072
0000C5DA
000723AA
00121519
0009ED9B
001C20C7
000408D1
0014CD11
000F8FF4
0026138C
001558EF
FFDD1CA0
FFF2B44E
002A3A66
00285C47
0008668E
00132CF2
002520D8
000EC1D6
000F9620
0014565B
FFF92260
0003CED6
FFFDDD1E
FFF7B225
00014F4B
FFF7E769
00041C28
00178E9E
0015EE70
000A43D4
0014E700
001B082A
0019F489
0025A525
0030CA94
0036D09D
00204C1F
FFF10E44
FFF81131
FFF2A415
FFEC447A
FFFABA4C
FFFDC321
FFFD7226
000C9D11
00118C8C
000E7D7E
001EED50
0017D8CB
FFF5E9E4
00029133
0001E4CC
FFF9B288
0006F4F6
FFE2C9FC
001AA708
00064BBE
00195ED7
0023229D
001E5505
002749CD
001710D3
0033F34E
0031615C
0022D3EC
001E0F2D
0025B704
000DAC53
000D19F1
0003FDE0
0008211E
000A5187
000DFBA4
0006BB6E
FFFFB6C5
000C6FF0
0008C57A
FFFD3AAC
0007E2CA
FFFD1CE9
000602BA
FFFB60A5
FFEE6C55
0001CB80
000A114C
FFFFFFAC
00099E4D
001B44C4
001D8D67
002741AA
001D994C
001049BC
000447D1
FFFFBF50
000BE7D2
00003018
00049E17
00009DCF
00025D6C
00092710
00110A3A
000678AA
00090100
FFF8B0C7
FFFF0BF5
FFFF009D
FFF2B40A
00102E86
FFFDD2B3
FFF98724
FFF73150
000A1F20
002890D9
FFEF3B4B
FFF9B0DB
0006B501
00077BAF
FFFB26FF
0009469C
0003659E
000AB5A2
FFFD40EC
000B7DA0
FFF6D224
0004B648
FFFB2B93
00091046
000696FA
000F17A2
000CAF03
001751C6
0016F9D6
00065A6E
0007D381
0005B54D
001C63E6
0002E41B
001BC2F8
0003D691
000822CC
0023995A
00137420
00057FB3
0006B8D6
FFEEA560
FFE6BE9C
FFEA8445
FFF0A65C
00041143
000BCC09
000FAB7D
FFF37DBC
FFE8C628
FFE0DA66
FFD8D8BD
FFDDAB82
FFDF31AA
FFF942C1
00121B12
0011EA8E
001307D3
00060E10
FFFFF936
00067555
FFFC6402
00188EB8
FFFD9ACF
00106E9D
00332029
00260B96
000F890E
FFF88696
FFEF745E
FFDFA474
FFE1E361
0008F9A3
000C80FF
000FDA01
0000C052
FFEA8620
FFE089CC
FFE9E6F1
FFE59A4A
FFE6E4C7
FFDE9F1C
FFE9FE25
0000835E
000A2BDE
0025DE54
00212A80
000D3346
000762B0
000F54B7
FFFB5D81
000B9AA0
00237AB0
002E0077
001AA8B4
000A58FF
FFFB8C10
FFEB84A7
FFE4E3B5
FFF3C4BC
FFFC3395
000FB598
0008939B
000B8113
00018E29
FFECE5BC
FFF4FACB
FFEC2526
FFEDDB6B
FFF94E46
FFF1B599
FFF742FE
0011EDD1
0006AD51
0007A33E
FFF685C3
FFFB9334
FFF148B6
FFFC2B98
000DF406
0013D792
001FF99C
00082ADD
FFED2ECC
FFE3C706
FFD811C9
FFE5A475
FFE88612
FFF005A8
FFF9C558
0007485F
FFF81074
FFEEF775
FFF56C79
0001AA7D
FFFEC852
0007ADE0
0002807C
FFFE27F8
00036E5C
000214A7
000D1463
FFF64FE9
FFCFA4EC
FFEA52D0
FFF62AC8
000688C9
FFFE3ABE
FFFD4A4B
FFFA9502
FFFB1DB2
FFDF20B4
FFDCAAF9
FFDCB2F4
FFD5C7BB
FFDA5515
FFF08196
FFFB85ED
00049717
FFFD9F99
FFEC7E86
000580B2
00136876
0009A3DA
00040D0B
000137E6
FFF4E712
0007A19E
FFFC39EE
000A362D
FFE34DE3
FFD467DA
FFE46B9C
FFECD6D0
0011CF61
FFF29365
FFF0A6F5
FFE4B0DA
FFD26142
FFE0F4B2
FFD5D9F3
FFD800F6
FFE7B392
FFE85A09
00091F74
000931CA
0004F014
FFF7F067
FFF15714
FFF72080
00042DDB
FFFB3DC6
00048FAC
FFEAA6E6
FFF1692D
FFFE913F
FFE9A418
FFFECDBC
FFE368D7
FFD60E71
FFEBD88E
000638EF
FFFB4ABC
FFEE50EC
FFDCF3FA
FFD46B74
FFD46A98
FFE60CB4
FFE4FA2B
FFE9E2E4
FFF9C3A4
00082ACE
0019BE2E
00259AB9
0023E2E2
0009CA6F
FFFBE9B2
FFF20220
FFFDFCE3
FFE8F4AB
FFEA20E7
FFF4109B
FFECB570
FFF542B0
FFEB4AC6
0011DCAE
0006BB7D
FFE5BDFF
FFF371FC
FFFAEA26
FFFCA2AB
FFF406DA
FFF0D76A
FFD6FB38
FFE5A2B2
FFFA5BFD
0004E3D1
0009C644
00172465
001AA489
0024DF60
003640B9
000F4F77
FFFE44ED
FFF51482
FFF1A241
FFF8C9CF
000097D4
FFF0EC66
FFF29774
FFF9FBC7
00063B60
001A2452
001A792C
001AD2D4
0014476D
00131CB9
000BE50A
FFFD68E4
FFEAF805
0009FBBB
FFDC5633
00027BE1
00035BE1
000BC1F0
00185251
001A7FE5
001FC49D
0023E816
001A2FB1
FFFF8067
FFF8AA5C
FFE9201B
FFE84593
FFFE04C3
0004D758
FFFE15F1
00016077
FFFFC743
00042241
000B1779
0027C732
001E304D
001605EA
0010867F
000A7190
FFFF4B16
0012832F
000C2F09
FFEDF2C8
000F044B
000793A4
001244F9
00072FE6
0014B7A0
000A7581
0013EBB4
FFFC242B
FFF4F354
FFFE97AB
FFF3ECF6
FFF9A136
000BD450
0012C11A
000C196C
00102AF5
00150113
000B4206
00159997
0027BF5B
001C8346
000AE26C
00147F25
FFF42B1B
00048A84
000E262B
001DB3F1
00013729
00021291
FFF7FB6C
0002596C
FFFD5215
0009A10A
000B185A
000BE20B
FFFFC259
FFF494B0
FFF3FA1E
00021E4E
FFF8287E
000FB917
00179350
001D50DC
0008DA06
0015A1F4
00127877
000BA07B
000F727C
002F75FE
000B5199
0009D79E
000614A4
0004D358
001B0B0A
001FFAB2
0016B4DD
FFFF3E0B
FFF74226
0005935D
00083DEA
FFFABD5A
0011BBCB
00099F8B
FFFA1AD6
FFEF5632
FFFB20AD
00067E33
000E1606
001A78FB
000CAC38
001049AE
FFFC6E27
00133D50
00064291
FFFA12E6
FFECC0D8
0005D8E2
FFF33949
001D232A
FFEE5374
0000A410
00077C3E
002E383D
001C0BD4
000685B7
FFFA9C66
000BDB48
00037982
00021CF9
000F1A79
00038FD3
0006D0ED
FFF162A7
FFEE955D
000268F6
001017E8
0003D3BE
00069D75
FFF3154B
FFF6B731
0003DDC1
00012F3C
FFFCEE12
FFF48AE3
0002F6DE
FFEA0AB4
000579C0
FFFD3440
FFEFB408
FFF36FC0
0030E216
0013F7F8
00168A59
0004ED32
FFFFB3C8
000E69FA
000DAC02
001E755E
001FAF46
001667F4
0008BA2C
000DAD01
001A3AF6
FFFBDBBD
00031D87
FFF8EA26
FFED59AC
0003FF1E
FFFA85BA
FFFFB78F
FFF42A0A
FFE05C17
FFE83FE9
FFFD2F26
FFFFCEFB
00060EFE
0005B4BF
00117526
003AB681
0013129C
0002C5DC
FFF91A34
000120F7
0008B9E8
0018C634
001C3A35
002C1182
0025452C
001AF2D5
0015DAEC
000C028A
FFFA5D15
FFFAC8C6
FFF016DE
FFF5C9AF
FFFBF11E
0002D6D8
FFF40EDB
FFEAEEDE
FFDCDC92
FFE8829B
FFFF4B41
FFEF9C9E
FFF22484
001F7A7A
002D14A8
00299BDD
0003D790
FFF0EDD4
FFE1B73F
FFF80282
000F08A9
000C66BB
00113243
0028DDED
002653F5
00224D48
000C2120
FFFF08E2
000353D2
0004230B
FFEBA078
FFF5EFB4
FFF99E28
FFFF961A
000EC04F
FFF37424
FFDEFDCA
FFF898F0
001FB44F
0000849F
FFF0172F
FFFE656E
001BF390
00238E4C
0000FE06
FFF41824
FFFD45E4
FFF36A9E
0000B192
000E784F
001ECA9A
001C4690
001DE6F7
0018A2D4
FFFEF813
0010F477
FFFFE9E0
FFF75492
FFEBDC3D
FFFD3D20
0005FEB6
FFFD5B8E
000AF726
000254CD
FFEF8C60
FFEE5FFE
FFF40447
00008767
000195A8
00063EFE
003239F8
002C39A0
0011A9A6
FFFB2A51
FFFA5988
FFFF4EFF
000E2C6D
000D6C01
00155B55
000DF9CC
0003C1CF
00038FDF
00052725
FFFC0031
FFF1DB49
FFE32BDE
FFF8358E
FFFF2B26
FFF6E1F6
FFF9431E
FFFFC3D7
0001EE41
FFF84634
FFF33963
FFEC351D
FFFBBBEE
FFF7FAF5
FFFAD341
FFFBFF5E
000BDCBF
FFFED65E
FFEF4B3A
FFF24E1A
FFEB02BE
FFEF87E8
FFFBE2F3
FFE9D33E
FFEEF075
FFEC4ADA
FFEE76E5
FFF4ADB3
FFF0B6F3
FFF89E15
FFF07A1F
FFFADBBC
FFF2DBEC
FFF917CD
0001F537
0002B883
0002CF65
0018F8C0
00116B72
FFFDA671
FFFC476E
0000D376
FFFD4A2E
00022ED6
FFFF44FE
FFFF9C30
FFE3BD90
FFD49436
FFDE38A3
FFCFE6C6
FFD2A532
FFE0218C
FFD75D2C
FFBDCE76
FFBE2EC0
FFD86AE8
FFE59B04
FFE60280
FFEB5B9E
FFE61083
FFFF749B
FFEBBC1A
FFF093D1
00069F71
FFFFEFCD
0000F39A
0004D649
00054E52
FFF977D9
FFFDC664
FFFF6BA7
FFFF539E
0001A333
FFE9150A
FFCFF84A
FFC665C7
FFC41767
FFC6AC53
FFD4ACC4
FFCBF500
FFDE6E5D
FFD4AFD3
FFD9C38F
FFCD3409
FFEB4BC8
FFED3766
FFE9B36F
FFE97CE6
000699D5
FFFEE829
FFFE0489
0000CA2B
FFF6AC60
FFF87361
FFF9C048
00054A7E
FFF90AF2
FFFC5099
FFF75DAD
FFFC1A60
0004C09A
00037DCD
00067936
FFE998C3
FFF342E6
FFF18C32
FFEF2AC0
FFF00002
FFEE3374
FFF0C24D
FFEA4958
FFE2DE64
FFE37101
FFFB96C0
FFF6E06C
FFEC06BD
FFFFB656
00005465
FFF6B646
FFF3DB4B
FFFD528D
00071256
FFFE4C95
FFFCA383
FFF8D23A
