000660F9
FFF978A6
0004C60D
FFFA4C9E
FFFCB401
FFFD0E0B
0005A018
0007F04C
0008FB48
FFFC0DF3
FFFAB132
000255E5
000038B7
00095B7C
FFFA22C7
FFFB0192
0001D05E
FFFB0F8B
FFF77BE3
00078F15
FFFDC7DE
00087CB1
FFFA8191
FFF988E2
FFFFA326
00041EB0
00035EB0
0008ECB5
000525A2
FFFF5499
FFFA0B33
FFFD8813
FFF9DE43
FFFEFAC8
00018F43
FFFE8063
FFFBF696
FFFCD9AE
FFF88E0F
FFF84A58
0004126D
0002A33D
00040068
FFFEC902
000A17DD
0001C064
FFF76405
FFFE917A
FFFCFBFB
00024017
FFFD36C1
FFF79F27
0005F724
FFF87242
FFFD80EC
FFF71BD9
FFFF232E
FFFD93A0
000084D8
00049604
0002635D
0004FB74
FFF7E050
FFFF2E87
00156326
0007B455
FFFE9549
FFE8D247
00042363
FFF8D7CF
0006CFBF
FFF824D8
FFF378B9
FFFBDB7E
FFF7C45B
FFE2B516
FFED48AC
FFF251A5
FFEFEE09
FFFB8B67
000B7D0B
000C11FA
FFFE1E97
FFF74134
00037A89
000843EE
00125A7D
FFFF3871
FFFDEB0E
FFE53041
FFF427AF
FFFAE8A5
FFF3A95E
00022600
FFFCBE35
FFE69641
FFEA0182
FFE8EFFA
FFDCD273
FFD959C2
FFD92133
FFD7D18A
FFE858F1
FFFB4772
FFDEBBA1
FFECB387
FFF70B62
FFF27AAB
FFF1D4DD
001308FE
0005B20D
FFFD88A7
000264C3
0003F8ED
000D81A4
FFFA7BAA
FFEE67F6
FFF7D390
000A9084
FFEF7306
FFED274A
FFEEDDC8
FFF48632
FFE13E72
FFEE363D
FFEC6428
FFF1B493
FFEC8184
FFF7CD05
FFED8ED6
FFEFCDC1
FFF43878
00049344
FFF3DF80
FFFF015E
0014CDB7
FFFA6025
000A7AE4
0007690F
FFF09393
FFF7BBC7
FFFF48F6
0017F8F2
FFF6F049
FFFEDE4A
FFF49D24
FFF5EEC4
FFF515FA
FFF5C382
FFFB513B
FFF22DAE
FFF8D412
000FF0CD
00091130
000D25A0
000349AE
FFFD5E1E
FFF4967B
FFF2AB69
FFE3FFE0
FFF1E42A
00057AC6
00191DFA
00157A80
FFFD6E20
0010FA0B
FFF818D8
FFE61E4E
FFFCE2A7
00050268
00062EFA
000D1BB6
000FDB99
0010E16B
00043951
0006782D
00064F71
FFFF5E2C
0004940F
00157C7C
00157FF5
000AEA63
000C0425
FFF465C1
FFE45CF6
FFFAE9B7
FFF4E748
FFFEFC1A
FFFC4809
000A177B
000C975F
00090556
00069BF7
0010C92C
0005A871
FFFE7AE9
FFFD3029
000BE810
00152D61
001FCABC
001DC140
000B339F
00049420
000D6C4E
00053292
0003E805
000E9166
0006F4CF
00155CCA
0013A2FC
FFF8520C
FFF85ECC
FFFE2611
0000163D
0003B721
00080B2E
0015C3C3
0019A3E9
0028B856
001D6FFC
FFF719D2
FFFF286C
0011BAB1
FFF1311E
000BF8EF
0022B1CA
000763F7
000D5CBA
001B16C0
00107716
0008BF05
000861D2
000A103E
00047704
0003550D
000C58CE
0023BF6C
0018C806
00194A23
0009FE24
0004F6C1
00145A89
000557A9
0019C628
0029A26E
0018E668
002769FD
0024F721
000A5C4D
00036254
00215157
001BAB1C
0010AD44
00140A30
00211060
000413BC
000B95F5
0017C74D
000A6EE0
00133596
0012FA59
0010A56B
001AA716
001F3546
0025C04F
0033CF8C
003E7F78
002AD2A7
001648D1
001556F4
001ABC20
0017D593
0018DD03
0012600E
001901E6
0024B682
001AA825
002E5AE1
002BC5DC
0027AA15
001904D4
0015D228
002154C2
FFFEE16A
0003503B
0023D81C
00142F13
00210E5E
000CCA40
00186D5A
001C9339
001D179B
002FAFF9
00441F6A
003B49B4
0022072E
00101079
000DD7BF
00066CBD
0011865A
0005C5A2
000A9428
FFFB17F1
FFF0038A
000BDFE6
001300C4
00384523
0012F718
000F5650
0023704A
000D3C36
FFF303BA
00170BFE
001BD284
001B5F06
001839D2
0006356C
001659CA
FFFEB9D6
FFF72E90
FFFE9869
FFEBC5F2
FFF40B43
FFFC6849
FFF51666
FFF063F9
FFF52BCD
00006F11
FFFD281C
FFFDA186
FFE92ACF
FFEBCB33
FFE5B66A
FFFF8D32
0030CA48
FFFCA28F
00057E01
000A8A57
001BA94F
FFDF5F5A
00013AE1
000BA0D9
00051FF9
000D151E
0005CBB1
0009FDCA
FFE19D81
FFCD0E68
FFCBF84D
FFBA2888
FFC5F6F8
FFD6E04C
FFDEA9FA
FFE7DF5A
FFF5B85D
FFEDE2F2
FFE0F72C
FFDFBFDA
FFD5785D
FFE0C6F2
FFFBBF5A
00152093
002AE36A
000DCFA3
000B308C
000E38A7
0015704D
FFE27AA0
FFD6FD54
FFF31DA4
FFE6C95C
FFEC1152
FFECE0F3
FFE8075A
FFD622EE
FFC96FD0
FFB6F5E6
FFBFAE99
FFE52BD5
FFDE8854
FFE9A619
FFF182E6
FFEAA254
FFD0372C
FFD93334
FFD75283
FFDA9DF1
FFDADC18
FFFA3DAA
FFF6265A
001A397E
0006BADE
FFFE96CC
FFF709E4
00111C0A
FFDF24E2
FFDC9969
FFD28417
FFC5CE3D
FFD0FA6F
FFCED202
FFC64B9C
FFC50098
FFBE18B0
FFBEC30D
FFD9513E
FFF1A05E
FFEF221E
FFE3BC81
FFE5C8F0
FFE7B3CD
FFDEBC69
FFD9616F
FFDF6FE5
FFEC0B56
FFEF1FC6
FFFCCEA8
FFF144E6
001A3341
00132478
00087B68
FFF55DEC
FFFA6D8B
FFD79B30
FFD4A87A
FFAFA2B8
FFA7D0F4
FFB560E1
FFA96B8A
FFB7E9F3
FFBF6330
FFD49C73
FFF81244
000FA56A
FFF61526
FFF36370
FFE3BB82
FFEBD21E
FFEB38CD
FFD312DA
FFD5885A
FFF1970E
FFF217ED
FFF2F042
FFFF7BA5
FFFC0109
000C5E50
000D3BC2
FFFECB49
FFEF480A
FFF44CDC
FFDF3D3A
FFB97469
FFA04B7C
FFA7F972
FFA7C5A8
FFAF7736
FFD08890
FFEB64E0
FFF51DD2
000E9BBA
001E656B
001276B0
FFFE681C
FFF9C814
FFECB993
FFE3B411
FFE17F8B
FFE991B9
0003F464
0004CCFA
FFFFCF83
0003C7B1
00160F94
001B062D
0014B86B
FFF7BF3C
FFF23FC1
FFF12F9D
FFEB481D
FFD29192
FFC22CCA
FFBDCCD6
FFC6D6E3
FFD2D860
FFE7A6BA
FFFFFE55
000D50A2
001BAFB6
002AB43A
0012EE4E
0009B8DF
FFFE2F49
FFFBBBB7
00040CEE
FFEFEFF0
FFF62375
00072E4F
FFFBF19F
0002E2A2
000F5D8C
0024B29C
001E630F
002B8163
0005153A
FFF843B1
FFE3DED0
FFE217DD
FFF09327
FFEAE6FB
FFE4B3BA
FFF7D37B
FFF75728
0006B6AA
00076E34
000E1E4F
002725FD
00198C26
001D6FA4
00099934
00085B55
FFFA6E10
00058315
FFFD9B26
FFECD2CA
FFFEF039
FFEFD71E
FFF4312F
000383D1
0024431A
0018E8E3
00224C50
000B3169
FFFE707A
000071B3
FFF55EA5
00004008
FFED8BC8
FFFCC41E
0005B326
00146B65
001C109C
00069085
000F8A49
001AABB1
002AF458
00156901
001E8CD0
000CD3AA
0003BEAB
FFF13746
FFF761E3
FFF71500
FFE83EFC
FFECED73
FFF4ECA9
0003045B
001B5808
001D4702
000FC1FA
FFFDDB3C
0004A841
0013EE30
00111D7C
00001FDA
0009E14C
001F54E7
00201218
001C38CB
00103A05
0008AD2C
00222D0C
002EB3CC
00168D5C
00193DCC
0018DBDB
00102284
0009053F
FFF928A9
FFF29EA4
FFE8FBDD
FFF79A72
FFE8812B
FFF5DF2B
FFFE46FD
000775F8
000E442E
0005BF46
00060038
0002CBC2
00144F50
0005A4BB
000C3364
0013EBD7
001207DA
000CC2D2
0017C6ED
001CE99D
001DA9AD
00128713
0013374A
001029AB
001DBCC6
0012A795
000F508D
000BDD1B
000B9E63
0004BEBE
00019F9E
FFF0B712
FFFF7705
000DC979
0010702D
001E5B57
000CEA41
0001096E
0007FED8
FFFCA26B
000C4ADD
FFFDE2BD
0005EEBC
0029A70F
0023A3D7
000E8E87
000DE7FB
001CDA99
0016573E
000961D9
00149E1C
0007A94A
000C4653
00090F06
00088D02
FFFCB618
00047CA5
0005339F
0002F042
FFF45634
FFF9AD05
FFFC3F8C
00031647
00250817
001660E7
0006443A
FFFDB214
0008CE9A
FFEBB76A
FFE36111
000049BC
0016F0F9
0017BCFC
000B1ECF
000DAD04
00166B11
001034AE
0018FB37
00194D88
001567EC
000C109D
000A4147
0001E6FF
00008F2C
0005D3E6
000DC051
FFFE60A1
FFEF1CCE
FFFF671E
00016A9E
000E01A0
0011E552
00150409
0000870D
FFFCDF87
FFF7E581
00068026
FFD7BE9C
FFD40C39
FFF7164A
FFF56B0F
FFEF20D9
FFF39D09
000FEDDD
FFFFA291
FFFDB997
00062AB5
000A19AF
000EFC2F
FFFF98D1
000137EE
0007572B
00183C6B
00261A04
000AD988
0003D974
FFE81A08
FFFDD54E
0017ECBE
000E85BD
0014326A
0004A94E
FFFC4F85
FFFA6B02
FFE261E0
000E40F8
FFF64CAE
FFF1AA4E
FFF219AD
FFF70981
000B9A7A
FFF99B29
FFEE20B3
FFEEBC8E
00048AF4
FFF6D44E
FFF62970
FFF3FB1F
FFF82C8D
000F78D4
001177E4
001CFD8F
FFFC3654
FFF4069A
FFFD8E4B
FFFA4DC7
000ACFDF
FFFBB421
000237A6
00065D3A
FFFA625F
FFF9A000
FFFA3DCA
FFF8A2B0
FFDA1462
FFDB5B03
FFE681F8
FFF7A790
FFFF9095
FFEED6A8
FFFB27AE
00034F3B
FFFD4E9D
FFF86C8C
FFEDDC10
FFE0F7CF
FFE7580D
FFEF853F
000718B7
002131CE
0001CF9F
FFF14E2A
FFF5A98D
00124565
FFF475CF
FFFDDFD2
FFF7B795
00061874
00043F5F
00091C0D
FFF7A9EC
FFFC343E
00081999
00119E38
00121080
0013FC93
000E50A6
000D6F6F
001DEA0F
0002BA98
FFF85B59
00344811
0016A5F4
FFFC0C1C
0007BD05
001237DD
FFEF9926
FFFEAEAC
0004F3B1
FFF53860
FFF4A1A4
0009E018
0004655E
FFF88B65
FFFA032E
FFFAA66B
