00017B20
00048EB3
00082FE3
00050263
FFFF6E4E
FFFC70A8
FFFD95D5
000880B7
FFF748A2
00016328
0001788B
FFFE1D7E
FFFA2FE9
FFF8E41A
FFFFD1AB
FFFA3409
0003C0B6
FFF92F97
FFFDC5B1
FFFECDF6
0003B72F
0006B512
00085440
0000AAB4
FFF6EA72
FFFD8419
0001511B
000346BB
00080776
FFF75551
FFFD4811
0005E2DF
0004FB51
FFFCA2EF
0002992D
0005EB02
FFFFEF8A
FFFF195D
0000FBCC
FFFC2C16
FFF6EA0C
00049206
0002B24D
FFF9B58C
00018466
FFFD000A
00080EBE
FFFB819E
00082C26
0003CF2E
00010F48
000285D3
00015D7A
000506D8
FFFBD227
FFFD79B5
FFFBA3C2
0001B91F
FFFB17E6
0004DB16
FFFE34C8
0008E8B0
0003719F
FFF7762A
00016D40
00038BAC
FFFA122E
000157AE
000333A0
FFF75732
FFF7EA2F
FFFF8934
000363BE
FFFB0429
FFFB1AEB
FFFB5AEB
0002036F
FFFCB41E
FFFC0514
0000CA1E
FFFEEDDA
FFFEAFD2
0005CE8E
FFF8B10A
FFFF0A1D
FFFF01EF
00037A52
FFFAD8A6
00015120
FFF77A8A
00074607
0001B83C
FFFED7BA
FFF81B9D
00064B78
0008620F
00082EBD
FFFB8604
000052DE
FFFA8606
FFFAB55A
FFF94DD5
00052B5B
FFFC93B8
00032A02
FFFE46CB
FFFF43DE
FFFFEA0A
FFF9051E
FFF7BD25
0003A236
FFFFB6EC
FFFFC5F3
00006169
0000A47A
0005633D
FFFE4F9E
FFFDA910
FFF9B2F4
0000522A
0004C8E8
FFF957C5
FFFAD024
FFF9484E
000658E4
FFF5471A
00030621
FFF8DB1F
FFF6252B
0004F506
FFFEFF0B
00013B32
FFFAD5A2
FFF665E7
FFFFE8B8
00020640
0007F2D7
FFFAF34A
0008D644
0008EA25
FFFA8982
FFFCED54
000818A2
0003768A
FFF84186
FFF74448
FFF643D9
FFF8BDE9
00013FF3
FFF92194
000654AA
FFFC0591
0002BE46
FFF80943
00056A61
FFFFAE86
0003CE80
00014138
FFF5DB42
000396AE
FFFB1491
FFF8662C
000469E5
FFF6627A
00017314
FFF6AC1C
FFF8B32A
00042D6B
0002517F
00084AA0
0006EDB2
FFF887E5
0006092C
000745A8
FFFE6866
00031B59
00046661
FFF62EF3
00028B69
0002D1A5
FFF4551E
FFFFB4E1
00019572
00003F6E
FFFAE7FC
FFFF2A84
0003C3FC
0001666A
FFF74C6D
FFFB712B
0006FB6D
0003DD75
FFF9FB61
FFF749B8
00066B33
0008919B
FFFA5447
FFF8F395
FFFE438B
FFFEE39A
00014DDE
0003CC08
FFFAECA5
0003F1B2
FFF751AA
00027513
FFFEC2B2
FFF9337C
FFFF52DD
FFFFFDA1
000226DC
FFFAE6C4
FFFE95A8
FFF87121
FFF86C4D
FFF739AC
0000C726
FFFCF35B
00004930
FFFB46A6
0005088D
FFF83917
0001D949
FFF91C60
FFF6F08E
FFF8BA78
000865FF
000830F1
00040E04
0000904F
00067819
FFF988A2
00043AAA
000186B1
00041F64
0001D9FA
FFFDF14C
FFF72DDC
FFFA8D82
FFFE8540
00037A30
FFFB1297
00051C48
FFFDF705
FFF808D1
FFF90BB5
FFFE7A80
0004F393
FFFF8AEC
00079E8E
00065CF2
00083C60
0003C458
0000A7FF
FFFB997B
FFF94E2E
FFF78041
FFF7FFF2
00031421
000036A2
FFF63C0E
FFFFD533
000540AA
FFF780A9
0004AF6B
FFFE2A61
FFF66D56
0000B8BB
FFFF9DDD
FFF6E4A9
0004575E
FFF8BB86
FFFE2BFF
FFFF2538
FFFAC7E5
00035DD0
000525B8
FFFA7748
FFFD802A
000608E4
FFF8FDD1
0003B19C
0005076E
FFF7E211
FFF88D8F
0004A96E
FFFE1774
0003A1AE
0001266B
FFFCA788
FFFC97CF
FFF75ED2
FFFDF0BE
FFF8B1F8
FFF61BAD
FFF6D6F3
FFFD10F4
FFFA910F
FFF90978
FFFC9A3B
FFFE3885
FFFCEF4E
FFFF2346
0001EDF7
FFF8FC59
FFFE0F30
FFFD6308
FFF8A199
0003E359
FFFD7663
0006B71C
FFF77F18
FFFA0E0E
00043C53
00014F84
00051E61
FFFA9FF7
FFF52787
00017C07
FFFA609E
FFFD5A96
FFF781B8
00024533
FFFD2347
00000D00
0005B7A7
FFFEA2F8
000777E9
FFFD5606
0002D4F1
000082D2
FFF9DCE0
0001BF53
FFF82143
0002C68D
FFFB4018
00051A03
FFF7C580
FFFB471B
FFF8A9C2
FFFEFEA3
0007C784
00047358
0006A668
FFFF3254
FFFF3E42
FFFBF5C2
0000719A
FFFFFB2C
FFFDAA60
00010707
0000BCF9
00016934
FFFB6292
FFF6C60C
FFFDB82A
FFF9924B
00098EF4
FFFE053F
00044E5F
FFFBE922
0002C76E
0003645D
FFF7D551
0002BBDE
00008F1D
FFFC8B05
0000819B
FFFCF8BE
FFF7D423
FFFB44F8
0000299F
FFF78C3C
FFFE10F2
FFFCF0D8
0005F482
0001B814
00016281
FFF5D30E
FFF82356
FFF6EAE0
00059BFA
FFFC92D4
FFFB1868
0002E9DE
00031FCF
000ADA37
0003798A
FFFB9D19
FFFCDFD2
0007CCEC
FFFCDE52
0005F4DA
FFF84613
0001F211
FFFAC17A
FFFA9CFC
FFFEBD53
FFFB0E21
FFFAA2EC
0003F99A
FFFDBCDC
FFF82009
FFFDE6C4
FFF981A6
FFFC3E68
FFF9AE69
0004F81A
FFFE9936
FFF54D1E
FFFC262B
FFFC7249
FFFFD58C
FFF91813
FFFBF44B
0006328B
FFF88980
FFFA2020
FFFFDEF9
FFFF283A
FFFB4AE1
FFFD7EB0
FFF87B1F
FFF6EB4C
0007004E
00040011
FFFFFAD7
0004F5CF
FFFFCB3C
0001D158
0000AE0B
FFFFBC18
FFFFBE5B
FFF9B2F0
FFFA0A39
0005DCE4
FFF6295F
00033A05
0000AA3C
0004061E
0003BB8A
FFF5FCED
FFFDCBDF
00080773
00056117
FFFB79C7
00032F93
000548C0
00036C6E
FFFD0FF8
0006FA4E
FFFB72F5
FFFA9D18
FFF6906B
FFFB5E34
FFF9805F
FFFD95BA
000500E8
000854C2
FFF8A8FB
00032A23
0002B3D4
FFF79417
00012BA5
FFF8E9BA
FFFE969E
FFFEFB89
FFFDEE8B
0001E846
0000A2E6
FFFF0EFD
00066411
FFFCC073
00089166
FFF991A1
FFFEE497
000843A9
FFFBAD31
FFFE5D33
0002280D
0005927C
FFFEDFCC
FFF907CC
0003BCB1
FFFAFF2A
FFFAD959
FFFAD6F8
000AC3A8
FFFC1A8D
00061094
FFFC1901
0005BDC2
FFF811A5
FFFD6D99
0002C4E0
FFFF5E9C
FFFE0378
FFF95573
FFFB0F4C
FFFECDA9
000795E4
FFFE302C
FFF92995
FFFAC696
00053F50
FFF78540
FFFD98F5
FFFA113E
FFFE694E
FFF98F51
FFFAD6E2
FFFCCE52
00012AA1
0008F0D8
FFF9A69F
FFFE5EF8
000AD245
00085B75
FFF9146A
FFFDAF30
FFF7D6EA
FFFE5428
0001FAD2
FFF51FF8
FFFC16E7
FFF43448
FFF749B9
0001A5F4
FFFDAB06
0005C427
00062AAC
00013A5B
FFFD3BE1
FFF85336
FFFCAB32
00013D8B
00056629
FFF5F266
FFFCDB7D
0005EA6D
00075C36
0005CF98
0004DD4A
00037801
FFFA059F
FFFED1C9
FFF69BF7
FFF9F555
FFF88F2D
0004B4F9
0004289E
0002B41C
00054852
0000BA29
00029CE2
00042C82
0001A2BE
FFFC8662
0003187C
00018F06
0007137A
FFF927B9
FFFBEE2D
FFFA6AFC
FFF5D2AD
FFFAE468
FFFC2017
0004F54D
FFF4A17B
000523B9
0002640D
00009FF7
FFFAD450
FFFAD3D3
FFF74845
00032E7B
00019C69
FFF80128
FFF57B28
FFFCB50C
0003C35E
FFFF3F9A
FFF76722
FFF952FD
00077602
000546CE
FFF7D9A1
FFF86C33
0001958A
00000780
FFFB14BB
FFFE9572
FFF824DF
00046D3A
FFFFA8DD
0003E6A6
FFF5A90F
FFFA9B16
000156BA
000081B9
0002A7A8
FFF6FF66
FFFEED94
FFFA8A92
00027A91
FFFD90E3
FFFFAD78
00043B3F
FFFB5F41
FFF58587
FFFF4724
0009ABB3
000A0365
FFFDB1DA
FFFE3FAE
FFFB0E76
0008814A
00027851
FFFC21D6
FFF996D0
FFF66AFF
0003D8FC
FFFA97B4
FFF5BEE2
FFFF3F0A
FFF9CD67
0003E928
FFF83315
000658D1
00014D70
FFFD3A9D
FFFF6573
FFF547B6
0002BA2A
000227CB
0002E326
FFFE59E5
FFF9F68F
0000FED5
000451F4
FFFB72D5
0005054D
0008A837
0008DFE1
0003054B
00084A57
FFFB59C0
FFFFBC9E
FFFADEB4
FFFA61DE
FFFC1F16
FFFAC5BC
0005399E
FFFC61F3
00028FE1
FFFD71BB
0001775D
FFFB563A
FFFC6717
FFF85CC3
FFF4F10A
FFF761EE
000571F0
FFFEA604
FFFBDDA0
FFFEE9B4
FFFEF4B9
00006429
0006E714
FFFF880C
0008D980
FFFFE2C5
00049020
FFFE6FDB
0001EE42
FFFFCD2A
00083950
0009237E
FFF92AF1
FFFF98EF
FFF6E285
FFFBDB3E
FFF4AC22
FFFD5EBD
FFFF1907
0003E67B
0002366C
FFF691E2
0001830A
FFF56B38
0004C479
0003A2C8
0001EF91
0003EEF0
0006E82A
0001C576
FFFFBC4C
0003B2E0
FFF7A8F4
FFFC7D74
00007ED2
0003BB1E
FFF7493F
FFFEACF7
FFF742EF
000590C9
FFFA9766
FFF75FB2
FFFCE45B
000146AD
FFFE1E30
0000DC34
0000C98B
00063FE6
FFFBB772
00018CB4
0006C009
00042B93
0005A70C
FFFF38F4
FFFE40F8
FFF934F5
0001C586
FFFF4A00
FFFA09A0
FFFEDD19
FFF7D1D6
000097FB
FFF946C4
FFF86C3F
FFFD8464
FFFF788D
000377EC
0006807A
FFFFC7B8
00075D8E
FFFBDA0E
0005717E
00088213
FFF8FCB2
FFFCBB30
00053BDF
FFFB0685
00051E76
FFF5DD65
FFF87335
0000ADF2
0001445A
0006C2FE
FFF9819E
00010923
FFFD08B3
000690CF
FFFA4BC1
000717D7
00013185
00007DD9
FFF8987E
FFFC6091
000582BE
FFF88A22
000190A0
FFFF6C16
FFFCC470
FFF8C483
FFFC03A4
0007571C
0002BD34
00085655
00075BC2
0001C284
0002F59F
00071554
FFFEC04E
FFF8097A
FFFA2098
00013FA4
000593CA
FFFF7C64
FFFB35A5
FFF7D64E
FFF7C018
0004F97B
00033294
