FFFB023F
0000DE00
0007BA48
FFFA09AF
FFF9B836
00032E2A
FFFF780E
00018646
FFFE36A1
00009137
0008B4A0
FFFA72E1
00107524
000AD80B
FFFCC77D
FFFFD07E
FFFD0743
000656F8
FFF88BA6
0000D0CB
FFF8C050
0006CAC2
FFF6FBBC
00010F7C
FFF765BD
00027301
FFF91F28
FFFC9774
00074D73
FFF9481D
FFFF70B2
FFFA352E
0002EA80
FFFEF363
0014D763
0023990D
00073175
000B53B5
000CC890
00197CD4
00141CCD
00290F25
00213DF9
FFFB5DE2
000EC5DD
0013549D
00069C9E
FFFC455B
FFF919CB
0004C1C6
000523CD
000CA6E9
FFF9FE52
FFFAED82
FFF8008E
000608EA
00076C23
0006A366
0006F65B
0002086D
000E2112
FFFC618D
00270744
0026B0E1
000AC416
FFF9961C
FFFE0F15
0012F8FF
FFF2AD26
FFDF9A60
FFE41362
FFFA8FEF
00006BCE
000D0B32
001B644C
00257354
001AEB83
0006D5ED
00134628
0010E908
FFF395C5
FFFC9FAD
FFFCB2A9
FFFBD22B
FFFA203B
FFFC477C
00058195
0000CDAC
0001EC28
00012566
FFF859DC
0005A705
0011F8A8
0008918D
00107332
FFF765EB
FFF77C5C
0001B036
FFE9CB9B
FFF91DD6
FFE1CF60
FFF08B2B
0007B56D
000BF910
00133970
00176D47
00114D07
0005D2F5
0005F902
FFFBFD36
00044874
FFF98422
FFFD4E30
FFF82C17
FFF57F85
000EFAE3
FFF6231C
FFDDC1A3
FFEE3FB9
FFF3CBE5
FFF56603
0000F222
00071DF6
0019A1C0
000D22A0
FFF99A60
FFFF2A84
0010A785
000CB3A9
001CA5D2
00262F17
000B85EF
00050AB8
00129EBD
00160B27
001B47C8
001BB28A
001DE20E
000ECD3E
000CEE16
FFFB9875
0007D891
FFEE09E2
FFEB1610
FFE92DB7
FFE427AE
FFE665B4
FFF1DBE7
FFE920CC
FFF76E4A
00184B09
001A40C6
00112987
00153736
00120A68
00134AA4
00152974
001B3034
001CC00F
00104012
00261BE6
001E2CF0
0021C4D0
001630BE
001CC5E7
0024855E
001B1457
0009EDAF
0002450D
00108D61
FFFFD34F
FFEE547B
FFE78027
FFF2D565
FFF8B6FE
FFFEEF0D
000B8B88
0013B69D
001B46FF
001F3217
0020FC85
001A661E
002153FF
0022DA22
0014F8F6
0017D981
00129BC3
000CB832
00054575
00058B90
0011E60F
00093210
0017EF32
00279A6F
0019F72F
00061CA2
FFFE2BF2
001203AB
FFDC50BC
FFD70BFE
FFE52442
FFFFDFDF
0005AD25
000F653E
0014CADA
0017DD56
002222BB
000F2597
00151B3B
001BF3E3
002201EC
0025CEFC
0013502F
00077BAE
000B66AA
00001202
FFFEEBF4
FFFD7B39
0006389E
000A7E04
0008625C
001A1F20
0005C5BB
0006B600
000400C0
00001AF8
FFE15216
FFE9DDFC
FFDBE4AA
00049333
000AFA1A
000DEDA0
00132101
0019AA89
001C92B3
000E2734
00161D16
0003E0F9
00051304
00008633
000526D3
FFF03E3D
FFFA6889
FFFBEB63
FFF23945
0005A4C9
00053C9B
0006D255
00098E74
0014FF19
000B63E9
000C8138
FFF87C73
FFF43098
FFF662F3
FFECB165
0000C52B
000B7A34
000F3E54
00113EF7
0023EC97
00245F35
00156BFE
000D864F
FFFE521B
FFE93E08
FFD779D4
FFC41B17
FFCF0B26
FFE23857
FFD71EFC
FFDFDD08
FFDDCEB2
FFF341E5
FFF75D1C
0006E957
FFFB05D4
000D6607
FFFE7543
0003B522
FFF303C4
FFDD3F68
FFEAB72F
00076E54
0013A4EB
000965B3
002172AD
001F56AB
001B9E9E
001A4AD3
0012555E
00023E36
FFF3E450
FFE3CEF4
FFCCDC51
FFBBEA7A
FFCE67A2
FFD841CE
FFDEAC62
FFDF6D8E
FFCE578A
FFD37637
FFCC260E
FFD2A41F
FFEC83F8
0000FF68
0011EE95
00053D5B
FFF7175F
FFE87530
FFE65F74
0001D159
00143929
00053417
00178076
000F44EC
00159735
00065790
000C3C83
FFFB6653
000BB808
00114EF1
FFEA4648
FFE3FA42
FFE5DF02
FFF5F409
FFF3914A
FFE3A346
FFDBEE85
FFC467B0
FFB97C2C
FFC82F36
FFE37E78
FFF6F751
0016DB60
FFFE2370
FFE85463
FFEB6879
FFD28A0A
0008FC7B
0006044A
001162E1
000AAA50
00073DD4
00116EA3
00049842
00105D0A
0017B535
000D1820
001516D7
000A8C1C
FFF9C020
FFF014AA
00047FE7
00067689
FFF0B094
FFF0BD94
FFE928C4
FFB5059D
FFC3EA05
FFC694EF
FFE456C3
00002D37
FFF2FDAF
FFF7A927
FFEFC221
FFDEBB5C
FFEF3140
FFF8278E
FFF4821D
FFF68952
00091D5C
FFFE6AF0
00109F43
0003EF0A
0014958C
00105443
001910AF
000A8FD9
FFF049BA
FFFB9C6E
FFFE0D4B
FFFE4A1C
FFFA284E
00063461
FFDF8689
FFE011B6
FFEA490A
FFE7BC34
FFE9966C
000AF7C4
FFF29D31
00057853
FFFA6274
FFE37984
FFC6677F
FFCEA948
FFC9DAE6
FFF83D4F
FFFABEF5
000398B3
FFF8CB6A
00054DB8
000BF9ED
000FE43E
00041147
FFFB2F28
FFF526A2
FFF97E12
FFF0C346
FFFC4DEE
FFE779E8
FFF1DF50
FFF7799F
FFFE31FC
00088FB5
0001FBA3
FFF3BED1
FFE25053
FFEB64B2
0002DCBB
00004086
FFE785A6
FFD2C98C
FFBA35C8
FFB525D4
FFEAD06E
FFED6D53
FFF5DF15
000293FF
00032613
0010CA10
00230216
0016EF5F
00011F9D
FFF935C5
00078A1F
FFFE9924
FFFC27FF
FFEEE83E
FFF7A07E
0009220A
FFF59D6A
000EEF57
0028F5AE
000060C7
FFDD2E57
FFF80E21
000031C6
0004D627
00135AED
FFF139BF
FFCEC5EA
FFB3CA16
FFCEF7D7
FFDFF2CC
FFF4A7CD
FFFEF6CB
000AE26C
00133AC2
002ED3DE
001A6D76
000E332A
FFF5111F
FFF56943
FFF95EBA
FFF3131D
000E9327
0003054F
000A6FE1
000A49F8
00268BF8
00212799
FFF687DF
FFD948B6
FFF265EB
00049481
FFFF00B0
000ECAF5
0018DD35
FFDA600D
FFDC7247
FFDC06C0
FFE312E1
FFED563A
FFE56D45
FFF703C1
00114B15
001DDC29
00080FD6
FFEFC1E0
FFEF77CF
FFF0DD81
FFF233B0
00081A4F
001385C0
001733FA
001B320B
000CB405
00105F99
00012259
FFBFF750
FFCACFB5
FFE06872
FFF8794D
FFF99DCE
000A6D64
002743ED
00113B08
FFEBCC19
FFE5076A
FFD6530C
FFD742B0
FFD517DE
FFE624B7
FFECDBB7
FFF11DDF
FFEBC350
FFD91052
FFDAF1E8
FFF038EE
FFFC8C56
FFFA0136
000C678C
001C395E
002B79AC
001C137A
001BE51B
000C2DC6
FFCE9C52
FFC740E6
FFD9742F
FFF8F31E
FFF096B2
00110684
0023E6E0
002384FF
0017B1F3
FFFCAC98
FFDA3124
FFE96CAE
FFD10408
FFDB0566
FFD0A74E
FFCD2FD8
FFDEA2D9
FFC358E0
FFE06942
FFFAF4A5
FFFA61E4
0009C4C8
001A52DC
00233EB0
002579F7
001EB05F
002C4BD5
00165B0D
FFFB30B1
FFEEB062
FFE811DF
FFFBC984
FFFF1BDC
0019AE40
001F262B
0020DC2B
001B1711
00095FED
FFF2F734
00016E04
FFF096B6
FFDF7011
FFD868DC
FFD71630
FFD87C89
FFE17CC6
FFEB89FB
FFF8728B
0002D7E6
000DD9E2
001ADD3E
00219A24
0020E2EC
0030A90F
0028EAF7
00092129
0010CF20
FFF3ADF4
FFFB5A3F
0005A123
FFF5FCEE
FFF7C9B9
FFF7B615
001E0E69
000B8E06
0005596B
00053886
FFFBC6CF
0005670E
FFEEE493
FFF2A7E8
0001C4FE
FFFFABCC
FFF31A64
FFFD6EC0
0003497A
00083260
0009649B
001724C7
002A638B
001D4DE6
0021442A
0021061C
001113EF
000D473F
00033B08
FFF64595
FFF8E4F3
0001083C
FFF7DB6E
000D0BDB
001E7654
FFFE45B9
00041ADF
00083114
FFFE1AB8
000DF1DB
000A248C
000624AB
000F27A0
000D5694
0014A220
001431CA
000CACD3
00160915
0013E773
0013142C
001B24E0
000E35A2
0018D7F4
0025DA67
00136D37
00072380
0009598D
FFF83FF2
0004775B
FFF9C05E
001D72C7
0038C169
00272095
0023EE9D
001C73D7
001475AE
00114CD2
0022A618
00271E2E
002613DC
0017A6ED
001D43BE
001B12F4
00275990
00178077
001A2B9D
0014167F
00011D74
00195DBE
0003A569
001EA9EC
002D28B1
001C05A6
000CC6A4
000F0F51
00068844
FFFE1180
00040D02
FFF83267
003135C9
0021C5AD
000C9F95
001C9173
0024A5C8
0024E948
002A12EB
002C039C
003609CF
002C4078
00287908
0023611E
00235A2B
001D31FA
001690FF
000F3B6B
001515AE
00137285
000B6741
00210DBC
001AEC36
001A538D
FFE5029F
FFE4920B
0005F63B
FFFD4BA0
00066C62
001943F6
000A1215
0006D49A
00076B1E
002660D6
001FD490
001AAF4E
002F7958
0038756D
0027F9B2
0020C81F
00327038
00258DB0
002F34EC
0024FBF4
0014AE6F
FFFC1B4D
001A7D01
0009C57C
000D62D8
0022D9B4
0019C9AE
0023F933
FFFE2D9A
FFF551E8
FFFB319B
FFFDE08D
00091413
FFF892D0
FFF7DAB9
00017F27
FFF937C9
FFF84275
FFEA61F4
FFEC9814
0001D078
0009C887
000E3193
000D948E
000D73EC
FFF9EF55
FFF37464
00068C07
000B4240
FFF5C36F
FFEBBD45
000873A4
000C155E
0019CE1E
0035E75E
0011C35C
FFFACAE4
00026845
FFFDCAAA
0007C175
FFFEAAB7
FFFC0F94
00035480
FFFD0F85
FFF7712C
FFFB7587
FFF372A4
FFF4AC98
FFEF3CA4
FFEB27D2
FFF1189C
FFE62968
FFDDF568
FFCBE7AF
FFD436EF
FFD38FDA
FFBB6C7D
FFD03EE0
FFCC3559
FFDB7F72
FFE84A38
FFE35EEA
FFF9B667
FFF90AB3
FFFF3A73
FFF7E597
00034936
