FFFCA1ED
FFF7193C
0007B112
FFF7BD18
FFFEF22A
FFFF0FF1
FFF780C6
000563F2
FFF9934D
FFF8194F
FFF70E1E
00002348
FFF3D0D4
00007A4B
0003B6B1
FFFACA8B
000781D6
00080C44
0004ACAA
00019180
FFFF599C
0001F319
00045195
FFFF2A98
FFFE205A
000272B7
0004451A
00082D02
FFFC9EBE
FFF7BFC9
FFFEE082
0000F77E
000317F1
FFF22569
FFE975F4
FFF08CCE
FFF2D454
FFF7307D
FFE5D8AE
FFEF001C
FFE7E039
FFEAD6AF
FFEF1191
FFE19B03
FFD74602
FFDB9A1C
FFF28E37
FFEFA6FF
FFE9C2F1
FFE9604E
FFE7615C
FFE62080
FFF6F3C7
0002BC09
FFFC39D2
FFF7CD97
0001E37E
0006163C
0008815A
FFEF1014
FFE3D404
FFF70039
FFEA4E0E
FFE0359A
FFE68011
FFDC15C2
FFDA25E4
FFD06E74
FFCF78BB
FFD26132
FFE1D596
FFE8D4BC
FFDE11FE
FFEDB5C0
FFD7046D
FFE34497
FFD0C103
FFD64F12
FFDCDBA0
FFD758AA
FFE70400
0000CB51
FFF6E09D
0001F694
FFF9926A
0008439B
FFFB8D89
FFEC9239
FFF7EA20
FFEA9BEF
FFE1F241
FFC28E6B
FFAE3784
FFC24D66
FFD07253
FFD9CFB4
FFB856E6
FFB32F50
FFB2A50E
FFA8D1F6
FFC6FDB0
FFC5272A
FFCB830A
FFD25DF6
FFDFCD80
FFD35E53
FFE3D381
FFD949CD
FFCFE042
FFD99D04
FFF3C206
FFFDF663
00073093
FFF5A032
FFFBE9F9
FFFB6A11
FFF5DDFD
FFF3060F
FFE06FA7
FFDD59D4
FFD6FD40
FFD88617
FFDE5288
FFDBA642
FFD03C78
FFBB76F7
FF98775B
FFBEBD1E
FFEE659E
FFEA6C6D
FFE6AAE4
FFFFDF24
00128AB6
000E3149
FFF736D9
FFF33CB2
FFD7BAD6
FFD00D40
FFD8AA66
FFE514D6
00091A1D
00090E47
FFEE9E1E
001F578B
FFF0374C
00153227
000DBCEE
00076BF6
001DE289
002CB753
0015DD4F
0006844F
FFE9D439
FFC0E8F9
FFCCB63E
FFF47D58
00028E35
FFF45132
FFF88E0A
FFE4381B
FFEFF7A8
FFFDBDA1
0016E57D
00110381
FFF0E714
FFD1D39B
FFD29583
FFED0B75
FFF80001
FFF785EE
0000A85A
00199B3A
001202EC
002058C6
0013C2D5
0010515B
00187E3A
00203E9E
000BF584
FFF3F203
FFEDBFE7
FFDC09F0
FFE54551
FFD77298
FFE664B2
FFFD3CA3
FFFC0C26
FFFE59B2
FFF7E66F
00044BF0
0014B992
000B2E0F
00075E91
FFD450AA
FFFA59CC
FFF86607
000E4170
FFEC5B9E
001F1146
002670D7
0019D0FA
00193BE9
0009CADF
0013397F
0002D8CD
001F5413
0006368C
FFF26D30
FFE67B94
FFD905B4
FFD3CFDB
FFD2B5CC
FFFF8D2F
0014AA44
000553D2
000748DD
FFF95AB3
FFFBC0B8
0005E23A
FFFE766F
FFFD69F2
FFF1AA4D
000B88D3
FFEF9102
FFF754E4
000656BC
0016F790
001944C1
000A235F
001C01C6
00080543
000B67EE
0019B7BC
001AB7D2
000DC24C
FFFBE0A6
FFDD83B2
FFD85FEB
FFCEBC4C
FFECFBB7
00092B2E
0017A922
00152366
00080286
000394ED
000895B6
00013806
FFFE30DC
FFFBEBC2
FFFEF90D
FFE84098
FFED1EA5
00173B7A
000A4BF4
0001D924
FFFA2342
000D96FB
000F1FF0
0004BAA0
000342C3
00172612
00064D10
FFFF89E7
FFF6C42F
FFF5E1E8
FFE24078
FFDD7A3B
0009EA98
001A7009
001A9028
001E7096
00043024
0006AAE2
FFFFD236
FFFF3169
FFF1D91D
FFFF0F92
FFD9A504
FFED18F4
00046533
0013AFFC
000DC74F
001D416C
00036155
FFFF1B57
FFFC9A69
0000EBBF
FFF65441
00018018
0004C7F3
0006C019
FFF1807D
FFF4B79B
FFF35657
FFEDA15B
0030C984
003BEDD8
0031F1B0
00184C7B
00089246
00046AEC
FFF81C16
FFF492C0
FFE08B38
FFE40C6F
00083CCB
FFEA22A3
FFF6569F
00081E6C
001A99DC
002173D0
001C9DB8
0003B9B2
FFF6697B
FFFBBD5E
0004C030
00057068
000A167B
000943F8
000E42FA
FFFB9430
FFE38085
0000BA1E
0035A97C
0046F359
0022A6D6
001DD7B8
000F0DC8
FFFD7502
FFF7BE45
FFECAF22
FFDC4A6C
FFCE1D55
000FA651
FFEA2CF8
FFF88434
000702FD
0017CD87
00179C06
001241A3
FFF9E75A
FFE7C59B
FFF40374
00132BD4
001A2062
00087FCF
001281C6
0012506A
0003B23D
FFED2ED6
000E95A4
002CA182
0037DC28
00211ECC
001C13DF
000FC50D
FFF3F778
0004F242
FFF42698
FFC4D703
FFD7A6FC
0012DFAC
000D4798
000AD76C
FFFFCE76
000DA07C
0019C154
0010FB05
00034CB0
FFE83E12
FFF9A35B
00142AF6
001BAA69
00186501
0011588C
000B9AEC
FFF1A067
FFF746D4
000AC8DF
0019A42A
00329AB4
0031C6C7
002233C8
0004AD29
000E6805
000F7D1E
FFF7E185
FFE509D6
FFF7A3E3
000F417B
000841FC
FFF5E71E
FFFC7880
001170AC
001B8DC5
001156BC
00217B46
00046BD1
FFFB65F0
00113DA4
000E1F9D
0010C7A3
0006ECB0
FFFA6D86
FFFC4379
FFFED2D5
0011F2A9
001B5A86
003124F8
00400B0C
002CA869
001E6BDE
001A0E3B
000C6FFF
00088035
0005E7AE
0003B129
000054D4
00039524
FFF96C45
FFFAC6B9
000B66F7
001A2E02
001320EC
0008CB2C
FFF7BCD7
000381AE
000F23BD
00171F46
001B4C27
000D4FCA
FFFCF091
00041386
0001368A
000DBDD0
0026FAAF
0026631A
00329A67
0012E30D
000BA123
000FCB22
002B3E3B
00217CEE
001834F4
FFEB2E55
FFF38E64
0010C30C
FFEC3D3C
FFFF253A
0006472D
FFF7A04E
FFEE9324
FFF9D85C
0003F98B
0006E80B
0000FCFD
0015F56E
0018F9F9
000A3192
0001BD6B
0000F378
000AE511
001093A3
002B5FD0
0029266A
00141538
FFFC5258
000EDCEE
00246252
001D636E
00127928
0007F4D5
FFEAAD2B
FFFEDF4C
FFF499E8
FFF6D0F7
00004ED5
00080D8B
00074262
FFED2814
FFFC696B
00042516
00027428
FFF374B6
FFFD8959
000A2ECA
0004132B
FFFBB1EA
00001EEA
FFFDC7E7
0002EAB0
0004074F
0002DB7A
FFE3EBCC
FFF15E64
FFF01AFB
0003B7E9
FFF9D395
FFEAC6E0
FFF08905
FFF81928
000B5ACB
00122442
FFED6823
000E4E4C
000BC4BB
00194C9F
FFF8F781
FFF466AD
FFEF73B5
FFDF4B49
FFED63D8
FFFFAD6D
FFF60BD8
FFFA5BD8
FFFA17AA
0004F607
FFF8E4CC
FFEAD572
FFE4DA67
FFE81F0D
FFD01789
FFCD8BF1
FFD66D54
FFE7039B
FFD65C01
FFCC4A68
FFD03D9C
FFE27152
FFF8E740
00171ACE
0012DEFB
000EE6C0
00180D8D
0008F1EF
001475B7
FFFD38C4
FFCB252D
FFCAD4D6
FFDDCA70
FFE51F0E
FFE5D99A
FFEAF4F8
00004821
FFF80B1E
FFE7B823
FFDE48B4
FFDDDE68
FFD17E5E
FFBBCBBB
FFC9541F
FFC845C0
FFCA1A04
FFCA2530
FFA53B5A
FFBA6FB0
FFE76DFC
FFEBB9F6
0011BFB7
000CC60D
FFF91F26
0009D884
FFF7BEBC
FFFB1AF0
FFEA6A37
FFD13FA0
FFCE855E
FFD01D12
FFDB872A
FFF1DAC5
FFFE00CE
00112564
FFF74F8D
FFE6A40A
FFD11382
FFCC1011
FFD68607
FFD836E7
FFD79E90
FFC8FE4A
FFCB5DC5
FFD2BB54
FFD39435
FFCF3385
FFF903F8
FFEC4121
FFFE38BF
0006F9D7
000ADE5A
FFFC1F22
FFDD6696
FFEB7942
FFEF7D90
FFF4290A
FFE8327D
FFEF077F
FFFBAF54
00054994
0006A4EB
FFF93297
FFF006B0
FFE41511
FFD554F9
FFD6789D
FFE69173
FFD82BC8
FFE02C38
FFE1E27C
FFE34B42
FFEB9F53
FFE38B42
FFEE0062
0009E6C6
FFFA35E5
0003D865
0006BD2D
001387AF
000DA7DC
FFEEA325
FFD373DA
FFEB5A36
0009F4AF
000A465E
000815E5
0000CABC
00015083
00064CA4
00000223
FFEF0544
FFF52F5E
0000CE3D
FFF27A02
FFF5C235
FFEC8CC8
FFE92372
FFFBCFF5
FFF99A5D
0002FEF3
FFF29446
FFF72CE7
0007CD74
FFF9D008
0012A6EE
00065044
FFF94072
000630E9
FFEAB217
FFC3A858
FFE75C3D
FFFF2191
00141244
001F02A5
000C0DE7
001653A7
000D2071
00070758
0006FDB7
FFFCDE60
FFF7F647
0005267E
FFFB0239
0003AEAD
FFFFB73A
FFFB15B6
FFF9D6A0
0009F862
FFF1EC10
FFE91F83
0003DD1E
FFFC09D7
000FD4D3
00027538
FFFC9169
FFF6DE97
00088C54
FFDE37CA
FFF2DB52
0006AB21
FFFD97AB
0005234D
000C13E7
0005FA08
FFFE8F27
00030AD6
FFF8ADF2
FFF8301F
FFF4221C
FFFC5317
FFEF5ED5
00002EDF
0001600C
0006FE8E
0004F893
0002AE48
000C07D6
FFEBAFE7
FFF07B2C
FFF7CA7A
FFFC1639
FFFEE784
00006930
FFFE02CB
FFFD15E5
00175F43
001C015D
000E0B5F
FFEE9BBB
FFF9BF27
FFFC64AC
FFFDFC16
FFEA0668
FFF8BAA0
FFEA49E5
FFEDFE49
FFFDDE0F
000382A3
FFF60BA6
FFF287E1
FFF7AED3
FFE4F4F2
FFE4BC42
FFF6481D
000DA951
00066E9F
FFEEE208
FFFDAA66
FFFBAC9E
FFFACF37
000697A6
0005D030
FFFC8B77
FFE3B156
FFE91307
FFFE0E20
FFFED4E7
FFF4368C
FFF1D39B
FFFBD731
FFEB03BD
FFE76259
FFD9B7A0
FFF1333F
FFDE285F
FFF3BE9A
FFE22F0B
FFD8B902
FFE363DC
FFF1E666
FFED7A68
FFEB2125
FFFB742B
FFEF44E4
FFEFB1E8
000966E2
FFF74DEE
FFF8432F
FFFBDDD4
FFFE541E
0006157D
00027A5B
0001B3B5
000E4C2D
FFF5C509
FFF21E68
FFEC9928
FFF5A624
00139144
000138FE
FFF0916F
001523A3
FFF47675
FFFCFA94
00005E95
000D6C53
00063E53
000B5C34
0006B231
0006A0AA
000849D3
0012F173
0006A24B
00018C2E
FFFFF23E
FFFE899A
