0008C5E0
0007C7B2
FFFE7D36
FFFCAB30
00030CD4
FFFFF2E3
FFFCF1AB
00000552
0003D8AF
00027338
000648E9
FFFE92B8
00084222
FFFD451F
FFFA08B0
FFFEBAD2
00062BCE
FFFCA56F
00035F8B
FFF738F9
0004FDA7
FFF7F777
0001E33B
FFFBB254
0002FBE0
0002E1E6
FFFF9D95
0000FF63
FFFB0C01
000009A7
00046B7F
FFFD618A
0001170F
0007A571
FFFA9CA9
FFFA5781
00048F6E
00043B5A
00133BC8
000AEDBC
000D44B5
0016669B
FFF7B00E
FFD33E6E
FFDE8422
FFEF5F93
001DE44B
00120D11
001E847C
000212E0
0001580F
FFEF543A
000652AB
FFFD2DE7
FFF75CD8
00054869
FFFFDB80
0008AE83
00072C66
FFF219F7
FFF92147
000B7F90
0007DD4A
00063078
000EE930
FFFDECE6
0002F26D
001E31F2
00107FD4
FFE64EF6
FFFB8BC2
FFDFD502
FFCFC18C
FFE94C6E
FFE91FDE
FFF02CA9
000E3051
001E7EDD
0012AC17
0004DAA3
00067EC3
FFF841EC
FFFE0406
FFFA7FBF
FFFFD9A4
0007BC09
FFEB3022
FFE37805
FFF5E7D3
001C1A85
0004B521
000B83BD
0009CDF9
FFF73078
00086E9D
002C2F8E
FFFDDCCA
FFFD5DB6
0002AF1D
FFF35AF1
FFEA5B61
FFEA6E6D
FFF4F2E2
FFEC8118
FFF86F22
FFFFD46D
00138D5F
0012EE6C
000D8979
FFF1D928
00074212
FFFF52F1
FFFCBB5D
000B2FEB
FFE43098
FFF4CE98
001FFC22
0004ED18
0007085F
00048886
000D4564
0013CFAC
00015D0E
FFFBE65E
00031EBA
FFFEE543
0009FCCE
FFF9046D
FFF7F602
00086721
FFF0214E
FFF33059
00010A91
FFF1EC57
000B67C0
FFF8B434
FFFDE4C9
000D817D
0014594F
00242312
FFF7515C
FFF7D982
FFEA55C4
FFF6D8FC
0019CD83
FFE2202E
FFFCE544
001312DC
00124454
000107D9
FFFDC89E
000A62D4
000DC70C
000FEFBF
001837C4
000AB0AF
FFFDE286
0002F7DF
FFFDE42C
0013013B
000867A9
FFFF7D30
FFF32563
FFF0EB15
FFFDADE7
000DADB5
000B477C
00108118
FFFE4839
FFF6C5A0
FFFD8C5D
FFFCC75D
000A3624
FFF96032
FFFD6742
000C6A12
0002CE69
0008A775
00077D2C
0007C813
0015FE5A
00119BEB
001928F3
001C754D
0018589C
00178084
0004696C
000EB927
0000C80D
FFFD55AA
0000B305
000582A3
FFFF94B0
FFF999E3
FFF30399
000A4612
00006A8E
FFE62984
FFFAF720
FFF6D9F1
0019FE48
000686CE
00097850
FFF9A53E
FFFA689A
FFFE7E95
FFF91CF6
0001AF43
00121339
001BB4BC
0009DD35
001E1F5B
001605CA
00092B23
00002DFE
00017ED2
00074073
FFFEABCA
00054E58
000B5C2B
00030828
FFFDA799
FFFC6FFC
000EBCED
FFFD2CFA
FFED225B
000E4D46
000AC626
002478FF
00156A6C
000AB989
000405D6
000860D7
FFFCE56E
FFFDD0B9
000A68B2
0003DC42
00149F25
0003A038
0013C69C
000B01CF
00019CBC
00063E5E
00014C5F
FFFA8A90
00105F5C
FFFADEF0
FFF7E75F
00042158
FFFB732E
0000C363
0005DA25
FFF4FD7E
FFEAC954
FFFB14F5
000DF55A
FFFEE291
00162B79
000D13B5
0000430C
0004D0FA
000048BC
0006C6B6
FFF53835
000819BF
000D2BB5
00006492
FFFB5291
FFFFE798
00064321
00034BDA
001CAA35
001478E8
000FB277
FFFAE6FF
FFFF319D
FFEEFEA3
FFE9C557
FFF628A3
FFF0FEA6
FFF25A0E
FFF17F2D
FFE5CA78
0008FAAE
0007F5CA
00083D0F
000F060A
00015981
000ABD76
0001A548
FFFBE187
0001BDC7
FFFA1DA9
FFF03FB1
FFF9A171
FFF09129
FFFDD15D
0005343C
00125C37
0012B301
00179A0C
000302E6
00079E3E
00067B33
FFE88B02
FFDF05D2
FFD9EEC4
FFF57CDF
FFF3D5CC
FFE8F4B9
FFD54CC2
00029641
FFF82FDC
FFFF2B7B
00089343
0011B7A6
000FB05C
000EA263
000AB008
000CDEC0
0000046B
FFF80079
FFFCB337
FFF9567A
FFFB4A2F
000FC5D5
00015F2C
0006A35C
000C3F34
000709F8
0010628B
000B3D33
FFF232D0
FFD95776
FFE2F5D8
FFF938AF
FFF77862
FFED15DE
FFEB8FF0
FFEFE4A8
FFF99949
000B272A
0005FE5D
0009B584
0004B96B
000E0D8E
000E6FD9
000D90AD
0003D19D
FFF2EC0C
FFEF3E20
FFF9866D
0012891F
000E7DBC
0006FC4E
0003567F
000D1DA8
0013A306
001CEBD7
002F9186
00228567
FFEC3BB4
FFD6BCC0
FFDEA828
FFEDD7C6
FFF489C7
FFED6181
FFEBE841
00036B7B
000DEC9D
0003B597
000732BF
000FF69C
000CF584
00073C95
000F450F
00064528
FFF952FE
FFFD721D
0011173E
00178C9C
000AA33B
000EC731
001C2414
0009FDBE
0019594C
00280AE8
00306E8A
0006B739
FFF52D1D
FFD84B12
FFF36A69
FFF3FFFD
FFFD8D1C
FFD9DD39
FFE99B05
00043649
0005AE37
00060627
00163BF0
000E6723
000173CC
000CB262
0013AA5B
0012187E
00052C6C
00035BDA
00084194
000EC0AF
0014FF71
0024A34D
001CCCCA
0016CDA7
001ADD1C
0010C457
FFFBD6F4
FFE5D234
00114282
FFD2F3AA
FFEB5CC6
FFFF749D
0015D481
FFE75CA4
FFFC0BAE
00029082
FFF9B7DE
0000463A
00087EFA
00142565
000419C7
000DF194
0016A8B8
001AD74A
00120A5A
00077CA9
00170F73
0017F1D8
0025A6E2
0020E75F
0022515A
000F95B6
000D612C
00128866
FFF1DFD3
FFE3F1A5
000D2EC4
FFECFF6F
FFE9EDF1
000296D6
0003A95B
FFF31F47
FFEFB534
FFEE4B69
FFF44AE8
0013CE98
0024CEE6
0027D6A0
0012A52B
00214152
001B50E7
001A511A
0002C42C
0007C427
000B6770
00181F38
001BE200
0018C7BE
0007F688
000A0412
00017E39
FFFEB589
FFFDC5CC
FFEF359E
FFF92071
FFE59592
FFE7FC94
00026836
FFF53824
FFFE1793
FFE528E1
FFEA8224
FFF9E60D
000AEEF0
002814F1
002B0C04
002155A9
001D53A6
0015230A
001EB598
000C9090
FFFAAEEE
0010D384
0015D25F
001741F0
0011C878
000DBBFC
00080BBF
FFF9EA1D
FFF5E968
FFF86592
FFDF0215
FFE09C63
FFDA4AE1
FFE69256
FFF08083
00065728
FFFB2EF7
FFE87A99
FFE740AC
FFFD63A8
0013C613
00150814
0019927F
000EF7EE
00132D4F
000BDD16
000E491F
000D8EE4
00000967
000AECB2
0013DD30
000C2FB6
000D119C
0006815F
00050B14
FFF74AE7
FFFEDDE5
FFF4491C
FFD8941B
FFD0C900
FFE1EEB3
FFE3915E
FFFBB32C
FFE45E84
FFF0640C
000498EC
FFF0DF32
000B3E7F
000862ED
000D720B
0002A97D
FFF75202
0003EA66
0005AC84
FFFDEC60
FFF8EBB7
0007C2DE
000C23C9
00048260
0005A8C2
00070A91
000809B2
FFF9353D
FFF98281
FFF957B4
FFE39D6D
FFC7DD92
FFC52226
FFDF9579
FFF09BC7
FFFFA97B
00084407
FFF97609
FFF1F1FD
FFFCC2A0
00068C4F
00024F72
000D9671
FFF0403C
FFF9A904
FFF5297C
FFF91080
FFFF7D9F
FFFE14B8
000C0C46
0004DDE5
FFF743B7
FFF7E284
FFF9D388
FFF036A9
FFF50DCF
FFFF980C
FFEB9061
FFED7DDA
FFD921BA
FFDA119E
FFDB8C4F
FFF1FDD1
FFFAD234
000B0D3C
FFFAC9F0
FFE91E00
FFE6B04D
FFEA0302
FFFD0F08
00013D42
FFFD58FD
00014950
0008129C
FFFEA372
00096BCE
000C7FE0
000E90DC
0009598E
FFFD1F64
000182A1
FFF77462
FFF04B6C
FFF2F692
FFE6C339
FFF4E6A8
FFF0395C
FFC7CEB2
FFD589E4
FFD83E7C
000A86DF
FFEEEE62
FFFEBE0F
000CACAC
FFF1A146
FFE854F6
FFE469A8
FFFF22EC
00008004
000090B5
FFFDE835
00167B6D
00126199
00178AC0
001D6715
0003E748
0007D88B
0005618B
FFF4A3A2
FFFB2A48
FFF7D173
FFECBE9F
FFF40696
FFF987FD
FFF6B7A6
FFE23FE4
FFE29D7A
FFD3BAA2
FFFC9B15
00011783
00061017
000F3DD2
000D89EB
FFF0840B
FFDD596A
FFF66145
0003BF00
000DF112
FFFE70B2
000BD19A
00039F49
00087C6C
0009D70A
00172E78
000BACF0
000E0345
000822AC
000D0CC9
000802EB
FFFCA051
000B3A83
FFFA473B
FFFBBA29
FFF690E6
FFF89659
FFDBDA5E
000314C5
00053005
0008BDED
FFFCC790
00108D87
000CD2C8
FFFF900E
FFFF44B1
00153D20
00106FCD
FFF9C871
00074991
0016D69A
000305CB
0004AD77
00024C10
0013354B
001EC0CA
FFF3AAB5
FFFE8F0A
FFF4A7A6
000477F1
00000E58
000301F9
000DD152
FFF36B42
FFF4C713
FFEBF11E
0002CCCA
00010D99
0007D64B
000FBE77
FFE91DB2
FFFACCA5
00176515
0002E303
00106C1B
FFFC1B64
00083DE6
001E78C7
000D4315
FFF318D6
00000844
000FA8F5
0004AF8C
FFF9F8D0
FFFD78BD
FFFB4C02
FFFC53E0
000C8DF9
FFF07785
FFE9659F
FFF10B48
FFDDF5C8
FFF555D3
FFFDC86C
FFFBFECA
0008717E
0001DFC0
FFFDC2B6
0010459A
0020A111
00200524
001C6FF0
0018F705
000F5C60
000B3754
0016CA82
000FBCC3
0009A0EA
000E1C2D
0011F145
FFE96330
0003DFC1
000B191E
FFFE1B12
FFE82CC9
00024ECB
00039F62
FFEFAF8D
0010F072
00126883
FFF6A7E4
0000079C
00018AD6
FFFA3247
FFFCF369
FFFAEB95
0004407A
FFF08144
FFFA2FB2
FFFF3552
0006620C
FFFDAFB4
FFFA7F57
FFEAC22C
FFFCE89B
0001C11B
FFE9098F
000724BE
000CF5DB
FFF01D40
FFE1EF6B
00014F6C
000A0BA1
000C1F1B
FFFFDCB0
FFF91C71
FFF0C545
FFFF19D0
000904FB
00033D14
FFF72658
