FFF946FE
FFFD37E1
FFFFDA00
FFFC89E4
FFFDD53E
FFFC04AB
0002CB9C
FFF7A7F0
000081F7
00026B7E
0006B76F
00024F5E
00032115
FFFF429A
FFF990F6
FFFE0770
00014E39
00016A82
FFF895C3
00006794
000099DB
0004A071
0005F99C
00008A71
FFFE6535
0005EEC3
00051203
FFF92E6C
000774DB
FFFF44B2
00083C01
0005F599
FFF4CB76
000093D6
FFF41205
FFFE716A
FFF0CFB6
FFFB3882
FFFA8934
FFFF56AB
000112FD
0003BE64
001C63F4
002CFDC8
00191808
00022697
FFEAA77E
FFE0E706
FFE57E86
FFEC31B0
FFF1AD6E
FFF578D6
0004F9B6
FFF793E0
00036199
FFF7008C
0000A5F5
00011D19
FFF65CF4
00075029
FFF72100
FFE104F2
FFF80CF7
FFF5D80B
FFE789D3
FFEFD4B9
FFF1227B
FFFFBBD0
000F6E40
00138569
000BCB4B
001DB67A
001DBE64
0002BC7F
FFE99272
FFFB12D5
FFF1E800
FFE54864
FFF1C2FD
FFEE3D6E
00089DBB
000684DC
00003C2D
FFFF02A2
FFFCB27E
0002EF2D
0020C47B
FFF0D127
FFE77DC2
0001DDEF
FFFF01DB
FFEF00B7
FFEC42C3
FFE73544
FFF7F153
FFED75E2
FFF3AF12
00016A11
00002E51
000DE059
FFFF27D7
FFF22009
FFF4262B
FFEAF524
FFE6D3D7
FFE0508E
FFE25D07
FFF98AE2
FFE779CE
FFDF8393
FFE87106
000676B5
00087870
00080ED5
00263565
00060355
0005CE74
FFFAD153
FFF4A229
FFF6109C
FFFFA5F0
FFF878B1
0002232E
00151126
001B5EFE
001C43EE
00174F66
0020704A
001AB4E1
00102966
00008200
0005DC75
00015251
FFE84B92
FFEC959A
FFE72E66
FFE28952
FFE3ACE4
0002B6B8
FFF10A19
FFF768AC
FFF8083A
002098C7
000C6644
FFFA14DF
0005B91C
0000D029
FFEAD66B
FFDF577A
FFDD5F12
FFE07538
FFF65469
00003A9F
0010F5F3
0013B8DF
00180331
00126D78
0008061D
0005A173
000CE03A
0003B52F
FFFAA7C4
FFED2712
FFE8BB6C
FFF0D1FF
FFEDFC71
FFE9ECA6
FFF1AFB1
FFF949DB
000C9BAF
FFF06510
000F6EB3
FFF722AC
FFEC8A9C
FFE06B5A
FFD3B263
FFE0B5AA
FFDDD6AB
FFEEA180
FFF6E425
FFF30103
FFFF6EB6
FFFE0F3C
000D965F
001824A4
000CA55D
0007380A
0004A9AA
00003382
FFFD1726
FFEC17C8
FFE91782
FFD903BB
FFFFB755
FFE5EB14
FFEDBCA5
FFF56CA5
0014073E
FFDB82AF
FFFC7634
000A72BD
FFEF330E
FFE77D3C
FFEB8C36
FFF0F499
FFF2F80D
FFF66376
FFE8A37C
FFF4B1F2
FFF496B3
FFF367DF
000BF595
0019A831
00115A6A
000B6688
0012E97A
FFFECFCA
FFF95B55
FFFB542D
FFEEDDB8
FFD87203
FFEB205F
FFF41B90
FFFC59E9
000C52A3
FFEC7928
FFF0F74C
0020CEA4
0015BE12
FFEFE12F
0003D7BC
FFFD54BA
FFFFFDEC
FFFA364D
FFFB7921
FFE47F54
FFE9E3DF
FFF73670
FFFF45B2
0010C16A
00196CEC
001A8E3B
0026EEBD
0010031F
00044000
FFFB0DE8
0005017E
FFEAFD7B
FFD36200
FFE0D853
00073061
000533FD
FFEED0F6
FFEC761F
0001A99A
00161892
000C4E0A
FFFD6248
00069336
0003002A
0006FC5C
FFF129D6
FFE8CAB5
FFDE66DA
FFE478F6
FFF73267
000FCA90
00170D3C
001EEC49
0018A773
00185D92
001A153D
0006D913
000D16CB
0004B53D
FFFB677E
FFE9F51A
FFEE1AC9
FFF6E978
FFF0D629
FFF4C63D
0001BB26
FFFB5E42
000EBD63
001305EE
FFF7F39C
000BE4BA
00072C96
FFFBB4DA
FFE91DF0
FFE9872B
FFE84E3B
FFED91F0
000CDF1D
0013E025
00190F55
001455F2
0014FF69
0016DE29
0017434A
0008912C
000A9A8C
000694E9
FFF5B699
FFDDA2AA
FFDB9531
FFF14B1B
000BD0CB
FFE9B74A
001F590A
FFFB75E9
0017D2EE
00072584
0008C4F5
FFF71C0B
000685D2
FFF7676C
FFF43624
FFFD9FE8
FFF0EEBA
FFEFC30A
00123560
0011259B
000C100F
FFFC04CB
0006D5F5
00145FC6
000CC911
0002C8BB
0001BB33
00047A74
FFFB3D89
FFEB7440
FFDEBBD1
00010782
0008E64A
FFF8CC5F
FFE8E962
FFF4533B
00136794
FFFC2E90
00086707
FFFCC9A0
000916AE
FFF82546
FFFBAB72
FFF314AF
FFE77858
FFFDF8A4
000C5DFF
001254DB
000FEC03
00164C0C
0019F164
000CA5D3
FFFE0ADF
FFFEA676
000420CE
FFFCCC24
FFFD0268
00127DEA
FFECD670
FFE7C1DA
00037ABD
00104942
FFF79A04
FFE87856
000913FD
FFEDA869
00035000
00032DD1
FFF846D7
00013B80
FFFBCADA
FFED8807
FFF2E5B9
FFFBDDB7
00000D7B
0012E3CA
00174D4F
001E40BC
0012F1B5
000DA8A6
000C2004
FFFC2030
FFFA698E
0000ADEE
FFF9A89B
FFF8FB23
0008E800
000BE0A4
000E4E9E
FFFB5D5A
000BC92C
0004D187
FFFE4340
FFF1DC07
FFFA5173
FFFF7A33
FFF0D922
000B81D3
FFF95BC7
FFEDB990
FFF68C67
000B7F73
001248E8
0010F9D1
000C810B
001660EA
00194008
FFF9D989
FFFA4A6A
FFF3E08A
FFF845A0
FFFBDDB2
FFDE49E1
FFEE7D56
0006F2B6
00093A8A
0003FF1B
FFF703B1
001272B8
001D6FBD
FFEEC113
FFFAF104
FFF3FE87
FFEB0464
FFFBACA6
000214DE
0003954D
FFF57AA2
00072FBA
0005C7DD
000E6E52
001E0E6A
0010DF22
000DAC4E
FFF216A8
FFE5BEE1
FFEDF4F1
FFE8223D
FFED96AA
FFFC4B06
FFE82488
FFE36D04
FFED2B1C
FFF65CEB
00138F50
FFF904BB
0015EE09
002415B1
0002F878
000BC494
FFE88C32
FFF2117D
0006BD92
0005BA70
000CDE48
0009198A
00085686
000858CB
000B0662
001ADD39
FFFD1879
0003C98C
FFDDDD77
FFDCDE57
FFE3F2E6
FFE1E36E
FFF4598C
FFF29593
FFFEDBF6
FFF0B1F0
FFE72EE2
000436E9
001AF692
FFFA21D8
001547DE
001784B6
FFFCB891
000D860C
FFE46C48
FFE1E305
FFFE7727
00084DB8
00093AD5
00091BFF
00112263
000751AA
000F86BA
000AEF4E
FFF6C339
FFF3391D
FFDDBAB3
FFD9B612
FFF52971
FFE20131
FFF65922
FFF939AA
0009E8F3
0003884A
FFEAD849
FFFD4658
001478DE
FFF908A7
000B90EE
001E7F82
000C6933
FFF2EF77
FFF1CC55
FFEF24BD
FFF60597
FFFF1ECE
000944D6
000B2E18
FFF6B943
FFF97C47
FFFF65F6
FFFE3728
FFF0E2DB
FFE747DA
FFE2042C
FFEB1ACF
FFF97299
FFEE5745
FFF6C6B9
0010425B
0007B9BF
000BD2E1
FFF0FB2A
FFF96A48
0019407D
00008E4A
00005B04
FFFB2667
0007C83A
FFF8C22B
FFFEB209
FFF78D3F
FFFFA75F
FFFAE7C3
00113910
000D01AF
FFEBA65E
FFF060E4
FFF7BB73
FFF9004E
FFFCBE61
FFF4ADAA
FFF389F1
FFF931A1
FFFEC294
FFFD3174
000698F2
001521B7
000F625D
000E5F24
00108FCB
00032295
0014400C
00067B6A
000C720A
FFFB7ECF
0003881B
FFFCA6C8
FFEC4C2B
0002E07C
001A683A
0002FE03
0009D3BA
0009BA9C
FFEDA6ED
FFF965FE
FFF37831
0000D9F9
FFFD7FF7
FFFBE329
FFFF519D
000C0F04
0006711E
00143BFE
00150F73
0009B144
000AED41
000684A2
000713E3
00009544
FFFBB7DD
0008AD2A
00158366
FFFDB8BF
000C0B73
000CF84F
000356B0
0021734B
0016076C
000BB10A
00042F17
FFFCFA87
FFF9FB5B
FFFA47EB
FFFBFDF3
FFFCFFE3
0000CF1C
FFFCBDB3
FFFDF15B
0006A74E
00012B6C
000BB47E
0008C66F
0010C1DE
FFF83C74
FFF4066C
FFFEB6C1
00096B35
FFFBDE25
000B2A36
000E9EB9
000674C6
0004338E
000472A8
0025C350
001DCF51
0013551F
001877A7
000D8B69
00061A9F
00013635
FFF2C91E
FFFD4AD2
FFFF7F22
0005EBBB
FFFA8EA4
000568C6
0001D178
FFFE684F
00022DE2
00071FA4
00062158
FFFB45C2
FFEE2EB7
FFFC5231
0015E275
00073DC7
FFF81E4B
FFFEE780
0023F738
FFEE6B7B
FFED600F
0006B841
000DC8B3
0012D517
00093718
0014BFE7
0007AEE1
00074E3D
00160B0A
000A5AA8
00014C35
00081AF5
000DAB66
0015D0D2
0010C888
FFFB60AB
FFF30FDF
00038F0B
FFF8D68E
FFF4C141
FFF271D3
FFF96B95
001A8E43
FFFCB0C4
FFF7068B
FFFC750A
000ED6A9
00061320
FFFD475F
FFE1B1D2
FFFB454A
FFF20079
FFF99072
000245A9
FFFD445B
00025BFD
000E8B12
000B3540
0005CABF
00032E27
0007C31C
FFFA9046
00010FF4
000D66CF
FFFD08A7
FFF86BB5
FFEACC64
FFE2E150
FFDC820E
000A15A9
000E4C34
00018B74
FFF7FA92
0006D88C
FFF97F5B
FFE6A5D2
FFE6BD86
FFE45EE9
FFF9883F
FFFEA8EF
0004C2DB
FFFB32C6
FFEDB707
FFE03CB3
FFF7B1B8
FFF868C7
0001ACAC
FFF3A537
FFFA1721
FFF1F8A2
FFFB61A3
0014B9D4
FFFE2B4F
FFDAD32D
FFD6AC72
FFE3FA16
FFE4F434
FFFE1FBA
FFFA6B5C
000356CF
0000EDD8
FFFCEE57
FFFBE13E
FFEC0436
FFF969DA
FFF7E2FC
FFF20D58
FFF7A78E
0003C587
FFFB06E3
FFF2EEC7
FFF069E3
FFF133AB
FFDEF446
FFD87618
FFE611B4
FFE27C1F
FFFB60DF
00012892
FFE90CE1
FFD96CC6
FFD64A10
FFE46A33
FFEEA085
FFFD2025
00005799
FFFA1E62
FFF7173E
FFF73D4B
FFFBDC74
0008164C
0007DFBC
0005F2CF
00010EBC
FFFA4455
FFF77A89
FFE9B696
FFF0A796
FFDFAC96
FFE3A3C7
FFE80BF2
FFEDC1F7
FFD21FA7
FFE238F6
FFF02535
FFF1A3B1
FFEC04A8
FFE45C50
FFDFBBDC
FFDD15AC
FFEB5CE2
000737D8
0002EEDF
FFFD7F91
00061C8E
FFFBD092
