00006D13
001F4407
0010707A
FFEE55ED
FFE20D1F
0044A746
001C252E
FFE75700
FFDE3C82
0013ECEF
0010274C
0032D7D1
FFEF0FAE
FFF56738
000062C6
0015A88F
FFF61D59
FFFF377E
0001B483
FFDEF684
0014B852
FFF40886
0001B2AB
00203E41
FFFCA8DA
00234229
FFF114A7
FFECC555
002C3109
FFFFC83D
001DF931
00010EEB
0003FF49
FFFE4A65
00066056
0036037E
001086A5
00048A54
FFE95B42
FFEDD7D7
0011D113
FFFECD93
FFF14174
002C1831
FFE4B2BE
000FEFB3
002007AB
FFEC1C88
0008E923
0026B469
00086D5B
FFEA85F7
000E9CF9
0025EAA6
FFD86F4C
0006D510
001328A6
0029577B
002DA4EC
001A4959
FFF6C314
FFFB1415
0000458B
FFFBC239
FFD62244
FFFFEC6E
000CA68F
0020FD86
00075EBC
00068606
000D647E
00213731
0023CAE5
FFFAE8D1
FFEC036F
000F8ED8
002D06F1
000E398E
FFEDFFCF
00200E4E
000B3980
FFE2C48E
FFF95EFD
FFFB0781
0003B53F
001C3977
00055DB0
001BE292
000CA09B
FFF8E7BD
FFF222EB
0025C48C
000B7460
0025958D
FFEC0CFE
000A8DB7
00219A3A
FFF608A0
FFF28D19
000D153D
FFE548BD
0011911E
0004FCC1
FFF5B72A
0009A29B
000F4B5B
001C3A00
001BA796
00156D46
000E6BE4
0019332C
00132083
00011633
00270C15
001615F1
002089E8
FFEA1E44
FFFD5C57
FFF9CA4D
0003C4FB
FFEFD146
000A52FF
0001CB7B
FFFC0A26
FFF80C8A
FFE70E70
000F94FD
FFF8C3C7
