0006FD75
000796B1
FFFDDBAB
00086613
FFFDFF2C
0001D84E
FFFB8C7B
00055E94
00080F50
FFF94AE4
0007F26A
0001B60F
00054F9C
0002886B
0006D300
00011865
00070C50
000159F5
FFFBBB54
0002549C
FFFBC99D
FFFEED84
FFFC495C
000610AB
FFF8C86C
FFFBC8F9
FFFD6B15
FFFA80AE
0000DCE9
FFF6F844
000841CB
FFF83BC2
000144A8
FFF8C13B
FFF97D41
000024C4
FFFCC708
0002B7C0
FFF7416B
FFF841AC
FFF9F3C1
FFFD0EFD
000EEEA8
001FFDA0
00248D53
000D0534
FFF32D17
FFEE6BA7
FFF33202
FFF45695
FFF67AE2
FFFAA168
FFF8FCBA
00078088
0002A228
0003C97F
0002E43B
FFFFD749
00076C1A
00049632
000238AB
FFF658A4
FFFEEBD8
FFF80CC0
FFFA180E
FFFA73D0
0004E5D5
0001F432
000B5555
000D7E0E
001293B4
0012A427
00215658
0000337B
FFF5D533
FFEDA956
FFF695B6
FFFF1DD3
FFEE6599
FFF2C50E
FFF933ED
0000F131
0004D9DB
FFFC4DEE
00058C8C
FFFDD495
001EAAEC
0003BD6B
FFF5CE94
FFF4214C
FFFC39F9
FFFD0921
00018CD5
00085347
FFF62C08
FFF92E5A
000F9D13
0006B3B2
FFF6009E
FFF4CAEB
0004B6C9
00096C3E
FFFD3EC0
FFE59FFF
FFE54099
FFDF8388
FFDF8E14
FFE6CC78
FFF1C95A
0006881E
0001179A
0001BA13
0002D145
FFF5D8FB
000F94E2
FFF7176B
FFF2DD74
FFED9D0F
0006DC10
FFFAF167
FFFCE5CE
FFFE73AA
00034AF5
000D3FD7
000F9E21
001023F4
00124721
000B8F8E
001A15B6
00055732
000FE00B
00016283
FFEA4EA1
FFE61999
FFDC5A90
FFE2280C
FFD3CD4D
FFE23788
00008DCA
FFF1E429
00038F3D
FFF87F2E
00246316
FFFD2051
FFEC16D3
FFEE2ED8
FFF358A2
FFF28DBE
FFEAABBC
FFE20CDB
FFFD585E
000476EB
000D2D88
001441C0
0018526A
000F6409
001ABB86
001123FC
0014F88B
0007B0B8
001199E3
000B572C
00003619
FFDCE679
FFDDCBCC
FFE3CBF6
FFDFE923
FFF9DC8D
000209D4
FFED1ADC
FFE1874F
FFF87D00
FFEA9486
FFD789CF
FFE32ABE
FFDF0284
FFD9CAAF
FFF916EF
001954B7
00145900
0023EEC5
0021E010
00226846
0022A8C0
002979BB
002549B3
0029BE41
00108377
000D5903
0010B831
FFFBC64A
FFDA4C04
FFD1A674
FFE6873D
FFE6DD26
FFF1BFC0
FFFED7B1
FFF539A9
FFF08674
FFF8CEF4
FFEA5400
FFDA1851
FFE70768
FFDC04A8
FFEF3AB0
FFFA0E99
00087733
000AB793
001C74DE
0021759C
0028FF22
0022D93A
001B5EB6
001017E8
0016D54D
0019044B
00105C04
0012EBF1
0016D626
FFEDE1FE
FFC08E86
FFD3C62A
FFDB3A17
FFF040C1
FFDB8C64
0014F4AB
FFFB9BD3
FFFBDBFF
FFF21C62
FFDCB41F
FFE1C329
FFEBEE56
FFFF2102
0004BACC
000E849A
00030313
00018938
00060456
000EB4A7
00081EA0
001B12CC
00179A62
00108E92
000FC0EA
0004921D
00023C40
001703B0
000875F1
FFD686B5
FFD2EBCB
FFF9638A
FFFD4339
0004B405
FFF8FE01
FFF8E781
FFFFF43F
FFFBDE5D
FFE92AD2
FFFBBA9D
FFF90B72
000373C0
FFF88E14
00075E05
FFED0A1E
FFF8D8FD
0009B4D0
00081BD7
000C9F1B
00082539
000AFBE7
001338C1
0004BE79
000A1347
0007D61D
001F84DE
000CCB7A
FFE4B2B1
FFF35AB8
001F407C
FFF7313A
0003D94A
00027C44
FFF81E8F
FFFA1EC1
FFEC5498
FFF4D45D
FFFC1D0B
FFF941B1
FFFC9695
FFEC3763
FFE8A211
FFEA77E9
FFDCA724
FFE53F2B
00046D3A
FFF3C832
FFFB71F8
0001EE87
000AC7ED
000E11AD
000AE69E
0008B31C
001520ED
00108794
FFE46268
00011EB2
0009F6A5
0010DB15
FFFD7AC8
FFF4E59E
FFFC7932
FFF6300C
FFF19631
0001A3EC
00004FF5
FFE7FDF6
FFEDB04B
FFE64AEB
FFDC08B7
FFE78E42
FFCA9138
FFDDB901
FFF9875A
FFF9618D
FFEEFED8
FFF92D98
000C9E4B
000FDE29
0016A9D4
0016E654
00238DD2
000CD1A6
FFF4A813
00029B28
000F987F
0008EF34
FFF92A1D
FFE7462D
0000452E
FFF299FC
FFFEFD4C
FFE8A74F
FFE85E90
FFE153F7
FFE3384A
FFE63DFD
FFF00038
FFDAB13F
FFC67B39
FFDC620C
FFFF1C57
FFFF8EF0
FFFF598E
000A74AC
0003C3B7
0018C3D8
001B3661
000E2767
FFF30C1D
FFF4EF5C
FFEC5C64
FFF88F2B
FFF91F1A
001088A0
000C5910
FFEE4849
FFF9E17A
FFFC1C26
FFE34A5A
FFE32CD6
FFF5806E
FFFC8713
FFF45683
FFF3F08F
FFE6822B
FFE2C2E2
FFE6476F
00092A84
0019D630
FFFB5441
00069B7A
FFFF9710
0007ABED
000FABEB
0002B66C
FFFEF918
FFDA0BC3
FFD09F87
FFE8BBC6
FFF74C18
0000484A
00018B9B
FFFB281A
FFEDCBB2
FFE69108
FFF1B9DB
FFE0D1B8
FFEA13F7
00052180
FFFCBB2B
FFF939D5
FFF8EAAD
FFEFA7DA
FFEABA4C
FFF00C95
000D7E24
0013D64B
000C2917
FFFCD81F
FFFE3EAB
00005134
FFF4152F
FFFC08EE
FFEF1E05
FFE4DA42
FFCFFD80
FFE56EDD
FFF81DB2
000D8C70
000A695F
FFF47FD2
FFF405E4
FFDC529A
FFF81098
00062D88
00055BD7
000A6EE6
FFFF967B
FFFF8514
FFF94545
FFF46921
FFF48D98
FFF87987
00176A03
00074688
000A9D9E
FFFEE0DF
FFFBFD55
FFF6B29C
FFE8C2DD
FFE1792C
FFEB0F9A
FFE038CA
FFE2FE5F
FFFAFAC1
FFF9F63E
00097D8C
00162AB4
00072A1B
FFF35629
FFFE90F1
FFF8A444
00095D74
000EB01B
000E4540
0005240B
FFF77C5B
0001746E
FFFF7C6B
FFF7DFE7
00022961
00083B0F
0006BF22
FFF9B3D0
00089BD2
FFF92EF6
FFE2AE81
FFD30AA2
FFDA9318
FFEAAA50
FFF6F5C1
FFF0F8BF
00048D64
000EB28E
001D3894
001687D4
FFFB4328
FFF5A922
FFF3218C
00097CF1
0013DBA1
00058E13
00050DDE
FFFD63D4
FFF62476
FFF6369D
00047B88
FFF99BC6
000B71BA
000CC882
000A86C4
000F2F27
0006A7CB
FFF5F26A
FFE2BDF1
FFDB2A2C
FFDBBE95
FFEA6185
FFF0D613
FFEA7B06
00009CE9
00174CEA
00247F0C
0027F12A
001AA89C
0006DA35
FFE3029A
FFF4E232
0007F13B
00061B34
0004D756
FFF966FD
0000A18C
FFF5A314
FFFCFC6A
FFEFB472
FFF699C4
FFF3687E
0010F11A
0005D43E
FFFAD8FE
FFFFD43F
FFEFC4B3
FFF3F892
FFEC4B66
FFE7F9B4
0007E6F9
0008A306
0011E6E4
002208C7
001B590E
001C2C08
0004439B
00105AE1
FFEE2F84
FFE45ADE
FFF7D7CC
FFFE7387
FFFF3478
0015BAD3
00003D31
00034E83
FFFD48AB
FFF3E938
00001695
00088D47
0004237C
00088752
0007B4F0
FFF6E6D9
FFFDAC69
0004D9AB
FFF54600
FFFB033E
000A2537
001500F9
001E5656
002D3810
001E9B67
001DC211
00063DFC
0015048E
FFF207F0
FFF4A2C7
0003FA50
000BFB7F
001166CE
00134F4D
00046CB0
FFF360A8
FFF4D829
FFEF25CE
FFF8CA35
00041103
000A9A33
00040D14
0004764A
0004EFE0
000C15EB
0010463C
0009E4CD
FFFD053C
00133A38
002D3B05
00289E4E
00250F16
0013556B
0001B221
000A99DC
000CE414
00120F6E
002576C5
00157421
001F6752
0027E9CB
0018BE00
00090043
FFFCE78B
00080175
FFF419DC
FFF0063D
FFFEF47F
FFFD53AE
00019DF5
000A1760
FFFC7FA1
00106817
00197E81
00136DEA
001C243F
0017D14B
0023EB0B
0029B464
001ED1FC
FFFD2F84
FFFFC678
000B4BFA
FFFFE349
00026050
00198FED
001AFC8E
0039ABA0
002D9496
002442AE
00247B78
00147639
00044FBC
0001BD92
FFF0368B
FFFB870C
0001C67F
FFFCC0FA
000608AB
0005F7E1
000B424B
0009FE9A
000427E8
0003D5F1
00068DD1
001E9996
0028E574
000523B2
FFF88B55
0004F064
FFF70CB5
FFFBA211
00097C0F
FFE73782
FFF16F5B
0008B6A8
0016230E
000E7B95
001E6AA9
0013248E
000BC4EC
00129309
000F6A50
0004B4E1
000074CF
000F204D
FFFF900A
0008426F
FFFB841B
001611FF
00099574
0010199E
002ED8D1
00273107
00277581
FFFD08A8
0002C96C
00040E50
00091AC8
0004A844
FFE62BEB
FFD69FAD
FFDFE25C
FFDEA281
FFDBA7DA
FFE3E421
FFFB06FA
FFF85790
FFEB21ED
FFF2D680
FFFF6B97
0004DA27
FFF3394A
00027765
FFF41002
00021F90
0011BB1F
001A3675
000C140F
00208125
001B0277
0020DF22
0037574F
00246B70
00092B1F
000867E6
000589D6
FFFBB999
0008CF77
FFDD7E19
FFD6E5BC
FFE76E77
FFF6BC2B
FFF7E094
000905A8
0000BC9C
FFE1C744
FFEE9997
001218BA
FFFB4607
000BE5E9
00063642
000CCCCC
00014610
000744AC
000F7AFC
0018C3E4
00298A2E
000DD910
000D463C
FFFE1E6A
000F7D1C
000C0713
FFF86343
FFF72199
FFFB4181
0006423C
000CF7BA
FFED29EC
FFFFCD6E
000A6C07
002D05B2
002600F6
0032304D
0039E2A1
002DB25E
002C6984
002D1502
003E2D49
001E2537
001E467E
00218BDE
003219FC
002B95AD
00314D39
00332DC7
002E3AA6
0015C400
00019A08
FFFE74EC
00085E2B
FFFA8324
00001267
0004592D
FFF9B02C
0008E11C
FFF25690
FFF4D1B7
FFF18AD1
FFEA5C00
FFF97064
000A14DC
001821FD
000B0767
000B8FDE
001A9CA6
003213B7
0015FAD7
0002FACB
000D4C5A
001D8AEA
0018E9A4
00149391
001BFE0D
001EFE94
000E3C26
0001447A
FFFC6050
00026123
000372B9
FFFB2F21
FFF6EF23
0004C923
00022E50
FFFB599D
0008CF9D
FFFBDD7B
00062DA2
0004A370
FFF855A5
0005E588
FFF797E8
FFF2019E
FFF70777
FFF7E42B
000700E9
FFFE2A87
0003A1A7
FFF7D613
00054363
FFFD2897
FFF90B98
0001563F
00046DEB
0007E986
FFFA6A65
FFFB8032
0001C201
00027AE8
000383E2
000504AE
FFFDED44
0005145A
000452BE
FFF71A18
FFFF7652
FFFD705E
00014D84
FFED02F2
FFE9CFAE
FFE6103F
FFE8BEB2
FFF81630
FFDE8FCE
FFE17E3F
FFDC17A7
FFFCE4D5
FFF7799C
FFE5D5BD
FFF76515
FFEFE0EA
FFF6283F
FFF9DE89
FFFF3CFD
0001F8FE
FFFAFC71
0002A32F
FFF7129C
FFF5B5C8
FFF37E37
FFFAB7C4
FFF95355
FFF99106
FFF255BC
FFF38AC9
FFE79C57
FFD3BB4A
FFD74A8D
FFCE9C74
FFDBAE32
FFDCB902
FFEA4BC3
FFE850BD
FFEF6A07
FFF80165
000B6C97
000034B2
FFEC0A2B
FFFAD3AC
FFEA6AB3
FFED312E
0002A466
00071580
0002C335
000092B7
FFF84F31
0015F0C1
FFF9CA59
FFFDA8B8
FFF96180
FFF189CC
FFE6A83E
FFDC9C7F
FFD5C26C
FFDB8D45
FFE4CF53
FFF0B6AA
FFD8CC92
FFD43503
FFD1A61E
FFDBBB4B
FFFA6BD3
000DC30A
FFFDCD61
FFF288FE
FFF4DD01
FFEE5391
FFE8CF3E
FFF1CEE2
FFE8AA7F
FFF436EF
0002D9A7
FFFCC0E0
FFFE88AD
0015B6DC
000C9562
001E4E0C
0016E1A4
000977C4
FFF8B2E4
FFE16557
FFD678C9
FFD09B5F
FFEC5B9C
FFEC61A4
FFE9F797
FFDCE734
FFEB2807
FFFA0ADD
FFF6182F
0006B755
00004299
FFF86408
000D52A2
0003C22F
FFEBF1B2
FFE1B930
FFE98174
FFE2D46F
FFEFAB26
0008EA00
FFFD2F89
0000F347
00065572
00078307
0023FEF0
0025405C
000FEE6A
000A5E00
000EFBBB
000BB19B
000B7F8C
00068B30
0004D924
FFFDCFB0
FFF7586C
FFF3F901
FFFB5728
FFF1EC7A
FFE3523F
FFD86ACE
FFED9F85
FFF4C9A8
FFF8FBF4
FFED6A63
FFEB627C
FFD7E9A2
FFED170D
00072AA3
FFF60279
001E3A8C
0009F7C0
000289A5
00145B6A
001AF02C
0012F966
0011A0F9
0017AD5C
0013AF22
001E1F5E
000FB13E
00164725
000882BF
FFFA4E09
00065C1C
000A9C97
0009B05E
0000B832
00055D05
FFFE9B81
000D1FD2
FFF8F895
FFFBE24A
FFEA812F
FFFC0C8B
FFFBA851
000567C9
FFF39A5D
00166411
001CB8AB
FFF08DDB
FFF9887E
FFFF0581
000D821E
000AF109
00123B50
001301C9
00171EC2
000AF1B8
FFFE5C36
0005B395
FFFACE60
0009C4CB
00192A6F
000AC792
00034130
0010595E
FFFFD75E
FFFA1434
FFFF174D
FFFEAD7B
FFF50D97
0007375D
FFF025AF
FFF49266
0006FE16
000A9827
00072774
FFF065A9
FFF37A51
FFFEBA90
000F019C
00035E2E
0009EC1D
00079CA4
000A942D
FFEF0C1A
FFEAC00E
FFF1F54E
0008217D
000F1334
0012729B
001AC459
0007534A
0004FA9B
FFF9B7CC
00030FBE
FFEE3C36
FFFC438C
FFFB7A8E
FFF1E719
0006451A
00124304
001868D2
000C16B9
0005F7DF
FFEC6BF5
FFF9DC18
FFFD6CE8
0003C477
0003385D
FFFC2A07
FFFAF921
FFF64593
FFF4342A
FFE91BE2
000AAEC4
00186038
000E9443
0012371E
001EE7F3
000D749E
0004FD9B
FFF7B963
FFFDD1AD
FFEC18E4
FFF3D854
FFFB61EE
FFFE50A5
00145FDE
00084297
000B52CE
0001ADAF
000A8AE9
00021B4E
FFFC4814
FFF7E472
FFF839A9
0000A91F
FFFE7F59
FFEBA3AD
FFF0A75F
FFE87DF7
FFF06B7A
FFFBFBBA
0015BA76
0010DE57
0005ECA2
00008896
FFFC4CFC
000934A6
00084BEA
0011F144
FFFB0886
FFFEB1C3
00189F80
000CE424
000CAD40
00064495
0016692A
00230658
00182964
000254BC
FFFFE52E
FFF76FC0
0003AEDC
00005E09
0002DA5C
FFF74B46
0004162D
FFF31EAD
FFFE7B26
00185305
0027B523
001398DD
001087E4
0001D933
FFF8DED1
00054CFE
000FA5B1
0010ADC8
FFFC0940
FFF39DED
00173406
00097D45
00153BA8
0000669F
000780DB
00209106
000A495A
000B56EF
FFE51BBB
FFF9C375
000F0CB9
000BED5C
000389FA
0003781C
000C36F4
FFF199F6
FFFE67B7
002CBFCE
0028CA53
00178254
000C938B
FFFDD327
FFF303D6
0006AB26
0008945B
0015CFD6
FFFE6F55
FFEB3478
00022FDB
FFFBD60E
000B6821
FFF4312D
001510CE
00156FEC
00171E41
000D6C2A
FFFB90F3
FFF63B00
0009B8F1
0011C559
0014BC0B
00103763
0010AC74
0001865A
0012E2AC
00277D39
00293D41
000D1388
000D3C95
FFFF363A
0003CCDB
00107E5E
0016B842
0003F590
FFDF3D2A
FFE0658B
FFEAB345
FFF51AA4
00003D44
FFF94D0D
001679FB
00234AC5
00130191
0012287E
FFFD6695
FFEFD8DB
0003EF21
000DEB21
001AE3F5
0014E970
000C8D14
0010EADD
00151B72
0013E6F3
0023FC9C
00168BBC
0000CD65
0000839B
000661CE
0011A687
0012CB85
000C08F2
FFE41A3A
FFCE1190
FFD6CB62
FFDB229B
000548D7
FFF1479C
000ACAA8
000382E6
0009057A
0012CF1B
FFF25894
FFF24E92
FFECA870
00092077
001FA322
0022F844
002DE5A3
00200478
000E44E8
00159D7C
001857FA
00022CB4
000EF2B8
000C610E
FFFDEEAF
0017088E
00163B2B
0018B1CE
FFFB1D4A
FFD64798
FFCE4506
0000799A
FFFFC176
00074C66
0004DCB9
0002969E
FFF0F80C
00003518
FFE4DACA
FFD3FB31
FFE63631
FFEEDD84
0008059A
00164272
0012EA08
00211C91
001448AE
0008FE91
0011A8A9
0001F45A
00096DB8
FFFBFCCA
FFF57F2C
00045F21
000633E4
FFEBE82B
FFE7F53A
FFD0F0D4
FFD1226B
FFD2D1B7
FFDA9823
00022600
00119E42
FFF63B06
FFE905C9
FFFA61BD
FFDD2EE2
FFBC0758
FFBC1BD2
FFB89722
FFC78A4B
FFDF0023
FFEEB94B
FFFC81D1
000C649B
00037B93
0013D71F
00081EEA
00007714
FFF74A62
FFF3EAD5
FFF02819
FFF4B1B4
FFEAC6C0
FFE6D50C
FFE4873D
FFFDDBA8
000224EB
FFDB1BBB
001456E6
000EA8A5
00197976
FFF765EE
FFEDE422
FFC3701C
FFB81011
FF9F899B
FF8D10B4
FF9ECEA6
FFBFF9FC
FFE3BE5F
FFE7D9F8
FFFA28D8
FFFCBD9D
FFFBDA1E
FFED440F
FFEBCF99
FFE7A062
FFDC341D
FFE80C28
FFE9D6C2
FFE13EF6
FFE0FC53
FFE2BDEA
FFF990A6
002A4C64
00016657
0000A0FC
00143F53
000F0E6C
00012241
FFE57875
FFD993FF
FFC35BAF
FFB28009
FFA1E1E1
FFAA773E
FFBF37D8
FFDD569C
FFDD91DA
FFEFDD58
FFEC6F83
FFECC353
FFE9CAE8
FFE5AE09
FFDBAAA7
FFF0FE05
FFEAC67A
FFE3D36C
FFDD48CD
FFC7857B
FFCE39F8
FFF021EF
FFFEFA9D
00166BE8
0000BA7F
0008502A
0012B1EC
00155673
FFF25516
FFF6AEAD
FFF43DEA
FFE1860C
FFE344CE
FFDF7EAC
FFE1F06F
FFE39CDB
FFE646CF
FFF95808
FFF5F1C6
FFE7B0F6
FFE63BA3
FFEE74DE
FFE1D092
FFF1AF95
FFE323D7
FFDE623D
FFE683CD
FFDAF0EB
FFEA1085
FFF60FC4
00054115
000C73AE
FFFDF77D
00074483
001D2550
001AFEA5
00203A96
00184EFF
0022934E
00222AC2
001CA19A
00046D97
000EABD1
FFF491FC
0003DCA0
FFEEBA00
FFE37AFC
FFF40752
FFF324F6
FFDFFC6D
FFEA828E
FFE7FB28
FFE77216
FFE78F4F
FFED1505
FFEBD7B8
FFF21D0A
FFFEFAB7
FFEFAE5A
FFFA27F8
FFFE2514
FFFDBBD8
00078C89
00211FCD
001A6B72
002004CE
0025452B
00287A55
002323BE
00235F7F
00227E5F
000E513F
0000F1DB
FFED7514
FFF05A70
FFF7205B
FFE8C6C4
FFEBC0D1
FFE3849C
FFEBFB52
FFEA459F
FFEBB123
FFE57E62
FFE74B20
FFF02919
FFEEDFAD
0007C4E8
FFFF659A
FFFC87E2
FFFC9E07
FFF9AD39
001DC5A9
002E4442
003505D4
0020D141
002CF5D5
0021B236
00237F36
001EA193
00160E64
FFFC6AB7
FFFCBA6C
FFF8A5FD
FFE3CBD6
FFD65378
FFD85889
FFE98E05
FFEBDF19
FFE049C5
FFDF458B
FFE695B6
FFE5D867
FFF88412
00054478
0019151F
FFF934EC
000221CA
000351A9
001A70CF
00253EF3
0030FBD3
0049476C
00287A3D
00239AB0
000F5A0E
000B1A28
00212427
000481B1
FFFDA81B
00022713
FFEFCEE1
FFE6507F
FFDA35AC
FFE58FF0
FFD78316
FFE70928
FFF76325
FFF8211C
FFF1F716
FFFA4F93
FFEA9100
FFF6B20B
FFF18E20
FFFA3887
FFFDF3B8
FFFCAF04
000617FF
00199116
002B8712
0047B9C7
0010C55F
000FF7CA
0015E4DB
00107730
0006CFB0
FFFEB899
FFF5B060
FFFC2520
FFF4A80B
FFEC1DE5
FFF0CB95
FFEB7F24
FFF9802A
FFF80368
0001D85A
FFF43B63
0002F4E4
000D0C54
FFFEF2A1
FFFCF9D0
FFF1CFAA
0007D876
00045D0B
00060182
00013524
001308D5
00148D06
0022B255
0032826A
0024147A
002375B8
0024B62C
0027DA70
000F8AF3
000D31C6
0018BB62
002C4237
002AD90F
0028AEF2
002051C6
00233A76
00203370
000D74F3
000CCD64
000699EC
0004A3F7
0003E705
0000DBC8
FFFB47A7
FFFD0F65
FFFCBD79
0008BF16
000381C7
0008FF63
00048CC0
0004DD94
000B75D7
00130A7B
000DB2D2
000F41FE
001AC1E6
0008FFE4
000EB383
001464CC
001E821A
001649E2
00112382
0010E6D4
001EB11B
0017FF68
000EDB77
001C7994
0016228C
FFFF82AF
FFFF475E
FFFD48F0
FFFFF773
0002EF54
FFFFCC93
00006C5B
00012885
000367AC
FFFD39DE
FFFA8C53
00022833
FFFEEADD
FFFBDBA8
0003D6F4
0000153A
FFFEAB88
00013314
00045100
FFF629E8
000016A2
00002320
00058C58
00009722
0000BB22
00027D9A
0006F507
FFFBADF2
00057555
00023C6A
FFF9E691
00032EF5
FFFA8448
FFFD1F3C
FFFBA453
FFF9C7AD
0007335E
FFFB474A
000D96D6
0001C245
00091BE8
0013B16D
001295D9
000C8650
0015744C
001F5936
002421DE
00035F6F
00125407
0007AD90
0009FC4E
00152817
0008017B
0012FEA5
00033B6F
000F319B
00055E55
FFF90A1D
FFFDAEAB
0004B751
00039F8C
00079056
FFFE20D8
000E6308
FFFEA93F
0014423D
000B9685
00136BAE
000C61BB
0012041E
00116C8C
001A903C
0024DA38
0018CF40
00086B8B
00085EDB
FFFB3130
0008A81A
001DFB0A
001897CC
00158DC6
000F9456
000E1C48
001B0DDE
000E1025
FFFFBAF0
FFF23C4D
FFFFB098
FFFBEFF0
00030265
FFFADDAE
FFEF9217
0007C71D
001DECBF
FFF4C791
00009856
FFF8B0E0
000D0740
001145D5
00218352
0024C29C
001964CE
0024616B
0012B7FE
00136E66
000399F3
0007BE24
00176B8E
002A5C7A
001822A8
00124D96
0006CF5B
00045741
0011A784
00046D3E
000DF418
FFFD29E6
FFFD4C0B
FFFF4F1A
FFED2B52
000E73B4
FFFA4F4E
FFE513D8
FFE3E0A7
FFFDC141
FFF5F03A
000726A2
00006666
000DFA6A
00036FDE
00035F3D
FFF78B72
0000E965
FFFACC14
0004F919
00089581
0001BD3E
FFF97AA4
0006BF83
000F089C
FFFFE7B1
00036563
00050884
000F9F1F
000A8CC6
000049B9
0006B79E
FFFEA415
00069F43
FFDC1D4D
FFE11F4B
FFEF11E0
FFEE6BB0
FFFE780C
FFFA229B
00134A29
0002815F
000137DF
000F7F10
FFFC2503
FFFBB659
00020394
00118B17
00173D16
0002D8FE
000DBA9C
0001E470
000838B4
000FD5E9
00095F72
000A887C
0017A378
0010EBFD
00022442
FFF5CA6F
00098AB0
FFF3AC31
FFEC7361
FFFA8067
FFEB6EFA
FFF4F9CD
FFFF8171
FFFA3C50
00013794
000CDE97
000B8CDF
001DCF48
002998FE
0023EDDC
00118EC0
0017340F
0011EF71
00088865
0015B032
0005279E
000FF0EE
000A6B32
000FF9F6
00128826
FFFC8F92
FFFADE8A
FFF7B249
00038915
00120760
FFFAFA1D
FFDDFBA2
FFF5D535
FFF16879
FFE6CB95
FFEF4439
FFFC49DC
000E45F8
00101454
00106DBB
001148C4
001EB1FA
000FC9C0
001B6436
000F4457
0003FCA4
000C8ECC
0011271A
00053D6A
00046022
0003E583
00092A14
000C03FC
0000E066
FFF777CE
FFFF591E
00055CA9
001105BE
FFEF77D4
FFCFF871
FFE709CB
FFF5897C
FFE535EC
000163CC
00007A62
000E0B52
000C7306
000669C4
FFFF7DF5
0005C6C3
0009A200
0013CB11
0003AFD1
FFFF640F
FFF724AA
0000F1A1
000B97FC
FFFA161F
000A56FA
000D022D
0009CB09
FFF5D832
000493BF
FFF6073C
0000DB5E
000BF160
FFED35CE
FFE90F26
FFE95083
FFF7DB03
FFF4BEFA
000C830E
0010F11E
000E5152
00055753
FFFBD63B
FFF226F5
FFFAED13
FFF04179
FFFC5C53
FFFF3D00
FFFDAD1C
FFE4129F
FFE6C33D
FFF17AE4
FFF1825A
FFF9F22C
00094993
0016FD5B
FFFC8522
FFFD8851
00028987
FFF19E83
00134A2A
FFEAB336
FFE43752
FFFE3C7E
00026CD4
0012B5E1
0011C44A
0005A2D0
FFFB6B06
00002FCB
FFFA1030
FFEE9246
FFEFFA17
FFEE1DE9
FFEEBCC9
FFFE9AEF
FFF54928
FFE11852
FFEAD772
FFEEC3DB
FFED5A7D
00021F06
00152B04
00163259
000C484C
FFF8515B
FFF5C9DE
FFFAFDD2
FFFA5A84
FFDD6061
FFE07655
FFED90D2
00110479
0012047F
0014CA9E
00038750
FFFEC37B
FFF4E36D
FFF84924
FFF61168
FFECE1A6
FFEFD2D0
FFEFA600
00010D5C
FFF922C4
FFE3F66F
FFE5BAB8
FFEDD0E8
FFF340AF
FFF29346
00099AF8
FFFD2F00
000876FE
0000354E
0004B39F
FFFA0125
FFED9BB7
FFE83085
FFEEC48F
FFF66C96
000811CB
00068E12
000FA0F4
0002EA16
000069C3
00044704
FFFF6C18
FFFDF182
00001B36
FFED2B07
FFE892C2
FFF29593
FFFA5E11
FFEF521C
FFF76FAE
FFF0DBBE
FFF55537
FFFB8377
FFFA9D82
FFFA1738
FFFA8318
FFFC6CD3
FFF83E08
00037E0A
FFE70802
FFF8DCA0
000DB3BE
FFECA1EC
00098D5C
000F01CA
0007E9E8
0007A1B1
0017EA70
0005CA8E
000E1570
000B65F3
FFFAFC50
FFE5C982
FFED35E2
FFE9CAE8
FFEEB905
FFF6F851
FFF48AF1
FFFEACF2
FFFD8DF9
000C5605
FFFDAFAE
FFEC7E66
FFEFF3B8
FFFEECDB
0008D97A
0000290C
FFDBC0AE
FFEFF5F8
FFFB3F8A
FFED548B
FFF6E9DB
000EF1F9
FFFA758D
0007FEA1
0010D4BA
00078A23
0007C668
FFFC6873
FFF75DEE
FFEF0772
FFDB6A19
FFE71F24
FFF3C7D2
FFF89257
00070875
00088871
0016E32E
00160AED
00186CD6
FFF21F75
FFE630FB
FFF3D007
0005B780
FFFFCC73
FFE0F166
FFEC50A0
000612C4
FFFC9B68
FFECEC87
FFF2B19D
FFEDB4C2
FFFD4F0B
00005541
00099546
000C8D46
FFF99132
FFF1CDA4
FFDFB016
FFE2B2C5
FFE5B8DC
FFF354F2
FFF98D03
0008F5DF
0008ADC3
0006CC3A
00180C36
002034D1
FFF93968
FFE1EDC2
FFE4FDE1
FFFEE29D
FFFB5FF2
FFF81472
FFFC8259
00019645
0002957B
FFF220C7
FFE4B800
FFEA5710
FFEC3E62
FFF6CE8B
0008E89A
0007C2A4
FFFA1C5A
FFEDE286
FFE4F0F2
FFDE6380
FFE98F22
FFF65C00
FFF916F9
0005BCF3
00025051
0010FFB4
001AB5B4
0016CE33
FFF3B4CB
FFDE06DE
FFEE321C
0002A8C3
FFFDBA4B
FFEFF80C
0016083E
FFFE3B65
FFFAF6D2
FFF18819
FFEFB6A0
FFE84903
FFDF2FD7
FFF77907
000182CF
FFF741E2
FFE84E6A
FFD4D302
FFDB00AE
FFE950BC
FFFBE05F
00039197
00052DC1
000DA667
00035D72
000E86B7
FFFDFE74
FFFCB65C
FFEE8A8B
FFCC4AAC
0001325E
FFF6FB93
0003CCC3
FFECBB1D
0007EF66
000622D0
FFF725A2
00006CA0
FFFB7A6C
FFE7298C
FFF3DFC7
FFF82EC6
FFECF603
FFE1EC2C
FFD54554
FFD13FF1
FFE69A01
00021FC9
0000BA28
0005B9EB
00076B58
0007A4DE
000BF85F
000087F6
FFF4F95B
FFF8A28E
FFF95831
FFD474F0
FFD9F07C
0004553E
000126F7
000C84D8
0005ED95
00090D46
0004260E
000335B9
00020F64
FFF89551
FFF29141
FFFF41AA
00013600
FFF53171
FFE7D450
FFF5F056
00033860
000BC725
000EB682
000BA5AB
000C7456
000C7E5A
00054D8B
000858C5
FFFC0432
FFFF182A
FFFB22F3
FFEFDEF5
FFE9D5BE
0006B7D0
000C16BF
00116722
000B559C
000C1764
00174C27
FFFDB1CE
FFFBE10A
0008FB43
FFFCB37B
0007322E
00123F95
001E0286
000C6CDC
00189BE1
001AE887
0016FE2F
0019E066
000894E3
FFFCEFB1
0007F96F
FFFFF92A
00008155
FFEBC6C1
FFF4E039
FFFFD46F
FFF60C56
000D7892
FFFF9F9E
FFF99D43
FFF1C29A
FFFCED76
0001D8EA
FFF9B9C1
000119C8
0001B4F7
000C7235
00055082
000790CC
001B419F
002FF03F
0029EE32
0025C404
001BEEFC
0014E56D
000A623C
0007C9E6
FFF7697B
00073803
00015E3E
FFFE7303
0004EAFD
FFF8E246
FFFFC0A3
0001E4D0
FFFAF8AB
FFFA4D4E
FFFC439F
00003EBE
00170CB1
FFF14365
FFEDF8ED
FFF1612D
FFFA7843
0008D60D
000D728E
0017FD43
00157936
0025E3AC
0027B904
002327DB
00289978
002608E6
000E4C2D
FFFCA2A6
FFFCB767
FFFE78E0
FFF7FD56
0002926C
000AADD2
FFFB394E
FFFAC3A8
0000D0DF
00065A9F
FFFEDD91
000760B0
00088ED6
0028A3A7
000CEE75
00114232
001033A9
0009124A
001460CB
00162761
001CEB94
001C9749
00156390
001698A3
001805EF
0013910D
000C880A
FFFFC1B5
FFFBD788
FFF30A82
0003784E
FFF5F611
00073C0C
FFF918EE
000C4455
0004F2C3
FFF298CE
FFF76470
00005B53
FFFD72A0
FFFA6CB6
0015415D
001DFA2A
00120363
00180480
00150DBD
001B15EC
001BB081
000EB604
0005F916
000EC65C
000DBC27
000F28B9
00091EDB
0002E782
000D9EEF
0010E821
FFED7FAE
0008D321
00062ED8
001803F3
FFFF2B16
000EB01D
FFE90320
FFEFAD36
FFF74BE8
00079321
0008E714
0015BB21
00112585
000E97F6
001CF7FC
001B82C4
000AC9A2
0001EFF6
00083961
000DDE9E
00060323
00093D28
00125778
FFFB8F18
000813E6
0011E927
001690FF
001D8957
00153981
00109BA1
0025E710
0035FEB2
0018214F
000F6166
00049BB7
0004E203
00055C06
00048D3E
FFFBF672
FFF75B4D
0000D882
0000AC6F
0010E776
0008BDED
FFEF3C56
FFEE4BF1
FFF511C7
0001F130
000907A8
001A9B58
002058C0
001EAD34
0017BD5F
0029D9CA
002C90C6
000FD67A
00037E2A
000B038E
00049CA4
000E957A
FFFE132C
FFFF659C
FFFB56CF
0008F8F8
00076E79
00054F88
00008344
FFFD0A30
00025503
FFF788FA
FFF8B200
FFFB8B3A
FFFBBFBC
FFF4F173
FFFDE47D
000B6C35
00037A86
00082CC6
FFEEF3E2
FFF2B19A
00051433
000404F8
FFECFD1E
FFF190D4
FFFB9957
00026BBA
FFEEDD7A
FFF04EC4
FFFBFE60
FFFC7156
FFFCC144
FFFB2D62
00017F88
00029155
00070048
FFFDEF3C
0000A78F
0005E8B0
0003FA20
00012CBC
0002CF35
0000797E
FFF82847
00005A3B
FFFE0066
000D0BD4
000CE3FB
FFFFD31E
0006386A
FFFB4A90
0007F25D
0007DF33
FFFFA68A
FFF8A9AB
FFFD0CB5
FFFD8E11
000026A9
FFF7B5EB
0001B1C4
FFFC3293
FFFDA8B8
FFFB471D
FFFE11D3
FFF78241
FFFB271B
0008CDDB
001126A0
0019F7B0
000B800B
0019CA97
000A6B62
000CB945
0018E71A
001F3B2E
000E9E7D
FFE98D00
00160E88
00262A7B
002A2E56
0016F4B7
001659CB
0020E5F8
00095DC8
000C7CDB
00160118
0002FDF8
FFFC7A02
00064B53
FFFA51F6
FFF88D2A
0001FED4
00027304
0019A2E2
00236BCA
000320A1
000E4969
0020567E
001079C9
0014787B
001B312F
00297898
000DE834
FFF2A10D
FFF4CA1C
FFFF89D8
000413AF
0003EF9B
000B160C
000DBE8F
00204954
0024ABAA
001F7425
0016D09F
00068EC0
FFFF9017
FFFAA846
0007332B
000100DD
00023A21
FFF167DE
0016B358
FFFB74A3
00017982
000ADEF1
FFF7077B
000ADB26
0003BEC7
00090114
000CB692
FFFEC5DF
0014CB25
00102598
00103E51
000C6F2C
000B36E7
0007434E
FFFDAD69
FFFFF6CC
000C621A
0010171F
000F8C35
0015D614
FFF5F911
000C7894
0007F0E7
0001008D
FFFC320C
FFF18A94
FFF9A59D
000D133A
FFE607D4
FFF1DC57
FFE69958
FFEBE74B
FFF73A5E
FFEC131B
FFE9229D
FFFCE4EC
0001D89E
FFFEA335
FFFCD5A0
0004249B
0005A550
000244D6
FFF929D0
FFF89F3A
FFEE463D
FFF35175
FFF76C7A
FFF1EEBD
FFF591D6
000BF9D1
0024F3FD
0001CDFB
FFFC788C
FFEE4865
FFDB0B30
000D155B
FFEEB967
FFFCA2FD
FFF1DBC1
000170E8
FFEE97BB
FFF13302
FFF75C84
FFF1858A
0001436D
FFFFEC4A
000961E4
0002901A
0007AEBC
0001A34B
00119694
FFF989AF
FFF671DA
FFEB05BA
FFD938DC
FFEB94F0
0002A376
0014417A
000EA3DE
0006A008
FFE637B3
FFFEC1F8
0001C2C3
FFFFFD9E
0006C41D
0001623F
FFF7A31A
FFF66A8B
FFEF400E
FFF5707F
FFFA5EA8
FFFEE884
FFFEA5D0
0011C380
0017244F
001C279C
001D0557
00144533
0006B916
000C8006
0008D02D
FFF18175
FFEF54E2
FFE4FCFB
FFF5F7DF
FFE66B98
0007D1E0
FFFA3AC3
FFF1F940
00147087
00009C53
FFFBF1B5
FFEA99ED
FFFB130E
FFE781B9
FFE39225
FFF7E00E
0003E39F
FFFDF66A
FFFEC530
0007DFBA
000596C3
0015EA6E
001312EA
001D0CD2
001A9E4E
0013FF1E
0008557B
000A4BB3
FFFF1C6D
FFFF5ED1
FFFA3242
FFFE0B41
FFEB1ECE
00030DE3
00161035
00001711
0005175F
00039534
FFF66D14
FFF0ECDF
00003B9A
FFECC04E
FFF92593
FFFEAEA0
00001FCB
FFFDCD12
0008B6F9
FFF8EA57
FFFC850B
0009ABED
001C4C75
00107DA6
00149302
000C3325
000EB6ED
000D5222
0005C8DD
FFFE87AB
FFF506A5
FFE195A8
FFF2408F
00050984
000AE9C5
0014CB9C
0000E2AA
0004543A
00014A47
FFFD81A7
00022A51
FFF884B2
0004C3D1
FFF8DEE0
FFF6A831
FFF96263
0002E940
00075266
0008603E
FFF4D88E
FFF86CC3
FFF35A3F
FFF8311D
0010610A
000EC687
00138BC3
FFFC6305
000D2178
000C0034
FFE111D0
FFF18C24
FFFD2A54
00145FFD
000A9643
000D84CE
FFF1D5E6
000FFCD8
000A725F
FFFEF724
000AE813
FFFD45F3
FFFF28EC
FFFEF761
00019EFC
FFF6B6EB
000E376C
000AB584
FFED2347
FFF1C203
FFF3C8A3
0004384E
0006DEB7
0013BF85
0009EE18
000BBE63
0012BF1D
00009DC7
FFCA2834
FFE16D69
0004B1DB
0002F081
00134F58
00102021
FFF9C717
FFFC0EE5
FFF8EC0C
FFFD8F1F
001DB7C5
0010B603
0000F751
FFFE7A74
0008AA20
FFF95925
000A4DD7
0001A820
FFE66007
FFE72A16
FFEE6078
000418FE
FFF8C15F
001B50DF
000F231E
00158F99
001BFB08
000E9E57
FFDFAE68
FFE26E22
0002603D
FFFC22B5
000A1001
0020B905
00151B18
000F4367
000926FD
0019F0B9
000ABB83
0008943E
FFFDEB87
FFF7BF9D
FFF5027D
FFF78426
FFF610E7
FFE7B317
FFED9C4C
FFF1B90C
0005EC58
00031BEB
FFFCE67C
000A950B
000D43C8
00215E90
00280593
002E6F98
FFF47C1E
FFE51AEB
0010F513
000191FA
00105C7A
00144286
000D6049
0012CB96
000E6EA0
0012E41D
FFF68FE2
FFFAD4A1
FFF8A0F7
000A5120
FFF0F903
FFF1A4A2
FFED662C
FFF51495
0002279B
FFFFA3AD
0000B1AF
0002DC5C
0001CF20
000EF438
0016B280
00263853
002AD970
002ACA25
FFFE7C34
FFE369BA
00076013
FFFCFAD7
0003A6A7
000156C8
FFF9C839
FFF1BD16
000DF10D
000A1EC3
FFFF0BAB
FFFE159C
00037797
00131FC3
0003EB8A
0001D0CF
FFFF81AB
0003034C
0004948A
0000802F
0002B784
000195BD
0015B9E3
0007704F
000F966B
000F5970
0016EA54
00096B3A
0007DC38
FFEED4D4
0013F3B9
FFF01C2F
FFF5B077
FFE8DC16
FFDC5DAF
FFEA7BD9
0005F828
FFF3EE6A
FFFD106F
FFFFDFB7
0002BABB
001AB200
0002DAA6
FFFC7330
FFFED88B
FFF6A097
0009B15D
FFEFA496
FFF856FB
0001AE01
0005AA9C
000D8359
0009E136
00183F3E
000B23EF
0014B921
00137C45
FFDDE9BC
FFF79AA5
000A22DB
00021140
FFF89C24
FFC51C1F
FFF0792C
FFF77155
00041CC4
000DB497
001F5BB5
0021E6AB
001E934F
00084287
FFF0ED7F
FFE63B12
FFEEBBC3
FFF600FF
0000887F
FFF460B1
FFF1D18A
FFFC7F9C
FFFF1D07
FFFB7FDE
000D70DF
0001EFAB
FFEF05F4
FFFD22D7
FFE6D516
FFF9BBD7
0008C424
FFEDC1ED
FFEC3E6D
FFC60B9D
FFE0FCE4
FFF9E0BC
FFF9545F
001055AA
00223EBC
001CE9BB
00181893
001129A2
FFFD68D5
FFE3E887
FFFF06B1
000323A7
FFFF5B2E
FFF20BB8
FFF49CEC
FFF36360
FFFB6F03
0002D624
0001490B
00065E62
0002F93F
FFFFABCD
FFEAE7CB
00153BC8
001078C3
FFEFA838
FFE5A978
FFCAD79A
FFE2F307
FFE05C2D
0003B6EF
0011F7E0
000D3F71
001EEDB1
001EE085
0004684F
FFF6A32D
FFE46F32
FFF7B31D
0005E2D2
FFFF7F01
FFFE711C
FFEF504B
FFE8B033
FFF33BC4
FFF8C724
0003FAD2
000D12E1
FFF55952
FFF18E35
FFECFD6B
FFD612D6
FFF37273
00248CCE
FFF571D0
FFCB9DD4
FFDFA846
FFF0A3B2
FFF880D3
00095E6F
000C4699
0013A92F
001B82D5
000652EE
0001E918
FFF19562
FFFA23A5
FFF34BC9
FFEFFCE4
FFF15403
FFDEFA25
FFEBB756
FFEF81F7
FFF6D360
00043D74
00037537
FFEF6DDF
FFE7DF44
FFE20C12
FFED5094
0000583A
000A717E
FFF2DF56
FFE41FB7
FFDE2339
0002DCED
FFFB5832
000EB931
000F8461
0010F476
001C7591
0009ED94
FFF9535A
FFF3A08F
FFF295A2
FFF77A08
FFECD377
FFE6CA96
FFDD4E57
FFE7E9B1
FFE4702A
FFFAAD66
FFF313BD
FFE8296F
FFF03CD3
FFF26E37
FFDFE109
FFE8AB26
FFEE1123
0004471B
FFF76F80
FFF9A49D
FFF5D650
FFFD506F
000935A5
00161D89
0012B785
001D9580
001C3268
00090595
00104B00
00070AB3
FFF2B2F1
FFF59532
FFE91809
FFE44694
FFECFFC0
FFE37BCD
FFDD9276
FFD9E5EC
FFEB6050
FFE5D86B
FFDEFFEA
FFE53822
0008A3CB
FFFBC1D2
FFECF72C
FFF22195
00012355
FFE2AF05
FFF03508
FFFB947A
000D2CA7
001533FB
0016390B
0018F0AF
00219DB7
0017BF2E
002073AC
001311FC
0000C080
FFFD80B3
FFEBB55E
FFE9BF79
FFE92DFB
FFD8DA82
FFD77F27
FFD3BBCD
FFD1255D
FFDA668F
FFE5C694
FFEBCB99
FFE871B8
FFFD26AE
FFFAF96E
00064F74
FFE2BCC0
FFDB7A38
FFF3C44A
FFFBB066
0007C045
00099925
0010377A
0003E24E
0001CEA3
00107792
000CB07F
000B818A
FFFE2C82
000016BB
FFEE0BA8
FFEE8EF5
FFE1F7CA
FFD0B309
FFD4F603
FFDFD7BB
FFED28B4
FFE9ADA8
FFE7B850
FFE99E91
FFE58F22
FFF9E2F5
000215F6
FFFED41E
00072BAF
FFEAD825
FFF3CB18
0007A6AD
00037F5F
000007E3
00097F37
FFF5D410
000C7E95
0008F529
0013D579
0013DD26
FFFFF4AC
FFFD4B84
FFF42D30
FFE94367
FFDEDF7C
FFE3D35B
FFDDA46B
FFE9F162
FFE93E5E
FFEEE533
FFEE6CB2
FFE54CE4
FFF6BA06
00077DD1
0007D104
0000D0B6
FFFCAD02
001A591E
0004BD6B
FFFB4F6C
FFF1B61B
00032DAE
00009688
0003FC73
0001DA67
0011CB07
0005BA6F
0002C3A8
0013D170
FFF9D6A0
000584AD
FFFBD903
FFF3C953
000D9553
000A9587
000622FF
FFEF285E
FFE6506A
FFF38709
FFFE6CFB
FFF45F75
FFFB7F79
00004A2A
0001AB20
FFFD72F2
000A82B6
FFF655E0
FFFCCEE7
000F23C8
002B16C5
002E6022
0034EE3C
00281587
00132085
0018ABC2
002D8C76
003CF010
0018EEEA
000D793D
001449CC
0016E97B
0029EC06
001888A4
001B7DF4
001476E4
000D79B0
0008F766
00086125
FFFD61EB
00082734
FFFDF5AE
FFFA7C4B
FFFC0A6E
000091A6
FFFE830D
000541C5
000BB084
00130F56
0010A832
0021A29F
001E3ADA
000A26BC
0011CFDC
00161446
002C077D
001C4F6A
001FCE02
001D4EFA
00207679
0016A308
0018DB5E
00201601
001EE165
0019DACF
00072EA1
FFFB3D62
FFFF36E6
FFFBAF1D
0003CD9E
FFFCC921
0002C9FE
00008BD6
FFF9FF7F
FFF9DA73
FFF711E8
FFFAE2BA
00028DD9
00008E9A
0006E059
FFF7F5E7
FFFA41EC
FFF22631
FFFDE888
00016F9E
FFF7CC68
00081315
FFFD290A
000819D5
FFFE7722
00052FD7
00084FC2
FFFCABDC
FFFDC70A
0004CBB3
FFF82C2A
00056973
FFFA41DB
00087DD6
FFFA0212
FFFC3CD4
0006D280
FFF9B982
000153BF
FFFF35C9
FFFA343B
FFF1E63B
FFF88C10
00012F7A
0000543D
FFF8742B
FFF6704B
FFE7B2EE
FFE64AFB
FFEE3F81
FFFC0B43
FFEFB6E8
FFF6802A
FFF3DEE0
FFF90F24
FFFE9D05
FFFEBBC6
FFFCE4E3
FFF8154C
0005BF82
FFFA3E0C
0005542C
FFF8BC1B
0009A4C6
0009FAC3
FFF4DF7C
FFF7D035
FFEDDB23
FFE70C0B
FFF698F5
FFFEE7B4
0007C420
FFF66090
FFEECFD6
FFE9A156
FFD7B15E
FFD92A75
FFD4673B
FFF3011A
0000E61D
FFF6B5B3
FFF3067D
FFFBA483
FFFF8BDC
FFF6FC8D
000F1046
FFFB4D2F
FFFE6C37
FFFC58EC
0004C07C
FFE58F7E
FFF34ED3
FFF6F54D
0008EDA7
FFFE6314
001182E1
000E9CE5
0009A7B5
000E3326
0017251A
00182257
001F08F3
0021BE86
001AF71D
000D17E4
0018EA95
0006E143
00041160
0010B248
FFFCC746
FFEB9E87
FFEE8425
FFFCE441
00029903
FFFF4FCE
FFFA4420
0006E761
0003298E
FFF88213
000ABDF0
00050867
0006A4A0
000286FE
001505E0
0018405B
0010F432
0017BFF6
001FBC85
001A8CDA
000DF1BC
001E90A2
001556F2
00140EF0
0012BB81
00151CC5
00023466
FFF4882A
FFFF824F
FFF824D9
FFE5305F
FFF28CB5
FFFF4755
00134C48
00042864
FFF83E25
0003FD21
FFF776F3
0013D1FE
000A8FF3
FFFFB7BD
000A0A3F
0015A699
00025DA4
0007B960
00075E4F
000B6EA6
000B4BBD
000BA417
000B0604
000A01C5
0017D745
00182C98
0011C4BF
00139D64
00006F46
FFFAD79A
FFF62D67
FFDABD7A
FFDB756D
00066741
0020BB26
FFF01790
FFFD61BF
0012767E
FFE7096F
FFFFD4F4
00034C64
0007C80E
000B89CD
FFF5CCCF
FFFEEFA3
FFF626F7
FFEBB572
FFE95AFC
FFFBA52B
00095D94
0006A740
0005A99F
000B12B3
0005B3F3
FFFF70AF
0005D84D
00003861
FFFBB8D7
FFFCF48E
FFFBB2FD
000F3645
0006AB64
0013ADA3
FFF2347B
FFF94507
0014F5AA
FFDDC87C
000155AA
0015EFDD
0011A96C
0000A4F2
000164FB
FFFAB66A
FFF90F98
FFF5DD57
FFEF3436
FFF29D03
00016096
FFFABEEB
FFFC4EB7
FFF926B3
FFFF7685
00132E1F
000A4D49
0001F64C
FFF65DFE
FFFBFAD8
001D0FC0
00182743
001E1A06
0014A0E8
FFFA64B0
FFFAC6AD
FFF09DF4
000483C1
000E822E
00155C94
0019216C
00041FDD
FFFD3DFA
0001B265
00024822
0000B73D
FFF51D36
FFFBFF3E
FFF78A26
FFFF344C
FFFD8A5C
0000814E
000FBCD3
0019D913
000C1A5B
0015C126
00071FD7
001861AF
0024269A
002125ED
002B2271
0020E18F
001A02FD
FFE97839
FFF69F7E
000B2D67
000DA166
00175C14
0003DF4A
FFFD8447
FFF5A94D
FFF3324D
FFFAAF72
FFFE1D4E
FFFDB287
FFF83BBF
FFF75C87
FFFB5C44
FFE98933
00039087
000E3019
000E04E7
000E8ABD
001A9EA1
000C1418
001103FA
00282A18
0023621E
0032F284
001D2616
0001823A
FFF2292E
FFF5B05A
00042D2A
001048B7
000E6B94
FFFB075F
FFF5641A
FFEBC1E1
FFF6A4A6
FFF71E84
000234B8
FFF833D7
000D86F8
FFFBB5A3
FFFCAD8D
FFE82D5A
0000A1F0
0007D767
00126206
0003742E
001763FA
00060C71
00109A05
00172264
001D90B2
001F0DAB
001532F9
FFF5DEC2
FFF36227
0000028D
FFF35909
0008FBA3
FFFA02EB
FFDBA12C
FFF1C147
FFDBB5A2
FFEC2104
FFF50299
FFFCEBC2
000EA1ED
000D8276
000C1BA7
0003CB14
FFFB68B5
FFF682D1
000401D4
000709AA
000AA04D
0005DD9D
FFEDC2DA
FFED9E09
FFF3BF7F
00099A77
0026BDB7
001D10B0
FFF06238
FFEE46CE
FFF6FB90
FFF26DD0
0001AB88
FFEC9AF9
FFE864F5
FFE9400F
FFE9D659
FFF288F8
FFF6C717
00150250
0003B1D7
001C7A9B
001BE3E2
001ACF39
0009AA9C
FFFB8017
FFFBD411
FFFC9278
FFF7940C
FFFC8728
FFE5110D
FFDBBF39
FFDB2949
0002A1ED
001087A3
000ABBB0
FFF23A91
FFF793D5
FFF94C51
FFE21CD7
00103500
FFEF27CB
FFEE8AC7
FFF61ACD
FFF00273
FFFB8E15
0000FBE3
FFFB18B7
00052EAE
00108AFA
001E4A50
00190A82
00001E66
FFF619C8
FFF3E8B8
0006B25F
FFF95D29
FFED6B5D
FFEF381E
FFDB49C6
FFECF70F
FFF4F52D
00022388
0012CCA2
FFF2117D
0009E1D9
00032497
FFE1B7BD
FFF7BB72
FFFA9086
FFFAA163
FFF4BE8E
FFF77B74
FFEFD4B1
FFEF0340
FFFFE796
FFF546C2
000C4D91
00086512
0015EEA5
000941F5
FFF1E346
FFF8A4C3
0009E49F
FFF5FFF1
FFF7053A
00018884
FFF55BE8
FFFFBA26
FFF8F8BD
FFE89E67
FFE691EB
FFEFEA69
000316D7
000C0D08
000D822C
FFED7D7F
000F2865
FFFDED99
FFF7FB4C
FFF6E50E
FFE3C129
FFE5BE18
FFE3059E
FFF55D08
FFFE71BC
FFFD9EA2
FFFA9636
FFF9A669
FFF986F3
FFF2D42F
00004874
000B5AD8
00055528
0004C6F9
0013DCF3
00239E50
001930B9
FFE60C62
00042213
FFFFC964
FFF07EDE
0007C836
000BCCEA
00098E7D
00160B97
0006AF26
FFF7F172
FFE558AD
FFE55D5F
FFE66DAD
FFDA223C
FFDDFD98
FFEB82A1
FFFAE4EA
FFE8D6F0
FFEB51F4
FFF88AD8
00008A3E
0011BE24
000B6EC2
001111B5
000B03E7
001A272C
0027928F
0018EAF0
FFE0D863
FFDB71C6
FFF82034
FFFC8AAE
000DF491
000805ED
0021AC95
001DDE0D
000B239F
FFFDC8A6
FFFEA666
FFDFC358
FFDFA28A
FFD58030
FFE083FA
FFE70D19
FFE30047
FFD6A35E
FFE20B3A
FFF8CAB8
0013C186
0007F4AC
00070534
000B2116
000E0B48
0014B46C
00117449
FFF7B08B
FFCB9134
FFE21055
001259C9
FFF0CCB2
000D2A9F
00014B8B
001F5569
0011BE10
001C3158
00176ACC
0009BB2E
0004FE8B
FFF28165
FFEF4213
FFE8FC12
FFE23B74
FFDBDBEF
FFE9E71F
FFF90DD0
000A4177
00029FC4
00069CDF
0001E028
0008311A
00036DCB
0006E000
0004D961
FFE01068
FFD38C4C
FFDF283C
FFE62A3B
0001D439
FFF9BD30
FFF5694A
0012761D
001D2DAB
00244C57
001C07C2
0007594B
000C4284
0001869F
0005BE0C
FFF4919A
FFEBAE1F
FFEB0E89
FFF6ED02
0006B212
000B1443
000D812E
000BEADC
000256AF
00018AA9
0002C037
00037374
00074A4C
FFE6C542
FFCF1D70
FFE5AD23
FFF1A138
FFF7D27A
0004C736
FFF43EC1
00075E9F
000DCDF4
00237996
001CBD23
00055F06
00096283
00086AC2
00100102
FFFD6983
FFF34238
FFFA66A4
0000EAF6
0011EF8C
00059432
000B948A
00052456
FFF68D17
000B9850
0009321C
FFFB65BB
FFF58D7C
FFE473D7
FFD51EE6
FFF95A07
00032F48
FFF29BBE
000DB646
FFFDBCE8
00072488
FFF554AA
FFFEDC09
000C2B44
FFFC7F6D
FFF34D27
FFF5ABFE
FFF7FC8C
000B61BF
0008A07B
000BAACB
0010097B
000B7B05
000454AB
FFFB2FD3
FFF2EA06
FFF077E0
FFFE7639
FFF8ADB4
FFEFA70A
FFE838BE
FFCE1E6B
FFF0919F
FFFCD7BA
FFFBCA42
FFED4C81
FFFB179A
0001516D
000F91EC
FFEE581B
FFE1715C
FFFB6A1F
0005FFF5
FFF81312
FFF32A26
0001C08F
00121BAC
001163E7
00147123
0015D278
00080874
00112547
FFFB6FEE
FFEDD70C
0005C943
FFF5984B
FFF44A72
FFEED527
FFF382BB
FFE5083C
FFEFE428
FFF99524
FFFD8076
FFFDFB2C
0002C86C
00181F4F
001B289D
00100947
FFF963A1
FFFF22B1
000F404D
000A199B
0009B0B1
001B9BFE
001B2566
000F3979
0011E330
000C9F05
0008949E
000EB0DF
FFF78650
00021531
FFFEAA36
FFF7D19A
FFDCEAD8
FFDB0060
FFE8B742
FFFF0A7A
FFEF306D
FFE5441B
FFF9E56E
00077533
0005ED21
0002B0EB
002357D3
0013E7E3
FFFFC682
000B324B
0016FAE0
001DB623
00206229
00146F14
0018134E
00168631
001D62AC
0021AB16
00158C98
000A3EA8
000405B2
FFF8ABB8
FFF24D36
FFE93D68
FFE9D8B7
FFF8025F
FFF84E42
FFFD1806
FFED227C
FFF47964
FFFC069D
FFFB12CC
00045DA3
000C999F
FFF6447C
FFF8E070
0004778F
0011ED75
000E9298
001267F3
001A33A8
0017014B
000C72B7
FFFDA705
FFF85A58
FFF69EAB
FFFDFEFF
FFFA1859
FFF7C700
FFEDDD10
FFF97DC3
FFECD725
FFE6218F
FFFB90D8
FFFFCE25
0004DCB5
0000D046
00081D2E
00084AFF
000087AE
00005364
FFFFDE80
FFF679C4
FFF160F9
FFE6C22A
FFD7F91A
FFDCDD54
FFD26BA8
FFE04E4A
FFE694C6
FFF12C11
FFE6AA75
FFED3F9C
FFD72F41
FFCCC7D8
FFE358A8
FFD38AC4
FFEC8FBA
FFFB481F
FFFC13C3
FFF18557
FFF27CA8
FFF7097C
0005C18D
FFFB203E
FFFE8DA0
FFFA7094
00037DD6
0001F231
00048835
FFFCDCF4
FFF72C9F
FFF7C9BA
FFECEB86
FFF39C7A
FFF58F19
FFE21B73
FFDA8A6D
FFEB8E14
FFEE3EC8
FFDEB684
FFDD9ACB
FFE2349B
FFE3AB3F
FFEA48C4
FFF7B1A2
FFF5C0A6
FFF68D19
FFF6CEB0
000229BA
FFF8134D
00069BC9
FFF73278
FFF92D11
00026CDF
FFFC3BFD
0001B4AF
0007F757
00042D03
0008F2E1
FFFC209B
FFFBA24E
FFFED6D0
FFFE289C
FFFBFA74
FFFF6EAF
00084285
FFFAFCFF
0005226D
00043F4D
00054B78
00027771
FFFC9F5C
0003C5FC
FFFBB19A
FFFA6351
00088BF4
00079412
FFF96476
00076D23
0001E557
000257F3
0008D000
FFFF851A
FFFD1796
0005BD5B
FFFDA366
FFFDCE1E
FFFC5027
0008FFCC
FFFFD7D1
FFF74810
FFF7D6A0
FFF880D1
000250D1
000F9A94
FFF4AB1D
FFFC31FC
FFFE92CC
FFE82CCB
0002B259
0014CC6A
00202417
001CACF7
0014A462
0012B2A9
000DA87F
FFFD4D5A
FFFE345E
FFF893B6
00058E8C
00061A77
000449EF
0004A584
001EAB23
002B1B3F
0002CF27
0010F29D
000BC173
FFFE4400
000581EB
FFFED02C
FFD1DE76
FFC73A26
FFB2796E
FFBAEB30
FFD298CC
FFD13BBF
FFED7AB8
000303A6
000E8F05
FFFD99AB
FFFF66F5
FFF3B17A
FFE6BBA0
FFF012EE
FFF76BFD
FFFB000C
000109B2
FFF6E0EB
000014A6
001D6483
00254D09
00213E21
00033EA0
000CE56A
00343A88
00076AB1
FFFB0027
FFDCC160
FFD1D16B
FFD4FB0A
FF929894
FF9401E0
FF9AE319
FFB32AEC
FFDAB115
FFDD8BFC
FFF9054D
FFF8BF5F
000E343B
000D26DE
FFFF2C05
FFF0F1FB
000AE85C
000575D8
0001BF6B
0007AD93
FFF9232A
001443DE
00153D19
001E6A20
0015B974
0018DBA3
0002B2A6
00113690
FFF21DC0
FFBDCEFB
FFC5FDB3
FFB309E8
FFC19328
FFB90782
FFC717AE
FFB89FC0
FFD286B8
FFD218AF
FFD806F9
FFD0D656
FFF04185
FFF0ED4C
00125A34
0000A4F3
FFF0EF88
FFEF957E
FFE85C5D
0003E510
00082243
0016EFAF
001D6AC7
002D051F
00131FB9
0014B547
FFFF2489
FFF03A79
FFE6D2DE
FFC11527
FFB3BC20
FFAE1A54
FFC1BDDA
FFD5B33E
FFD648C4
FFDBA1F7
FFD23359
FFBE1EDB
FFCF5966
FFE378DF
FFC842BF
FFDFCD95
FFF2F63F
FFFC3E10
FFE6EC09
000601A0
FFF360AC
FFFA6FD0
FFE87CAE
FFFAB1E4
001F96BA
00380A39
00207611
0011304F
000A135E
FFEA37F2
FFD059DA
FFB739E2
FFC3E875
FFB43009
FFC359C2
FFD1E4D6
FFE264A8
FFE0703F
FFDCF6CF
FFE43F67
FFDD4F80
FFF5289D
FFEA40D1
FFF25C33
000DC5BA
00065518
0004DAAE
000D4D24
FFFE2C1F
0002EEA7
FFE145FD
000A12FB
0012EB25
00371B0E
002D0670
FFFBADCE
FFF4DBFD
FFCBA9BC
FF9C61E0
FFB09F08
FFB62D72
FFCC63EB
FFE46FF1
FFF9E1A4
FFF8771F
000896B8
001ABC4D
00080BEF
000124B0
00055CCE
001C236C
00242EFC
001D5696
000AADD0
00009E91
0007A599
FFFD7FCA
00143165
FFE0516E
001DB5E2
001B04B1
0029756A
00253B06
000416E7
FFDF3922
FFC54A71
FFB0AFFD
FFAD2E42
FFB08DCA
FFD87D72
000E8E63
0026315D
00243E91
003325A2
003930BC
00354AC8
002CD684
0039DD22
003C7E0A
002D6002
001F24C1
002F4BA5
000F82E8
FFF81C64
000769BD
FFED23F3
FFF13F80
FFFE2216
FFE93D23
00218E41
001C76DF
FFE7BE25
FFE6656E
FFD0266A
FFC7B84D
FFC9BD0C
FFBF7CD2
FFEF2787
003A70CA
0051EFF1
0040433D
004490B4
00438EA2
004C9413
004525CE
00370BC3
0035C3B3
0023A2E4
002939A0
00336030
002BD192
000DE97B
FFF7A549
FFF1EB69
00047389
FFFD2EAA
FFDF9F86
000BC910
00056A5A
FFD08EF9
FFE0B84C
FFC7086F
FFCCFA3D
FFCDB4C6
FFDC250A
0011DE52
004C7C86
0060EB0E
0051C3BE
004824D9
00276C4F
002F4A29
002EB582
001BD951
0020CBE8
00284226
00388A29
004D189C
0042A906
003432C0
FFED1C68
FFF68C0B
000A2938
001578AC
FFF95005
00156DC5
FFE4B984
FFD5AA00
FFDF7AFE
FFDB6FCC
FFCE5980
FFE07876
FFF2D53A
001A2966
003BE721
0036E52A
002FADE2
001C2149
0000A724
00133E01
FFF7820A
0008D92F
0015AAAA
0027B87B
0040520C
004A8E1C
004B3D28
002E2684
FFF4F3BB
00050050
FFFACAC6
000B9655
00170C4A
00188206
FFD6962D
FFD5DABC
FFEC68B5
FFDEB602
FFF43024
FFF4EE5D
00068AEB
000E7694
00323C0C
003B3CFB
00244C50
FFF160F7
FFED486D
FFE6CC18
FFCCD5BD
FFD315B2
FFC4F240
FFDF20BD
FFF545AB
FFFD1B68
0010AA02
0018ABDC
000490AC
00164FD7
FFFDA001
FFF095E8
000AA434
00107A42
FFE2AA1F
FFF402E7
00129B4F
0005F62C
000486D1
0010A42E
0007EBA1
0021F931
002D0662
001FD42C
FFFCC7DC
FFFAA14D
FFE9C604
FFD4164B
FFC31580
FFA8622C
FFACE2C8
FFA5205D
FFBAD683
FFDCF0A2
FFF16970
0001EA33
FFFD2DE6
FFFD299F
001207A6
FFF2C94D
FFFEB8AF
FFF26344
000C74EF
0015F1B2
000A2297
FFFFA2B7
0009D9B7
00197CB4
001658B9
0013D5B9
00280F68
000F581D
FFFBE133
FFF69D42
FFEF230D
FFDEF770
FFBC1EC1
FFC47B10
FFBF8DBA
FFAD9A41
FFADF510
FFDA560A
FFE0718B
FFEF3724
FFFE7C49
0003A71E
0008B9C9
00022528
000BA257
0017B4EC
00228132
00281F27
001F77F5
FFFA1E6A
FFF964FE
0003CCC8
000F9C7D
001F58D7
001B2025
000B9061
FFF08D09
FFFE1387
0002A48A
FFF1D387
FFC60226
FFC88F64
FFBDE78A
FFB712EE
FFD10D25
FFDBF38F
FFCF93CB
FFF2FCD0
FFF0DADC
FFFAB0F1
FFF19990
FFE6A500
FFF92C1F
0011882C
0030C7F6
002A398E
000952E4
FFFD2D12
FFDEC81F
FFFC9AA0
0006C721
0011EC5A
00136847
FFFFD102
0003DBCF
0003D665
FFF6D0FC
FFF4EA4D
FFD41512
FFD284F7
FFCBDE39
FFBAB052
FFB40D43
FFDA54B0
FFD65FA2
FFFB8622
001A4069
000814CE
0004DCD0
FFE2B33C
FFEC0666
0008F3A6
002DED56
0033B2CE
00235044
FFFFE9E9
000D80D9
00125618
0006C870
FFF92A6B
00129F78
00065BC3
000DA2CC
000CEA62
000BB51B
FFFAE3F9
FFD66FF6
FFE82773
FFC61304
FFC2D987
FFD72114
FFE93320
FFFEDEBE
000AFDF1
001E2C21
00150134
FFF9B721
FFF4263E
FFBE4EB7
FFF35AD9
001280B1
001D21B5
002AF2CE
0014B088
0019778B
0018D385
001F274F
001BE254
001BFEE0
00292498
0019E9E4
FFFDD5DD
000F91DE
FFF185D3
FFE3CE6F
FFC04709
FFAD663B
FFC57CD7
FFD78043
FFE9F756
FFFF7BDE
00217032
001BB1B8
00061B27
FFF9AA39
FFF9E5DA
FFB0AFD8
FFD2EF2C
00039321
0012C549
001D3C9C
0012C07E
0013F082
00107D3C
001DC03D
00232E42
00282D3E
0016BE9A
000BC1C9
00031581
FFF828DE
FFFC5923
FFD2FCF0
FFA6A77A
FFAE9FE7
FFBD9CB6
FFC39EC1
FFE4A6F1
FFFF9C94
00038690
001BCC17
FFFE643F
000B8F7B
FFE9010B
FF9F7EEE
FFBD50D6
FFF8EA2B
0007A4B4
FFFC3C29
00061DC4
000F54A0
000D7404
00175BF8
000DE311
001A03C6
001D6B8B
FFFC4F60
FFE9FC52
FFEAFC95
FFE58CCC
FFCEEBC5
FF98AB4D
FFAFA6F8
FFCED382
FFD19519
FFED01AE
FFFC4292
0001658B
00127E09
00044742
FFF7D2B4
FFD0E202
FFC058F0
FFC75DF5
FFEC1B5D
FFF2B058
FFFF0F48
FFFAD656
FFFD1133
FFF57F1C
00085132
0002AA9C
000AA6C2
00047CB1
FFEDC226
FFDA218D
FFE1BCFF
FFDDFE90
FFC1E632
FFBC7DCA
FFCA8E6E
FFD88F88
FFF02251
FFF855E2
00122FD5
0014C07C
00045EE8
00123536
FFFF671F
FFD06099
FFD3553F
FFDBBEDA
FFE9ABB0
FFFF3116
0007D490
0015DC17
000D51E7
000C6D04
00028A2F
0014DEC3
000D6B76
000AF560
FFE6AD93
FFE07006
FFEC97C0
FFDA89E3
FFCBAD8A
FFD05A8B
FFE310C8
FFEDA903
000D82D1
00014052
0005DD1D
001F1A2F
FFFA2672
0008615C
00029A5C
FFDB4331
FFBC9ACA
FFF04C49
FFF5C079
FFFFF18E
FFF89B8D
001686B3
00183C3F
001EA6E8
0011EFCB
00182D8D
FFFE43FC
FFF822F7
FFEFEBA0
FFE635A9
FFE6C7D6
FFD568F5
FFB265BA
FFE25CDA
FFCFD7CF
FFDBD5AB
FFF86725
000168AA
0005E0E6
00238458
00032163
FFF8597B
FFFCE053
FFE3787B
FFE0D7B2
FFF38482
001267B1
FFF277D7
FFF8F687
0008EBE1
0015A84A
0012FB6F
000C9E38
0008773E
00071DD3
FFF93A21
FFF64C58
FFEA15B2
FFEA48FA
FFE3BD56
FFC7C80A
FFDE2696
FFE44B98
FFE77A16
FFF2243C
FFFB4654
FFECE07B
FFF9901F
FFFB5596
0007448C
FFF97B7B
000580DE
00155657
FFF55FF7
FFFFB149
FFD838E2
FFDD9729
FFD6DFC4
FFE3E549
FFE79D37
0000B085
00041A7C
000B1E16
000514DA
0013BB5A
00209AA6
0012AAF4
FFF70592
000442B1
FFF2B761
FFE51A54
FFF0BC97
FFEA6321
FFFA8EE1
0003A669
FFFA80EC
000873F9
0007233A
0007A42B
FFFFEAE3
000DECFC
000DC3E0
0012CEF7
FFFF0407
FFFB088F
FFFA2CAB
FFFE3AC6
FFFE9310
001B5FA7
0030B02E
00265628
002A2801
002F7498
003F6AD6
002270FF
0009AFE9
0017C910
000C0C87
FFFF1EE9
FFF1E06E
FFEE292B
00056C2E
FFFF031C
FFFF9706
000248B5
0008D22F
0002E511
FFFB70B0
00038967
FFE130A5
FFDCF446
FFF13060
FFFFB9D5
FFFCAF99
000945FE
001DF2A8
0025D8C2
0014695A
00093ED0
002AA0AD
0028B761
002256C6
001B52DD
001A72D8
000B434B
0013B5FF
FFFBB521
0001B613
0000F041
00063A58
0000EF04
0005832D
00025B0E
0005D464
00001D95
00030D02
000904C9
FFFD0574
FFFC478E
0006A30B
00037F08
FFF75EB7
00034074
FFF7087A
FFFB0940
0001B696
0002DF97
FFFBFE25
0005E20E
00091606
0007211E
FFF79A49
FFFCACA5
00008E67
00076E5A
FFFE7760
0001E8F2
0004CFF1
FFFB376A
FFFA7690
00090AAC
FFFFCBC6
00067829
FFF715BA
FFFC829B
00066A59
FFFF1D66
00007A6C
FFF4B387
00056CA2
FFF8A488
FFF8DEDB
FFF5AF19
FFF20D9A
FFEFFE9A
FFEFF45B
FFDFDC69
FFD44815
FFE56D06
FFF9E6AF
FFFFA8AC
FFF0A0C0
FFFD791D
0002C9CB
FFF595EA
FFFC0A0D
0007D0F5
FFFDE762
FFFD89A7
0000BBD7
FFFB177C
0000A854
FFFC3331
0001932D
FFFCB84D
FFF8B869
FFF69567
FFFBB089
FFF18D1A
FFDB3000
FFDC5211
FFE12859
FFE36F5E
FFE8FA0A
FFDFC816
FFDFF369
FFDF0C2A
FFCFC618
FFEEEE99
FFF876B2
FFFC98FA
FFF91F90
FFF5D446
FFF6E081
FFF882AA
00001332
FFFF541E
0006ABDF
FFF7BCCE
001ADA15
0013F33B
FFFF4F4C
FFEF99BB
FFFAA280
FFF66E60
FFF0E694
FFDE7DEF
FFCA5CC5
FFC620CD
FFC74E8C
FFCB0B23
FFA9FB4E
FFAEDA14
FFB457EF
FFC06CFB
FFC26258
FFD19167
FFCEDCB2
FFC9B007
FFC5C3C6
FFDFC21C
FFE40209
FFED43AA
FFF8533A
0000ABD6
0007FEA1
FFFBFB47
00134924
001C0F74
FFFC1401
FFE90811
00046E23
FFF9DB2E
FFE2B166
FFD4FDC4
FFD5F829
FFE6346E
FFF81EE7
0001E755
FFEA649A
FFD6E6ED
FFE0544F
FFE55D72
FFF6415E
FFF6DB58
FFF09F89
FFE85F42
FFCDBE18
FFC023DA
FFCD486D
FFCC8976
FFEE9C7E
FFE802CC
0001A884
0002B409
001AF7EC
001A8299
000238B7
FFE46736
FFDCC5B0
FFDF3D65
FFCF4D3A
FFC839EE
FFD60D76
FFEB93F7
FFE0D64D
FFD7652A
FFDD22C5
FFE987FF
FFD5C04C
FFE6EA6B
FFF6EAA5
FFF0F0EB
FFF35CFB
FFEBF808
FFE51E81
FFD8AD04
FFD34984
FFDE129D
FFF21C73
FFFB7190
00037E51
FFEC359C
FFD64920
00068C17
FFF89B82
FFE5C276
FFC89ECD
FFCAFEFB
FFD24EFD
FFAA72F6
FFBFF03A
FFD4A9AB
FFDCFF94
FFE9FF52
0002C9F6
00033BDE
000FDA08
000FD3A8
0013D146
FFF69FBD
FFEE5872
0004AAEA
00042164
FFE28F96
FFF5271F
FFED9F6E
000C71A9
FFFF69DD
FFFA35FE
FFDC7B67
FFDB077C
FFF5B744
FFE238F1
FFE0FDDF
FFD4B52C
FFCD65F4
FFD54E17
FFBB9917
FFCA9C91
FFEB8319
000003DE
000B9A6D
00102919
0006287C
0013FF1D
000E5FA9
00133DB6
00007931
FFFE18D2
00035876
FFFC177C
FFF9715C
FFE90891
FFE8A17A
000FF2E5
00028048
FFF58B7D
FFD1D691
FFE1D0A2
FFE88AE1
FFDE6E49
FFE3D3A6
FFC99E41
FFC5EBE4
FFD84F48
FFE035D0
FFE4B4CA
FFEE3E91
FFF6BCE9
00122528
001509D5
000EC1FA
00094A1E
000318C9
0003B5FD
FFF3519F
FFDFFEBC
FFEC8222
FFF7BAE6
FFF29960
FFED4377
FFFA9002
FFEA6D04
FFEBD22D
FFFAAE1C
FFEF4920
FFE0DF22
FFE72C92
FFEBC83A
FFD5D444
FFC24D90
FFC11FF6
FFDC69C0
FFECFA63
000311F0
0002E8DD
FFF5DE6C
00056060
00067B68
001C0C92
0005A4E8
FFEB21ED
FFE4B4D1
FFECF588
FFDB6C6C
FFDCADA2
FFE05222
FFEFE40D
FFE5971C
FFDC23C4
FFEA731F
0006D767
FFE820B5
0009FE76
FFE13327
FFE32866
FFEE4816
FFD60A1D
FFB18612
FFC12866
FFF7F344
0006E975
0009B366
00071868
FFF01843
FFFFE1D2
00122042
001C89DB
00106BBD
FFEFD2BA
FFEF42D2
FFE20365
FFD5D8F8
FFD6C2C4
FFE18FA8
FFEC71D4
FFEBDD34
FFE4D7E7
FFF1FE29
FFFD36E5
FFFC4F2B
FFF0ADCC
FFFBBF76
FFECF2BE
FFEC85D9
FFDAC3C1
FFC3E773
FFDEF351
0010B476
000C9331
00097414
0001E80A
FFF86F55
000A8276
0023CD3C
00218285
001452F6
000B5559
FFFD6C82
FFF8ADA4
FFEF1135
FFE3EF4C
FFD50E9D
FFDA0024
FFD6B284
FFD1E05A
FFCC0832
FFF1ED7C
FFFA100B
00026031
FFFBDB82
FFF2D571
FFE92995
FFDAB5E4
FFDD23AF
FFFACFA4
001188A9
001197B6
000DE0F6
0005D298
000B180A
0021281B
0029F1C8
00260F61
0020FBC2
001BC258
000D415D
FFF03A39
FFEE65ED
FFF61AB2
FFD7EECC
FFE7339B
FFDEE90C
FFDB985F
FFDC6D5F
FFFC1F3A
0014BF5F
FFFDBF14
FFEFD40A
FFEAEFF5
FFF1E586
FFD3AA8E
FFE1580C
00046123
0016E9B4
001BF1D9
0014A6FC
FFFE3C1C
0015F90D
002F7E9C
00352E63
002D5875
0028134A
00196D06
00043CDB
FFF9401F
FFEC4319
FFE6C615
FFDD8BBD
FFCBD4EC
FFD92AB4
FFE3415D
FFDDF199
00075E51
FFF95237
FFFB025F
FFFFC1F5
FFFF1CED
FFF864C1
FFD374C8
FFD53724
FFFBEE1E
00118C44
0018F237
000E942F
000DFB76
0020126A
002E8323
002B25C5
0029B1A4
002ECE88
0018FA50
0008A2D8
FFE11116
FFD5C534
FFD43024
FFC326DE
FFD7415C
FFD51B4A
FFDB55D4
FFD74B78
FFFCC04C
0005006E
FFFC953A
00054DA6
FFFC80E0
FFFE5333
FFDDE194
FFCA8DFE
FFD8DEFE
0004E0ED
000A8473
0022BDD6
001DF400
00253E4A
002D304A
0023E204
002011AC
002AF781
000D47D6
FFF6BA82
FFC81501
FFB9BBD8
FFDDED34
FFEBDCF1
FFE445AB
FFD8DFCF
FFDAC698
00002B3B
FFE81238
00022DD6
00025D61
0004B634
FFF62379
000690F8
FFE8D3DA
FFCAFE0A
FFDE38F2
00027C05
0006F47B
001E5A75
0024A439
0025FC36
002A74F6
00140ECB
0004AD1F
001AE37A
FFF69672
FFD7B3DC
FFB8BD2C
FFC1E7E8
FFE732D8
FFEDFA92
FFF0730A
FFDC4665
FFD06D4C
FFF007B4
FFF271B2
00014291
000AA078
FFFBEF02
FFE513B4
FFE8F4F6
FFEB8E9A
FFBE7406
FFD129E1
FFF0D1C5
FFFFC2EF
00092F69
00096565
001EE933
002DA119
001675CB
0002AFD5
FFF30532
FFD9933A
FFB31CCD
FFB0845C
FFC3E80E
FFF8E680
000170FB
FFECF690
FFD5C406
FFD0BC82
FFFBCE91
FFF6E58E
FFE6EF31
0007399C
FFECE12D
FFE1CB22
FFE85CBB
FFE22B07
FFBCCFD4
FFC4B67C
FFDABC95
FFDE7213
FFDB41C8
FFF5D5DF
001B3038
00277539
0024DBFA
FFE9B682
FFC99578
FFC43602
FFB266CD
FFA78C23
FFD44367
FFF17717
FFF52700
FFF0FB24
FFCCDDB5
FFF46823
000F4649
001B87FD
000D8F56
FFF15453
FFDE5DE7
FFE3998E
FFF22621
FFDCB45B
FFB3B776
FFB794E0
FFB6B40B
FFC46524
FFDCFB67
FFFA5E15
0012F9C8
0020964C
0012E451
FFEF59A0
FFD77B58
FFC12C57
FFBB321C
FFC3A5B7
FFCA64F8
FFF7577D
FFFA41CC
FFE8CED9
FFFBC264
00075E57
000C36FD
00117CD8
FFF8FF1C
00042547
FFF72F7F
FFDFFB43
FFF79724
FFCC2B87
FFB257D2
FFB758CA
FFB93820
FFC59277
FFE3EF23
FFF1AFA4
0005862D
FFFD6854
000568AA
FFE984DB
FFD93604
FFCAE97C
FFCCA1C5
FFC656A8
FFD149FB
FFF6FEC7
0013E863
0008F4AA
FFFC538A
0009F5DF
000B3D91
000698DA
00168475
00081C28
FFF38EB5
FFE567CC
FFFB37E0
FFD14DD1
FFA78455
FFBBD819
FFD0B75E
FFE1E8E1
FFF38B9C
FFEDF088
FFFC3C7D
FFF0D8CF
FFED853C
FFEF9E20
FFDEDC1B
FFD0086A
FFDCBB34
FFCAD32E
FFE73245
FFF8F43B
FFFD4996
000A73F9
000B88B5
0012575D
FFF41439
0002EA0C
0015CF5B
00034A71
FFFB151A
FFEA143D
FFDD3D91
FFD21F60
FFD5D728
FFD450C2
FFF5EBFE
FFEFC0F5
FFF56565
FFE07F7F
FFF0A633
FFE5A24C
FFF32BD6
FFE1F7EC
FFE06348
FFF04D04
FFF694E8
FFE576F4
FFE86C86
FFF067D2
FFDF1D74
000494BF
000D7353
000A1BD4
0018F84D
FFFBC605
0007393E
00065A26
FFE3BA88
FFDC86A8
FFCE5EB6
FFEA2EEF
FFEF5351
FFF8B159
000776DD
FFF80FBA
FFEF77A2
FFEDEAE8
FFFB1A55
FFF4D779
FFF3D592
FFE7F446
FFFF295F
001407DC
FFF66D34
FFF68273
FFED36D8
FFF4E5DA
000202CD
FFFF8EED
000B0629
000B3F5D
001E7058
FFF7A955
FFFA06D4
FFFF66F7
FFEF9C70
FFE5C030
00077843
00090689
FFF99AF7
FFFFA5C5
000418C8
FFF82169
FFF94EE9
FFE9C145
FFE6754E
FFE4F8B5
FFEC1299
FFF66465
FFF25956
0005E66E
00157A63
FFFEC95A
FFEB231F
FFFED678
000C55DC
0013B1F1
FFFF350F
00065B25
0002B19A
FFFEA1B3
FFF96ECB
FFFC2D92
FFFD0C7B
FFFAC968
FFFC00CD
00187A12
000093BC
0000662D
0014A6AD
000567CC
FFFDA065
FFF2A42F
FFF54096
FFF1797C
00039616
FFFFBA49
001435B7
0010709C
000E4356
FFF35BE6
FFE91F43
FFEDC7FC
FFF0C2E4
000AB6F6
00039D17
FFF79F34
FFF9DF6F
0004341B
FFFFE147
FFFDE96A
FFFE0EC0
000B46B3
0024247F
00296FB9
0015133B
001AB06E
000DAF28
001A16E7
0017DEAC
00056998
0004E4D5
FFFC5C60
001C395C
00136EF8
002C8F07
0031FAF9
00124F87
00082EF6
000AAB43
FFFA8EF0
FFF5EB0B
00088F76
FFFABB8D
FFFCE166
0007BF8B
FFFA57C5
FFFD2E06
FFFC1CE4
FFFC41D8
00080DB1
FFF8E29A
FFEB7FA6
FFFB67E7
0007AB75
000064C7
FFFF1AC8
FFF5284A
0019D487
001864FE
FFFE3BFA
001FC214
0016AEE2
00103079
00090F21
000897D8
000C9A1A
0002A4D1
FFF7CE79
FFFAC9D8
0004C3BD
FFF94B48
0002C7C5
FFF7B0AC
FFFE158D
FFFD0926
0006FB26
FFF7318A
00033F92
FFF7AB3A
0003F6AA
00023D38
FFFC66FC
0002B356
0008C66A
000590F5
FFF7A84E
FFFC7EC1
00071211
00003115
00000262
0000A6FE
FFFCC917
FFFD9BBA
00009B56
0006E1DF
FFFD6C50
FFFD9B7D
0001BD8D
FFFCA756
0007F996
0006E0BA
00006254
FFFA166C
00028F0C
0007C0ED
00030314
0003D511
00023BA5
0006863B
0008ECC9
FFF8DD55
FFFD1686
FFEFA2FC
0005FD99
000CA07E
0008B878
FFDD771C
000C6138
001D546E
001BAFE8
FFF95E1D
FFFC7304
FFF0410E
0003322F
00104AFD
00048D30
000050B3
000846AE
FFFCC8F0
00045597
0001854F
000518B2
00032F7D
001DABDD
001CE6F0
FFEEE1D5
FFFCE024
FFF2C84E
FFE84E82
FFF19AF1
FFF50F44
FFF614E5
FFF2C73E
FFC617B6
FFBE161D
FFC4927D
FFD51E40
FFC949E6
FFD549AE
FFC4C9AD
FFBDAAF2
FFD6E548
FFD8EE8F
000787FC
00094FB6
000C62EE
00082879
00044348
0007B073
0006E355
FFF547C4
00167990
FFEA1EEC
000339A2
FFF52840
FFEBC530
FFFA74AB
FFF74888
FFF6C3A7
001837D6
001362F6
000396F1
001572AE
000D6731
000AAD70
0008C4FC
FFFD9F1D
FFDDA1B4
FFF31910
FFEF418D
FFDEF276
FFEEC5BF
FFFD1644
00178F9D
00062C70
FFFCC951
000764D1
0001341A
00031BDB
000BB999
FFFBCB1E
00033D83
000082DF
FFF635C6
000707CE
001240AA
000365AD
0017C8DA
001E0E6F
00105DB5
00034752
000C83AB
FFF9F9BD
000835E1
FFF8DE83
FFE56072
FFE6AA1F
FFE727D1
FFF3F923
FFD5FB32
FFE8492C
FFF074C7
0012A454
000CD4D8
0002F598
FFFF90C8
FFF7BA55
FFFF0718
000361EF
000DB02B
0008C626
001AF2EE
001518D5
00128FE3
FFFA950F
0001A854
FFFCAC32
000E1D80
000EA011
FFFD4328
000064BE
0007DAFB
000431FD
00057706
FFF589C4
FFF1F600
FFDF9476
FFDB360C
FFE26599
001075B2
0000D3A6
FFFF7D12
00048799
001B55E8
000CB088
00112030
00072B5F
000D8073
0015466B
000767F5
0008957F
00058BFE
00078A11
FFFB7FAD
000189F9
FFFC2375
FFF674CC
0002A7C5
00059BE7
0012730C
0013742F
000C8921
0013B775
000E4D91
FFFB03F1
FFED595A
FFE1D1D3
FFF367F4
FFE74C66
FFF1DE43
FFFBE638
00281D48
00186B52
002DA9CA
00139AD0
000B7040
0012D382
000A97D1
000ABFB8
FFFE92FB
0001EF05
0004808C
00003708
00009AC3
FFF5A2B8
0001072D
0001F542
001EBA97
001F7D65
001F18D9
00065C15
0008D966
FFFF0164
000CA4AC
FFF8C5A0
FFEDB170
FFEF48F4
00063AE9
0017649F
00197504
000EAFF9
001D311B
00110A5C
000F7530
001A8D2A
0023583E
00169B73
00111466
00055B98
0005EF5C
000EA7F0
0006D00E
0011BBBB
000C77B9
00211384
0013093E
001FEB04
00139BD9
000F7B3D
000A060B
0016A104
00222CDD
000451A9
FFF1482D
FFF3A407
FFFCA78F
00158CC4
00153114
000159C1
00245054
001B7678
0013227C
000902F3
0007725D
00053858
000A9BCB
000C953C
0004DCD3
00156249
001CE149
001C3947
000FF6C6
000E6E28
00102B31
000D9C39
0014D5FC
0021D5F3
000B8F6C
0023FF14
001AD4F6
FFFF5814
FFFF79AF
FFFF8828
0014791E
0012F349
000D1800
00212D5A
0015518E
00172B52
000EF4D7
00097A8B
000275F6
FFFC5432
0008C04C
00124837
000D22E2
0010F040
002773CA
002DC41D
000BD1C1
000D5E3F
00026681
000A0543
FFFD84CF
001CEC58
000E2F20
0022CD16
001FAB13
FFF61082
FFEA30FA
FFFA49AF
001407E1
000D9AC1
001DA6C1
00204E94
001A7FB8
00113692
00001793
0006708B
000029D2
FFF74C70
FFF94017
000AD7AB
001AAD41
00237515
0031069C
0029861E
FFFFF227
FFF024FC
FFF748A8
000037C9
FFF3050A
00129905
000DEE19
0021FCA5
001AAFBC
001B207E
FFFBC4B7
00065315
0005C3C2
00068930
0018B2FD
0014E797
00134C06
000209C4
FFF38A7A
FFF73955
FFEAE2A2
FFF777B0
FFF42DDA
FFF6D032
FFFB687C
FFFBACF5
00004CB2
00065546
FFFEC944
FFF87E68
FFFD7105
FFFDE9A0
FFFF31DD
FFF7A89A
0001F3FF
0010D0BE
000641E3
0020EFEB
00037431
FFFF67A8
00137386
FFFBB831
000F0A8A
000BD3E6
000CC188
FFEF0E9B
FFE80CBA
FFF361C2
FFE9D604
FFDFAB29
FFE7A9F0
FFEF809A
FFEE50C6
FFDE7580
FFE55248
FFF337EA
0004B4A2
0001CCAC
FFF950E9
000BBEE6
0004229A
FFFF9AAC
0002F226
00098896
000FD7B7
001DC7BC
002445D1
000B4127
000991F0
0002284F
000A5656
0020293E
0007A48C
FFEF07BA
FFFAEE07
FFF7096E
FFE7040E
FFE55884
FFED4E75
FFF2D541
FFFAAF81
FFEB3ACE
FFE96B65
FFECC3BF
FFF298C8
FFECE502
000ABF02
001A9028
001DF423
000ED59B
0014D83F
000799E0
000ABAC0
0025BFD0
000CFA26
000BCF28
000B0502
FFFFCBB3
0009EB70
00125C9C
FFE4A3C1
FFF56AD8
00032AE6
FFF5114C
FFF568EE
FFEB693A
00017359
00002FC6
FFEE7FE8
FFECAF91
FFE5FBA6
FFEECF1C
FFFE0F00
FFEF245D
FFFECEAD
00166882
0014A550
0015A5DE
000B96D5
00123BE5
00173B35
00191168
FFFB0C1B
FFF81AB2
000DE310
0005BBD0
001011EC
000B2509
FFF55578
0003C27E
FFFE4537
FFFCDAFF
000CDE22
000011CE
00028835
FFF963E2
FFE96630
FFEBAEC9
FFDC1C0D
FFE7C4D2
FFF4E350
FFFEF8D6
000ECF68
000D203C
0001B749
0002BD5D
000358D6
00036D5F
001121A8
FFFFE30A
FFE260B0
FFE9A98D
0018145A
FFFF07CD
00061E10
FFF7521B
FFF20834
000C49C5
00024616
FFF8A804
0002A996
00015A22
001339F0
FFF788AE
FFF57C4C
FFF717C3
FFE474A8
FFF6C7AE
FFF51563
0004442C
FFFF1849
FFF8A2B9
0003DD93
FFFEC21B
FFFDE145
00083AFD
00052945
0014CC58
FFE223F7
FFF94874
000DC0C2
000F43D4
000816C2
0007AAEF
FFE44E74
FFF10231
FFF3B98D
FFF41FFE
FFF73BE7
00045E73
000560D8
00125DBF
00018E91
FFEA137E
FFE591D8
FFFB0D02
FFFB4734
FFF8E9F9
0005613C
FFF1F69A
FFF17CDE
FFFD5E2D
FFF9F1B2
0003AD26
00024585
FFF7D0DF
FFD84924
FFF37C7F
FFF37794
FFF90442
00106FB2
00009F29
FFE3DF46
FFFB8ED2
FFFF4B43
FFFE76C8
00006EAC
00027FAD
000A0B21
001240F3
FFF9FB2D
00024301
FFFED2FF
FFFCA16B
FFECB3D4
FFF3CE76
FFFAA868
FFF57DE3
FFEDC9AE
FFF1D62A
FFF78B2A
0009A34D
FFF5E48E
FFEF940C
FFC9B20E
FFDEF267
FFF074CC
FFFFBE20
001210FD
FFF93B65
FFF705D7
FFFD4F4C
000B0EE8
FFFEEF9F
001298A2
0010A575
00068ED5
00115374
0004E5CA
000B676F
000A656A
FFF0E7D7
FFEBCB90
FFE8BE39
FFF5A98A
FFF021A1
FFF4B969
FFE977DF
FFE77006
FFEC0F8E
FFE8B0F3
FFE9CAB8
FFCF9DC4
FFED09FF
00001076
FFEF7323
00013E4B
00055805
FFEEB1AA
FFF5A718
FFF53FAE
00071DA5
000289FC
FFF8F8AE
FFFE54F1
FFFA5943
FFFCA4F1
0009B79C
FFFE74B6
FFEDD92C
FFE76489
FFF30460
FFF3966B
FFF674AC
FFE8A116
FFE2DC76
FFDD5710
FFDEEAF9
FFC870D6
FFD0EBF5
FFDFC464
0010317E
00037978
FFF7F82A
FFF8DB39
00090B92
FFF880CB
FFE87CFD
FFFAB07C
0017FD78
00195E34
000C258B
000768CF
000A19DC
00000C34
000AF047
000C1EF0
0000328A
000344C3
FFFE85F4
FFF82E39
FFF4DE0D
FFE5A910
FFD1FCE9
FFCBB376
FFDEF304
FFDA543E
FFDDEC92
FFFBF8CF
FFEE82EB
000005D3
0006BC39
FFF9FB1D
FFFAA0F3
0004A5E4
0002B612
FFF8070D
00043C13
00192B55
000E4DAA
FFFA2FEE
FFFDBE6E
00085002
00026D57
000C2FDD
00051F87
00147FCC
FFFEBDAB
0000B04D
FFF8755A
FFDFD15E
FFC44862
FFCB0074
FFCF806E
FFE23761
FFF9C614
000107F1
FFEA2C37
0000E8F2
0000F82F
FFFE2568
0002292A
002566F8
00328095
0029CDAC
0015F587
00061B80
0009DB9E
FFFC70E7
FFFCCDAE
00115186
000F036A
001632B8
0017B99B
0017B8AA
0009F5E3
FFFBB173
FFED0CAB
FFE895D1
FFD3CF3E
FFCE1CC4
FFC23206
FFD0071C
FFDB8849
FFEC04BC
FFF358E5
FFF72528
FFFBBA75
FFFC21F9
FFEBE4BC
000F970F
0009C0D9
0005622F
00083E01
0014AA68
000CA99E
00065664
001EA57A
001B0768
00158981
000A81B4
0009F15C
000CF45A
000CD797
0006B8D6
FFF38F5F
000018C1
FFE3EA67
FFDD2471
FFE11AFC
FFE00ADA
FFF544DD
FFF29E79
FFFCAB66
FFF7A566
0007517F
00031286
FFF6E7EF
FFE6FFE0
FFDBE636
FFEB9F31
FFFB498F
000DFE26
001C7A9B
00117324
0010F828
000DC175
00015246
001C2EF5
00184F88
0014A3A0
00078A66
000B0C10
00197923
001F5DEB
00017B2F
FFF6AD9F
000F3094
FFF92C11
FFF5CE81
0005F486
FFFDB843
FFFB9839
FFF6FAF0
00064C0E
FFFFCB72
00046A8D
00079C40
FFFFADF4
0006012E
00148F74
0011FE4E
000C9A9F
00233932
FFFFA1D7
0001B0AC
0017227E
0019D7D8
00093FFD
000A091B
001C82C9
001A56C5
00115429
000506FA
FFFEF8B1
FFFF50E9
0014BCE2
FFFBD59F
000482F7
0007408E
FFFFB71A
FFFA1B17
00069292
00077089
00063B99
FFFFD5A3
00023F5C
0000770D
FFFC86FF
FFF6F26C
FFFEE1EA
0003F44E
00055549
0008A204
0009CD40
0008295C
00009BEA
0005F863
FFFFCED6
FFFCC314
FFFC7319
FFFAABE8
FFF8F54C
0002182E
000872CF
00014CBB
00013C56
FFFC91F4
FFFC655C
FFFD2269
00032A29
00019388
FFFCA409
0001DA3F
000186FA
00018E1D
0009F938
FFF8EEB6
00099AD6
0004EDF8
001D61FD
001FCA55
0008A3C3
FFF7C78C
00203C24
0024F458
001A5650
FFFD10E7
0013EBDD
001AC3A0
000551D3
0011A4AF
000EC17E
FFF818C9
FFF8AD7D
00032CA4
FFFD549C
FFFDD34D
FFFA7CD1
000A4466
0012B10D
00139F4E
0001524B
0004D763
00115277
000B4DBC
001189D2
0025FE68
00286A10
00250835
001BFC95
0013B30C
001ED636
0018A648
FFF8D4FC
FFECE22B
FFEB41BA
FFFF18FA
00209F1B
001FC3BC
001AABFD
00138C75
0009E4EF
0003E420
FFFF5B20
FFFE779A
00017AF1
0018C821
0014349C
FFEE427A
FFF77D67
FFF92D33
0003E349
0011F50D
001C2F50
0017871C
000F7A7D
001090E3
001E5C0E
00041292
00087D4E
000DC337
FFF39184
FFF3F090
FFE4F2E0
FFCEC770
FFE5E541
FFECA5D1
0010E962
0011CD82
FFF29259
FFF202C7
FFFA4704
0007B119
FFFBA95F
001B9745
00002173
000106B7
FFFC5F53
00020198
FFFA38D0
0011F1FE
0008F64C
000517AA
000801F2
000D3536
000F71FC
001922D5
001AFA66
001AE920
0004AA29
0003F6A9
FFFD0EFB
FFFC0ADA
FFE7D7E1
FFF03DFA
FFE52CF3
FFDFE3BC
FFEA5D9B
0009A709
00037758
000648B4
FFFB1921
0022D764
FFEA9692
FFF3DF8F
FFE1B9BD
FFE66ADB
FFF08AD6
FFE1C9DB
FFE5596B
FFEAB037
FFF00ADB
0005ADF9
001002F9
000F9A1E
0011C482
00162040
000C8C62
0008CA45
001B5460
0006323F
0008B168
FFF6892A
FFF842D8
FFFFA7E1
FFF5F126
FFFA5FE2
FFEF32E4
0005E7B8
001F2857
FFE21CA2
0005F10B
FFEA2962
FFD54CAE
FFE82CC4
FFDA32F6
FFDD4863
FFE69E69
FFF12FF7
0003278C
00089117
FFF9F9AF
00025C31
00085BFF
00180279
000A48C6
0019F2C6
000A6EEA
00129DD0
00068F56
00046766
FFFA49BA
FFEEE78C
0005C08A
FFF2F63E
00021F1D
FFF7F199
001DBCDC
FFFA5775
00060D2F
0004257A
FFEC3820
FFED4D3E
FFECCB68
FFF38E6E
FFFA78DD
0001F76B
FFF23A80
FFFB06C0
000172B7
FFFC78D5
FFFE339B
000AA6B7
001163D4
00115850
000D8644
00109FF6
0017B4B6
00145A55
FFF9B658
FFEC1951
FFF8AED9
FFE94BD0
000A7194
001A2315
0019D466
FFF0DA87
00009FC8
001056E9
FFFB669C
0001BA3E
000276B7
FFF74788
000650DE
FFF99A14
FFF7AF0B
FFEECDBA
FFF81825
0002CE31
00103654
000EF648
00103379
00159B6E
0010A0C4
00076558
000A0870
000AD282
00077B4F
FFE7C917
FFEB7641
00060B28
000A8756
0009827B
0002569C
FFFC15EB
001248EE
001CE9D0
000969F1
000A7A90
0004FA05
00041513
00018B72
FFFC4B9E
FFEDB2CB
FFEE8C30
FFFCD684
0004DFB7
0014FF04
000F9917
000C371C
0005B2BA
000E2991
000E854D
000D335E
000C75B7
001177EE
FFE8766A
FFE6D05E
FFF75556
FFF15815
00145852
0004E18E
FFEE8EAD
FFFB75A2
000E7ED9
0002E100
00102D12
FFFC9B66
FFFE7C1E
FFFCD58E
FFFF614D
FFEB9BA8
FFF437DA
FFFFF0D7
00221B61
001183A1
FFFAF81F
FFFC2FA0
0009D8E5
001B11BA
00111CF4
0018D341
001F9053
0020CB76
FFF2B78E
FFDEFF4C
FFE35B10
00038091
FFFF5530
001C7893
FFEF3473
FFF3EA42
000B8FE6
00090C76
000855B4
0003B7B3
000644C1
FFF5154F
FFE9A37C
FFF5DFCC
FFF9FE09
00063C59
002486A8
FFFDC608
FFE6423E
FFEF4A02
0005E444
0007321E
001D4567
0010FF0C
001A3090
0015CDCD
0004A6B4
FFF772DE
FFF8E41F
000BA323
FFFEBDB7
0006ACAA
FFF1C9FB
FFF4F5B6
00006AC4
0007FE99
00014A0D
00068203
FFFD8EB0
00080613
FFF4F99E
FFEC32DC
FFE3996F
000590B7
0009FAAE
00037679
FFFBAEB9
000EC398
FFFAB213
000064FD
000C4AD9
001C377D
001BC10A
002B46DF
003F2FF8
0008606A
FFF4263D
001BDA4F
001083E8
FFFB307A
0000CACA
FFFA8EB8
FFE8BDA4
FFEFE1B6
FFF05617
FFF5347E
FFFA0761
FFF6C9EE
FFF0E4B6
FFEE0DA0
FFECDBB2
000BA872
0010F9FF
001400E8
000E7811
00078CB8
00052CE6
FFF9720B
000779AE
000920E6
00135FDB
00146598
003831E6
0024BE89
000FD6B6
001A5D6B
FFFA758A
FFF47436
000A3CA7
FFFD19FC
FFE53E7A
FFE8004C
00054D01
FFF453F3
FFF61032
FFF0C543
FFF574CD
000ACC36
000885C4
0022479D
001AA047
000D1C8D
00071FD4
FFFB810F
FFFB9FEB
FFFEFCAA
FFF8A581
FFF8D32E
FFEF07B4
FFF74E24
0005DF49
001B7AC1
00282A22
0016C005
FFF8219F
00033491
000467B5
FFEC68C3
FFE460AF
FFF7EE32
FFFE40DE
FFF7A601
FFF0E3B7
FFFDEE48
00019B3F
00066319
000C331B
001FD9DD
00245A0E
0011D47C
FFF90587
FFFA16E8
FFF839A0
FFF7FBC1
FFE6EBFA
FFE80D45
FFFBEADC
FFE0CE02
FFF05329
00015443
0007AC7A
00130856
00062D59
FFFCA6E8
FFFB2193
FFEF2A80
FFF5EB22
FFF9EC9C
FFFF7676
FFFA3B01
0000B28F
000EBDA7
00197FA4
00152382
000C12F2
001230F8
001BE5F1
FFFD0337
0004F82B
FFF35B9D
FFF07976
FFE3F3A7
FFE5CC3B
FFE9C8F4
FFED01F7
FFF24694
FFFACE7E
0002FF04
00113E66
001DCE44
00024721
FFFAA9D8
FFE12A80
FFEBDFBE
0003B475
FFFBEB18
FFF00989
FFFE8F4D
000EECDF
000CCD66
001D69CA
00119401
000EF7E6
0012F651
000CE30E
FFF3B797
FFFBBD7A
FFF28912
FFE6954E
FFECD0E0
FFE63978
FFE3EEEF
FFEFE6C7
FFFA1B0F
000850E0
00119FC4
0017447B
0026320B
001D97E8
0005239B
FFE34445
FFEF2C5A
FFF84235
FFFC1C30
FFF9ED7A
FFFE8354
0002035B
001002E5
0007B64D
00012B39
00046901
000A47DA
FFF15154
FFEF9EA4
FFE6AFBA
FFF0D2AC
FFF2DCC4
FFEF5F41
FFEF2800
FFE30655
000A6626
0020520C
000F9D95
00264199
001055EE
0022936E
00098CBB
000688A2
FFE2E88A
FFE3861D
FFF46554
FFF105FE
FFF77AE1
000848D7
0007B2E6
000EC412
000ED0AB
FFF8DACC
00081DB8
0003E174
FFF41CD9
FFF538B6
FFF0AC5F
FFFA2444
FFF4A765
FFF0171A
FFFBF5A4
FFF988AD
0016BC9C
00220852
000E4F45
001CA541
0026913C
0014148C
FFF82892
FFF0047C
FFEB05CA
FFF72390
FFF911F1
FFF5BBC0
000BFE86
0018AE06
000B8546
00055103
000E6549
0004B526
FFFFD340
FFFB1C92
0004C120
FFFF0577
FFE8F89B
FFF7000E
FFFDFBED
0003691F
00060BF6
0003CFB1
0016BE54
00105A62
0000EB1F
0003327D
000FA6BB
0009A0CF
000C4AFC
0019A031
0015800F
00110FD5
000A4213
000B05D3
0019DD98
00175199
00056B7D
000B5CC7
000C27F7
FFFB39C3
FFFF702F
00082917
0006FA85
FFF293F4
FFF4EB04
FFF0CB8B
000C9B06
0007B9C8
000698A9
FFFB69AC
FFFE1549
FFF8D7B2
FFEBD48E
FFF567F7
00155DD0
FFFD8DAD
00020ED8
0007D9DE
00052C89
00007CC1
00155900
001F081F
0026DA2C
0028322F
00238ED6
000EF5B8
001257DA
0011711F
00049E2A
FFFFC332
0004ECC7
FFFF36BE
FFF5B4A7
FFEDAF5C
00005D3B
FFFC900A
FFF23098
000398B1
FFFF7318
FFF52D0E
FFE7D360
FFFFE444
FFF70679
000635C2
FFFF646E
FFFE4E86
0005BE4E
FFE90E07
FFEFD88F
FFF0891A
00153AE6
00174676
001D8548
00136B63
000543FE
0010DC8D
00188FFC
000B4A29
FFFE0111
0007209C
00006FF2
FFFCB389
000BD408
00076BF5
FFF02821
00020CCD
0001E4C2
FFFEEF7A
FFF49776
FFF539C8
FFEB604A
FFFE0367
FFF85DD2
0007144D
FFEBA0CF
FFD346D0
FFD76EE0
FFD80EF6
FFEC8A41
FFED3B18
000288EF
FFF13ED2
FFF34CF2
000059F9
00018328
FFF9B33E
00032FC9
00063840
FFFBCE8D
FFF9F9B3
FFFC5BBE
FFFC4AFF
FFF7DC8D
FFEFECC8
FFF0C96F
FFECFF76
FFFE2029
0017DBE3
00125952
FFFC47AC
0006988C
FFF86A3A
FFEB0F46
FFF0F799
FFC437CF
FFC1B6CF
FFF603F5
FFEE8C67
FFFF3942
FFED9280
FFE2E9B7
FFEB80FA
FFF6E958
FFE70B64
FFF25278
FFFDF6A6
FFF84FDE
FFFD0CCD
FFED3584
FFF950C5
FFFE9E14
FFE4250A
FFD66E49
FFE02DBA
FFE361A4
FFFE0561
000E25E3
0005D458
FFFD3D2B
FFFF2580
FFFF8F49
FFEC03A6
FFDF3B7E
FFDE89A6
FFEE33C9
00049211
0012A0CF
000F7F8D
00027DC3
FFF6F26F
FFE4E577
FFE76377
FFE96868
FFEB805C
FFDA08AC
FFE589AE
0007F4CC
001103D8
00048ED0
FFF943CF
FFFCF5CB
00062AAA
0001B441
FFFC392E
FFF983B1
FFFD2113
FFFB77BB
FFFCCB15
FFF908F4
FFFD3DF9
00084936
00005361
0017A25A
0010E47A
0015BC24
0011E976
001273CB
FFF40B55
FFFE5892
0010F38E
0023D9F6
0019D8DB
00127514
001E0476
0024F7F6
00197A69
0002D2CF
FFF4CFA2
00034781
0016AB24
FFF8D365
FFFB3483
FFFDC909
0000076D
000483F0
FFFC3DE0
0001585E
FFFB0A5A
FFFBA772
0005F766
FFFD7EF5
FFF7FD1C
00006251
FFFEB257
00029965
FFFB5607
000E0042
FFFF755C
FFF88730
00002782
0002D370
0001B102
00087203
0000D8F9
0000C709
FFFECE01
FFF72922
00039370
00072099
0000E7F0
FFF8DE98
00083593
00020C59
00069CF4
0003F88E
00017130
000477B2
0009F654
00032F51
0000ACC2
00045F55
00032807
001A9CA8
00008D10
00042AA8
000F58F7
FFFD762D
FFE6733E
FFDF2255
FFF3A3C7
0005967A
000E8E25
00279F52
001908B0
00021D52
FFFA866C
0007065A
000559AF
00047462
00058F68
FFF7CE9A
0001F1A9
000BE941
FFECF990
FFF77272
FFFD7088
000BFA5C
00147453
0008FDCA
FFFEFFD9
00066896
000D27D8
001D8B6D
0020B1F2
0011C085
00015472
FFF7E1E8
FFFE0F54
FFF44570
000A3443
00036DD2
000D3370
001C5BD5
00130E0C
00143C1B
FFF38C19
00041866
FFF6FC08
FFFD4BCA
00002F6A
0013F0EA
FFF6E8B0
FFFBE945
FFF8C598
0001AAEA
000AAD6C
FFFE8EC1
000E4B38
FFFC8F3C
FFF2B688
000532B3
FFFFA782
FFF08942
FFF10FA7
FFFE4B53
FFF7059C
FFE32FFE
FFF8BF16
FFFE2301
0012751A
00151B44
0022F16A
0014E27E
FFF9659F
FFF3ACC6
00042A4C
FFF9744A
FFFFA384
00083BCE
FFFF4AC0
000BD932
000B89C4
FFF6A3C8
00004AE7
FFFB20D0
FFFACD9F
FFF7E241
FFF524A7
FFFB90FF
FFF945DE
FFFE8F44
FFEC971E
FFF66B0C
FFF62A0D
FFED7450
0006FA27
000BB8BB
0015A6E2
0013C2C6
001A5889
000A9F4E
FFECEA69
FFEACC14
000A1578
FFFBE914
000667AA
000F25CC
FFEC1898
FFEB8496
00042151
FFF1447D
FFFE7D17
FFEDB87B
FFF6B12C
FFF59EE1
FFEE7950
000295DB
FFF0B3B8
000441B9
FFF62B2C
FFF1C545
FFECB290
FFEE38FB
0007FC4A
000448A5
00142D00
00182CB0
002C417E
001CC4B0
FFECE9D7
FFF72F8C
00081459
00070733
0003F502
FFF7EC4E
FFEA76DE
FFF0F161
000CD399
FFEE389A
FFEB641F
FFECA02A
FFFB0E36
FFF2C620
FFFB6041
FFFF36D9
FFF01928
FFF8FDCB
FFE0A3C0
FFD257B9
FFDBBF73
FFE40761
FFF84A37
00015E75
0001EEDE
001E530C
0029037E
001DFA24
FFFD0BA0
FFFC526D
00057819
FFF9EA6F
FFEED5DB
FFF77D75
FFF20CB2
000BECA6
00040FE4
FFEB1E72
FFEFCFBC
FFF15BC4
000A8C7B
0010793E
000AA71C
FFF67025
FFFCBDE5
FFF91750
FFDDE354
FFCF6E71
FFE1FD9D
FFED2F41
FFF8D5DA
FFFFF749
000A5BF7
001126BA
00114BA7
FFFF4226
FFE6F09E
0008C2B6
00067FB6
0001037E
FFDB6DCF
FFF444DE
FFEEE1FE
000EE1F0
00056F0B
FFEFA52F
0004A4E7
00074C03
00118D01
0006D341
00042E64
00051140
0001BDB0
FFEB285B
FFE13C3A
FFD9912C
FFE1A7A4
FFF78A86
FFEF38EB
000210CE
FFFDA831
0003C9E8
FFE57586
FFEB2A12
FFFE58E0
000076BF
FFF0DF4E
FFFD5BBF
FFE9BE8E
FFE95E80
FFE6C128
FFF360AE
FFE4F88A
FFE5EEE5
FFF537C6
00011EF9
FFFF5FB2
FFF0F986
00074B01
0000B417
FFFAD902
FFF2FA8D
FFEB9B5F
FFEEE34D
FFE82D02
FFFA0F28
FFE9C7FE
FFEDF258
FFF5A555
FFE55A28
FFE53A76
FFDC39B6
FFDEC039
FFE19DC3
FFF8DF72
FFF5CD6F
0007B6B5
FFEBB92F
FFD6A49E
FFFCA87C
FFD51E67
FFDB0184
FFE9E83E
000030A5
000A5E35
FFFF5BBE
FFFD6FC7
000B5D79
00023590
FFFDE0EC
FFF3F955
FFF4A412
FFF4F8D9
FFEB306D
FFEA72B9
FFE3250A
FFE63254
FFEFCE44
FFDD1869
FFD1B512
FFE03C3D
FFCCC198
FFF82C98
FFFF8A4C
FFF8C6BE
FFF030C9
FFE8275D
FFEE25E1
FFE2A2B4
FFE9EAA6
FFF9884C
00098E32
000D49FE
000BC052
001340F6
00212D16
0002B45C
0005E4EB
000A4F11
00133271
FFFB2024
FFEC9289
FFEB4F7D
FFEA96EE
FFF38D9A
FFEA244F
FFDF0802
FFC34CDD
FFCA6636
FFDB8856
FFED2476
FFF76740
FFF63719
FFF85BAD
FFEA0C88
FFE85924
FFDA3A0A
FFF96BF4
000890E5
000B279E
0008C479
0015E9B3
0018467B
001CB96E
0012A47C
FFF8C082
00102BB2
00152EEE
00038C52
FFFBA41D
FFF789FD
FFF7D4F1
000EF650
00000B7F
00017F94
FFE3BE5F
FFD4E15E
FFDC600A
FFEF4830
000C7D48
0001D157
FFEEDDD0
FFDCE1DE
FFE776F8
FFFD1DCA
FFFF6CFE
0003DB83
000AEE1B
000F9C96
0019BD3C
000E0B8E
FFFC7E10
FFF34458
FFF9BF00
00110180
0012E1A1
000C9025
000B439C
000B275C
0013501B
001EF888
00149080
000711B0
FFE5EB03
FFCDB754
FFDA9958
FFEFFD45
FFFFE5B5
000747FD
00004FDB
000780F8
0002D6DE
0005604F
FFFD24D2
000442DE
00181512
001E56D5
000FCD4E
00114130
FFF9A6CC
FFF2FBBC
000C3345
0014D8A8
0014236D
0015B3B3
000304BF
000BB050
00061A63
000B6AC1
00134DDA
FFFE4A25
FFEC0E5E
FFE43D45
FFD3E45E
FFF23F14
000B7FA4
00156A82
00243CEE
00081CCC
FFFA2BBA
FFF1F292
FFF25246
0005E182
001C642F
0011DF81
000CDACA
000754BC
FFF9B5B9
FFFC76D0
00114E8D
000F5A70
001BEEB6
001028DC
FFFEC7BA
0004D1EE
FFF96C55
0000E99F
0007E0BA
FFFE4A5A
FFE1C26D
FFF47E38
FFEE37DE
FFF48917
0004D271
0002BE4F
0007B0F4
FFF34C90
FFED135D
FFF3CD27
00004C45
000EEA5C
0014107E
001A7C90
000243E9
FFF7B986
FFE76AE2
0009FFD3
001F2197
001A48B6
0014BEEE
FFFAF671
FFF962CD
FFFD3D00
FFF4E943
0000BC24
FFF788AB
FFF10195
FFE3D896
FFE137A8
FFD4DE1D
FFE4751C
0001C5FA
000A90C0
FFF59148
FFED5C80
FFE681E3
FFE84554
FFFB2A49
000A6CAC
0019DD7C
000ED81D
FFEDCDD2
FFE8E9CF
FFE59CD9
000C35EC
00257DB8
00202A87
000EB54A
0000CFE1
FFFEEA86
FFEDAB82
FFE8E576
FFF15D4C
FFE92371
FFEE04CC
FFDE10BF
FFD76B12
FFE40124
FFDF73F5
FFE7674B
0003FD60
FFF92FD3
FFEFFDFD
FFEF84C2
FFDD20C3
FFEAFC51
FFEBA00E
FFF53050
FFFCC27A
FFDB6E71
FFD7E3FF
FFFEE03C
00090082
0023F006
0015990D
0008B54E
FFFC2B1F
FFF9D47D
FFF65F4F
FFF6ADFA
FFF43717
FFD9BBBB
FFD62E42
FFE4A6C2
FFEEC1D2
FFF1AE4A
000312B9
000029CF
FFF4497A
FFF19D7E
FFF3ABFF
FFE68D9A
FFD49383
FFE83C63
FFEFE9CF
FFE47F0E
FFDF995F
FFD818BE
FFEE5EB1
FFF8E6CD
000771B7
00174268
0012C7A4
000F5D7D
FFFF85B3
000B40A8
FFF70546
FFEE0147
FFDA32F4
FFCD95EC
FFD58332
FFDFB48C
FFEA0D52
FFF97EAC
0013E586
00071F36
FFFDD994
FFF477BB
FFF22057
FFDB105C
FFCE1426
FFDFE354
FFF205E9
FFEDDF41
FFE28843
FFE50878
FFEF5CC0
0003CE94
FFF9FD0F
0020142B
00168956
001E9B95
001B4B4B
001D0B8B
000257B6
FFE260C3
FFE16FAD
FFC87764
FFD2AC40
FFDE39EA
FFDCB646
FFFD45BC
000256F6
00039BD9
FFEDB665
FFEE4818
FFEE4EF0
FFF8C017
FFF491CE
FFED15BD
FFF2942F
FFFD1420
FFFF8C6F
FFFB7350
000424E3
FFFD23B5
000FFF5A
001BF282
001E6F78
0010580D
001DE696
001E73D9
FFFFECA5
FFF86C68
FFE5377F
FFDF93CC
FFD0B570
FFE65EB4
FFF55487
FFF9CDA6
FFFA83D2
000C35B9
00030FBF
FFF5675C
FFEEF695
FFF5E10A
0006BA54
FFED17D1
FFF373B4
FFF101F0
FFEDE44A
FFF919DE
FFFADF07
FFFBEA1B
000E35ED
0010C422
00213F11
000D6250
001B7FE0
0013548D
0012FC37
FFFACFBE
FFEEE438
FFE9B4C1
FFDEF6B8
FFF4364B
FFF44425
0011E5D3
FFFAD623
0007BAF7
FFFAE395
FFF9D3D6
FFD9E153
FFF1B434
FFF42814
FFFEF6DD
FFEBCFB3
FFEA0728
FFECD08A
FFE6BA88
FFED9A29
0001A472
FFFD6DFB
00178F7E
00153A84
00135649
00239A1A
001B5E82
001BF442
FFFD8690
000562A7
FFF39340
FFD95D4C
FFDBADAA
FFF048E6
000EB37A
FFFD0E04
FFF8C172
000389D0
000240D3
FFD9CF39
FFE446E0
FFF2531D
FFEFA238
FFF29897
FFE1F3B6
FFECDB76
FFF4664C
FFF0E94D
FFE63573
FFF10D64
FFF81D37
00028611
00031F03
00055D4D
0010BEFF
0003947B
00011DE8
FFF7412B
FFFF3FE4
FFFA1902
FFDEF456
000D593C
FFFE42ED
00054AA0
0001DF39
00001F12
FFF1C02C
FFF88463
FFE4CC2E
FFE2A9DC
FFDFE362
FFD8CD37
FFDAC344
FFDE5192
FFE82F5B
FFDEA988
FFE517C6
FFECBFB5
FFE090E7
FFEB8432
FFDCF31E
FFDE2A7D
FFF43960
FFDB5768
FFEB3498
FFF6EFB1
FFFF8089
00049556
FFFCB5C3
FFFA6655
FFF352C9
FFF73FAD
FFFE9CE9
0007CDAD
00036310
FFFFB2CC
FFE83D81
FFEE0084
FFDB2A4E
FFDACDF1
FFCF5BE2
FFC1E757
FFBDBEEC
FFC0A546
FFC66C9D
FFB83E25
FF9F8626
FFC613DE
FFBE4E16
FFBC0624
FFBF3414
FFD38901
FFCBE12A
FFD67DBC
FFD30B72
FFE9FD38
FFF8FEB4
0006D113
00077BD5
FFF9A640
0001FB99
FFFB4A6A
00088E35
000594EA
000205FC
FFF6980B
FFEAE185
FFEBD23E
FFE1A1A9
FFE20B9A
FFDC223D
FFD06B55
FFD7996F
FFD61B31
FFC209DD
FFCC69F5
FFCED239
FFD00138
FFD79DE5
FFF26CB5
FFEE179F
FFFA820C
FFF32098
FFFB8D5F
00057BA2
FFF7646D
FFFA5545
00053EA7
FFFD9D94
00073BC5
FFFF2A46
0006852F
000071AC
0000F312
FFF84713
FFFCD721
0000755B
00042D6C
0001C625
FFFE03D3
FFF6B336
FFFE5FFF
0003AFC9
00010D61
FFF96935
FFFCED01
0005D651
00083AED
FFFBAD7E
0003E285
FFFDDBEF
0005CCC5
FFFEA04F
FFF8BB77
FFF6F331
FFFFA84E
0002B203
FFFA9C3F
00073180
00045634
0001F12C
FFF9AFCC
FFDEE584
FFE5C891
FFEA8D5D
FFEADAA0
FFE0D891
FFE1AAD9
FFE6F1EC
FFDCC135
FFFC8DAF
FFE32F20
FFEC24B8
FFEC2A77
FFE23123
FFE114D7
FFE0F59C
FFE7EB48
FFE77ADD
FFE93492
FFFE2BCF
0006A7D0
FFFB0251
0007AC03
00044235
0002F9A5
0000F644
FFE1967D
FFD8DD9B
FFF68D48
FFEB26EB
FFDCAF1E
FFD035DB
FFD1D1EC
FFC837FB
FFBB1CD0
FFB50EEE
FFD4E55A
FFDE456E
FFDA6986
FFF9130A
000D6226
FFFF401B
FFED95FE
FFF4234F
FFED84D0
FFE077B5
FFD8E0CC
FFEAFEFE
FFF2FA9C
00017BDD
00027EFE
FFFCFBB6
FFFA14A0
FFF5230B
FFDC6419
FFDC3C6E
FFE100C7
FFD8E39C
FFD717E4
FFC6FC21
FFB59A40
FFC0AA12
FFCB4B5C
FFAC46F7
FF954274
FFBCD331
FFD8D100
FFE43864
0000AF41
000FCDDC
00248394
001AC9F7
0004F95C
FFFFF628
FFF7AD1A
FFD8A2B8
FFE0C089
FFF6606E
00052D57
0007D763
0009330A
0007423A
0005610C
000B2F20
000EAC84
FFF32140
FFF1C959
FFDEC7C9
FFD8A901
FFDA9754
FFE5D54D
FFD7850A
FFC89482
FFCF7BFB
FFD28582
FFE5219C
FFEE6AAE
00088D8A
00242C0A
0033CF82
0034F142
00254A7A
001AB158
0011ABAC
FFF40E93
FFF164BA
FFE2E3EF
FFFDD967
00021A2F
FFF8E9B0
00146CD2
00020029
0015DEC1
000DA439
0016E54B
FFEFE980
FFF0763A
FFE2E564
FFDCD020
FFDF6E03
FFBE3FB7
FFCAF220
FFE52FEC
FFFA4FF2
00034A35
000F74AF
001ECF7F
002BABCC
002F9B74
002DC48E
00408F6A
001531C0
FFF0A6E5
FFD74642
FFDF04BD
FFFAA878
001E17BF
00034244
000B8301
FFFFE0F1
0006655C
0018ACB8
00129238
0003C045
00131F35
FFFD4170
FFF0E54D
FFEA159E
FFE61941
FFDCA674
FFE64374
FFEA5A4D
FFFEFCDE
000F3F02
001A8C29
002A6059
0032544F
002535AC
002FA9C4
0018E62E
FFE34793
FFF4B5EC
FFF0084E
FFF7F6B2
0020A65A
FFFE47CC
0014F425
001168B9
001AA9FB
001B30A5
0012A9CF
00086E65
000027C6
FFFB0FE5
FFFE452D
000098FC
0004735E
FFE8D074
FFD9CA61
FFE5A710
FFFBD76B
000756CE
0020F8E0
0034DDE3
002C6B21
0021131D
0028E56C
00104A6C
FFF2A2DB
00029CA1
FFE4FBBF
FFED9F50
FFF923BE
0014FC10
002569D2
001D394F
000C9A7B
000A579D
000F67AD
0002B76E
00034C2E
0009AB17
0017CFAD
00281D94
002126B8
FFF46BA2
FFD89245
FFD70374
FFF5A8B3
00175818
0022A342
002D9470
0030BB8A
002E7056
001035CE
FFF41746
FFFB148C
FFF19B15
FFEA496E
FFF864EC
FFFD1B22
001D7262
00054C88
000EE4BC
0002A92F
00112E84
000789A6
000891F4
001ADF14
0011ECBF
00201938
002B1B8C
0002F64B
FFCD42D8
FFB729F4
FFDADEF8
0004D768
001C40DB
0021E538
00300008
003FB59F
002FCCE8
000F725F
FFE11F61
FFDDB42E
FFF07FCF
FFFBC9E5
FFF3F5DA
000F7C0B
000871FE
00278161
000E1A1D
00039166
00036B71
FFFFA162
000A6BEC
000DC0E7
00033845
000F6280
00031216
FFE0CA2B
FFA13E18
FFB77756
FFDEEE44
00140277
0029DA1D
002E9E56
001E9960
00270F68
0017AFE7
FFF765CF
FFCA5A94
FFEA32C5
FFDCE471
FFFBDF09
0004A906
FFEB3E27
FFF6F200
0015EDBE
0013A8CF
0010069A
00031A8B
FFFB979D
FFFB933F
FFFE6DDA
0001BDB0
FFF19C9C
FFDF2324
FFB7A898
FFA7E89B
FFE16359
FFFD470F
001A4C88
001FDBF8
00258930
001A705A
FFFBCB6D
FFF91F31
FFD123D2
FFC5BBE1
FFDB3C9A
FFDAEF4F
00037D29
000154EA
0008E214
00021E81
FFF47135
000D6281
FFFF8F39
FFF93598
FFFF8E44
FFF3E74A
FFE79DE9
FFF56791
FFD8228E
FFE9DFBF
FFD61786
FFD40B7F
FFFACA9D
0015177D
001B387A
00238262
0011C573
0002078E
FFFD48EC
FFE797B2
FFD2DF69
FFDD20BE
FFDFDC8C
FFEC3728
FFF6B93F
FFFA94F6
0002C68B
0005310C
FFE91FBA
00085ACD
00057F37
000B5EAE
FFF335B1
FFF6FF54
FFF811B0
FFEBB04C
FFE35360
FFF1CFEB
FFEA31F3
FFF4BEF7
000395A5
000EBD87
001E3DE3
0013F5E6
0013947F
00134ED0
000B6053
FFE2B32D
FFDD7B52
FFE4D4D4
FFF926C7
FFFADBA8
FFFCDBD4
FFF972B8
001741A7
0008ACBE
000EB1A5
001E55A3
000DD411
0010C3A1
000D9DB5
000604E7
FFFA01FA
FFF247D8
FFF7FE7C
00049EEC
FFFE3AD7
00066246
00076AA6
00225B7E
002CD396
000B71F9
000F067A
001540AA
FFFAAAA2
FFEA113A
FFE3871D
FFE59144
FFFA81E6
FFEDC90B
FFFA355C
FFF98D65
001AAF0F
003448E7
001BF8B0
0016762B
0013789D
000ED93D
00132415
001CC3BC
000702BD
FFFFB3B8
000D69DA
000D61E6
000D8DFE
001F1284
0018B61C
001B78DC
0019A7B0
000B0B8B
000E1F10
000A25B6
FFFEA725
0007D1CB
FFEB1D78
FFC9F897
FFDA3D14
001ED3B5
000D5E93
0001C096
0017EE68
00180D62
000D6403
000D4ED6
0014D196
001F79B0
00114AAB
0012CF6E
00129FFB
000A2931
00089F89
001B2F3F
0021BC97
00175224
001E5C37
000D5F2A
00110BC8
0009B0E5
00179452
0008C841
0014BC82
00004832
FFFB2C1B
FFE945D8
FFEA1C7E
FFFB368C
00032CFF
FFF9AAED
001AC233
001B5356
00063F50
0016089E
00111FF9
00127DC6
001C6AF3
0006640B
FFF1D842
FFF212DB
00080EC4
0016025C
00116F6C
000FA6CF
0015D5C3
000CDDF9
000F2B08
0005686B
0008660C
00032C1E
000BDFB0
FFFE4ADC
FFF3E035
FFD63905
FFE23CF1
FFFF0E5D
FFEA49A4
FFF29A1B
000DFB74
0012574B
0024BFB2
0014768C
0018EB60
00081075
FFF53594
FFE93CC3
FFEBE0B2
FFF73651
00047787
000014BD
00027FBC
FFF7E8E8
00082B81
00083A14
FFFFF946
FFFF4B0F
FFF8F297
FFF9F155
000CA85C
FFF8E177
FFE70284
FFBE7F88
FFD72F17
FFFE6125
00031959
0004D428
FFF45E8E
000CD0EE
00289F45
0018235D
001A9670
00059DBC
FFF96087
FFF3264B
FFF2747E
FFE4877D
FFDE187A
FFDACB52
FFE75ED4
0005A03C
000D2194
00135737
001463F9
000CA1CB
FFF81B58
FFF162A8
0006BE04
FFF29438
FFE300A8
FFC355E6
FFDE8E5C
0009E7D2
001247B6
0001A362
FFFFDC74
00050A9C
00262AF3
000EE2C0
0000674F
0008274B
FFE9F922
FFF19D1C
FFE9C6CE
FFE578C3
FFE1EC8D
FFE82A20
FFEA1B5D
000C858E
00125F9F
001699FD
001FDFA2
000FA74E
FFF658D7
FFF8516C
001370C3
FFFAB8F5
FFEC66F1
FFD481A0
FFCA28EB
000BFEEE
FFF813DC
FFFCD599
000BC46D
00105B86
000A0CBB
0003E90A
0007C4A2
FFF9436C
FFF61E5D
0003CA36
FFED5A5E
FFF1B756
FFF14393
00000705
FFF98866
FFF6B4AA
0007A2C1
0016F02D
000AD7EC
000AD429
000A7C63
0006F58A
0019A3BF
0008821F
0003446C
FFF1BE69
FFD738C7
FFDACB2E
FFFDCF87
FFFE252E
0005081F
00173B83
FFECF16B
FFFE445D
FFF5FB67
FFF17827
FFF07D1F
0003C892
FFE561E0
FFE88C18
FFFE7BF2
FFF42DEF
FFF64EBF
FFF9D838
000147D9
0005EB75
000E93FF
0010EC61
001AE832
001AE7EA
001601C2
00125347
00034F9E
00034AD7
FFF3C6AA
FFF0928B
FFFB53D9
0001D8A8
FFF85F6E
002B97CD
000B3F17
000DAB84
000297B3
000104C3
00135A0B
FFF84C89
FFF015E9
FFFD25AE
FFF74D6D
FFF4BA2C
FFF5E6B7
FFF533E2
00073AC5
000DD0DB
00141BF0
001F3196
0014EEA8
001A3104
000EA143
FFF673AC
FFF5E94C
FFE59EF5
FFFC47DE
000E40CA
0005E13D
FFFE9B81
FFFAEC45
000C3CE4
001CE670
002AC2FF
0010D9FB
00160C18
000E3B60
000370CB
0005DC5B
0002EF38
000C68A2
FFF13602
FFF2132B
FFFD96B2
FFFD3588
000FB40A
0004F4F9
FFF10EBA
FFF58324
00066827
000528C3
FFF68F90
FFED464C
FFD12FE0
FFFDCE83
0006D4B9
FFF6F7DC
FFF8645D
0002C2CF
0007F7E0
FFF46494
001A5554
001E6C17
001D0E62
001394A5
00123D7C
0014517E
00261D0E
0010E920
0016A860
000C14DA
0006B374
FFEF8D0B
FFF1C1E3
FFE9E3B2
FFE5410A
FFDF5565
FFD9FED2
FFD52D3A
FFE09A23
FFE78971
FFD3C97E
FFFED464
000AEC2E
FFF732A5
FFFE46B7
00047097
FFFDC8B4
FFE50D5D
00029C08
0008D7BF
0015D802
000800EE
FFF3CB36
FFE79AE2
FFFBA3EC
FFE78052
FFD42F44
FFDEC0B9
FFD27F61
FFDFDA96
FFDAB847
FFD9DC7D
FFC88318
FFCF525F
FFC37B2E
FFCF732B
FFDDF0C8
FFF021E5
FFF4C83D
0009C112
0004F028
0003BB5B
00054B32
FFF8FA02
FFFFE412
FFFC181E
0009AE7C
FFFEB47E
FFF52D53
FFF5B32A
FFEBEB0C
FFE6DC53
FFDDC831
FFE3B668
FFDE68A8
FFF43292
FFDC5D7A
FFEFE1C8
FFE381A9
FFF65A32
FFEAF0D1
FFEC4F0E
FFF45A83
FFF4145D
FFFDD601
001323EC
0007DB9F
00089A5B
0006AE20
00038AED
000614A5
0003E789
FFF77B8D
0006A762
00011C2B
FFFDB850
FFFD47EC
00074AF7
0006614E
FFFF2695
FFFC950E
FFFB159D
000CDECB
000209B5
FFFD3A49
FFFD75AE
0002A799
00070237
0001D3D0
00036870
FFF89DA4
FFF95B68
FFFAA527
FFFA2645
FFFBEB35
FFFA7501
FFFD022D
FFFA5719
0002B930
00003C67
0000771C
0003E05B
FFFA7E9E
0004D680
00083854
000242D0
00162746
FFFF7C39
00157422
000470A3
0002521F
FFF7375E
FFFC9B62
FFE27B3E
FFF4D81D
FFF9FD8C
000BAC40
0006C289
00135A67
0006D2A3
000269EA
000DE0E8
FFF8BE35
0000D267
FFFDD3D5
0005D056
FFFC56D5
00067F88
00022E80
FFEA1D83
FFEAB4A8
000D2223
0018C6BE
000DABB5
00244520
0031461B
002CBE2E
002BC5AA
00198A7F
000723D3
00262D2E
001546C7
0002B81A
00124179
0019134F
00072B84
0017C63E
000F2BC3
0013A7AE
001E2A5D
00188146
0004563B
FFFB2378
0004F3F4
000075AF
FFF9819E
FFF6D0B1
FFF181ED
0018C3F6
000EC1B5
001D2CB9
001412BD
000C6244
0018D95C
0005AEC7
000CEF14
0003D014
0001C5E2
0006E7A1
FFFC0385
FFF5BC89
FFEB57C6
0000F045
00055F34
FFF3BED5
0008A043
0015B62B
000BF720
000DADB7
FFF30A9D
00058142
FFF9C52D
0005E2D1
FFFEFEDF
FFE01006
FFDD4551
00034A3C
000814AA
0015046F
000858E6
000F4F26
001513D0
001F1AC7
00146ECC
00197035
000EE8ED
0004D995
FFE8CB45
FFFABEC2
FFF00BEC
FFFD4ACE
FFFBB566
FFF8124D
000164D7
FFFB41E5
001870FC
00202255
001134EC
FFF18DFD
0005FB5F
00077DAB
FFFB27B8
000448E8
0007C76E
001E47AC
000495DF
0008646C
FFF8B459
000513D2
FFFCECF2
0004D1D5
000344D3
FFF96C08
FFF46A69
FFFEF99F
FFFD1D47
000438C6
FFFF3FCC
0003080F
FFFD04D5
00026498
00002F34
00057276
000D6BCB
000FE4ED
00187510
000EB3B7
000BF7DA
0007E9FB
FFEEA256
FFF93804
FFFE0B24
0015E6DC
0007EA73
FFEBF8AD
FFF88400
FFEBA650
FFF591C7
FFF369B1
FFEFA647
FFFB0AC4
FFED240C
FFF9247D
FFF340EE
FFF99E15
00061B1A
FFF9F01E
FFFB37F9
FFF71FC8
FFDBBF81
FFEE07D8
FFFF1EA9
001B9F21
001AA8BE
000DA469
00038C24
0002BE78
FFE6A9D7
FFFCDC53
FFEA8181
FFFA4ABC
FFE692BC
FFE41F9E
FFE9AE5D
FFE217DC
FFDF87E9
FFEBED1C
00009C3F
FFE9801C
FFE81454
FFF12D4D
FFF09021
FFFA7C01
FFFD1D4E
FFF6AF1D
FFF0C1A4
FFEA1799
FFEAC324
FFED218B
FFE26CC7
0007081F
001D4128
001821B4
000C8D45
FFEBC92E
0001E412
0005B0F6
FFE8C5D5
FFEF6676
FFE24B06
FFE38004
FFC985AE
FFE47F90
FFDFA268
FFE91998
FFF79A77
FFF29B71
FFF44690
FFE8D51A
FFF314BE
FFECFEE0
FFFE7DA6
FFF2F0DF
FFFC1A32
0001013F
FFFF5972
FFEDB14E
FFE9381A
0003AA70
0021AC7C
00018D64
FFF01D84
FFF56334
FFF31BBE
FFFE2F49
FFFD214D
FFF6BF76
FFDA6362
FFDBB0F1
FFE450E2
FFE3009E
FFECABAC
FFF6BCE7
0005FC74
000715F8
FFF1F210
FFE1A0F2
FFE7708E
FFE5BD79
FFEFD9C1
FFFEE16E
00039AD3
FFFF983B
FFFBAD88
FFE2DEEB
FFE08FAB
FFF4F969
00017D4B
FFF8A1FA
FFF0CC05
FFF68B1E
FFFC2F00
FFF03116
FFF2E338
0000EB38
FFF0FA2D
FFECED3A
FFE5BBDC
FFEF533E
0004D466
00081D33
000DF474
FFFD17B3
FFE36C52
FFC87EBA
FFDDF892
FFD4A5DC
FFE27E8B
FFDA9416
FFECAFA1
FFE3F29A
FFE7709C
FFDCDA50
FFE90512
FFFE855D
0019CD0B
0000A6D4
FFF14BC9
FFF569D8
FFE808B4
FFE40EC1
FFF7A456
FFE619A4
00031AA2
FFFA1338
FFEFDB5B
FFF93E89
000B67B1
000C1F4F
FFFBD7ED
FFEA1990
FFD12692
FFCC295A
FFC9E2AA
FFDF0C24
FFD9DD4D
FFE722A6
FFED4221
FFDDD154
FFEAF776
FFDEB836
FFE8BB75
FFE02C28
00050BD7
FFE10874
FFEA0E0B
FFFAE266
FFFCDC0C
FFF3BB4C
FFE8A9DF
FFF58150
0000DF12
000A7710
00003CFC
000B2574
000ED7A9
FFFEF072
00039554
FFEE5E52
FFE3966C
FFE9BA52
FFE3FC0C
0002D559
FFEE82E2
FFEC9357
FFEF6612
FFF4D7E5
FFED53AA
FFF1E793
FFEA6065
FFE70C48
FFF46B2A
FFE790B2
FFE48BAF
FFF7A0C4
FFF82999
FFEA47A5
FFE57D6A
FFF412E6
0005A398
0003B068
000FE9B9
0019B4F5
0009F8B6
00095410
000AC27E
001142E7
001C7EDB
0012C71C
001A37C5
001E076B
0012F5E7
00076932
FFFDECB5
FFF11067
FFF7DA65
FFF17C67
FFF461A5
FFF2CB24
FFF31F3B
FFF1D61D
00187A81
000D0268
FFFC3D4E
FFE28266
000C34F5
000D247B
00155277
0021BEE1
0027148C
00192FD4
001A944F
00086AB9
00174CA7
0020224B
001C3E3C
0017EB3B
001C17D4
002B5993
002222B5
000B9B31
FFFA1B83
FFF7D641
FFF9094F
00047128
0001D34F
000114ED
00127B9E
0024CCA9
00108007
00000BFF
FFF7C487
001193C0
001FEA7F
0013DF3D
0020F425
002E6279
0023AAA0
00287E9B
001BF16E
00175223
0010B000
0014C058
0020A797
0012ABFE
001CA992
0034377E
002058D6
000E2208
FFFD4823
FFF14721
FFFAED68
FFFAC76A
0002D383
FFFE55C3
001FB618
00223C5A
0021B334
FFFA3876
FFE8B894
FFFEB2D5
0026ED63
00092FE4
0011F99E
0028FC19
0013A90D
0019AB79
001508C2
0010966C
00100846
0018EEFE
000FF13C
001840F4
00263802
002C0CB9
001FFF12
001086E2
0009361C
0002573F
000FE03C
000DCF79
FFFEA58E
0006C039
0039FBF4
0038DF54
000FCC5F
000534F7
FFE332FA
0004E267
000ADA09
FFFE91D1
0019E24A
002FA90C
0026BF38
001B6C96
0015A6BF
001245F8
0013EFF0
0004E921
000BE30D
001799D6
0023BCD4
00211B50
0019A647
000D8A75
0004DEE4
0004EBDC
000D2AF7
000A5566
FFF90842
FFEFEEE1
001CB310
000BC659
FFFB5EE0
FFF86CD5
FFF99EE9
0000273E
000C8CE2
000B8CFD
00136C91
002496CC
0023D71E
0017D726
000A0D52
000CB5E4
00007AC6
FFFCA0C6
000A00E4
001AC9E2
0011E399
0014D235
000CB576
00062FB7
000BB400
000F33EA
0008A028
FFFD9ABF
000ECB20
000B0A6B
001C1530
00076D74
0026F316
00069688
FFF64806
FFFC7524
0007A63C
FFFFB338
000D25B4
00124EAD
00135B68
000286C3
0005EC61
FFF6B13B
000A43EE
FFEE5115
0002534E
0007D8F0
000EAC74
0017B84E
0014033D
00161AE0
0017BA59
0020506F
0011D779
00197F82
00242635
00096259
001C6BEA
003D87AA
0016DFCB
FFF96E2A
FFF60103
000EA96F
000AF51D
0002C636
00003428
FFEF844E
FFF5BCDE
FFFF0E21
0004EF73
FFF9C4A6
0005BE5E
FFF6B1F0
FFF47559
000623D5
00117A02
0012498E
00136526
001A2541
001D41EB
0018595A
000D7CFD
0019216C
001B1954
0014F5D8
001F2635
0019940E
000730C1
FFFF8CCD
000A0F0E
00033066
00045DC6
0013A56A
FFF9745E
FFEB7985
FFF422C8
00034B61
0000D4F8
00018684
FFF0F8E7
FFF3E15F
FFF5F663
FFFE8F9F
FFFE6640
FFFC033F
FFFB747F
00033B61
00114A37
000D9349
00178224
00154816
00262A08
001DD339
000169C2
FFF7B1A6
FFF4CCB1
FFFCB3D7
000599D5
00082A9B
00043D95
00113194
FFF9A7AF
FFF024F9
FFF3B55B
FFF9EAFB
FFF6613D
FFF86C67
FFE8846C
FFF433CD
FFED1104
FFD79826
FFD8918E
FFDD4512
FFE4D0FD
FFFECD4F
0004DC93
00164CCC
0019CD60
00194398
001587AA
00240819
FFFE6522
FFE7F54C
FFF930E5
FFF99406
FFF74FB1
000D511A
00017368
000C8F49
0005A02E
FFE5E143
FFDE4396
FFEE3315
FFF63580
FFFDAB49
FFF2D562
FFEB5D51
FFE12BE0
FFE59844
FFDD2FF4
FFE19028
FFDB58DA
FFF2DDC8
0003675B
00172AA1
00177607
0027AE8E
0020134D
00144D0F
000130FC
FFFFF53B
00090C4C
FFFFFB89
FFFE7EF7
FFF8CD22
FFE52D14
FFF62C86
FFF49964
FFF02812
FFF289BD
FFF32D17
FFFDBD5C
FFF5701E
FFF92C7D
FFEF5EC9
FFFD36F2
FFED9DE5
FFE25BC8
FFD998DA
FFDA3890
FFFBC992
00047732
000C9D6E
0023D024
001D60DD
00197704
00224380
001804D0
000C33CC
FFF9D77D
0008F5A2
FFF74C68
00083AE1
FFF7794C
00003043
FFFEFB9A
000D9FF8
FFF58AA1
0007B74C
FFFDA565
00038EBE
FFFAFCE9
000920D1
0014407D
000A948F
FFFBC0B8
FFFB0B30
FFEDF2A1
FFF7A7CF
FFF3D247
000AECDC
001AF7A4
00213946
002E2E33
00141C27
000ED190
0011EEED
FFFFB348
FFF85CF3
FFF9AE98
FFF91997
00129E3D
001B83D6
00108E46
001551EE
00075D27
000C48CB
00030C9C
000C0F69
001588F6
001F9C28
0013B6B1
00085AC4
000E927F
FFFB92CE
FFEF39E8
FFF1020D
FFE732C6
000E1EBA
000779CC
FFFEAD51
000A3346
FFEED504
00027DE9
0005796E
FFFDC270
FFFFFAB2
FFFEF806
FFFEECEC
FFF7E2F3
FFF6D785
0005BD26
FFFEA09A
0011DA92
00042594
FFF916F7
FFFD99A3
000FD80E
000F63AB
FFFF4C88
000D22D1
0006158D
FFEEE52F
FFE21278
0000F927
000EE640
00190650
FFECB93F
FFF680F1
FFECCEBC
0004DA8F
00002906
FFFE6C72
00039574
FFFBED74
00058A61
FFF85798
FFF97220
0008B5ED
FFFC8E02
FFF8BAF0
FFF950FE
0008DDA6
FFFEB8A8
FFF84E76
FFFEAE9B
FFF53BEB
FFF3C45A
FFFD9D48
0008F33F
0003B020
00055792
0000C12E
FFFC2D77
FFFC44BD
FFF9DD1E
FFF964FE
FFF81DF4
00019FD3
0004CC2A
000775FE
FFFFC48F
FFFEAAF3
FFFF3D73
00039A2F
FFFE8D44
FFF4C45F
FFF1712D
FFE19FBB
FFE3C74B
FFE4E8DF
FFEF7620
FFE5F052
FFEBD2B0
FFD73C26
FFEDB5E7
FFF91E54
FFD5A01C
FFE838FC
FFDF2ADC
FFD8BF20
FFD9AA49
FFD25A63
FFF0D3C4
FFF71C18
FFF09E8E
0005B98C
00020C12
FFFC77AC
FFFC7075
FFFD48B8
FFF7753C
FFFC61CE
FFE7C55D
FFDB0A99
FFF7FFCB
FFE811C7
FFE2C3F7
FFDD922E
FFF8DEB4
FFDBE52A
FFE056EE
FFEB8D54
FFE1289C
FFE8C09C
FFCD36DC
FFE6817E
FFD6AA03
FFD2411A
FFD5B00B
FFE0604C
00007BE3
FFEFA1CA
FFEEE6EE
0002D3BA
0000C804
00052198
FFF813F6
0001F9F5
FFFBDCB4
FFED735E
FFE62C6A
FFDB2A24
001384BF
FFF331AC
FFF371B6
FFE3B130
FFE1AE7C
FFFE8256
00140ACB
FFF9AFDD
FFE93F68
FFF6DDBF
FFF46CD5
FFF277F3
FFF9730D
FFF03C53
FFE89814
FFE96FB3
FFEB4ED4
FFF82B3F
00090B37
00048B8E
000CEC6E
0001A1E6
0006AE4E
0003CAED
FFFC90F7
FFF80554
0005D4DA
FFFF52AB
0013141B
0010E6AA
001082BD
001AFEF4
001530AD
00151200
FFFFD1A0
000BAC54
000C4044
0006E853
FFF64726
0001AE1D
FFFF608C
FFF3932C
FFEFD94F
FFF754A2
FFEAF95E
FFF3797C
FFE3D97E
FFFF5559
0007E3F4
00050872
001579AA
FFFD60E4
FFFF3E6F
FFFEE2FB
0008B269
00129CEF
001308DE
0017C602
00178EC5
0014D900
FFFEF513
000AB0C1
001096C7
000E74CE
00046B14
000AFA44
000A8C1D
00056597
000941E9
0007FCAB
00036E23
FFFE08D8
FFF3F974
FFE91E76
FFF20D5F
FFF84709
0010CACE
000219A3
001FF656
FFFA758B
FFFCEE91
FFFC0632
000A1F75
0009C767
FFF9B418
00034FB2
000D7E46
0004CD00
000F0FCF
FFFC580C
FFF843D8
FFFF36AD
000D12F2
000473C7
001604D8
00119DC9
0010A40F
000D60B7
00050F8F
FFFA83E0
FFFDDFE2
FFF12AA7
FFFC74BB
FFF503DF
FFF591BD
FFE908A3
00067A32
000317CE
FFFADD3A
00054716
00161DC2
001601F8
0006FE10
000CD5B8
FFF50E21
0004D05A
FFF16863
FFEED33D
FFFDD18F
FFFD0A0E
0017D32C
00042CB7
00175608
0009DB3B
000DE743
00074FA0
000DA441
0003C187
FFFC2D65
FFEEE80E
FFF53185
0001FECE
FFF2B246
FFFCE365
00008D93
FFF01CA9
FFF08BA9
000E1F40
000C4071
00161744
FFFFA7EB
FFFC2E16
FFEFE08C
FFFF154B
FFFEC7DC
FFFE62BD
FFFE7079
FFFDB8F5
000E2626
0009CC7E
0003BF23
000DDE26
FFFD9402
0017613C
0013D0A6
000BEC7D
0008BF04
0000C529
FFED01F7
FFE8229B
FFFB2E2C
0007E878
FFF3E799
FFF96D0E
FFF710BB
0000A7E6
000A0993
FFFA4615
0015867A
000F8BF3
FFF61B1D
FFEDA626
FFFE983A
FFF81F6F
FFEA3F7D
00004130
0000BE0C
00085171
000E1008
0007CFFC
000D7DFD
000E269F
001FA8D5
00215D1C
001457F4
FFFC9F7E
FFEB674C
FFD1D6F0
FFDEF827
FFF22B2B
FFE685BB
FFF77D65
FFEF5B7F
FFE44DF4
0013CCC5
FFFA770D
000D597C
00006FAF
FFFE6D7F
FFF1766A
FFEF1FD6
FFFE0A2A
FFF47E7C
FFFAD8A1
FFFD0F8F
FFF96308
FFF26169
0007249D
000F26FD
001BFE88
001DE583
001B3712
00113C97
FFFE36FF
FFE7E358
FFCA052C
FFDC7FA5
FFDE0815
0010124D
00019EAD
FFE99A81
FFDA13CE
0000D216
FFEC249F
FFFE1E34
000338BC
FFF813E5
00065C8E
FFFE8C0C
000D045F
000B0B96
00000DE4
FFF991F3
FFF47AFB
FFF72289
00036173
0010B6EF
0005D24B
000F4FFE
00204D42
0008B482
FFFEC926
FFCF61DD
FFC66559
FFDF4884
FFF60434
FFF2B316
FFFAAABE
FFF50EEA
FFECEC9A
FFEC3D4F
FFFFD557
00013AB8
FFF66B3C
FFFAEBE3
00080F0B
0001E968
00015B11
00018B90
FFFD1CDB
FFF31BC4
FFFFDD39
0008BFFC
000C288A
000EA469
00039870
00177F8B
000D0997
001A56C2
FFF82C69
FFEE2857
FFCBDBB0
FFDA29A5
FFDC0E56
FFE9B550
FFFBF4BF
FFF13F1E
FFDE60F2
FFECA55D
FFFFB3D7
FFFD74BE
FFF6E1B3
FFF6A088
000FF732
00010740
FFFBF103
0000C071
FFF37F1A
FFFFAF56
0008AE41
000E6FBE
000C9A55
001AA3A2
001B451C
00195141
0015411F
FFFE4035
FFF1AB78
FFD793AE
FFD6DCF4
FFF6426A
0006DCC2
FFFCA9FD
FFF6B08B
0004B99F
FFE9E898
0001AFD4
000C0D20
0001D6D8
FFFD1627
000334A5
FFF98304
FFF917C9
FFF06516
FFF4E662
00022714
0012CF08
000F98CC
001B3E7B
001C4438
001C4052
0022AA49
001D4259
000BB231
FFF87F18
FFE93855
FFCA32B8
FFC1883D
0009B47C
000A27A6
FFFD451D
FFF6C8A0
00100FCC
FFF2FBD4
00087A34
00183674
0001741E
FFF505E3
FFFF0CE0
00026FE0
FFF428F2
FFFB8532
0008E9C2
00098933
000F077B
001A53C6
00197B48
001FDC43
0016E14E
00110513
00230C90
000EF1E8
FFF10F0F
FFFB774A
FFE17C7A
FFB90864
FFF37515
0023F836
00102200
FFFC7DA9
000AC514
00054DEF
00040E65
000B4762
FFF89328
0002D0C1
FFFF5490
00017974
0006888E
0008273C
0008C92E
0016C4ED
001E799E
000AF405
001B61BF
001BB8ED
001DF99A
001858AB
000D3596
FFFB900B
FFEF59CD
FFF98A48
FFF755F0
FFDFC652
0002DF74
00191ADA
00148321
FFFAACBB
000567E3
00212D6C
FFF7AA3D
0003956F
0002A865
00049B6A
001AFC8A
001463A6
000C2C96
00071D7B
000C8678
001D8D80
001CDB61
00042908
00119130
000BD00E
000BCC5B
00001865
FFFA3F26
FFFB7A61
FFEF2E74
FFEFEA28
FFE41F16
FFD5B557
FFF3A65D
000BCA9D
FFFB9D61
FFECD5E3
000ECD5B
000CD2EB
001B4743
000AAFB0
00079E61
0014BD87
00072312
0007BA8B
FFFEA9EA
FFF79705
000A476A
0011379E
00074A34
00082261
00120B45
0011033E
0004F3BB
0000F27D
FFFB0D9E
FFF90D82
FFF47515
FFEE4C68
FFEAE574
FFD4B5EA
FFEEA4B4
FFF64EDC
0007BF40
FFFC3841
FFED0F1A
FFFD63C0
000ED2FE
000E7FEE
00146EE8
000695E0
000D2DA1
00011485
FFF0BE54
FFF7E130
FFFB9E08
FFFCA27E
0006E1BE
00085896
0006647E
000243C3
0008AF47
FFFB33AB
00015B97
FFF02BE2
00020666
FFEE13E1
FFEFAEB2
FFDDF8E2
FFDE1380
001151FC
FFFDB82F
000893D2
FFFFC29D
FFF6B741
001119E2
000B9E76
000DAF4E
000E5A04
0003BBF9
FFF33A3E
FFF5D526
FFEB97D4
FFE85C94
FFF3B2C4
FFF5CC20
0003560B
FFF50406
FFFDEAC9
FFFDBD9A
FFF3009E
FFF40594
000021A3
FFFB657B
FFF78E53
FFFC6AB9
FFEA2352
FFEA6C10
00054988
FFF0A7AC
FFFB2FA0
000F3BE7
00225FA2
00060D11
